{
  "merges": [
    [
      "s",
      "</w>"
    ],
    [
      "e",
      "r"
    ],
    [
      "i",
      "n"
    ],
    [
      "e",
      "</w>"
    ],
    [
      "o",
      "n"
    ],
    [
      "a",
      "n"
    ],
    [
      "a",
      "t"
    ],
    [
      "a",
      "l"
    ],
    [
      "d",
      "</w>"
    ],
    [
      "e",
      "n"
    ],
    [
      "s",
      "t"
    ],
    [
      "y",
      "</w>"
    ],
    [
      "a",
      "r"
    ],
    [
      "i",
      "c"
    ],
    [
      "r",
      "e"
    ],
    [
      "e",
      "d</w>"
    ],
    [
      "o",
      "r"
    ],
    [
      "u",
      "n"
    ],
    [
      "in",
      "g"
    ],
    [
      "i",
      "t"
    ],
    [
      "r",
      "o"
    ],
    [
      "e",
      "l"
    ],
    [
      "i",
      "s"
    ],
    [
      "ing",
      "</w>"
    ],
    [
      "e",
      "s"
    ],
    [
      "c",
      "h"
    ],
    [
      "a",
      "</w>"
    ],
    [
      "i",
      "l"
    ],
    [
      "o",
      "l"
    ],
    [
      "o",
      "u"
    ],
    [
      "e",
      "s</w>"
    ],
    [
      "e",
      "t"
    ],
    [
      "r",
      "a"
    ],
    [
      "er",
      "</w>"
    ],
    [
      "p",
      "h"
    ],
    [
      "o",
      "m"
    ],
    [
      "a",
      "c"
    ],
    [
      "i",
      "on"
    ],
    [
      "u",
      "l"
    ],
    [
      "l",
      "y</w>"
    ],
    [
      "a",
      "b"
    ],
    [
      "t",
      "</w>"
    ],
    [
      "ic",
      "</w>"
    ],
    [
      "t",
      "h"
    ],
    [
      "al",
      "</w>"
    ],
    [
      "e",
      "m"
    ],
    [
      "i",
      "d"
    ],
    [
      "u",
      "r"
    ],
    [
      "es",
      "s</w>"
    ],
    [
      "a",
      "s"
    ],
    [
      "a",
      "m"
    ],
    [
      "l",
      "o"
    ],
    [
      "r",
      "i"
    ],
    [
      "e",
      "c"
    ],
    [
      "m",
      "</w>"
    ],
    [
      "c",
      "o"
    ],
    [
      "a",
      "d"
    ],
    [
      "t",
      "i"
    ],
    [
      "l",
      "e</w>"
    ],
    [
      "l",
      "e"
    ],
    [
      "ion",
      "</w>"
    ],
    [
      "an",
      "</w>"
    ],
    [
      "i",
      "st"
    ],
    [
      "o",
      "g"
    ],
    [
      "a",
      "g"
    ],
    [
      "o",
      "s"
    ],
    [
      "l",
      "i"
    ],
    [
      "s",
      "u"
    ],
    [
      "s",
      "h"
    ],
    [
      "o",
      "t"
    ],
    [
      "i",
      "z"
    ],
    [
      "p",
      "er"
    ],
    [
      "t",
      "er"
    ],
    [
      "e",
      "d"
    ],
    [
      "n",
      "on"
    ],
    [
      "v",
      "er"
    ],
    [
      "a",
      "p"
    ],
    [
      "q",
      "u"
    ],
    [
      "en",
      "t"
    ],
    [
      "p",
      "re"
    ],
    [
      "i",
      "r"
    ],
    [
      "ou",
      "s</w>"
    ],
    [
      "o",
      "p"
    ],
    [
      "i",
      "g"
    ],
    [
      "o",
      "d"
    ],
    [
      "o",
      "c"
    ],
    [
      "i",
      "m"
    ],
    [
      "s",
      "p"
    ],
    [
      "u",
      "t"
    ],
    [
      "c",
      "on"
    ],
    [
      "i",
      "v"
    ],
    [
      "p",
      "ro"
    ],
    [
      "u",
      "m"
    ],
    [
      "i",
      "a</w>"
    ],
    [
      "n",
      "ess</w>"
    ],
    [
      "at",
      "ion</w>"
    ],
    [
      "e",
      "-"
    ],
    [
      "e",
      "st"
    ],
    [
      "at",
      "e</w>"
    ],
    [
      "e",
      "x"
    ],
    [
      "k",
      "</w>"
    ],
    [
      "e",
      "p"
    ],
    [
      "el",
      "l"
    ],
    [
      "a",
      "st"
    ],
    [
      "i",
      "p"
    ],
    [
      "i",
      "s</w>"
    ],
    [
      "i",
      "f"
    ],
    [
      "o",
      "</w>"
    ],
    [
      "h",
      "</w>"
    ],
    [
      "s",
      "c"
    ],
    [
      "in",
      "</w>"
    ],
    [
      "an",
      "d"
    ],
    [
      "al",
      "ly</w>"
    ],
    [
      "ab",
      "le</w>"
    ],
    [
      "p",
      "l"
    ],
    [
      "i",
      "</w>"
    ],
    [
      "r",
      "u"
    ],
    [
      "un",
      "d"
    ],
    [
      "en",
      "</w>"
    ],
    [
      "an",
      "t"
    ],
    [
      "o",
      "ver"
    ],
    [
      "h",
      "y"
    ],
    [
      "er",
      "s</w>"
    ],
    [
      "on",
      "</w>"
    ],
    [
      "is",
      "m</w>"
    ],
    [
      "u",
      "s</w>"
    ],
    [
      "it",
      "y</w>"
    ],
    [
      "o",
      "b"
    ],
    [
      "en",
      "t</w>"
    ],
    [
      "il",
      "l"
    ],
    [
      "s",
      "e"
    ],
    [
      "h",
      "e"
    ],
    [
      "d",
      "e"
    ],
    [
      "i",
      "es</w>"
    ],
    [
      "ist",
      "</w>"
    ],
    [
      "a",
      "v"
    ],
    [
      "'",
      "s</w>"
    ],
    [
      "u",
      "d"
    ],
    [
      "a",
      "k"
    ],
    [
      "o",
      "w"
    ],
    [
      "u",
      "s"
    ],
    [
      "it",
      "e</w>"
    ],
    [
      "i",
      "b"
    ],
    [
      "r",
      "an"
    ],
    [
      "in",
      "e</w>"
    ],
    [
      "ec",
      "t"
    ],
    [
      "d",
      "is"
    ],
    [
      "f",
      "f"
    ],
    [
      "ou",
      "s"
    ],
    [
      "-",
      "b"
    ],
    [
      "al",
      "l"
    ],
    [
      "a",
      "e</w>"
    ],
    [
      "ic",
      "al</w>"
    ],
    [
      "u",
      "c"
    ],
    [
      "o",
      "ph"
    ],
    [
      "n",
      "e"
    ],
    [
      "c",
      "om"
    ],
    [
      "i",
      "an</w>"
    ],
    [
      "su",
      "b"
    ],
    [
      "i",
      "d</w>"
    ],
    [
      "o",
      "st"
    ],
    [
      "an",
      "g"
    ],
    [
      "en",
      "d"
    ],
    [
      "p",
      "ar"
    ],
    [
      "es",
      "s"
    ],
    [
      "y",
      "l"
    ],
    [
      "ol",
      "og"
    ],
    [
      "f",
      "l"
    ],
    [
      "at",
      "ed</w>"
    ],
    [
      "c",
      "l"
    ],
    [
      "b",
      "l"
    ],
    [
      "ar",
      "</w>"
    ],
    [
      "in",
      "d"
    ],
    [
      "u",
      "m</w>"
    ],
    [
      "o",
      "o"
    ],
    [
      "d",
      "i"
    ],
    [
      "at",
      "h"
    ],
    [
      "en",
      "c"
    ],
    [
      "en",
      "ess</w>"
    ],
    [
      "n",
      "</w>"
    ],
    [
      "m",
      "on"
    ],
    [
      "ic",
      "ally</w>"
    ],
    [
      "t",
      "ra"
    ],
    [
      "or",
      "</w>"
    ],
    [
      "a",
      "s</w>"
    ],
    [
      "f",
      "or"
    ],
    [
      "g",
      "h"
    ],
    [
      "an",
      "c"
    ],
    [
      "w",
      "or"
    ],
    [
      "a",
      "u"
    ],
    [
      "f",
      "-"
    ],
    [
      "e",
      "g"
    ],
    [
      "c",
      "ar"
    ],
    [
      "s",
      "s"
    ],
    [
      "iz",
      "e</w>"
    ],
    [
      "s",
      "el"
    ],
    [
      "o",
      "re"
    ],
    [
      "f",
      "ul"
    ],
    [
      "y",
      "n"
    ],
    [
      "in",
      "t"
    ],
    [
      "a",
      "ch"
    ],
    [
      "ou",
      "t"
    ],
    [
      "m",
      "is"
    ],
    [
      "y",
      "m"
    ],
    [
      "y",
      "-"
    ],
    [
      "u",
      "p"
    ],
    [
      "in",
      "ter"
    ],
    [
      "iv",
      "e</w>"
    ],
    [
      "r",
      "ic"
    ],
    [
      "m",
      "at"
    ],
    [
      "as",
      "s"
    ],
    [
      "b",
      "er"
    ],
    [
      "et",
      "</w>"
    ],
    [
      "is",
      "h"
    ],
    [
      "a",
      "w"
    ],
    [
      "at",
      "ion"
    ],
    [
      "b",
      "o"
    ],
    [
      "ra",
      "ph"
    ],
    [
      "b",
      "e"
    ],
    [
      "ar",
      "d"
    ],
    [
      "k",
      "e</w>"
    ],
    [
      "c",
      "t"
    ],
    [
      "w",
      "e"
    ],
    [
      "o",
      "-"
    ],
    [
      "a",
      "y"
    ],
    [
      "c",
      "or"
    ],
    [
      "el",
      "y</w>"
    ],
    [
      "m",
      "ar"
    ],
    [
      "g",
      "l"
    ],
    [
      "est",
      "</w>"
    ],
    [
      "p",
      "ol"
    ],
    [
      "ac",
      "k"
    ],
    [
      "e",
      "v"
    ],
    [
      "r",
      "on"
    ],
    [
      "is",
      "h</w>"
    ],
    [
      "s",
      "em"
    ],
    [
      "c",
      "ol"
    ],
    [
      "lo",
      "w"
    ],
    [
      "r",
      "at"
    ],
    [
      "m",
      "an"
    ],
    [
      "m",
      "et"
    ],
    [
      "en",
      "s"
    ],
    [
      "t",
      "ed</w>"
    ],
    [
      "ing",
      "ly</w>"
    ],
    [
      "-",
      "f"
    ],
    [
      "su",
      "per"
    ],
    [
      "o",
      "v"
    ],
    [
      "ti",
      "v"
    ],
    [
      "w",
      "h"
    ],
    [
      "at",
      "ing</w>"
    ],
    [
      "ro",
      "p"
    ],
    [
      "s",
      "m"
    ],
    [
      "o",
      "x"
    ],
    [
      "an",
      "ti"
    ],
    [
      "ou",
      "r"
    ],
    [
      "i",
      "al</w>"
    ],
    [
      "g",
      "u"
    ],
    [
      "ac",
      "e"
    ],
    [
      "sel",
      "f-"
    ],
    [
      "und",
      "er"
    ],
    [
      "y",
      "t"
    ],
    [
      "g",
      "</w>"
    ],
    [
      "il",
      "ity</w>"
    ],
    [
      "a",
      "z"
    ],
    [
      "p",
      "or"
    ],
    [
      "t",
      "a"
    ],
    [
      "g",
      "ra"
    ],
    [
      "an",
      "t</w>"
    ],
    [
      "y",
      "s"
    ],
    [
      "w",
      "ell"
    ],
    [
      "ig",
      "h"
    ],
    [
      "ic",
      "k"
    ],
    [
      "ac",
      "t"
    ],
    [
      "b",
      "ar"
    ],
    [
      "p",
      "o"
    ],
    [
      "el",
      "</w>"
    ],
    [
      "m",
      "in"
    ],
    [
      "p",
      "t"
    ],
    [
      "t",
      "w"
    ],
    [
      "u",
      "b"
    ],
    [
      "ro",
      "m"
    ],
    [
      "t",
      "e"
    ],
    [
      "id",
      "ae</w>"
    ],
    [
      "og",
      "raph"
    ],
    [
      "s",
      "k"
    ],
    [
      "r",
      "y</w>"
    ],
    [
      "it",
      "h"
    ],
    [
      "c",
      "k"
    ],
    [
      "iz",
      "ed</w>"
    ],
    [
      "u",
      "re"
    ],
    [
      "t",
      "ri"
    ],
    [
      "o",
      "k"
    ],
    [
      "v",
      "il"
    ],
    [
      "ro",
      "w"
    ],
    [
      "i",
      "e</w>"
    ],
    [
      "et",
      "t"
    ],
    [
      "at",
      "or"
    ],
    [
      "ar",
      "y</w>"
    ],
    [
      "i",
      "um</w>"
    ],
    [
      "i",
      "-"
    ],
    [
      "is",
      "e</w>"
    ],
    [
      "r",
      "y"
    ],
    [
      "e",
      "b"
    ],
    [
      "o",
      "s</w>"
    ],
    [
      "sh",
      "ip"
    ],
    [
      "i",
      "an"
    ],
    [
      "ar",
      "t"
    ],
    [
      "f",
      "</w>"
    ],
    [
      "un",
      "c"
    ],
    [
      "i",
      "er</w>"
    ],
    [
      "a",
      "d</w>"
    ],
    [
      "co",
      "p"
    ],
    [
      "re",
      "d"
    ],
    [
      "ous",
      "ly</w>"
    ],
    [
      "o",
      "id</w>"
    ],
    [
      "re",
      "s"
    ],
    [
      "th",
      "er"
    ],
    [
      "b",
      "ur"
    ],
    [
      "li",
      "ke</w>"
    ],
    [
      "in",
      "ess</w>"
    ],
    [
      "ab",
      "l"
    ],
    [
      "re",
      "t"
    ],
    [
      "h",
      "al"
    ],
    [
      "f",
      "er"
    ],
    [
      "ch",
      "</w>"
    ],
    [
      "s",
      "l"
    ],
    [
      "an",
      "n"
    ],
    [
      "u",
      "g"
    ],
    [
      "l",
      "ess</w>"
    ],
    [
      "om",
      "et"
    ],
    [
      ".",
      "</w>"
    ],
    [
      "c",
      "al"
    ],
    [
      "d",
      "ec"
    ],
    [
      "s",
      "er"
    ],
    [
      "a",
      "x"
    ],
    [
      "m",
      "an</w>"
    ],
    [
      "b",
      "ra"
    ],
    [
      "g",
      "e"
    ],
    [
      "at",
      "ive</w>"
    ],
    [
      "d",
      "er"
    ],
    [
      "p",
      "e"
    ],
    [
      "s",
      "w"
    ],
    [
      "r",
      "it"
    ],
    [
      "p",
      "al"
    ],
    [
      "t",
      "ur"
    ],
    [
      "ed",
      "ness</w>"
    ],
    [
      "m",
      "er"
    ],
    [
      "u",
      "st"
    ],
    [
      "f",
      "i"
    ],
    [
      "id",
      "e</w>"
    ],
    [
      "un",
      "t"
    ],
    [
      "e",
      "ph"
    ],
    [
      "h",
      "er"
    ],
    [
      "h",
      "a"
    ],
    [
      "r",
      "en"
    ],
    [
      "ag",
      "e</w>"
    ],
    [
      "ar",
      "d</w>"
    ],
    [
      "e",
      "y"
    ],
    [
      "g",
      "en"
    ],
    [
      "in",
      "c"
    ],
    [
      "m",
      "o"
    ],
    [
      "vil",
      "le</w>"
    ],
    [
      "an",
      "th"
    ],
    [
      "ro",
      "s"
    ],
    [
      "hy",
      "d"
    ],
    [
      "on",
      "e</w>"
    ],
    [
      "ar",
      "ch"
    ],
    [
      "l",
      "</w>"
    ],
    [
      "iz",
      "ing</w>"
    ],
    [
      "s",
      "ol"
    ],
    [
      "as",
      "h"
    ],
    [
      "p",
      "ost"
    ],
    [
      "it",
      "</w>"
    ],
    [
      "well",
      "-"
    ],
    [
      "ous",
      "ness</w>"
    ],
    [
      "t",
      "ran"
    ],
    [
      "p",
      "</w>"
    ],
    [
      "m",
      "ic"
    ],
    [
      "c",
      "ul"
    ],
    [
      "g",
      "re"
    ],
    [
      "m",
      "y"
    ],
    [
      "s",
      "n"
    ],
    [
      "iz",
      "ation</w>"
    ],
    [
      "il",
      "</w>"
    ],
    [
      "ful",
      "</w>"
    ],
    [
      "c",
      "er"
    ],
    [
      "m",
      "ent</w>"
    ],
    [
      "a",
      "h"
    ],
    [
      "qu",
      "as"
    ],
    [
      "ing",
      "s</w>"
    ],
    [
      "ab",
      "ility</w>"
    ],
    [
      "-",
      "t"
    ],
    [
      "ship",
      "</w>"
    ],
    [
      "at",
      "</w>"
    ],
    [
      "i",
      "al"
    ],
    [
      "p",
      "os"
    ],
    [
      "e",
      "w"
    ],
    [
      "-",
      "d"
    ],
    [
      "l",
      "ed</w>"
    ],
    [
      "a",
      "f"
    ],
    [
      "ation",
      "s</w>"
    ],
    [
      "m",
      "al"
    ],
    [
      "at",
      "t"
    ],
    [
      "a",
      "ut"
    ],
    [
      "ed",
      "ly</w>"
    ],
    [
      "m",
      "or"
    ],
    [
      "s",
      "ch"
    ],
    [
      "en",
      "ti"
    ],
    [
      "g",
      "er"
    ],
    [
      "ab",
      "ly</w>"
    ],
    [
      "s",
      "y"
    ],
    [
      "l",
      "in"
    ],
    [
      "a",
      "ph"
    ],
    [
      "c",
      "y"
    ],
    [
      "m",
      "e"
    ],
    [
      "ess",
      "es</w>"
    ],
    [
      "p",
      "se"
    ],
    [
      "enc",
      "e</w>"
    ],
    [
      "il",
      "y</w>"
    ],
    [
      "p",
      "r"
    ],
    [
      "s",
      "al"
    ],
    [
      "re",
      "d</w>"
    ],
    [
      "i",
      "ous</w>"
    ],
    [
      "quas",
      "i-"
    ],
    [
      "c",
      "ur"
    ],
    [
      "o",
      "ch"
    ],
    [
      "h",
      "ol"
    ],
    [
      "pse",
      "ud"
    ],
    [
      "og",
      "en"
    ],
    [
      "p",
      "an"
    ],
    [
      "p",
      "le"
    ],
    [
      "t",
      "r"
    ],
    [
      "r",
      "h"
    ],
    [
      "a",
      "in"
    ],
    [
      "it",
      "t"
    ],
    [
      "ra",
      "m"
    ],
    [
      "l",
      "ing</w>"
    ],
    [
      "at",
      "es</w>"
    ],
    [
      "h",
      "or"
    ],
    [
      "s",
      "ul"
    ],
    [
      "ig",
      "n"
    ],
    [
      "-",
      "w"
    ],
    [
      "f",
      "e"
    ],
    [
      "am",
      "b"
    ],
    [
      "ic",
      "ul"
    ],
    [
      "-",
      "c"
    ],
    [
      "d",
      "es"
    ],
    [
      "-",
      "s"
    ],
    [
      "in",
      "n"
    ],
    [
      "a",
      "y</w>"
    ],
    [
      "a",
      "ir"
    ],
    [
      "y",
      "p"
    ],
    [
      "h",
      "em"
    ],
    [
      "m",
      "ul"
    ],
    [
      "co",
      "un"
    ],
    [
      "oo",
      "d</w>"
    ],
    [
      "abl",
      "eness</w>"
    ],
    [
      "i",
      "est</w>"
    ],
    [
      "olog",
      "y</w>"
    ],
    [
      "on",
      "d"
    ],
    [
      "d",
      "em"
    ],
    [
      "b",
      "r"
    ],
    [
      "gh",
      "t"
    ],
    [
      "th",
      "</w>"
    ],
    [
      "a",
      "ff"
    ],
    [
      "ic",
      "h"
    ],
    [
      "un",
      "g"
    ],
    [
      "ist",
      "ic</w>"
    ],
    [
      "b",
      "u"
    ],
    [
      "it",
      "ies</w>"
    ],
    [
      "x",
      "</w>"
    ],
    [
      "-",
      "</w>"
    ],
    [
      "p",
      "y"
    ],
    [
      "om",
      "</w>"
    ],
    [
      "c",
      "at"
    ],
    [
      "h",
      "ar"
    ],
    [
      "hy",
      "per"
    ],
    [
      "el",
      "i"
    ],
    [
      "b",
      "ro"
    ],
    [
      "v",
      "i"
    ],
    [
      "en",
      "n"
    ],
    [
      "un",
      "s"
    ],
    [
      "f",
      "ore"
    ],
    [
      "st",
      "</w>"
    ],
    [
      "u",
      "</w>"
    ],
    [
      "anc",
      "e</w>"
    ],
    [
      "ep",
      "t"
    ],
    [
      "e",
      "ar"
    ],
    [
      "k",
      "s</w>"
    ],
    [
      "p",
      "et"
    ],
    [
      "-",
      "m"
    ],
    [
      "an",
      "d</w>"
    ],
    [
      "is",
      "ed</w>"
    ],
    [
      "ur",
      "e</w>"
    ],
    [
      "on",
      "g"
    ],
    [
      "a",
      "e"
    ],
    [
      "t",
      "or"
    ],
    [
      "g",
      "o"
    ],
    [
      "ro",
      "t"
    ],
    [
      "coun",
      "ter"
    ],
    [
      "ro",
      "ph"
    ],
    [
      "ac",
      "c"
    ],
    [
      "b",
      "i"
    ],
    [
      "ol",
      "</w>"
    ],
    [
      "ic",
      "s</w>"
    ],
    [
      "c",
      "ap"
    ],
    [
      "at",
      "or</w>"
    ],
    [
      "b",
      "re"
    ],
    [
      "c",
      "lo"
    ],
    [
      "-",
      "h"
    ],
    [
      "p",
      "i"
    ],
    [
      "m",
      "ent"
    ],
    [
      "er",
      "ed</w>"
    ],
    [
      "k",
      "ed</w>"
    ],
    [
      "v",
      "en"
    ],
    [
      "iv",
      "ely</w>"
    ],
    [
      "f",
      "o"
    ],
    [
      "b",
      "al"
    ],
    [
      "he",
      "ad"
    ],
    [
      "b",
      "or"
    ],
    [
      "et",
      "h"
    ],
    [
      "ra",
      "c"
    ],
    [
      "tiv",
      "e</w>"
    ],
    [
      "st",
      "er"
    ],
    [
      "ra",
      "g"
    ],
    [
      "os",
      "is</w>"
    ],
    [
      "y",
      "ing</w>"
    ],
    [
      "h",
      "om"
    ],
    [
      "k",
      "n"
    ],
    [
      "ion",
      "s</w>"
    ],
    [
      "in",
      "s</w>"
    ],
    [
      "ar",
      "i"
    ],
    [
      "om",
      "y</w>"
    ],
    [
      "e",
      "e</w>"
    ],
    [
      "l",
      "or"
    ],
    [
      "o",
      "ff"
    ],
    [
      "m",
      "el"
    ],
    [
      "et",
      "er"
    ],
    [
      "con",
      "t"
    ],
    [
      "it",
      "is</w>"
    ],
    [
      "el",
      "ect"
    ],
    [
      "t",
      "on"
    ],
    [
      "p",
      "at"
    ],
    [
      "ic",
      "e-"
    ],
    [
      "os",
      "e</w>"
    ],
    [
      "th",
      "e"
    ],
    [
      "p",
      "ed</w>"
    ],
    [
      "in",
      "k"
    ],
    [
      "if",
      "or"
    ],
    [
      "ar",
      "g"
    ],
    [
      "le",
      "g"
    ],
    [
      "um",
      "b"
    ],
    [
      "il",
      "e</w>"
    ],
    [
      "et",
      "ic</w>"
    ],
    [
      "un",
      "re"
    ],
    [
      "st",
      "e"
    ],
    [
      "m",
      "a"
    ],
    [
      "p",
      "ri"
    ],
    [
      "v",
      "ol"
    ],
    [
      "w",
      "o"
    ],
    [
      "is",
      "ing</w>"
    ],
    [
      "on",
      "t"
    ],
    [
      "c",
      "re"
    ],
    [
      "is",
      "s"
    ],
    [
      "o-",
      "</w>"
    ],
    [
      "igh",
      "t"
    ],
    [
      "v",
      "al"
    ],
    [
      "s",
      "qu"
    ],
    [
      "k",
      "e"
    ],
    [
      "p",
      "a"
    ],
    [
      "c",
      "an"
    ],
    [
      "en",
      "e</w>"
    ],
    [
      "w",
      "ar"
    ],
    [
      "id",
      "e"
    ],
    [
      "ace",
      "ae</w>"
    ],
    [
      "em",
      "ent</w>"
    ],
    [
      "ro",
      "l"
    ],
    [
      "s",
      "o"
    ],
    [
      "ol",
      "d"
    ],
    [
      "m",
      "ac"
    ],
    [
      "i",
      "ed</w>"
    ],
    [
      "t",
      "re"
    ],
    [
      "pol",
      "y"
    ],
    [
      "ist",
      "s</w>"
    ],
    [
      "z",
      "o"
    ],
    [
      "lo",
      "g"
    ],
    [
      "s",
      "il"
    ],
    [
      "e",
      "f"
    ],
    [
      "s",
      "on"
    ],
    [
      "or",
      "t"
    ],
    [
      "c",
      "ro"
    ],
    [
      "ator",
      "y</w>"
    ],
    [
      "-",
      "st"
    ],
    [
      "ace",
      "ous</w>"
    ],
    [
      "m",
      "s</w>"
    ],
    [
      "ra",
      "b"
    ],
    [
      "s",
      "yn"
    ],
    [
      "om",
      "at"
    ],
    [
      "i",
      "k"
    ],
    [
      "am",
      "</w>"
    ],
    [
      "in",
      "f"
    ],
    [
      "eph",
      "al"
    ],
    [
      "a",
      "h</w>"
    ],
    [
      "un",
      "f"
    ],
    [
      "com",
      "m"
    ],
    [
      "p",
      "ur"
    ],
    [
      "li",
      "m"
    ],
    [
      "g",
      "ed</w>"
    ],
    [
      "ch",
      "i"
    ],
    [
      "om",
      "e</w>"
    ],
    [
      "h",
      "o"
    ],
    [
      "r",
      "ic</w>"
    ],
    [
      "or",
      "ph"
    ],
    [
      "ti",
      "m"
    ],
    [
      "g",
      "ar"
    ],
    [
      "s",
      "e</w>"
    ],
    [
      "e",
      "u"
    ],
    [
      "pro",
      "t"
    ],
    [
      "-",
      "sh"
    ],
    [
      "f",
      "t"
    ],
    [
      "d",
      "el"
    ],
    [
      "b",
      "en"
    ],
    [
      "m",
      "ed"
    ],
    [
      "g",
      "al"
    ],
    [
      "ri",
      "b"
    ],
    [
      "b",
      "ul"
    ],
    [
      "p",
      "ul"
    ],
    [
      "e",
      "qu"
    ],
    [
      "l",
      "ast"
    ],
    [
      "s",
      "ur"
    ],
    [
      "a",
      "il"
    ],
    [
      "ag",
      "n"
    ],
    [
      "g",
      "n"
    ],
    [
      "ad",
      "d"
    ],
    [
      "r",
      "id"
    ],
    [
      "o",
      "t</w>"
    ],
    [
      "ph",
      "ot"
    ],
    [
      "ic",
      "ation</w>"
    ],
    [
      "in",
      "a</w>"
    ],
    [
      "un",
      "n"
    ],
    [
      "l",
      "at"
    ],
    [
      "re",
      "c"
    ],
    [
      "hal",
      "f-"
    ],
    [
      "s",
      "id"
    ],
    [
      "ul",
      "ar</w>"
    ],
    [
      "hy",
      "p"
    ],
    [
      "j",
      "o"
    ],
    [
      "ifor",
      "m</w>"
    ],
    [
      "es",
      "c"
    ],
    [
      "p",
      "ed"
    ],
    [
      "ch",
      "ar"
    ],
    [
      "uc",
      "k"
    ],
    [
      "v",
      "el"
    ],
    [
      "v",
      "is"
    ],
    [
      "d",
      "u"
    ],
    [
      "e",
      "ch"
    ],
    [
      "r",
      "a</w>"
    ],
    [
      "p",
      "ra"
    ],
    [
      "er",
      "y</w>"
    ],
    [
      "b",
      "on"
    ],
    [
      "pre",
      "ss"
    ],
    [
      "pro",
      "o"
    ],
    [
      "fl",
      "u"
    ],
    [
      "a",
      "ur"
    ],
    [
      "ent",
      "ly</w>"
    ],
    [
      "am",
      "p"
    ],
    [
      "w",
      "at"
    ],
    [
      "t",
      "u"
    ],
    [
      "h",
      "and"
    ],
    [
      "m",
      "es"
    ],
    [
      "er",
      "ous</w>"
    ],
    [
      "ib",
      "le</w>"
    ],
    [
      "ch",
      "e"
    ],
    [
      "r",
      "ing"
    ],
    [
      "f",
      "re"
    ],
    [
      "ac",
      "k</w>"
    ],
    [
      "or",
      "n"
    ],
    [
      "b",
      "el"
    ],
    [
      "t",
      "el"
    ],
    [
      "b",
      "le"
    ],
    [
      "m",
      "ak"
    ],
    [
      "et",
      "s</w>"
    ],
    [
      "g",
      "ro"
    ],
    [
      "an",
      "e</w>"
    ],
    [
      "un",
      "d</w>"
    ],
    [
      "t",
      "y"
    ],
    [
      "mic",
      "ro"
    ],
    [
      "in",
      "ed</w>"
    ],
    [
      "em",
      "b"
    ],
    [
      "t",
      "o"
    ],
    [
      "g",
      "r"
    ],
    [
      "c",
      "ir"
    ],
    [
      "l",
      "y"
    ],
    [
      "it",
      "ic</w>"
    ],
    [
      "ot",
      "t"
    ],
    [
      "s",
      "ec"
    ],
    [
      "ap",
      "p"
    ],
    [
      "v",
      "ent"
    ],
    [
      "gh",
      "t</w>"
    ],
    [
      "b",
      "ack"
    ],
    [
      "s",
      "i"
    ],
    [
      "m",
      "il"
    ],
    [
      "ph",
      "il"
    ],
    [
      "st",
      "ra"
    ],
    [
      "c",
      "ra"
    ],
    [
      "olog",
      "ical</w>"
    ],
    [
      "-",
      "p"
    ],
    [
      "h",
      "um"
    ],
    [
      "re",
      "l"
    ],
    [
      "g",
      "e</w>"
    ],
    [
      "oc",
      "k"
    ],
    [
      "al",
      "ity</w>"
    ],
    [
      "es",
      "is</w>"
    ],
    [
      "con",
      "c"
    ],
    [
      "ow",
      "n</w>"
    ],
    [
      "er",
      "n"
    ],
    [
      "ver",
      "s"
    ],
    [
      "tw",
      "ice-"
    ],
    [
      "m",
      "ed</w>"
    ],
    [
      "an",
      "k"
    ],
    [
      "ow",
      "n"
    ],
    [
      "z",
      "</w>"
    ],
    [
      "p",
      "en"
    ],
    [
      "iv",
      "eness</w>"
    ],
    [
      "l",
      "er</w>"
    ],
    [
      "li",
      "p"
    ],
    [
      "l",
      "d"
    ],
    [
      "b",
      "</w>"
    ],
    [
      "enc",
      "y</w>"
    ],
    [
      "l",
      "es</w>"
    ],
    [
      "b",
      "lo"
    ],
    [
      "all",
      "</w>"
    ],
    [
      "on",
      "s</w>"
    ],
    [
      "f",
      "ar"
    ],
    [
      "p",
      "u"
    ],
    [
      "d",
      "uc"
    ],
    [
      "-",
      "l"
    ],
    [
      "or",
      "d"
    ],
    [
      "or",
      "y</w>"
    ],
    [
      "por",
      "t"
    ],
    [
      "c",
      "a"
    ],
    [
      "m",
      "u"
    ],
    [
      "re",
      "f"
    ],
    [
      "d",
      "ra"
    ],
    [
      "d",
      "ep"
    ],
    [
      "proo",
      "f</w>"
    ],
    [
      "omet",
      "er</w>"
    ],
    [
      "b",
      "ut"
    ],
    [
      "re",
      "-"
    ],
    [
      "d",
      "ic"
    ],
    [
      "ore",
      "d</w>"
    ],
    [
      "m",
      "en"
    ],
    [
      "ion",
      "al</w>"
    ],
    [
      "tran",
      "s"
    ],
    [
      "y",
      "g"
    ],
    [
      "p",
      "in"
    ],
    [
      "re",
      "g"
    ],
    [
      "on",
      "ic</w>"
    ],
    [
      "c",
      "u"
    ],
    [
      "ell",
      "</w>"
    ],
    [
      "su",
      "m"
    ],
    [
      "t",
      "et"
    ],
    [
      "as",
      "e</w>"
    ],
    [
      "n",
      "esses</w>"
    ],
    [
      "de",
      "f"
    ],
    [
      "os",
      "cop"
    ],
    [
      "hyd",
      "ro"
    ],
    [
      "al",
      "s</w>"
    ],
    [
      "ex",
      "t"
    ],
    [
      "e",
      "y</w>"
    ],
    [
      "g",
      "er</w>"
    ],
    [
      "up",
      "</w>"
    ],
    [
      "r",
      "um"
    ],
    [
      "a",
      "er"
    ],
    [
      "ro",
      "u"
    ],
    [
      "il",
      "i"
    ],
    [
      "th",
      "re"
    ],
    [
      "al",
      "ness</w>"
    ],
    [
      "l",
      "and"
    ],
    [
      "t",
      "s</w>"
    ],
    [
      "or",
      "s</w>"
    ],
    [
      "b",
      "as"
    ],
    [
      "or",
      "th"
    ],
    [
      "t",
      "ing</w>"
    ],
    [
      "l",
      "ab"
    ],
    [
      "r",
      "e</w>"
    ],
    [
      "ett",
      "e</w>"
    ],
    [
      "ic",
      "k</w>"
    ],
    [
      "v",
      "it"
    ],
    [
      "pre",
      "s"
    ],
    [
      "em",
      "at"
    ],
    [
      "m",
      "id"
    ],
    [
      "v",
      "e</w>"
    ],
    [
      "or",
      "e</w>"
    ],
    [
      "ri",
      "g"
    ],
    [
      "t",
      "ar"
    ],
    [
      "con",
      "f"
    ],
    [
      "y",
      "c"
    ],
    [
      "g",
      "lo"
    ],
    [
      "l",
      "ess"
    ],
    [
      "ri",
      "st"
    ],
    [
      "olog",
      "ist</w>"
    ],
    [
      "ill",
      "</w>"
    ],
    [
      "t",
      "on</w>"
    ],
    [
      "yl",
      "</w>"
    ],
    [
      "m",
      "en</w>"
    ],
    [
      "ri",
      "p"
    ],
    [
      "k",
      "ing</w>"
    ],
    [
      "t",
      "en"
    ],
    [
      "sy",
      "ch"
    ],
    [
      "u",
      "ro"
    ],
    [
      "om",
      "a</w>"
    ],
    [
      "m",
      "i"
    ],
    [
      "an",
      "s</w>"
    ],
    [
      "sp",
      "ir"
    ],
    [
      "-",
      "g"
    ],
    [
      "c",
      "um"
    ],
    [
      "l",
      "u"
    ],
    [
      "-",
      "n"
    ],
    [
      "f",
      "ac"
    ],
    [
      "b",
      "ol"
    ],
    [
      "in",
      "e"
    ],
    [
      "l",
      "am"
    ],
    [
      "c",
      "c"
    ],
    [
      "v",
      "ic"
    ],
    [
      "ph",
      "on"
    ],
    [
      "sp",
      "l"
    ],
    [
      "o",
      "th"
    ],
    [
      "ing",
      "ness</w>"
    ],
    [
      "com",
      "p"
    ],
    [
      "b",
      "ir"
    ],
    [
      "b",
      "it"
    ],
    [
      "or",
      "g"
    ],
    [
      "re",
      "st"
    ],
    [
      "en",
      "s</w>"
    ],
    [
      "in",
      "s"
    ],
    [
      "p",
      "it"
    ],
    [
      "l",
      "et"
    ],
    [
      "d",
      "ou"
    ],
    [
      "co",
      "t"
    ],
    [
      "c",
      "k</w>"
    ],
    [
      "pre",
      "c"
    ],
    [
      "ac",
      "</w>"
    ],
    [
      "m",
      "od"
    ],
    [
      "ter",
      "s</w>"
    ],
    [
      "i",
      "ously</w>"
    ],
    [
      "o",
      "id"
    ],
    [
      "h",
      "el"
    ],
    [
      "im",
      "p"
    ],
    [
      "er",
      "ing</w>"
    ],
    [
      "l",
      "ar"
    ],
    [
      "ou",
      "t</w>"
    ],
    [
      "al",
      "ism</w>"
    ],
    [
      "d",
      "ist"
    ],
    [
      "m",
      "ast"
    ],
    [
      "su",
      "p"
    ],
    [
      "s",
      "ar"
    ],
    [
      "l",
      "a"
    ],
    [
      "t",
      "ru"
    ],
    [
      "iz",
      "es</w>"
    ],
    [
      "v",
      "e"
    ],
    [
      "d",
      "en"
    ],
    [
      "ro",
      "g"
    ],
    [
      "c",
      "am"
    ],
    [
      "ph",
      "en"
    ],
    [
      "al",
      "lo"
    ],
    [
      "ra",
      "di"
    ],
    [
      "k",
      "er"
    ],
    [
      "l",
      "ong"
    ],
    [
      "ric",
      "h"
    ],
    [
      "p",
      "ing</w>"
    ],
    [
      "f",
      "il"
    ],
    [
      "in",
      "es</w>"
    ],
    [
      "em",
      "p"
    ],
    [
      "as",
      "c"
    ],
    [
      "ent",
      "s</w>"
    ],
    [
      "um",
      "s</w>"
    ],
    [
      "s",
      "or"
    ],
    [
      "t",
      "er</w>"
    ],
    [
      "h",
      "eter"
    ],
    [
      "wh",
      "it"
    ],
    [
      "z",
      "z"
    ],
    [
      "anc",
      "y</w>"
    ],
    [
      "he",
      "ad</w>"
    ],
    [
      "w",
      "ood</w>"
    ],
    [
      "sem",
      "i"
    ],
    [
      "st",
      "ru"
    ],
    [
      "h",
      "am"
    ],
    [
      "ou",
      "l"
    ],
    [
      "f",
      "ur"
    ],
    [
      "t",
      "op"
    ],
    [
      "un",
      "</w>"
    ],
    [
      "r",
      "al</w>"
    ],
    [
      "b",
      "at"
    ],
    [
      "n",
      "i"
    ],
    [
      "sp",
      "ec"
    ],
    [
      "m",
      "ol"
    ],
    [
      "al",
      "e</w>"
    ],
    [
      "z",
      "e</w>"
    ],
    [
      "b",
      "ed"
    ],
    [
      "li",
      "g"
    ],
    [
      "c",
      "</w>"
    ],
    [
      "e",
      "'s</w>"
    ],
    [
      "c",
      "ry"
    ],
    [
      "r",
      "</w>"
    ],
    [
      "wor",
      "ld"
    ],
    [
      "ure",
      "d</w>"
    ],
    [
      "b",
      "ed</w>"
    ],
    [
      "ful",
      "ly</w>"
    ],
    [
      "for",
      "m"
    ],
    [
      "al",
      "g"
    ],
    [
      "k",
      "er</w>"
    ],
    [
      "ad",
      "e</w>"
    ],
    [
      "om",
      "orph"
    ],
    [
      "ograph",
      "y</w>"
    ],
    [
      "n",
      "ed</w>"
    ],
    [
      "c",
      "ent"
    ],
    [
      "o",
      "ther"
    ],
    [
      "c",
      "le"
    ],
    [
      "pl",
      "ic"
    ],
    [
      "ou",
      "th"
    ],
    [
      "re",
      "ct"
    ],
    [
      "e",
      "ff"
    ],
    [
      "d",
      "o"
    ],
    [
      "ch",
      "ed</w>"
    ],
    [
      "g",
      "ing</w>"
    ],
    [
      "if",
      "erous</w>"
    ],
    [
      "a",
      "k</w>"
    ],
    [
      "ap",
      "ed</w>"
    ],
    [
      "ri",
      "es</w>"
    ],
    [
      "it",
      "es</w>"
    ],
    [
      "sh",
      "</w>"
    ],
    [
      "s",
      "en"
    ],
    [
      "t",
      "al"
    ],
    [
      "p",
      "ot"
    ],
    [
      "pro",
      "v"
    ],
    [
      "ex",
      "c"
    ],
    [
      "i",
      "ousness</w>"
    ],
    [
      "ul",
      "ar"
    ],
    [
      "if",
      "y</w>"
    ],
    [
      "wo",
      "od"
    ],
    [
      "il",
      "d"
    ],
    [
      "er",
      "-"
    ],
    [
      "sh",
      "e"
    ],
    [
      "en",
      "ter"
    ],
    [
      "ast",
      "</w>"
    ],
    [
      "w",
      "ise</w>"
    ],
    [
      "s",
      "im"
    ],
    [
      "th",
      "al"
    ],
    [
      "os",
      "ph"
    ],
    [
      "it",
      "ed</w>"
    ],
    [
      "ur",
      "</w>"
    ],
    [
      "c",
      "el"
    ],
    [
      "es",
      "h"
    ],
    [
      "el",
      "d"
    ],
    [
      "re",
      "p"
    ],
    [
      "a",
      "ul"
    ],
    [
      "m",
      "a</w>"
    ],
    [
      "us",
      "s"
    ],
    [
      "f",
      "ish"
    ],
    [
      "om",
      "an"
    ],
    [
      "er",
      "v"
    ],
    [
      "qu",
      "e</w>"
    ],
    [
      "r",
      "in"
    ],
    [
      "r",
      "is"
    ],
    [
      "pl",
      "at"
    ],
    [
      "cro",
      "ss"
    ],
    [
      "h",
      "ous"
    ],
    [
      "s",
      "at"
    ],
    [
      "ation",
      "al</w>"
    ],
    [
      "d",
      "om"
    ],
    [
      "b",
      "le</w>"
    ],
    [
      "head",
      "ed</w>"
    ],
    [
      "mis",
      "s"
    ],
    [
      "m",
      "ot"
    ],
    [
      "t",
      "ro"
    ],
    [
      "a",
      "ud"
    ],
    [
      "y",
      "s</w>"
    ],
    [
      "un",
      "con"
    ],
    [
      "s",
      "in"
    ],
    [
      "wor",
      "k</w>"
    ],
    [
      "pre",
      "-"
    ],
    [
      "n",
      "o"
    ],
    [
      "i",
      "at"
    ],
    [
      "e",
      "an</w>"
    ],
    [
      "f",
      "lo"
    ],
    [
      "ard",
      "s</w>"
    ],
    [
      "ri",
      "v"
    ],
    [
      "j",
      "ud"
    ],
    [
      "ar",
      "ian</w>"
    ],
    [
      "iz",
      "er</w>"
    ],
    [
      "al",
      "ize</w>"
    ],
    [
      "l",
      "er"
    ],
    [
      "f",
      "ol"
    ],
    [
      "m",
      "it"
    ],
    [
      "w",
      "ind"
    ],
    [
      "ar",
      "p"
    ],
    [
      "ath",
      "er"
    ],
    [
      "am",
      "ph"
    ],
    [
      "i",
      "as</w>"
    ],
    [
      "al",
      "ist</w>"
    ],
    [
      "ow",
      "</w>"
    ],
    [
      "ip",
      "p"
    ],
    [
      "ay",
      "s</w>"
    ],
    [
      "oo",
      "th"
    ],
    [
      "ol",
      "e</w>"
    ],
    [
      "s",
      "ac"
    ],
    [
      "if",
      "f"
    ],
    [
      "g",
      "on"
    ],
    [
      "un",
      "b"
    ],
    [
      "id",
      "i"
    ],
    [
      "el",
      "ess</w>"
    ],
    [
      "bur",
      "g</w>"
    ],
    [
      "we",
      "ed</w>"
    ],
    [
      "s",
      "ym"
    ],
    [
      "all",
      "-"
    ],
    [
      "u",
      "e</w>"
    ],
    [
      "il",
      "ed</w>"
    ],
    [
      "re",
      "w"
    ],
    [
      "p",
      "sych"
    ],
    [
      "un",
      "st"
    ],
    [
      "in",
      "al</w>"
    ],
    [
      "it",
      "ion</w>"
    ],
    [
      "op",
      "</w>"
    ],
    [
      "li",
      "f"
    ],
    [
      "ant",
      "ic"
    ],
    [
      "ri",
      "m"
    ],
    [
      "p",
      "ent"
    ],
    [
      "en",
      "g"
    ],
    [
      "n",
      "ot"
    ],
    [
      "b",
      "an"
    ],
    [
      "le",
      "d"
    ],
    [
      "per",
      "i"
    ],
    [
      "s",
      "is</w>"
    ],
    [
      "y",
      "el"
    ],
    [
      "er",
      "e</w>"
    ],
    [
      "im",
      "m"
    ],
    [
      "an",
      "a</w>"
    ],
    [
      "un",
      "ch"
    ],
    [
      "ex",
      "tra"
    ],
    [
      "r",
      "on</w>"
    ],
    [
      "t",
      "it"
    ],
    [
      "he",
      "ar"
    ],
    [
      "ex",
      "p"
    ],
    [
      "c",
      "ut"
    ],
    [
      "ir",
      "e</w>"
    ],
    [
      "th",
      "or"
    ],
    [
      "is",
      "ms</w>"
    ],
    [
      "ru",
      "b"
    ],
    [
      "c",
      "as"
    ],
    [
      "r",
      "ate</w>"
    ],
    [
      "w",
      "al"
    ],
    [
      "he",
      "art"
    ],
    [
      "e",
      "a</w>"
    ],
    [
      "y",
      "st"
    ],
    [
      "t",
      "ic"
    ],
    [
      "s",
      "om"
    ],
    [
      "f",
      "in"
    ],
    [
      "ell",
      "a</w>"
    ],
    [
      "ri",
      "f"
    ],
    [
      "s",
      "a"
    ],
    [
      "ful",
      "ness</w>"
    ],
    [
      "qu",
      "in"
    ],
    [
      "a",
      "-"
    ],
    [
      "y",
      "lo"
    ],
    [
      "ak",
      "ing</w>"
    ],
    [
      "li",
      "ght"
    ],
    [
      "ch",
      "lor"
    ],
    [
      "d",
      "ip"
    ],
    [
      "id",
      "d"
    ],
    [
      "l",
      "em"
    ],
    [
      "d",
      "or"
    ],
    [
      "l",
      "ac"
    ],
    [
      "ob",
      "ia</w>"
    ],
    [
      "res",
      "s</w>"
    ],
    [
      "l",
      "as"
    ],
    [
      "tiv",
      "ely</w>"
    ],
    [
      "is",
      "ation</w>"
    ],
    [
      "us",
      "es</w>"
    ],
    [
      "n",
      "or"
    ],
    [
      "c",
      "in"
    ],
    [
      "t",
      "il"
    ],
    [
      "oc",
      "k</w>"
    ],
    [
      "le",
      "y</w>"
    ],
    [
      "ag",
      "es</w>"
    ],
    [
      "o",
      "per"
    ],
    [
      "re",
      "m"
    ],
    [
      "en",
      "ed</w>"
    ],
    [
      "ish",
      "ness</w>"
    ],
    [
      "um",
      "in"
    ],
    [
      "s",
      "on</w>"
    ],
    [
      "el",
      "s</w>"
    ],
    [
      "ul",
      "ate</w>"
    ],
    [
      "er",
      "g"
    ],
    [
      "n",
      "at"
    ],
    [
      "v",
      "ir"
    ],
    [
      "d",
      "og"
    ],
    [
      "h",
      "igh"
    ],
    [
      "am",
      "in"
    ],
    [
      "yl",
      "l"
    ],
    [
      "f",
      "low"
    ],
    [
      "d",
      "ar"
    ],
    [
      "i",
      "ally</w>"
    ],
    [
      "ra",
      "p"
    ],
    [
      "un",
      "ct"
    ],
    [
      "sp",
      "ect"
    ],
    [
      "un",
      "p"
    ],
    [
      "le",
      "-"
    ],
    [
      "qu",
      "ad"
    ],
    [
      "s",
      "ville</w>"
    ],
    [
      "aw",
      "</w>"
    ],
    [
      "b",
      "es"
    ],
    [
      "m",
      "eg"
    ],
    [
      "ant",
      "ly</w>"
    ],
    [
      "ti",
      "f"
    ],
    [
      "un",
      "k"
    ],
    [
      "d",
      "iv"
    ],
    [
      "oo",
      "k"
    ],
    [
      "ph",
      "ar"
    ],
    [
      "ac",
      "et"
    ],
    [
      "if",
      "ied</w>"
    ],
    [
      "wor",
      "t</w>"
    ],
    [
      "t",
      "y</w>"
    ],
    [
      "h",
      "on"
    ],
    [
      "g",
      "ast"
    ],
    [
      "yt",
      "e</w>"
    ],
    [
      "in",
      "st"
    ],
    [
      "ser",
      "v"
    ],
    [
      "ru",
      "st"
    ],
    [
      "ot",
      "ic</w>"
    ],
    [
      "ul",
      "a</w>"
    ],
    [
      "ud",
      "d"
    ],
    [
      "h",
      "ard"
    ],
    [
      "n",
      "ar"
    ],
    [
      "is",
      "es</w>"
    ],
    [
      "ro",
      "d"
    ],
    [
      "pl",
      "an"
    ],
    [
      "r",
      "ing</w>"
    ],
    [
      "at",
      "ively</w>"
    ],
    [
      "os",
      "s"
    ],
    [
      "b",
      "et"
    ],
    [
      "h",
      "ex"
    ],
    [
      "pl",
      "ac"
    ],
    [
      "bl",
      "ack"
    ],
    [
      "ec",
      "k"
    ],
    [
      "e",
      "k"
    ],
    [
      "ion",
      "ed</w>"
    ],
    [
      "u",
      "t</w>"
    ],
    [
      "h",
      "ood</w>"
    ],
    [
      "l",
      "et</w>"
    ],
    [
      "w",
      "a"
    ],
    [
      "ang",
      "</w>"
    ],
    [
      "s",
      "we"
    ],
    [
      "our",
      "</w>"
    ],
    [
      "ograph",
      "</w>"
    ],
    [
      "if",
      "ication</w>"
    ],
    [
      "p",
      "el"
    ],
    [
      "is",
      "c"
    ],
    [
      "l",
      "and</w>"
    ],
    [
      "i",
      "o</w>"
    ],
    [
      "m",
      "ic</w>"
    ],
    [
      "i",
      "m</w>"
    ],
    [
      "p",
      "ic"
    ],
    [
      "ys",
      "is</w>"
    ],
    [
      "ro",
      "st"
    ],
    [
      "ric",
      "k"
    ],
    [
      "bl",
      "u"
    ],
    [
      "w",
      "</w>"
    ],
    [
      "ir",
      "</w>"
    ],
    [
      "h",
      "u"
    ],
    [
      "ru",
      "d"
    ],
    [
      "sul",
      "ph"
    ],
    [
      "b",
      "ac"
    ],
    [
      "at",
      "ely</w>"
    ],
    [
      "ant",
      "s</w>"
    ],
    [
      "it",
      "h</w>"
    ],
    [
      "il",
      "li"
    ],
    [
      "ag",
      "g"
    ],
    [
      "at",
      "a</w>"
    ],
    [
      "es",
      "e</w>"
    ],
    [
      "h",
      "ed"
    ],
    [
      "ar",
      "ia</w>"
    ],
    [
      "est",
      "h"
    ],
    [
      "lo",
      "t"
    ],
    [
      "d",
      "om</w>"
    ],
    [
      "m",
      "us"
    ],
    [
      "oph",
      "ag"
    ],
    [
      "el",
      "li"
    ],
    [
      "l",
      "it"
    ],
    [
      "em",
      "ia</w>"
    ],
    [
      "ic",
      "e</w>"
    ],
    [
      "gen",
      "er"
    ],
    [
      "th",
      "y"
    ],
    [
      "k",
      "in"
    ],
    [
      "d",
      "on"
    ],
    [
      "am",
      "m"
    ],
    [
      "ian",
      "ism</w>"
    ],
    [
      "ro",
      "us</w>"
    ],
    [
      "ing",
      "u"
    ],
    [
      "f",
      "ish</w>"
    ],
    [
      "ey",
      "ed</w>"
    ],
    [
      "in",
      "v"
    ],
    [
      "i",
      "er"
    ],
    [
      "c",
      "e"
    ],
    [
      "av",
      "ed</w>"
    ],
    [
      "s",
      "ph"
    ],
    [
      "ator",
      "s</w>"
    ],
    [
      "j",
      "ect"
    ],
    [
      "n",
      "e</w>"
    ],
    [
      "b",
      "in"
    ],
    [
      "ot",
      "ed</w>"
    ],
    [
      "re",
      "ss"
    ],
    [
      "p",
      "er</w>"
    ],
    [
      "at",
      "ic</w>"
    ],
    [
      "or",
      "ous</w>"
    ],
    [
      "oo",
      "t</w>"
    ],
    [
      "o",
      "f"
    ],
    [
      "ol",
      "l"
    ],
    [
      "ra",
      "d"
    ],
    [
      "i",
      "ate</w>"
    ],
    [
      "e",
      "ous</w>"
    ],
    [
      "org",
      "an"
    ],
    [
      "o",
      "co"
    ],
    [
      "un",
      "w"
    ],
    [
      "m",
      "ut"
    ],
    [
      "cir",
      "cum"
    ],
    [
      "dis",
      "c"
    ],
    [
      "mul",
      "ti"
    ],
    [
      "k",
      "al"
    ],
    [
      "b",
      "eg"
    ],
    [
      "b",
      "ow"
    ],
    [
      "au",
      "</w>"
    ],
    [
      "at",
      "er</w>"
    ],
    [
      "ib",
      "ility</w>"
    ],
    [
      "im",
      "et"
    ],
    [
      "e",
      "ur"
    ],
    [
      "k",
      "ar"
    ],
    [
      "a",
      "qu"
    ],
    [
      "it",
      "ch"
    ],
    [
      "s",
      "ing"
    ],
    [
      "h",
      "en"
    ],
    [
      "for",
      "m</w>"
    ],
    [
      "ph",
      "ys"
    ],
    [
      "ri",
      "ght"
    ],
    [
      "y",
      "'s</w>"
    ],
    [
      "anth",
      "rop"
    ],
    [
      "sp",
      "e"
    ],
    [
      "eli",
      "ke</w>"
    ],
    [
      "t",
      "in"
    ],
    [
      "ian",
      "s</w>"
    ],
    [
      "id",
      "es</w>"
    ],
    [
      "-",
      "ch"
    ],
    [
      "col",
      "l"
    ],
    [
      "d",
      "et"
    ],
    [
      "h",
      "ab"
    ],
    [
      "id",
      "s</w>"
    ],
    [
      "re",
      "s</w>"
    ],
    [
      "if",
      "ic"
    ],
    [
      "ne",
      "um"
    ],
    [
      "m",
      "ill"
    ],
    [
      "c",
      "e</w>"
    ],
    [
      "low",
      "</w>"
    ],
    [
      "g",
      "am"
    ],
    [
      "c",
      "ast"
    ],
    [
      "wat",
      "er"
    ],
    [
      "ist",
      "ically</w>"
    ],
    [
      "t",
      "em"
    ],
    [
      "f",
      "ran"
    ],
    [
      "ch",
      "em"
    ],
    [
      "co",
      "ck"
    ],
    [
      "el",
      "d</w>"
    ],
    [
      "ish",
      "ly</w>"
    ],
    [
      "per",
      "s</w>"
    ],
    [
      "cor",
      "n"
    ],
    [
      "b",
      "ell"
    ],
    [
      "b",
      "y"
    ],
    [
      "n",
      "it"
    ],
    [
      "p",
      "ap"
    ],
    [
      "p",
      "op"
    ],
    [
      "p",
      "il"
    ],
    [
      "ak",
      "e</w>"
    ],
    [
      "lo",
      "v"
    ],
    [
      "-sh",
      "aped</w>"
    ],
    [
      "olog",
      "ic</w>"
    ],
    [
      "i",
      "ph"
    ],
    [
      "p",
      "ath"
    ],
    [
      "v",
      "ul"
    ],
    [
      "pro",
      "f"
    ],
    [
      "t",
      "ion</w>"
    ],
    [
      "ip",
      "</w>"
    ],
    [
      "th",
      "i"
    ],
    [
      "oph",
      "il"
    ],
    [
      "thre",
      "e-"
    ],
    [
      "ar",
      "ies</w>"
    ],
    [
      "m",
      "ag"
    ],
    [
      "an",
      "al"
    ],
    [
      "s",
      "oc"
    ],
    [
      "ar",
      "th"
    ],
    [
      "st",
      "on"
    ],
    [
      "d",
      "a"
    ],
    [
      "v",
      "an"
    ],
    [
      "ro",
      "b"
    ],
    [
      "re",
      "ad"
    ],
    [
      "con",
      "tra"
    ],
    [
      "ot",
      "rop"
    ],
    [
      "d",
      "own"
    ],
    [
      "ul",
      "tra"
    ],
    [
      "d",
      "ig"
    ],
    [
      "qu",
      "i"
    ],
    [
      "o",
      "d</w>"
    ],
    [
      "p",
      "ass"
    ],
    [
      "ap",
      "</w>"
    ],
    [
      "b",
      "and"
    ],
    [
      "i",
      "us</w>"
    ],
    [
      "y",
      "th"
    ],
    [
      "mat",
      "ic</w>"
    ],
    [
      "op",
      "ath"
    ],
    [
      "o",
      "z"
    ],
    [
      "ot",
      "yp"
    ],
    [
      "s",
      "e-"
    ],
    [
      "e",
      "z"
    ],
    [
      "en",
      "-"
    ],
    [
      "v",
      "in"
    ],
    [
      "d",
      "y"
    ],
    [
      "ion",
      "ist</w>"
    ],
    [
      "u",
      "k"
    ],
    [
      "int",
      "ed</w>"
    ],
    [
      "im",
      "per"
    ],
    [
      "ne",
      "w"
    ],
    [
      "ra",
      "m</w>"
    ],
    [
      "op",
      "ter"
    ],
    [
      "p",
      "od"
    ],
    [
      "om",
      "b"
    ],
    [
      "ell",
      "ed</w>"
    ],
    [
      "st",
      "ar"
    ],
    [
      "ach",
      "</w>"
    ],
    [
      "ost",
      "e"
    ],
    [
      "st",
      "at"
    ],
    [
      "ac",
      "ed</w>"
    ],
    [
      "al",
      "ized</w>"
    ],
    [
      "ill",
      "ed</w>"
    ],
    [
      "v",
      "ar"
    ],
    [
      "as",
      "is</w>"
    ],
    [
      "sp",
      "ar"
    ],
    [
      "um",
      "p"
    ],
    [
      "rou",
      "gh"
    ],
    [
      "s",
      "per"
    ],
    [
      "d",
      "er</w>"
    ],
    [
      "ag",
      "u"
    ],
    [
      "t",
      "ab"
    ],
    [
      "d",
      "am"
    ],
    [
      "ak",
      "er</w>"
    ],
    [
      "m",
      "ist"
    ],
    [
      "ro",
      "ck"
    ],
    [
      "is",
      "er</w>"
    ],
    [
      "de",
      "v"
    ],
    [
      "ur",
      "g"
    ],
    [
      "ograph",
      "ic</w>"
    ],
    [
      "ful",
      "l"
    ],
    [
      "f",
      "t</w>"
    ],
    [
      "ou",
      "gh"
    ],
    [
      "d",
      "ol"
    ],
    [
      "an",
      "ch"
    ],
    [
      "p",
      "on"
    ],
    [
      "b",
      "ec"
    ],
    [
      "w",
      "he"
    ],
    [
      "b",
      "a"
    ],
    [
      "d",
      "s</w>"
    ],
    [
      "m",
      "as"
    ],
    [
      "-",
      "le"
    ],
    [
      "elect",
      "ro"
    ],
    [
      "ot",
      "omy</w>"
    ],
    [
      "f",
      "al"
    ],
    [
      "h",
      "ist"
    ],
    [
      "sc",
      "ar"
    ],
    [
      "at",
      "s</w>"
    ],
    [
      "ec",
      "t</w>"
    ],
    [
      "l",
      "ad"
    ],
    [
      "r",
      "he"
    ],
    [
      "op",
      "last"
    ],
    [
      "m",
      "ad"
    ],
    [
      "ch",
      "er"
    ],
    [
      "ot",
      "e</w>"
    ],
    [
      "ent",
      "al</w>"
    ],
    [
      "oc",
      "t"
    ],
    [
      "ed",
      "uc"
    ],
    [
      "g",
      "old"
    ],
    [
      "non",
      "re"
    ],
    [
      "b",
      "od"
    ],
    [
      "ad",
      "en"
    ],
    [
      "less",
      "ness</w>"
    ],
    [
      "-b",
      "o"
    ],
    [
      "n",
      "ic"
    ],
    [
      "b",
      "ab"
    ],
    [
      "b",
      "all"
    ],
    [
      "f",
      "le"
    ],
    [
      "u",
      "ff"
    ],
    [
      "s",
      "s</w>"
    ],
    [
      "el",
      "e</w>"
    ],
    [
      "ell",
      "ing</w>"
    ],
    [
      "un",
      "g</w>"
    ],
    [
      "col",
      "ored</w>"
    ],
    [
      "f",
      "ra"
    ],
    [
      "ib",
      "l"
    ],
    [
      "yt",
      "ic</w>"
    ],
    [
      "en",
      "ing</w>"
    ],
    [
      "f",
      "ib"
    ],
    [
      "em",
      "</w>"
    ],
    [
      "op",
      "t"
    ],
    [
      "w",
      "ard</w>"
    ],
    [
      "s",
      "ens"
    ],
    [
      "w",
      "in"
    ],
    [
      "b",
      "ran"
    ],
    [
      "v",
      "o"
    ],
    [
      "ar",
      "s</w>"
    ],
    [
      "od",
      "ont"
    ],
    [
      "ox",
      "y"
    ],
    [
      "en",
      "ch"
    ],
    [
      "off",
      "</w>"
    ],
    [
      "ok",
      "ing</w>"
    ],
    [
      "p",
      "ut"
    ],
    [
      "tet",
      "ra"
    ],
    [
      "k",
      "a</w>"
    ],
    [
      "igh",
      "t</w>"
    ],
    [
      "s",
      "le"
    ],
    [
      "c",
      "ab"
    ],
    [
      "au",
      "st"
    ],
    [
      "pro",
      "-"
    ],
    [
      "ind",
      "ed</w>"
    ],
    [
      "co",
      "</w>"
    ],
    [
      "el",
      "ed</w>"
    ],
    [
      "ti",
      "</w>"
    ],
    [
      "f",
      "el"
    ],
    [
      "id",
      "al</w>"
    ],
    [
      "in",
      "ae</w>"
    ],
    [
      "s",
      "ign"
    ],
    [
      "ag",
      "ed</w>"
    ],
    [
      "n",
      "os"
    ],
    [
      "in",
      "it"
    ],
    [
      "ul",
      "e</w>"
    ],
    [
      "j",
      "ack"
    ],
    [
      "ul",
      "l"
    ],
    [
      "r",
      "ical</w>"
    ],
    [
      "s",
      "and"
    ],
    [
      "l",
      "ith"
    ],
    [
      "s",
      "un"
    ],
    [
      "in",
      "ate</w>"
    ],
    [
      "s",
      "am"
    ],
    [
      "li",
      "v"
    ],
    [
      "it",
      "s</w>"
    ],
    [
      "lo",
      "</w>"
    ],
    [
      "ep",
      "</w>"
    ],
    [
      "st",
      "re"
    ],
    [
      "ber",
      "ry</w>"
    ],
    [
      "ic",
      "alness</w>"
    ],
    [
      "v",
      "iv"
    ],
    [
      "s",
      "es</w>"
    ],
    [
      "ion",
      "'s</w>"
    ],
    [
      "ym",
      "ph"
    ],
    [
      "j",
      "u"
    ],
    [
      "c",
      "it"
    ],
    [
      "pro",
      "duc"
    ],
    [
      "a",
      "in</w>"
    ],
    [
      "e",
      "able</w>"
    ],
    [
      "i",
      "ol"
    ],
    [
      "sp",
      "or"
    ],
    [
      "m",
      "agn"
    ],
    [
      "l",
      "ap"
    ],
    [
      "in",
      "tra"
    ],
    [
      "in",
      "t</w>"
    ],
    [
      "d",
      "ed</w>"
    ],
    [
      "r",
      "al"
    ],
    [
      "af",
      "ter"
    ],
    [
      "ment",
      "s</w>"
    ],
    [
      "en",
      "a</w>"
    ],
    [
      "oph",
      "obia</w>"
    ],
    [
      "ter",
      "ed</w>"
    ],
    [
      "ur",
      "n"
    ],
    [
      "n",
      "ec"
    ],
    [
      "ut",
      "e</w>"
    ],
    [
      "b",
      "ri"
    ],
    [
      "pseud",
      "o"
    ],
    [
      "ou",
      "ch"
    ],
    [
      "a",
      "ver"
    ],
    [
      "b",
      "il"
    ],
    [
      "fo",
      "ot"
    ],
    [
      "sh",
      "ort"
    ],
    [
      "i",
      "ent</w>"
    ],
    [
      "sp",
      "i"
    ],
    [
      "oph",
      "or"
    ],
    [
      "b",
      "ru"
    ],
    [
      "m",
      "ur"
    ],
    [
      "an",
      "im"
    ],
    [
      "qu",
      "ar"
    ],
    [
      "w",
      "il"
    ],
    [
      "t",
      "ub"
    ],
    [
      "j",
      "e"
    ],
    [
      "ar",
      "m"
    ],
    [
      "s",
      "ab"
    ],
    [
      "dou",
      "ble"
    ],
    [
      "tw",
      "o-"
    ],
    [
      "ag",
      "</w>"
    ],
    [
      "enc",
      "es</w>"
    ],
    [
      "re",
      "e</w>"
    ],
    [
      "em",
      "on"
    ],
    [
      "ang",
      "u"
    ],
    [
      "pos",
      "it"
    ],
    [
      "non",
      "con"
    ],
    [
      "on",
      "ed</w>"
    ],
    [
      "r",
      "ation</w>"
    ],
    [
      "ill",
      "a</w>"
    ],
    [
      "yn",
      "am"
    ],
    [
      "ch",
      "rom"
    ],
    [
      "w",
      "om"
    ],
    [
      "oo",
      "k</w>"
    ],
    [
      "b",
      "y</w>"
    ],
    [
      "k",
      "h"
    ],
    [
      "et",
      "e</w>"
    ],
    [
      "if",
      "ying</w>"
    ],
    [
      "ish",
      "ed</w>"
    ],
    [
      "us",
      "e</w>"
    ],
    [
      "ch",
      "ol"
    ],
    [
      "in",
      "ing</w>"
    ],
    [
      "j",
      "ust"
    ],
    [
      "am",
      "er"
    ],
    [
      "mak",
      "er</w>"
    ],
    [
      "ic",
      "ism</w>"
    ],
    [
      "or",
      "i"
    ],
    [
      "is",
      "m"
    ],
    [
      "rab",
      "le</w>"
    ],
    [
      "d",
      "im"
    ],
    [
      "su",
      "ff"
    ],
    [
      "av",
      "e</w>"
    ],
    [
      "il",
      "le</w>"
    ],
    [
      "sm",
      "an</w>"
    ],
    [
      "c",
      "yt"
    ],
    [
      "un",
      "h"
    ],
    [
      "f",
      "our"
    ],
    [
      "a",
      "i"
    ],
    [
      "in",
      "ous</w>"
    ],
    [
      "es",
      "ia</w>"
    ],
    [
      "m",
      "and"
    ],
    [
      "enc",
      "ephal"
    ],
    [
      "pal",
      "ae"
    ],
    [
      "oscop",
      "e</w>"
    ],
    [
      "om",
      "er"
    ],
    [
      "j",
      "ac"
    ],
    [
      "un",
      "ex"
    ],
    [
      "en",
      "d</w>"
    ],
    [
      "n",
      "er</w>"
    ],
    [
      "s",
      "ed</w>"
    ],
    [
      "r",
      "or"
    ],
    [
      "tiv",
      "eness</w>"
    ],
    [
      "bo",
      "ard</w>"
    ],
    [
      "os",
      "ity</w>"
    ],
    [
      "v",
      "as"
    ],
    [
      "d",
      "en</w>"
    ],
    [
      "d",
      "it"
    ],
    [
      "or",
      "n</w>"
    ],
    [
      "b",
      "er</w>"
    ],
    [
      "ad",
      "ed</w>"
    ],
    [
      "par",
      "t"
    ],
    [
      "ill",
      "-"
    ],
    [
      "n",
      "er"
    ],
    [
      "ul",
      "ation</w>"
    ],
    [
      "od",
      "on"
    ],
    [
      "w",
      "ay</w>"
    ],
    [
      "co",
      "ver"
    ],
    [
      "ph",
      "yt"
    ],
    [
      "oc",
      "rat"
    ],
    [
      "co",
      "w"
    ],
    [
      "un",
      "sh"
    ],
    [
      "op",
      "ol"
    ],
    [
      "ect",
      "omy</w>"
    ],
    [
      "op",
      "od"
    ],
    [
      "l",
      "ic"
    ],
    [
      "p",
      "ig"
    ],
    [
      "c",
      "up"
    ],
    [
      "ar",
      "a</w>"
    ],
    [
      "j",
      "ur"
    ],
    [
      "s",
      "y</w>"
    ],
    [
      "it",
      "a</w>"
    ],
    [
      "f",
      "ri"
    ],
    [
      "p",
      "s</w>"
    ],
    [
      "lo",
      "ck"
    ],
    [
      "b",
      "est"
    ],
    [
      "st",
      "one</w>"
    ],
    [
      "gl",
      "y"
    ],
    [
      "p",
      "ant"
    ],
    [
      "g",
      "ran"
    ],
    [
      "m",
      "c"
    ],
    [
      "'",
      "s"
    ],
    [
      "ure",
      "s</w>"
    ],
    [
      "g",
      "a"
    ],
    [
      "world",
      "-"
    ],
    [
      "m",
      "os"
    ],
    [
      "ur",
      "al</w>"
    ],
    [
      "ol",
      "a</w>"
    ],
    [
      "l",
      "an"
    ],
    [
      "ob",
      "last"
    ],
    [
      "n",
      "a</w>"
    ],
    [
      "ag",
      "on"
    ],
    [
      "uc",
      "le"
    ],
    [
      "pro",
      "c"
    ],
    [
      "blo",
      "od"
    ],
    [
      "omet",
      "ry</w>"
    ],
    [
      "e",
      "ver"
    ],
    [
      "ro",
      "mat"
    ],
    [
      "e",
      "al</w>"
    ],
    [
      "c",
      "ad"
    ],
    [
      "pre",
      "h"
    ],
    [
      "f",
      "act"
    ],
    [
      "ch",
      "al"
    ],
    [
      "sp",
      "in"
    ],
    [
      "ir",
      "re"
    ],
    [
      "anc",
      "es</w>"
    ],
    [
      "ib",
      "ly</w>"
    ],
    [
      "ast",
      "ic</w>"
    ],
    [
      "ic",
      "ity</w>"
    ],
    [
      "k",
      "in</w>"
    ],
    [
      "cry",
      "pt"
    ],
    [
      "-",
      "up</w>"
    ],
    [
      "l",
      "uc"
    ],
    [
      "t",
      "ap"
    ],
    [
      "comm",
      "un"
    ],
    [
      "pal",
      "e"
    ],
    [
      "em",
      "ic</w>"
    ],
    [
      "d",
      "ing</w>"
    ],
    [
      "ent",
      "ed</w>"
    ],
    [
      "od",
      "er"
    ],
    [
      "el",
      "le</w>"
    ],
    [
      "ph",
      "yl"
    ],
    [
      "sub",
      "st"
    ],
    [
      "o",
      "ti"
    ],
    [
      "w",
      "i"
    ],
    [
      "mak",
      "ing</w>"
    ],
    [
      "o",
      "ol"
    ],
    [
      "sem",
      "ic"
    ],
    [
      "en",
      "th"
    ],
    [
      "ar",
      "e</w>"
    ],
    [
      "-",
      "th"
    ],
    [
      "v",
      "oc"
    ],
    [
      "pro",
      "p"
    ],
    [
      "li",
      "er</w>"
    ],
    [
      "in",
      "ation</w>"
    ],
    [
      "on",
      "ia</w>"
    ],
    [
      "t",
      "ric"
    ],
    [
      "s",
      "an"
    ],
    [
      "s",
      "ap"
    ],
    [
      "g",
      "em"
    ],
    [
      "oc",
      "ephal"
    ],
    [
      "al",
      "ization</w>"
    ],
    [
      "d",
      "r"
    ],
    [
      "t",
      "am"
    ],
    [
      "b",
      "ib"
    ],
    [
      "g",
      "i"
    ],
    [
      "v",
      "ag"
    ],
    [
      "w",
      "id"
    ],
    [
      "yel",
      "low"
    ],
    [
      "ud",
      "e</w>"
    ],
    [
      "ogen",
      "ic</w>"
    ],
    [
      "a",
      "i</w>"
    ],
    [
      "h",
      "ib"
    ],
    [
      "fish",
      "es</w>"
    ],
    [
      "t",
      "ol"
    ],
    [
      "l",
      "ers</w>"
    ],
    [
      "g",
      "od"
    ],
    [
      "d",
      "il"
    ],
    [
      "ot",
      "s</w>"
    ],
    [
      "o",
      "ide"
    ],
    [
      "ri",
      "a</w>"
    ],
    [
      "os",
      "por"
    ],
    [
      "ob",
      "i"
    ],
    [
      "on",
      "om"
    ],
    [
      "f",
      "ru"
    ],
    [
      "al",
      "b"
    ],
    [
      "f",
      "ir"
    ],
    [
      "sc",
      "i"
    ],
    [
      "hy",
      "po"
    ],
    [
      "sn",
      "ow"
    ],
    [
      "pr",
      "er"
    ],
    [
      "ac",
      "e</w>"
    ],
    [
      "z",
      "ed</w>"
    ],
    [
      "on",
      "g</w>"
    ],
    [
      "hear",
      "ted</w>"
    ],
    [
      "al",
      "i"
    ],
    [
      "olog",
      "ically</w>"
    ],
    [
      "as",
      "s</w>"
    ],
    [
      "t",
      "a</w>"
    ],
    [
      "fl",
      "at"
    ],
    [
      "g",
      "ri"
    ],
    [
      "ch",
      "ing</w>"
    ],
    [
      "un",
      "in"
    ],
    [
      "n",
      "ut"
    ],
    [
      "b",
      "ron"
    ],
    [
      "b",
      "ing</w>"
    ],
    [
      "l",
      "av"
    ],
    [
      "n",
      "ing</w>"
    ],
    [
      "s",
      "ome</w>"
    ],
    [
      "m",
      "er</w>"
    ],
    [
      "it",
      "u"
    ],
    [
      "g",
      "el"
    ],
    [
      "non",
      "-"
    ],
    [
      "stru",
      "ct"
    ],
    [
      "ion",
      "ary</w>"
    ],
    [
      "it",
      "ing</w>"
    ],
    [
      "end",
      "ed</w>"
    ],
    [
      "vi",
      "ol"
    ],
    [
      "si",
      "x"
    ],
    [
      "whit",
      "e-"
    ],
    [
      "ab",
      "ol"
    ],
    [
      "al",
      "li"
    ],
    [
      "o",
      "y"
    ],
    [
      "ot",
      "om"
    ],
    [
      "o",
      "il"
    ],
    [
      "w",
      "ard"
    ],
    [
      "sc",
      "al"
    ],
    [
      "ri",
      "</w>"
    ],
    [
      "a",
      "j"
    ],
    [
      "ne",
      "ph"
    ],
    [
      "t",
      "e</w>"
    ],
    [
      "-",
      "sp"
    ],
    [
      "ang",
      "i"
    ],
    [
      "k",
      "et"
    ],
    [
      "p",
      "ast"
    ],
    [
      "ta",
      "x"
    ],
    [
      "ch",
      "ron"
    ],
    [
      "c",
      "ru"
    ],
    [
      "c",
      "ran"
    ],
    [
      "e",
      "ut"
    ],
    [
      "gra",
      "v"
    ],
    [
      "g",
      "raph"
    ],
    [
      "ch",
      "a"
    ],
    [
      "ch",
      "es</w>"
    ],
    [
      "l",
      "aw"
    ],
    [
      "r",
      "ated</w>"
    ],
    [
      "il",
      "ities</w>"
    ],
    [
      "ic",
      "ate</w>"
    ],
    [
      "t",
      "an"
    ],
    [
      "f",
      "u"
    ],
    [
      "ro",
      "</w>"
    ],
    [
      "ic",
      "a</w>"
    ],
    [
      "o",
      "zo"
    ],
    [
      "row",
      "n</w>"
    ],
    [
      "hous",
      "e</w>"
    ],
    [
      "st",
      "and"
    ],
    [
      "qu",
      "e"
    ],
    [
      "at",
      "om"
    ],
    [
      "g",
      "g"
    ],
    [
      "p",
      "neum"
    ],
    [
      "ax",
      "</w>"
    ],
    [
      "os",
      "es</w>"
    ],
    [
      "ul",
      "ated</w>"
    ],
    [
      "c",
      "ephal"
    ],
    [
      "ri",
      "pt"
    ],
    [
      "fl",
      "ag"
    ],
    [
      "y",
      "-b"
    ],
    [
      "a",
      "f</w>"
    ],
    [
      "al",
      "es</w>"
    ],
    [
      "id",
      "a</w>"
    ],
    [
      "ibl",
      "eness</w>"
    ],
    [
      "ad",
      "ing</w>"
    ],
    [
      "f",
      "a"
    ],
    [
      "er",
      "c"
    ],
    [
      "i",
      "od"
    ],
    [
      "ast",
      "er</w>"
    ],
    [
      "c",
      "av"
    ],
    [
      "em",
      "an</w>"
    ],
    [
      "br",
      "id"
    ],
    [
      "sc",
      "rib"
    ],
    [
      "s",
      "av"
    ],
    [
      "he",
      "av"
    ],
    [
      "oc",
      "ar"
    ],
    [
      "hy",
      "l"
    ],
    [
      "gre",
      "ss"
    ],
    [
      "c",
      "ath"
    ],
    [
      "n",
      "a"
    ],
    [
      "ang",
      "el"
    ],
    [
      "pre",
      "t"
    ],
    [
      "il",
      "s</w>"
    ],
    [
      "n",
      "om"
    ],
    [
      "c",
      "our"
    ],
    [
      "l",
      "ine</w>"
    ],
    [
      "sh",
      "o"
    ],
    [
      "h",
      "ep"
    ],
    [
      "g",
      "ir"
    ],
    [
      "p",
      "ter"
    ],
    [
      "su",
      "cc"
    ],
    [
      "d",
      "e</w>"
    ],
    [
      "x",
      "es</w>"
    ],
    [
      "al",
      "izing</w>"
    ],
    [
      "ect",
      "ion</w>"
    ],
    [
      "s",
      "ep"
    ],
    [
      "enti",
      "al</w>"
    ],
    [
      "un",
      "i"
    ],
    [
      "r",
      "hy"
    ],
    [
      "ous",
      "e</w>"
    ],
    [
      "et",
      "ed</w>"
    ],
    [
      "in",
      "u"
    ],
    [
      "b",
      "ig"
    ],
    [
      "re",
      "in"
    ],
    [
      "as",
      "h</w>"
    ],
    [
      "ter",
      "i"
    ],
    [
      "com",
      "pl"
    ],
    [
      "er",
      "al</w>"
    ],
    [
      "or",
      "a</w>"
    ],
    [
      "s",
      "ou"
    ],
    [
      "h",
      "ur"
    ],
    [
      "ro",
      "und"
    ],
    [
      "ch",
      "rist"
    ],
    [
      "ta",
      "in"
    ],
    [
      "-",
      "lo"
    ],
    [
      "l",
      "iness</w>"
    ],
    [
      "j",
      "er"
    ],
    [
      "ad",
      "s</w>"
    ],
    [
      "am",
      "ine</w>"
    ],
    [
      "ra",
      "w"
    ],
    [
      "li",
      "es</w>"
    ],
    [
      "yn",
      "g"
    ],
    [
      "b",
      "ack</w>"
    ],
    [
      "anti",
      "-"
    ],
    [
      "g",
      "y"
    ],
    [
      "pl",
      "um"
    ],
    [
      "-f",
      "aced</w>"
    ],
    [
      "e",
      "k</w>"
    ],
    [
      "oc",
      "y"
    ],
    [
      "y",
      "a</w>"
    ],
    [
      "gr",
      "and"
    ],
    [
      "ar",
      "ing</w>"
    ],
    [
      "it",
      "ut"
    ],
    [
      "co",
      "-"
    ],
    [
      "end",
      "ing</w>"
    ],
    [
      "st",
      "er</w>"
    ],
    [
      "ther",
      "m"
    ],
    [
      "co",
      "gn"
    ],
    [
      "gre",
      "en"
    ],
    [
      "li",
      "</w>"
    ],
    [
      "-",
      "ro"
    ],
    [
      "d",
      "re"
    ],
    [
      "n",
      "ov"
    ],
    [
      "se",
      "qu"
    ],
    [
      "v",
      "</w>"
    ],
    [
      "icul",
      "ar</w>"
    ],
    [
      "j",
      "ug"
    ],
    [
      "st",
      "or"
    ],
    [
      "esc",
      "ent</w>"
    ],
    [
      "as",
      "p"
    ],
    [
      "l",
      "s</w>"
    ],
    [
      "al",
      "istic</w>"
    ],
    [
      "wor",
      "k"
    ],
    [
      "re",
      "sp"
    ],
    [
      "s",
      "lo"
    ],
    [
      "ne",
      "u"
    ],
    [
      "sil",
      "ver"
    ],
    [
      "et",
      "ically</w>"
    ],
    [
      "le",
      "p"
    ],
    [
      "en",
      "esses</w>"
    ],
    [
      "cor",
      "d"
    ],
    [
      "other",
      "ap"
    ],
    [
      "ion",
      "ally</w>"
    ],
    [
      "st",
      "rat"
    ],
    [
      "f",
      "ron"
    ],
    [
      "ir",
      "on"
    ],
    [
      "s",
      "ept"
    ],
    [
      "act",
      "in"
    ],
    [
      "em",
      "ent"
    ],
    [
      "fi",
      "eld</w>"
    ],
    [
      "gra",
      "m"
    ],
    [
      "c",
      "and"
    ],
    [
      "bir",
      "d</w>"
    ],
    [
      "ch",
      "er</w>"
    ],
    [
      "b",
      "is"
    ],
    [
      "or",
      "ial</w>"
    ],
    [
      "ect",
      "ed</w>"
    ],
    [
      "n",
      "s</w>"
    ],
    [
      "b",
      "os"
    ],
    [
      "f",
      "at"
    ],
    [
      "n",
      "ight"
    ],
    [
      "p",
      "enn"
    ],
    [
      "cl",
      "ass"
    ],
    [
      "g",
      "all"
    ],
    [
      "for",
      "d</w>"
    ],
    [
      "co",
      "st"
    ],
    [
      "am",
      "ent"
    ],
    [
      "e",
      "ing</w>"
    ],
    [
      "fi",
      "ed</w>"
    ],
    [
      "ill",
      "ing</w>"
    ],
    [
      "og",
      "lo"
    ],
    [
      "m",
      "ach"
    ],
    [
      "b",
      "uck"
    ],
    [
      "p",
      "ip"
    ],
    [
      "dra",
      "w"
    ],
    [
      "w",
      "est"
    ],
    [
      "on",
      "ian</w>"
    ],
    [
      "u",
      "al</w>"
    ],
    [
      "cl",
      "a"
    ],
    [
      "ben",
      "z"
    ],
    [
      "ost",
      "</w>"
    ],
    [
      "gl",
      "ut"
    ],
    [
      "ron",
      "g"
    ],
    [
      "-",
      "headed</w>"
    ],
    [
      "s",
      "yl"
    ],
    [
      "bul",
      "l"
    ],
    [
      "re",
      "con"
    ],
    [
      "oph",
      "thal"
    ],
    [
      "m",
      "ing</w>"
    ],
    [
      "h",
      "op"
    ],
    [
      "al",
      "ed</w>"
    ],
    [
      "h",
      "il"
    ],
    [
      "car",
      "di"
    ],
    [
      "und",
      "is"
    ],
    [
      "t",
      "rich"
    ],
    [
      "y",
      "ed</w>"
    ],
    [
      "r",
      "in</w>"
    ],
    [
      "omet",
      "ric</w>"
    ],
    [
      "ing",
      "ed</w>"
    ],
    [
      "co",
      "unt"
    ],
    [
      "ph",
      "al"
    ],
    [
      "og",
      "am"
    ],
    [
      "ti",
      "ble</w>"
    ],
    [
      "c",
      "ac"
    ],
    [
      "cy",
      "st"
    ],
    [
      "r",
      "il"
    ],
    [
      "on",
      "y</w>"
    ],
    [
      "ing",
      "-"
    ],
    [
      "ra",
      "v"
    ],
    [
      "ph",
      "osph"
    ],
    [
      "row",
      "</w>"
    ],
    [
      "e",
      "an"
    ],
    [
      "ig",
      "</w>"
    ],
    [
      "r",
      "ut"
    ],
    [
      "t",
      "om"
    ],
    [
      "d",
      "est"
    ],
    [
      "so",
      "ft"
    ],
    [
      "un",
      "per"
    ],
    [
      "g",
      "h</w>"
    ],
    [
      "ad",
      "i"
    ],
    [
      "t",
      "ic</w>"
    ],
    [
      "-b",
      "re"
    ],
    [
      "it",
      "er"
    ],
    [
      "n",
      "in"
    ],
    [
      "k",
      "il"
    ],
    [
      "ster",
      "e"
    ],
    [
      "less",
      "ly</w>"
    ],
    [
      "l",
      "a</w>"
    ],
    [
      "if",
      "i"
    ],
    [
      "b",
      "ag"
    ],
    [
      "g",
      "or"
    ],
    [
      "li",
      "qu"
    ],
    [
      "pl",
      "ay"
    ],
    [
      "t",
      "un"
    ],
    [
      "d",
      "an"
    ],
    [
      "g",
      "ent"
    ],
    [
      "s",
      "ex"
    ],
    [
      "d",
      "a</w>"
    ],
    [
      "c",
      "ell"
    ],
    [
      "ew",
      "</w>"
    ],
    [
      "n",
      "et"
    ],
    [
      "ic",
      "ed</w>"
    ],
    [
      "s",
      "ed"
    ],
    [
      "b",
      "ic"
    ],
    [
      "swe",
      "et"
    ],
    [
      "cy",
      "an"
    ],
    [
      "ur",
      "ia</w>"
    ],
    [
      "ol",
      "d</w>"
    ],
    [
      "e",
      "ful</w>"
    ],
    [
      "h",
      "at"
    ],
    [
      "ist",
      "ical</w>"
    ],
    [
      "or",
      "rh"
    ],
    [
      "g",
      "as"
    ],
    [
      "t",
      "end"
    ],
    [
      "on",
      "es</w>"
    ],
    [
      "ri",
      "min"
    ],
    [
      "it",
      "ted</w>"
    ],
    [
      "olog",
      "ies</w>"
    ],
    [
      "o",
      "es</w>"
    ],
    [
      "le",
      "x"
    ],
    [
      "c",
      "ou"
    ],
    [
      "th",
      "ir"
    ],
    [
      "h",
      "og"
    ],
    [
      "b",
      "ou"
    ],
    [
      "at",
      "iveness</w>"
    ],
    [
      "ri",
      "x</w>"
    ],
    [
      "qu",
      "is"
    ],
    [
      "it",
      "ive</w>"
    ],
    [
      "hem",
      "at"
    ],
    [
      "el",
      "ing</w>"
    ],
    [
      "bl",
      "ed</w>"
    ],
    [
      "y",
      "n</w>"
    ],
    [
      "k",
      "y</w>"
    ],
    [
      "os",
      "oph"
    ],
    [
      "ff",
      "</w>"
    ],
    [
      "ch",
      "am"
    ],
    [
      "wor",
      "th"
    ],
    [
      "pe",
      "ar"
    ],
    [
      "ch",
      "in"
    ],
    [
      "fi",
      "re"
    ],
    [
      "b",
      "ook"
    ],
    [
      "t",
      "ow"
    ],
    [
      "b",
      "ot"
    ],
    [
      "sc",
      "ler"
    ],
    [
      "tur",
      "e</w>"
    ],
    [
      "c",
      "ant"
    ],
    [
      "o",
      "qu"
    ],
    [
      "ru",
      "ss"
    ],
    [
      "un",
      "-"
    ],
    [
      "it",
      "ar"
    ],
    [
      "ch",
      "ond"
    ],
    [
      "v",
      "est"
    ],
    [
      "p",
      "ick"
    ],
    [
      "h",
      "ot"
    ],
    [
      "go",
      "od"
    ],
    [
      "ne",
      "uro"
    ],
    [
      "g",
      "yn"
    ],
    [
      "ret",
      "ro"
    ],
    [
      "-b",
      "e"
    ],
    [
      "oc",
      "arp"
    ],
    [
      "oc",
      "er"
    ],
    [
      "b",
      "rom"
    ],
    [
      "r",
      "ically</w>"
    ],
    [
      "om",
      "y"
    ],
    [
      "o",
      "e"
    ],
    [
      "os",
      "aur"
    ],
    [
      "ru",
      "m</w>"
    ],
    [
      "s",
      "et"
    ],
    [
      "et",
      "y</w>"
    ],
    [
      "l",
      "en"
    ],
    [
      "ta",
      "il</w>"
    ],
    [
      "le",
      "v"
    ],
    [
      "f",
      "ig"
    ],
    [
      "ha",
      "ir"
    ],
    [
      "bro",
      "ad"
    ],
    [
      "it",
      "al</w>"
    ],
    [
      "iv",
      "es</w>"
    ],
    [
      "at",
      "eness</w>"
    ],
    [
      "ation",
      "ist</w>"
    ],
    [
      "m",
      "e</w>"
    ],
    [
      "og",
      "ram</w>"
    ],
    [
      "ec",
      "e</w>"
    ],
    [
      "v",
      "ari"
    ],
    [
      "in",
      "-"
    ],
    [
      "p",
      "ow"
    ],
    [
      "o",
      "ec"
    ],
    [
      "sc",
      "ul"
    ],
    [
      "con",
      "n"
    ],
    [
      "t",
      "est"
    ],
    [
      "un",
      "pro"
    ],
    [
      "id",
      "ed</w>"
    ],
    [
      "in",
      "ic</w>"
    ],
    [
      "in",
      "ated</w>"
    ],
    [
      "an",
      "is"
    ],
    [
      "ph",
      "y"
    ],
    [
      "i-",
      "</w>"
    ],
    [
      "es",
      "i"
    ],
    [
      "fl",
      "am"
    ],
    [
      "ed",
      "s</w>"
    ],
    [
      "t",
      "yp"
    ],
    [
      "b",
      "row"
    ],
    [
      "med",
      "i"
    ],
    [
      "all",
      "ed</w>"
    ],
    [
      "tra",
      "ct"
    ],
    [
      "wor",
      "d"
    ],
    [
      "de",
      "ep"
    ],
    [
      "un",
      "m"
    ],
    [
      "ros",
      "cop"
    ],
    [
      "m",
      "al</w>"
    ],
    [
      "s",
      "ing</w>"
    ],
    [
      "ur",
      "a</w>"
    ],
    [
      "ation",
      "'s</w>"
    ],
    [
      "em",
      "pt"
    ],
    [
      "k",
      "en"
    ],
    [
      "ic",
      "i"
    ],
    [
      "er",
      "ies</w>"
    ],
    [
      "ack",
      "ed</w>"
    ],
    [
      "car",
      "n"
    ],
    [
      "p",
      "om"
    ],
    [
      "t",
      "y-"
    ],
    [
      "th",
      "ick"
    ],
    [
      "a",
      "il</w>"
    ],
    [
      "en",
      "ic</w>"
    ],
    [
      "l",
      "ou"
    ],
    [
      "ag",
      "og"
    ],
    [
      "il",
      "t</w>"
    ],
    [
      "con",
      "st"
    ],
    [
      "z",
      "e"
    ],
    [
      "k",
      "el"
    ],
    [
      "ta",
      "il"
    ],
    [
      "ple",
      "as"
    ],
    [
      "ish",
      "ing</w>"
    ],
    [
      "ol",
      "at"
    ],
    [
      "ch",
      "an"
    ],
    [
      "f",
      "am"
    ],
    [
      "iz",
      "z"
    ],
    [
      "pos",
      "s"
    ],
    [
      "al",
      "og"
    ],
    [
      "ant",
      "is"
    ],
    [
      "co",
      "d"
    ],
    [
      "g",
      "rat"
    ],
    [
      "un",
      "im"
    ],
    [
      "r",
      "ite</w>"
    ],
    [
      "o",
      "o</w>"
    ],
    [
      "ist",
      "er"
    ],
    [
      "cl",
      "us"
    ],
    [
      "co",
      "sm"
    ],
    [
      "mo",
      "on"
    ],
    [
      "enc",
      "ies</w>"
    ],
    [
      "y",
      "e"
    ],
    [
      "met",
      "h"
    ],
    [
      "em",
      "a</w>"
    ],
    [
      "oid",
      "al</w>"
    ],
    [
      "ett",
      "a</w>"
    ],
    [
      "w",
      "ash"
    ],
    [
      "l",
      "es"
    ],
    [
      "tur",
      "n"
    ],
    [
      "k",
      "at"
    ],
    [
      "t",
      "ox"
    ],
    [
      "un",
      "pre"
    ],
    [
      "ne",
      "g"
    ],
    [
      "j",
      "ec"
    ],
    [
      "v",
      "ed</w>"
    ],
    [
      "ter",
      "ing</w>"
    ],
    [
      "ti",
      "a</w>"
    ],
    [
      "cl",
      "er"
    ],
    [
      "m",
      "ir"
    ],
    [
      "id",
      "er"
    ],
    [
      "i",
      "red</w>"
    ],
    [
      "d",
      "in"
    ],
    [
      "li",
      "est</w>"
    ],
    [
      "ros",
      "is</w>"
    ],
    [
      "ogen",
      "esis</w>"
    ],
    [
      "ra",
      "ch"
    ],
    [
      "it",
      "ation</w>"
    ],
    [
      "u",
      "ch"
    ],
    [
      "oph",
      "ys"
    ],
    [
      "sc",
      "ript"
    ],
    [
      "po",
      "int"
    ],
    [
      "n",
      "as"
    ],
    [
      "ol",
      "e"
    ],
    [
      "h",
      "eli"
    ],
    [
      "em",
      "or"
    ],
    [
      "h",
      "aw"
    ],
    [
      "x",
      "anth"
    ],
    [
      "al",
      "ia</w>"
    ],
    [
      "yn",
      "e</w>"
    ],
    [
      "o",
      "k</w>"
    ],
    [
      "us",
      "ed</w>"
    ],
    [
      "iz",
      "able</w>"
    ],
    [
      "itt",
      "ing</w>"
    ],
    [
      "ap",
      "t"
    ],
    [
      "ex",
      "</w>"
    ],
    [
      "u",
      "co"
    ],
    [
      "ap",
      "pro"
    ],
    [
      "st",
      "al"
    ],
    [
      "d",
      "oc"
    ],
    [
      "ou",
      "</w>"
    ],
    [
      "o",
      "en"
    ],
    [
      "pol",
      "it"
    ],
    [
      "ra",
      "ct"
    ],
    [
      "it",
      "or"
    ],
    [
      "an",
      "ism</w>"
    ],
    [
      "ox",
      "id"
    ],
    [
      "wor",
      "m</w>"
    ],
    [
      "or",
      "ch"
    ],
    [
      "bra",
      "ch"
    ],
    [
      "m",
      "ay"
    ],
    [
      "pre",
      "con"
    ],
    [
      "s",
      "burg</w>"
    ],
    [
      "ur",
      "ing</w>"
    ],
    [
      "u",
      "sh"
    ],
    [
      "-",
      "se"
    ],
    [
      "well",
      "</w>"
    ],
    [
      "ak",
      "ed</w>"
    ],
    [
      "p",
      "as"
    ],
    [
      "ter",
      "n"
    ],
    [
      "v",
      "ac"
    ],
    [
      "met",
      "er</w>"
    ],
    [
      "r",
      "ine</w>"
    ],
    [
      "ra",
      "s</w>"
    ],
    [
      "ro",
      "log"
    ],
    [
      "air",
      "</w>"
    ],
    [
      "op",
      "s</w>"
    ],
    [
      "et",
      "er</w>"
    ],
    [
      "s",
      "co"
    ],
    [
      "e",
      "as"
    ],
    [
      "d",
      "ent"
    ],
    [
      "cy",
      "clo"
    ],
    [
      "it",
      "able</w>"
    ],
    [
      "ogen",
      "ous</w>"
    ],
    [
      "od",
      "i"
    ],
    [
      "z",
      "ing</w>"
    ],
    [
      "ic",
      "t"
    ],
    [
      "ri",
      "an</w>"
    ],
    [
      "c",
      "li"
    ],
    [
      "is",
      "on"
    ],
    [
      "flow",
      "er</w>"
    ],
    [
      "fl",
      "or"
    ],
    [
      "ph",
      "as"
    ],
    [
      "c",
      "row"
    ],
    [
      "lo",
      "c"
    ],
    [
      "h",
      "ell"
    ],
    [
      "x",
      "en"
    ],
    [
      "ad",
      "a</w>"
    ],
    [
      "ul",
      "</w>"
    ],
    [
      "n",
      "um"
    ],
    [
      "per",
      "f"
    ],
    [
      "l",
      "in</w>"
    ],
    [
      "-f",
      "o"
    ],
    [
      "des",
      "c"
    ],
    [
      "un",
      "ad"
    ],
    [
      "i",
      "x"
    ],
    [
      "le",
      "pt"
    ],
    [
      "i",
      "ation</w>"
    ],
    [
      "in",
      "esses</w>"
    ],
    [
      "de",
      "b"
    ],
    [
      "or",
      "ing</w>"
    ],
    [
      "w",
      "is"
    ],
    [
      "l",
      "ut"
    ],
    [
      "bl",
      "ing</w>"
    ],
    [
      "ar",
      "e"
    ],
    [
      "-",
      "o"
    ],
    [
      "v",
      "es"
    ],
    [
      "el",
      "a</w>"
    ],
    [
      "ograph",
      "ical</w>"
    ],
    [
      "ist",
      "er</w>"
    ],
    [
      "orn",
      "ith"
    ],
    [
      "sp",
      "ic"
    ],
    [
      "-",
      "eyed</w>"
    ],
    [
      "em",
      "er"
    ],
    [
      "ti",
      "p"
    ],
    [
      "ro",
      "us"
    ],
    [
      "w",
      "ith"
    ],
    [
      "d",
      "eter"
    ],
    [
      "p",
      "ec"
    ],
    [
      "r",
      "ink"
    ],
    [
      "ast",
      "ed</w>"
    ],
    [
      "glo",
      "ss"
    ],
    [
      "ear",
      "th"
    ],
    [
      "mac",
      "ro"
    ],
    [
      "ab",
      "</w>"
    ],
    [
      "o",
      "h"
    ],
    [
      "v",
      "er</w>"
    ],
    [
      "ver",
      "s</w>"
    ],
    [
      "og",
      "en</w>"
    ],
    [
      "a",
      "un"
    ],
    [
      "-",
      "and"
    ],
    [
      "ti",
      "b"
    ],
    [
      "at",
      "h</w>"
    ],
    [
      "c",
      "ass"
    ],
    [
      "s",
      "ia</w>"
    ],
    [
      "om",
      "ed</w>"
    ],
    [
      "et",
      "a</w>"
    ],
    [
      "cl",
      "in"
    ],
    [
      "ti",
      "es</w>"
    ],
    [
      "and",
      "er</w>"
    ],
    [
      "preh",
      "ens"
    ],
    [
      "al",
      "ing</w>"
    ],
    [
      "-",
      "colored</w>"
    ],
    [
      "r",
      "ys"
    ],
    [
      "id",
      "u"
    ],
    [
      "z",
      "yg"
    ],
    [
      "k",
      "i"
    ],
    [
      "g",
      "ul"
    ],
    [
      "ch",
      "il"
    ],
    [
      "in",
      "con"
    ],
    [
      "int",
      "ro"
    ],
    [
      "d",
      "al"
    ],
    [
      "ing",
      "er</w>"
    ],
    [
      "y",
      "ph"
    ],
    [
      "om",
      "s</w>"
    ],
    [
      "flu",
      "or"
    ],
    [
      "ol",
      "s</w>"
    ],
    [
      "th",
      "ou"
    ],
    [
      "d",
      "rop"
    ],
    [
      "ne",
      "y</w>"
    ],
    [
      "sul",
      "f"
    ],
    [
      "ch",
      "o"
    ],
    [
      "ep",
      "ic"
    ],
    [
      "pu",
      "bl"
    ],
    [
      "ber",
      "cul"
    ],
    [
      "om",
      "n"
    ],
    [
      "re",
      "sc"
    ],
    [
      "h",
      "ag"
    ],
    [
      "ch",
      "ur"
    ],
    [
      "ch",
      "or"
    ],
    [
      "r",
      "un"
    ],
    [
      "w",
      "it"
    ],
    [
      "er",
      "yth"
    ],
    [
      "ti",
      "er</w>"
    ],
    [
      "ug",
      "g"
    ],
    [
      "bu",
      "sh"
    ],
    [
      "m",
      "am"
    ],
    [
      "w",
      "ol"
    ],
    [
      "ad",
      "o</w>"
    ],
    [
      "n",
      "am"
    ],
    [
      "s",
      "ion</w>"
    ],
    [
      "ograph",
      "er</w>"
    ],
    [
      "m",
      "ah"
    ],
    [
      "ber",
      "g</w>"
    ],
    [
      "ap",
      "or"
    ],
    [
      "g",
      "ab"
    ],
    [
      "n",
      "av"
    ],
    [
      "f",
      "ast"
    ],
    [
      "dem",
      "on"
    ],
    [
      "yl",
      "ic</w>"
    ],
    [
      "oph",
      "yll"
    ],
    [
      "ol",
      "ite</w>"
    ],
    [
      "ast",
      "er"
    ],
    [
      "og",
      "n"
    ],
    [
      "l",
      "au"
    ],
    [
      "es",
      "que</w>"
    ],
    [
      "ip",
      "ar"
    ],
    [
      "en",
      "er</w>"
    ],
    [
      "em",
      "in"
    ],
    [
      "h",
      "ou"
    ],
    [
      "s",
      "ig"
    ],
    [
      "non",
      "ex"
    ],
    [
      "ran",
      "t</w>"
    ],
    [
      "lo",
      "ck</w>"
    ],
    [
      "ox",
      "</w>"
    ],
    [
      "ti",
      "st</w>"
    ],
    [
      "ed",
      "ing</w>"
    ],
    [
      "y",
      "le</w>"
    ],
    [
      "it",
      "al"
    ],
    [
      "m",
      "ou"
    ],
    [
      "on",
      "ym"
    ],
    [
      "li",
      "k"
    ],
    [
      "hol",
      "e</w>"
    ],
    [
      "op",
      "las"
    ],
    [
      "ib",
      "er"
    ],
    [
      "g",
      "il"
    ],
    [
      "r",
      "er"
    ],
    [
      "de",
      "ad"
    ],
    [
      "l",
      "arg"
    ],
    [
      "te",
      "ar"
    ],
    [
      "ol",
      "ig"
    ],
    [
      "t",
      "ang"
    ],
    [
      "w",
      "rit"
    ],
    [
      "g",
      "es</w>"
    ],
    [
      "ad",
      "es</w>"
    ],
    [
      "h",
      "an"
    ],
    [
      "f",
      "air"
    ],
    [
      "com",
      "b"
    ],
    [
      "v",
      "et"
    ],
    [
      "p",
      "ag"
    ],
    [
      "p",
      "un"
    ],
    [
      "cy",
      "cl"
    ],
    [
      "oscop",
      "y</w>"
    ],
    [
      "ett",
      "ing</w>"
    ],
    [
      "-m",
      "inded</w>"
    ],
    [
      "it",
      "er</w>"
    ],
    [
      "it",
      "ate</w>"
    ],
    [
      "ac",
      "y</w>"
    ],
    [
      "on",
      "a</w>"
    ],
    [
      "gre",
      "g"
    ],
    [
      "in",
      "o</w>"
    ],
    [
      "e",
      "h"
    ],
    [
      "mer",
      "c"
    ],
    [
      "st",
      "ock"
    ],
    [
      "co",
      "c"
    ],
    [
      "v",
      "ill"
    ],
    [
      "ta",
      "iled</w>"
    ],
    [
      "g",
      "ang"
    ],
    [
      "p",
      "ron"
    ],
    [
      "s",
      "lip"
    ],
    [
      "v",
      "ice-"
    ],
    [
      "ar",
      "i</w>"
    ],
    [
      "ol",
      "ic</w>"
    ],
    [
      "ul",
      "ating</w>"
    ],
    [
      "al",
      "d"
    ],
    [
      "ac",
      "id"
    ],
    [
      "og",
      "on"
    ],
    [
      "ect",
      "om"
    ],
    [
      "ig",
      "en"
    ],
    [
      "i",
      "ac</w>"
    ],
    [
      "ard",
      "ed</w>"
    ],
    [
      "le",
      "b"
    ],
    [
      "bo",
      "x"
    ],
    [
      "ti",
      "e</w>"
    ],
    [
      "wo",
      "ol"
    ],
    [
      "ich",
      "thy"
    ],
    [
      "b",
      "og"
    ],
    [
      "u",
      "ter"
    ],
    [
      "id",
      "ium</w>"
    ],
    [
      "omat",
      "a</w>"
    ],
    [
      "alg",
      "ia</w>"
    ],
    [
      "ver",
      "t"
    ],
    [
      "ri",
      "ed</w>"
    ],
    [
      "te",
      "ch"
    ],
    [
      "w",
      "el"
    ],
    [
      "por",
      "t</w>"
    ],
    [
      "b",
      "low"
    ],
    [
      "qu",
      "ick"
    ],
    [
      "sl",
      "av"
    ],
    [
      "h",
      "av"
    ],
    [
      "ke",
      "ep"
    ],
    [
      "per",
      "ic"
    ],
    [
      "for",
      "c"
    ],
    [
      "p",
      "up"
    ],
    [
      "o",
      "on</w>"
    ],
    [
      "ec",
      "k</w>"
    ],
    [
      "ul",
      "ous</w>"
    ],
    [
      "t",
      "rop"
    ],
    [
      "pl",
      "as"
    ],
    [
      "co",
      "s"
    ],
    [
      "ch",
      "ap"
    ],
    [
      "ch",
      "ang"
    ],
    [
      "ul",
      "ph"
    ],
    [
      "f",
      "us"
    ],
    [
      "h",
      "ier"
    ],
    [
      "st",
      "ick"
    ],
    [
      "inn",
      "ed</w>"
    ],
    [
      "ton",
      "gu"
    ],
    [
      "s",
      "ag"
    ],
    [
      "d",
      "od"
    ],
    [
      "sm",
      "ooth"
    ],
    [
      "h",
      "ob"
    ],
    [
      "sh",
      "er"
    ],
    [
      "rat",
      "ing</w>"
    ],
    [
      "ru",
      "p"
    ],
    [
      "il",
      "ing</w>"
    ],
    [
      "th",
      "s</w>"
    ],
    [
      "esc",
      "ence</w>"
    ],
    [
      "e",
      "er</w>"
    ],
    [
      "i",
      "aceae</w>"
    ],
    [
      "bl",
      "eness</w>"
    ],
    [
      "har",
      "mon"
    ],
    [
      "li",
      "ght</w>"
    ],
    [
      "ym",
      "an</w>"
    ],
    [
      "-b",
      "ear"
    ],
    [
      "per",
      "c"
    ],
    [
      "d",
      "ale</w>"
    ],
    [
      "ra",
      "ck"
    ],
    [
      "pre",
      "ad"
    ],
    [
      "man",
      "n"
    ],
    [
      "est",
      "ed</w>"
    ],
    [
      "ig",
      "g"
    ],
    [
      "d",
      "ens"
    ],
    [
      "sh",
      "ar"
    ],
    [
      "cl",
      "ar"
    ],
    [
      "oc",
      "ent"
    ],
    [
      "ru",
      "pt"
    ],
    [
      "i",
      "k</w>"
    ],
    [
      "er",
      "ship</w>"
    ],
    [
      "-b",
      "u"
    ],
    [
      "wom",
      "an</w>"
    ],
    [
      "l",
      "ust"
    ],
    [
      "be",
      "ar"
    ],
    [
      "s",
      "aw"
    ],
    [
      "bu",
      "sh</w>"
    ],
    [
      "ch",
      "el"
    ],
    [
      "m",
      "ant"
    ],
    [
      "soc",
      "i"
    ],
    [
      "sm",
      "ok"
    ],
    [
      "su",
      "pra"
    ],
    [
      "as",
      "es</w>"
    ],
    [
      "al",
      "ities</w>"
    ],
    [
      "or",
      "ic</w>"
    ],
    [
      "ra",
      "in"
    ],
    [
      "ple",
      "x"
    ],
    [
      "er",
      "a</w>"
    ],
    [
      "hum",
      "an"
    ],
    [
      "c",
      "ub"
    ],
    [
      "t",
      "ot"
    ],
    [
      "outh",
      "ed</w>"
    ],
    [
      "g",
      "ut"
    ],
    [
      "sol",
      "id"
    ],
    [
      "st",
      "ep"
    ],
    [
      "l",
      "ymph"
    ],
    [
      "em",
      "ents</w>"
    ],
    [
      "iz",
      "ations</w>"
    ],
    [
      "d",
      "y</w>"
    ],
    [
      "tim",
      "e</w>"
    ],
    [
      "el",
      "ess"
    ],
    [
      "ar",
      "ch</w>"
    ],
    [
      "uc",
      "k</w>"
    ],
    [
      "and",
      "ed</w>"
    ],
    [
      "an",
      "e"
    ],
    [
      "pl",
      "a"
    ],
    [
      "se",
      "ver"
    ],
    [
      "sp",
      "ring"
    ],
    [
      "on",
      "e-"
    ],
    [
      "y",
      "e</w>"
    ],
    [
      "ig",
      "h</w>"
    ],
    [
      "in",
      "er"
    ],
    [
      "ter",
      "min"
    ],
    [
      "oman",
      "ia</w>"
    ],
    [
      "est",
      "er"
    ],
    [
      "ol",
      "ith"
    ],
    [
      "h",
      "es"
    ],
    [
      "w",
      "ards</w>"
    ],
    [
      "mon",
      "ger</w>"
    ],
    [
      "on",
      "s"
    ],
    [
      "raph",
      "</w>"
    ],
    [
      "ov",
      "er</w>"
    ],
    [
      "os",
      "ed</w>"
    ],
    [
      "ed",
      "er"
    ],
    [
      "par",
      "as"
    ],
    [
      "pr",
      "inc"
    ],
    [
      "pres",
      "ent"
    ],
    [
      "th",
      "es"
    ],
    [
      "b",
      "ob"
    ],
    [
      "p",
      "ach"
    ],
    [
      "e",
      "us</w>"
    ],
    [
      "et",
      "ical</w>"
    ],
    [
      "out",
      "s</w>"
    ],
    [
      "ro",
      "ot</w>"
    ],
    [
      "esh",
      "ip</w>"
    ],
    [
      "or",
      "'s</w>"
    ],
    [
      "rac",
      "y</w>"
    ],
    [
      "en",
      "z"
    ],
    [
      "fl",
      "av"
    ],
    [
      "me",
      "as"
    ],
    [
      "j",
      "ar"
    ],
    [
      "o",
      "ed</w>"
    ],
    [
      "et",
      "ing</w>"
    ],
    [
      "ch",
      "rys"
    ],
    [
      "my",
      "th"
    ],
    [
      "pat",
      "ri"
    ],
    [
      "per",
      "son"
    ],
    [
      "oc",
      "c"
    ],
    [
      "f",
      "av"
    ],
    [
      "b",
      "em"
    ],
    [
      "d",
      "ys"
    ],
    [
      "s",
      "cot"
    ],
    [
      "mor",
      "ph"
    ],
    [
      "g",
      "ru"
    ],
    [
      "d",
      "iff"
    ],
    [
      "sch",
      "ool"
    ],
    [
      "ah",
      "s</w>"
    ],
    [
      "hy",
      "ster"
    ],
    [
      "od",
      "e</w>"
    ],
    [
      "ra",
      "z"
    ],
    [
      "er",
      "'s</w>"
    ],
    [
      "oc",
      "ele</w>"
    ],
    [
      "mi",
      "x"
    ],
    [
      "k",
      "a"
    ],
    [
      "e-",
      "b"
    ],
    [
      "og",
      "</w>"
    ],
    [
      "r",
      "ul"
    ],
    [
      "f",
      "an"
    ],
    [
      "pra",
      "ct"
    ],
    [
      "um",
      "m"
    ],
    [
      "m",
      "ang"
    ],
    [
      "wh",
      "ip"
    ],
    [
      "cer",
      "eb"
    ],
    [
      "g",
      "ym"
    ],
    [
      "ish",
      "es</w>"
    ],
    [
      "ur",
      "b"
    ],
    [
      "id",
      "ent"
    ],
    [
      "lo",
      "d"
    ],
    [
      "qu",
      "er"
    ],
    [
      "m",
      "ax"
    ],
    [
      "vol",
      "ut"
    ],
    [
      "w",
      "ays</w>"
    ],
    [
      "m",
      "ud"
    ],
    [
      "b",
      "our"
    ],
    [
      "em",
      "per"
    ],
    [
      "g",
      "ol"
    ],
    [
      "der",
      "ed</w>"
    ],
    [
      "sh",
      "arp"
    ],
    [
      "k",
      "ing"
    ],
    [
      "d",
      "id"
    ],
    [
      "s",
      "oul"
    ],
    [
      "sem",
      "i-"
    ],
    [
      "sem",
      "is"
    ],
    [
      "un",
      "com"
    ],
    [
      "id",
      "ing</w>"
    ],
    [
      "y",
      "d"
    ],
    [
      "u",
      "v"
    ],
    [
      "car",
      "p"
    ],
    [
      "m",
      "ob"
    ],
    [
      "k",
      "o"
    ],
    [
      "b",
      "us"
    ],
    [
      "l",
      "ing"
    ],
    [
      "c",
      "rit"
    ],
    [
      "t",
      "-"
    ],
    [
      "b",
      "att"
    ],
    [
      "c",
      "all"
    ],
    [
      "k",
      "ey"
    ],
    [
      "de",
      "w"
    ],
    [
      "c",
      "yn"
    ],
    [
      "mon",
      "t"
    ],
    [
      "ind",
      "ic"
    ],
    [
      "pol",
      "ym"
    ],
    [
      "ship",
      "s</w>"
    ],
    [
      "ore",
      "s</w>"
    ],
    [
      "m",
      "ia</w>"
    ],
    [
      "o",
      "unc"
    ],
    [
      "s",
      "ist"
    ],
    [
      "ac",
      "anth"
    ],
    [
      "pl",
      "ant"
    ],
    [
      "h",
      "a</w>"
    ],
    [
      "ro",
      "id</w>"
    ],
    [
      "li",
      "b"
    ],
    [
      "os",
      "c"
    ],
    [
      "ri",
      "ght</w>"
    ],
    [
      "ry",
      "ing</w>"
    ],
    [
      "at",
      "er"
    ],
    [
      "ic",
      "ol"
    ],
    [
      "ay",
      "ing</w>"
    ],
    [
      "ep",
      "ig"
    ],
    [
      "j",
      "an"
    ],
    [
      "fi",
      "x"
    ],
    [
      "ep",
      "is"
    ],
    [
      "g",
      "ig"
    ],
    [
      "p",
      "ep"
    ],
    [
      "-f",
      "e"
    ],
    [
      "k",
      "ir"
    ],
    [
      "an",
      "ic</w>"
    ],
    [
      "z",
      "er</w>"
    ],
    [
      "al",
      "ised</w>"
    ],
    [
      "di",
      "e</w>"
    ],
    [
      "sc",
      "ap"
    ],
    [
      "im",
      "b"
    ],
    [
      "p",
      "ens"
    ],
    [
      "for",
      "g"
    ],
    [
      "imm",
      "un"
    ],
    [
      "end",
      "er</w>"
    ],
    [
      "st",
      "om"
    ],
    [
      "m",
      "un"
    ],
    [
      "ev",
      "ol"
    ],
    [
      "ar",
      "ed</w>"
    ],
    [
      "au",
      "g"
    ],
    [
      "c",
      "iv"
    ],
    [
      "py",
      "ro"
    ],
    [
      "s",
      "od"
    ],
    [
      "el",
      "e"
    ],
    [
      "ogen",
      "etic</w>"
    ],
    [
      "ic",
      "ian</w>"
    ],
    [
      "act",
      "ic</w>"
    ],
    [
      "z",
      "es</w>"
    ],
    [
      "odon",
      "t</w>"
    ],
    [
      "b",
      "ill"
    ],
    [
      "-le",
      "aved</w>"
    ],
    [
      "p",
      "ac"
    ],
    [
      "-",
      "e"
    ],
    [
      "op",
      "en"
    ],
    [
      "o",
      "on"
    ],
    [
      "ru",
      "g"
    ],
    [
      "id",
      "ly</w>"
    ],
    [
      "h",
      "oo"
    ],
    [
      "k",
      "ne"
    ],
    [
      "l",
      "un"
    ],
    [
      "h",
      "ipp"
    ],
    [
      "w",
      "inter"
    ],
    [
      "stra",
      "ight"
    ],
    [
      "om",
      "in"
    ],
    [
      "o",
      "und"
    ],
    [
      "e-",
      "d"
    ],
    [
      "id",
      "ine</w>"
    ],
    [
      "if",
      "ies</w>"
    ],
    [
      "ar",
      "c"
    ],
    [
      "om",
      "en"
    ],
    [
      "y",
      "er</w>"
    ],
    [
      "st",
      "ri"
    ],
    [
      "iv",
      "al"
    ],
    [
      "ell",
      "er</w>"
    ],
    [
      "pri",
      "m"
    ],
    [
      "em",
      "por"
    ],
    [
      "lin",
      "ed</w>"
    ],
    [
      "f",
      "um"
    ],
    [
      "t",
      "own"
    ],
    [
      "sh",
      "ow"
    ],
    [
      "co",
      "al"
    ],
    [
      "cl",
      "av"
    ],
    [
      "cl",
      "ou"
    ],
    [
      "val",
      "u"
    ],
    [
      "my",
      "el"
    ],
    [
      "un",
      "sp"
    ],
    [
      "su",
      "s</w>"
    ],
    [
      "s",
      "a</w>"
    ],
    [
      "ar",
      "n"
    ],
    [
      "i",
      "ac"
    ],
    [
      "er",
      "ic</w>"
    ],
    [
      "y",
      "ch"
    ],
    [
      "och",
      "rom"
    ],
    [
      "g",
      "un"
    ],
    [
      "w",
      "ill"
    ],
    [
      "c",
      "amp"
    ],
    [
      "y",
      "o"
    ],
    [
      "t",
      "um"
    ],
    [
      "rh",
      "in"
    ],
    [
      "r",
      "ant"
    ],
    [
      "wor",
      "ks</w>"
    ],
    [
      "f",
      "et"
    ],
    [
      "bor",
      "o</w>"
    ],
    [
      "ster",
      "n"
    ],
    [
      "b",
      "ath"
    ],
    [
      "b",
      "y-"
    ],
    [
      "bl",
      "ast"
    ],
    [
      "d",
      "ur"
    ],
    [
      "hep",
      "at"
    ],
    [
      "hor",
      "n"
    ],
    [
      "sy",
      "st"
    ],
    [
      "g",
      "ib"
    ],
    [
      "m",
      "ass"
    ],
    [
      "magn",
      "et"
    ],
    [
      "sem",
      "ip"
    ],
    [
      "ti",
      "st"
    ],
    [
      "at",
      "ure</w>"
    ],
    [
      "b",
      "ott"
    ],
    [
      "jud",
      "ic"
    ],
    [
      "ae",
      "a</w>"
    ],
    [
      "al",
      "a</w>"
    ],
    [
      "-",
      "gra"
    ],
    [
      "k",
      "an"
    ],
    [
      "a",
      "uc"
    ],
    [
      "conc",
      "e"
    ],
    [
      "di",
      "rect"
    ],
    [
      "st",
      "ro"
    ],
    [
      "p",
      "s"
    ],
    [
      "et",
      "h</w>"
    ],
    [
      "st",
      "all"
    ],
    [
      "un",
      "co"
    ],
    [
      "re",
      "as"
    ],
    [
      "end",
      "s</w>"
    ],
    [
      "at",
      "ingly</w>"
    ],
    [
      "oc",
      "yte</w>"
    ],
    [
      "der",
      "mat"
    ],
    [
      "oide",
      "a</w>"
    ],
    [
      "or",
      "ship</w>"
    ],
    [
      "c",
      "ann"
    ],
    [
      "al",
      "ous</w>"
    ],
    [
      "r",
      "y-"
    ],
    [
      "l",
      "on"
    ],
    [
      "li",
      "ber"
    ],
    [
      "ran",
      "g"
    ],
    [
      "as",
      "per"
    ],
    [
      "at",
      "ter"
    ],
    [
      "dis",
      "h"
    ],
    [
      "ber",
      "ries</w>"
    ],
    [
      "c",
      "en"
    ],
    [
      "re",
      "v"
    ],
    [
      "th",
      "under"
    ],
    [
      "as",
      "ia</w>"
    ],
    [
      "ot",
      "roph"
    ],
    [
      "ent",
      "ness</w>"
    ],
    [
      "cl",
      "am"
    ],
    [
      "ar",
      "sen"
    ],
    [
      "om",
      "yc"
    ],
    [
      "lo",
      "s"
    ],
    [
      "ne",
      "ed"
    ],
    [
      "l",
      "ings</w>"
    ],
    [
      "ic",
      "an</w>"
    ],
    [
      "s",
      "ick"
    ],
    [
      "c",
      "ic"
    ],
    [
      "ha",
      "em"
    ],
    [
      "n",
      "ob"
    ],
    [
      "pl",
      "ed</w>"
    ],
    [
      "pos",
      "ed</w>"
    ],
    [
      "rh",
      "iz"
    ],
    [
      "gro",
      "und"
    ],
    [
      "op",
      "p"
    ],
    [
      "d",
      "rag"
    ],
    [
      "low",
      "-"
    ],
    [
      "mel",
      "an"
    ],
    [
      "t",
      "rit"
    ],
    [
      "el",
      "ia</w>"
    ],
    [
      "ri",
      "s</w>"
    ],
    [
      "e",
      "es</w>"
    ],
    [
      "ain",
      "ed</w>"
    ],
    [
      "ol",
      "ysis</w>"
    ],
    [
      "og",
      "ram"
    ],
    [
      "az",
      "z"
    ],
    [
      "ous",
      "nesses</w>"
    ],
    [
      "et",
      "her"
    ],
    [
      "ic",
      "h</w>"
    ],
    [
      "sm",
      "en</w>"
    ],
    [
      "k",
      "am"
    ],
    [
      "ap",
      "ost"
    ],
    [
      "emb",
      "ry"
    ],
    [
      "ch",
      "e</w>"
    ],
    [
      "lo",
      "b"
    ],
    [
      "h",
      "os"
    ],
    [
      "col",
      "on"
    ],
    [
      "col",
      "or"
    ],
    [
      "wid",
      "e-"
    ],
    [
      "omat",
      "ous</w>"
    ],
    [
      "ev",
      "ille</w>"
    ],
    [
      "ic",
      "ize</w>"
    ],
    [
      "er",
      "er</w>"
    ],
    [
      "thou",
      "ght"
    ],
    [
      "ri",
      "st</w>"
    ],
    [
      "al",
      "c"
    ],
    [
      "j",
      "am"
    ],
    [
      "-f",
      "low"
    ],
    [
      "ph",
      "ag"
    ],
    [
      "au",
      "x"
    ],
    [
      "ind",
      "uc"
    ],
    [
      "ow",
      "ed</w>"
    ],
    [
      "at",
      "-"
    ],
    [
      "ord",
      "in"
    ],
    [
      "d",
      "ro"
    ],
    [
      "spl",
      "en"
    ],
    [
      "sh",
      "ad"
    ],
    [
      "non",
      "pro"
    ],
    [
      "pre",
      "in"
    ],
    [
      "ul",
      "us</w>"
    ],
    [
      "b",
      "ad"
    ],
    [
      "d",
      "-"
    ],
    [
      "ion",
      "ism</w>"
    ],
    [
      "s",
      "ent"
    ],
    [
      "ar",
      "ily</w>"
    ],
    [
      "im",
      "ent"
    ],
    [
      "oblast",
      "</w>"
    ],
    [
      "ost",
      "om"
    ],
    [
      "ill",
      "ary</w>"
    ],
    [
      "ad",
      "v"
    ],
    [
      "e",
      "f</w>"
    ],
    [
      "n",
      "y</w>"
    ],
    [
      "co",
      "g"
    ],
    [
      "pl",
      "ast"
    ],
    [
      "t",
      "is"
    ],
    [
      "bl",
      "es</w>"
    ],
    [
      "if",
      "fer"
    ],
    [
      "-",
      "out</w>"
    ],
    [
      "t",
      "ick"
    ],
    [
      "car",
      "bon"
    ],
    [
      "po",
      "und"
    ],
    [
      "cont",
      "inu"
    ],
    [
      "par",
      "ad"
    ],
    [
      "t",
      "ach"
    ],
    [
      "non",
      "f"
    ],
    [
      "pseud",
      "o-"
    ],
    [
      "tiv",
      "ity</w>"
    ],
    [
      "us",
      "ing</w>"
    ],
    [
      "in",
      "i</w>"
    ],
    [
      "f",
      "ro"
    ],
    [
      "li",
      "e</w>"
    ],
    [
      "ar",
      "ist"
    ],
    [
      "iz",
      "ers</w>"
    ],
    [
      "fer",
      "ous</w>"
    ],
    [
      "f",
      "ed</w>"
    ],
    [
      "el",
      "v"
    ],
    [
      "re",
      "b"
    ],
    [
      "i",
      "ated</w>"
    ],
    [
      "ograph",
      "ically</w>"
    ],
    [
      "ti",
      "est</w>"
    ],
    [
      "aut",
      "o"
    ],
    [
      "os",
      "h"
    ],
    [
      "n",
      "ick"
    ],
    [
      "t",
      "ak"
    ],
    [
      "s",
      "af"
    ],
    [
      "meg",
      "al"
    ],
    [
      "sch",
      "iz"
    ],
    [
      "an",
      "i</w>"
    ],
    [
      "art",
      "icul"
    ],
    [
      "ett",
      "er</w>"
    ],
    [
      "or",
      "al</w>"
    ],
    [
      "m",
      "ind"
    ],
    [
      "it",
      "or</w>"
    ],
    [
      "a",
      "en"
    ],
    [
      "st",
      "o"
    ],
    [
      "i",
      "ums</w>"
    ],
    [
      "ob",
      "ran"
    ],
    [
      "oph",
      "ore</w>"
    ],
    [
      "m",
      "y</w>"
    ],
    [
      "ag",
      "ing</w>"
    ],
    [
      "ear",
      "ed</w>"
    ],
    [
      "ch",
      "arg"
    ],
    [
      "os",
      "per"
    ],
    [
      "est",
      "er</w>"
    ],
    [
      "f",
      "oot</w>"
    ],
    [
      "r",
      "and"
    ],
    [
      "bib",
      "li"
    ],
    [
      "le",
      "ad"
    ],
    [
      "f",
      "ing"
    ],
    [
      "t",
      "id"
    ],
    [
      "sid",
      "er"
    ],
    [
      "p",
      "inn"
    ],
    [
      "p",
      "p"
    ],
    [
      "off",
      "ic"
    ],
    [
      "sc",
      "re"
    ],
    [
      "gast",
      "ro"
    ],
    [
      "t",
      "ut"
    ],
    [
      "po",
      "et"
    ],
    [
      "act",
      "ion</w>"
    ],
    [
      "j",
      "our"
    ],
    [
      "h",
      "am</w>"
    ],
    [
      "esth",
      "esia</w>"
    ],
    [
      "er",
      "t"
    ],
    [
      "ae",
      "an</w>"
    ],
    [
      "id",
      "ian</w>"
    ],
    [
      "if",
      "ic</w>"
    ],
    [
      "am",
      "orph"
    ],
    [
      "l",
      "um"
    ],
    [
      "m",
      "ov"
    ],
    [
      "bur",
      "n"
    ],
    [
      "mar",
      "k"
    ],
    [
      "fac",
      "ed</w>"
    ],
    [
      "ath",
      "er</w>"
    ],
    [
      "-",
      "co"
    ],
    [
      "rhe",
      "a</w>"
    ],
    [
      "eth",
      "n"
    ],
    [
      "squ",
      "ar"
    ],
    [
      "over",
      "st"
    ],
    [
      "sal",
      "t"
    ],
    [
      "und",
      "ec"
    ],
    [
      "ess",
      "ed</w>"
    ],
    [
      "ot",
      "ox"
    ],
    [
      "y",
      "li"
    ],
    [
      "itt",
      "er</w>"
    ],
    [
      "omorph",
      "ic</w>"
    ],
    [
      "fi",
      "eld"
    ],
    [
      "man",
      "ship</w>"
    ],
    [
      "on",
      "al</w>"
    ],
    [
      "el",
      "eg"
    ],
    [
      "ant",
      "it"
    ],
    [
      "r",
      "ation"
    ],
    [
      "l",
      "act"
    ],
    [
      "ru",
      "sh"
    ],
    [
      "spir",
      "it"
    ],
    [
      "d",
      "ich"
    ],
    [
      "rol",
      "l"
    ],
    [
      "s",
      "ect"
    ],
    [
      "un",
      "ab"
    ],
    [
      "de",
      "ath"
    ],
    [
      "di",
      "al"
    ],
    [
      "k",
      "ind"
    ],
    [
      "w",
      "oman"
    ],
    [
      "lit",
      "er"
    ],
    [
      "p",
      "and"
    ],
    [
      "a",
      "o</w>"
    ],
    [
      "ish",
      "ment</w>"
    ],
    [
      "act",
      "yl"
    ],
    [
      "al",
      "low"
    ],
    [
      "iv",
      "ing</w>"
    ],
    [
      "s",
      "ide</w>"
    ],
    [
      "i",
      "aceous</w>"
    ],
    [
      "st",
      "yl"
    ],
    [
      "h",
      "ang"
    ],
    [
      "ger",
      "man"
    ],
    [
      "ar",
      "t</w>"
    ],
    [
      "mast",
      "er</w>"
    ],
    [
      "row",
      "ing</w>"
    ],
    [
      "co",
      "el"
    ],
    [
      "sp",
      "ur"
    ],
    [
      "h",
      "all"
    ],
    [
      "pa",
      "per"
    ],
    [
      "se",
      "a"
    ],
    [
      "sing",
      "le"
    ],
    [
      "al",
      "t"
    ],
    [
      "on",
      "ite</w>"
    ],
    [
      "u",
      "a</w>"
    ],
    [
      "ost",
      "er"
    ],
    [
      "cor",
      "por"
    ],
    [
      "al",
      "ise</w>"
    ],
    [
      "on",
      "e"
    ],
    [
      "opath",
      "y</w>"
    ],
    [
      "og",
      "e"
    ],
    [
      "iv",
      "e-"
    ],
    [
      "c",
      "a</w>"
    ],
    [
      "otyp",
      "e</w>"
    ],
    [
      "z",
      "a</w>"
    ],
    [
      "on",
      "d</w>"
    ],
    [
      "con",
      "v"
    ],
    [
      "sc",
      "rew"
    ],
    [
      "tra",
      "m"
    ],
    [
      "is",
      "on</w>"
    ],
    [
      "p",
      "ect"
    ],
    [
      "od",
      "or"
    ],
    [
      "inter",
      "n"
    ],
    [
      "au",
      "thor"
    ],
    [
      "bre",
      "ak"
    ],
    [
      "rat",
      "t"
    ],
    [
      "p",
      "ir"
    ],
    [
      "pul",
      "s"
    ],
    [
      "ke",
      "y</w>"
    ],
    [
      "b",
      "ak"
    ],
    [
      "ger",
      "y</w>"
    ],
    [
      "l",
      "ay"
    ],
    [
      "c",
      "ym"
    ],
    [
      "w",
      "all"
    ],
    [
      "g",
      "an"
    ],
    [
      "co",
      "ff"
    ],
    [
      "h",
      "ip"
    ],
    [
      "l",
      "il"
    ],
    [
      "pro",
      "ct"
    ],
    [
      "it",
      "ious</w>"
    ],
    [
      "sel",
      "</w>"
    ],
    [
      "car",
      "b"
    ],
    [
      "imet",
      "er</w>"
    ],
    [
      "n",
      "ow"
    ],
    [
      "qu",
      "est"
    ],
    [
      "ac",
      "ro"
    ],
    [
      "min",
      "ist"
    ],
    [
      "od",
      "s</w>"
    ],
    [
      "e",
      "or"
    ],
    [
      "d",
      "ri"
    ],
    [
      "-",
      "in"
    ],
    [
      "re",
      "at"
    ],
    [
      "omat",
      "ic</w>"
    ],
    [
      "ne",
      "ur"
    ],
    [
      "l",
      "ec"
    ],
    [
      "-",
      "re"
    ],
    [
      "ir",
      "d</w>"
    ],
    [
      "up",
      "s</w>"
    ],
    [
      "f",
      "all"
    ],
    [
      "qu",
      "al"
    ],
    [
      "cap",
      "it"
    ],
    [
      "d",
      "at"
    ],
    [
      "int",
      "eg"
    ],
    [
      "sem",
      "in"
    ],
    [
      "st",
      "en"
    ],
    [
      "st",
      "ag"
    ],
    [
      "tr",
      "is"
    ],
    [
      "d",
      "ul"
    ],
    [
      "ar",
      "ium</w>"
    ],
    [
      "ac",
      "t</w>"
    ],
    [
      "em",
      "e</w>"
    ],
    [
      "id",
      "ia</w>"
    ],
    [
      "on",
      "gu"
    ],
    [
      "it",
      "ch</w>"
    ],
    [
      "anc",
      "ed</w>"
    ],
    [
      "pi",
      "ece</w>"
    ],
    [
      "ist",
      "ed</w>"
    ],
    [
      "et",
      "t</w>"
    ],
    [
      "-bo",
      "und</w>"
    ],
    [
      "for",
      "med</w>"
    ],
    [
      "ti",
      "ght"
    ],
    [
      "al",
      "leg"
    ],
    [
      "ic",
      "on"
    ],
    [
      "for",
      "mat"
    ],
    [
      "ex",
      "press"
    ],
    [
      "me",
      "chan"
    ],
    [
      "p",
      "ack"
    ],
    [
      "s",
      "oph"
    ],
    [
      "w",
      "ild"
    ],
    [
      "bir",
      "d"
    ],
    [
      "ex",
      "ec"
    ],
    [
      "un",
      "ap"
    ],
    [
      "t",
      "art"
    ],
    [
      "pre",
      "dis"
    ],
    [
      "-",
      "po"
    ],
    [
      "z",
      "ation</w>"
    ],
    [
      "b",
      "s</w>"
    ],
    [
      "cla",
      "im"
    ],
    [
      "am",
      "id"
    ],
    [
      "ev",
      "e</w>"
    ],
    [
      "i",
      "idae</w>"
    ],
    [
      "oc",
      "yt"
    ],
    [
      "h",
      "i"
    ],
    [
      "ri",
      "er</w>"
    ],
    [
      "cl",
      "ad</w>"
    ],
    [
      "h",
      "ept"
    ],
    [
      "id",
      "ity</w>"
    ],
    [
      "cop",
      "e</w>"
    ],
    [
      "ph",
      "or"
    ],
    [
      "op",
      "ar"
    ],
    [
      "ha",
      "ph"
    ],
    [
      "l",
      "ag"
    ],
    [
      "per",
      "it"
    ],
    [
      "-lo",
      "oking</w>"
    ],
    [
      "gu",
      "st"
    ],
    [
      "g",
      "est"
    ],
    [
      "ot",
      "ted</w>"
    ],
    [
      "sh",
      "i"
    ],
    [
      "w",
      "on"
    ],
    [
      "d",
      "ay"
    ],
    [
      "mo",
      "un"
    ],
    [
      "t",
      "ooth"
    ],
    [
      "r",
      "ill"
    ],
    [
      "pro",
      "b"
    ],
    [
      "hal",
      "f"
    ],
    [
      "sh",
      "am"
    ],
    [
      "met",
      "al"
    ],
    [
      "dom",
      "in"
    ],
    [
      "m",
      "ous</w>"
    ],
    [
      "comm",
      "od"
    ],
    [
      "th",
      "ym"
    ],
    [
      "ob",
      "ac"
    ],
    [
      "ant",
      "ic</w>"
    ],
    [
      "id",
      "ness</w>"
    ],
    [
      "l",
      "ion"
    ],
    [
      "aw",
      "ed</w>"
    ],
    [
      "d",
      "end"
    ],
    [
      "ig",
      "u"
    ],
    [
      "as",
      "k"
    ],
    [
      "fo",
      "und"
    ],
    [
      "an",
      "at"
    ],
    [
      "over",
      "n"
    ],
    [
      "res",
      "ol"
    ],
    [
      "ou",
      "red</w>"
    ],
    [
      "s",
      "es"
    ],
    [
      "le",
      "an"
    ],
    [
      "b",
      "uc"
    ],
    [
      "blu",
      "e-"
    ],
    [
      "b",
      "un"
    ],
    [
      "p",
      "ad"
    ],
    [
      "v",
      "ib"
    ],
    [
      "sc",
      "ut"
    ],
    [
      "ran",
      "c"
    ],
    [
      "v",
      "ing</w>"
    ],
    [
      "p",
      "e</w>"
    ],
    [
      "al",
      "ising</w>"
    ],
    [
      "amb",
      "ul"
    ],
    [
      "o",
      "i</w>"
    ],
    [
      "kn",
      "ow"
    ],
    [
      "mar",
      "k</w>"
    ],
    [
      "re",
      "l</w>"
    ],
    [
      "k",
      "en</w>"
    ],
    [
      "j",
      "ol"
    ],
    [
      "-bear",
      "ing</w>"
    ],
    [
      "lo",
      "id</w>"
    ],
    [
      "subst",
      "anti"
    ],
    [
      "cal",
      "c"
    ],
    [
      "bo",
      "y</w>"
    ],
    [
      "ic",
      "es</w>"
    ],
    [
      "it",
      "ud"
    ],
    [
      "-",
      "j"
    ],
    [
      "jo",
      "h"
    ],
    [
      "im",
      "ag"
    ],
    [
      "ver",
      "n"
    ],
    [
      "th",
      "ro"
    ],
    [
      "ha",
      "ired</w>"
    ],
    [
      "v",
      "ig"
    ],
    [
      "c",
      "anc"
    ],
    [
      "m",
      "az"
    ],
    [
      "ta",
      "ut"
    ],
    [
      "un",
      "ob"
    ],
    [
      "ti",
      "s</w>"
    ],
    [
      "b",
      "a</w>"
    ],
    [
      "-m",
      "ind"
    ],
    [
      "is",
      "able</w>"
    ],
    [
      "ro",
      "man"
    ],
    [
      "tr",
      "in"
    ],
    [
      "ey",
      "s</w>"
    ],
    [
      "otherap",
      "y</w>"
    ],
    [
      "e",
      "ag"
    ],
    [
      "il",
      "es</w>"
    ],
    [
      "wor",
      "n</w>"
    ],
    [
      "ic",
      "ated</w>"
    ],
    [
      "h",
      "az"
    ],
    [
      "t",
      "roph"
    ],
    [
      "mat",
      "er"
    ],
    [
      "al",
      "ph"
    ],
    [
      "ind",
      "er</w>"
    ],
    [
      "ost",
      "omy</w>"
    ],
    [
      "em",
      "n"
    ],
    [
      "pl",
      "ur"
    ],
    [
      "l",
      "ud"
    ],
    [
      "oc",
      "</w>"
    ],
    [
      "hou",
      "se"
    ],
    [
      "pl",
      "ain"
    ],
    [
      "cle",
      "an"
    ],
    [
      "d",
      "ust"
    ],
    [
      "f",
      "ab"
    ],
    [
      "my",
      "r"
    ],
    [
      "my",
      "x"
    ],
    [
      "non",
      "de"
    ],
    [
      "aff",
      "</w>"
    ],
    [
      "y",
      "an"
    ],
    [
      "ar",
      "ly</w>"
    ],
    [
      "op",
      "ro"
    ],
    [
      "ac",
      "ious</w>"
    ],
    [
      "qu",
      "it"
    ],
    [
      "raph",
      "y</w>"
    ],
    [
      "ph",
      "ra"
    ],
    [
      "otrop",
      "ic</w>"
    ],
    [
      "oplast",
      "y</w>"
    ],
    [
      "ang",
      "lo"
    ],
    [
      "ell",
      "ate</w>"
    ],
    [
      "phil",
      "osoph"
    ],
    [
      "ro",
      "y"
    ],
    [
      "bu",
      "ff"
    ],
    [
      "j",
      "un"
    ],
    [
      "cover",
      "ed</w>"
    ],
    [
      "par",
      "am"
    ],
    [
      "b",
      "ast"
    ],
    [
      "h",
      "ow"
    ],
    [
      "g",
      "in"
    ],
    [
      "w",
      "re"
    ],
    [
      "ur",
      "an"
    ],
    [
      "dic",
      "t"
    ],
    [
      "res",
      "ist"
    ],
    [
      "un",
      "en"
    ],
    [
      "long",
      "-"
    ],
    [
      "man",
      "y-"
    ],
    [
      "tran",
      "sm"
    ],
    [
      "sle",
      "ep"
    ],
    [
      "ax",
      "is</w>"
    ],
    [
      "am",
      "a</w>"
    ],
    [
      "b",
      "e</w>"
    ],
    [
      "ion",
      "ing</w>"
    ],
    [
      "ip",
      "it"
    ],
    [
      "o",
      "e</w>"
    ],
    [
      "oid",
      "s</w>"
    ],
    [
      "olog",
      "ists</w>"
    ],
    [
      "st",
      "ud"
    ],
    [
      "er",
      "o</w>"
    ],
    [
      "ber",
      "ed</w>"
    ],
    [
      "w",
      "ay"
    ],
    [
      "w",
      "if"
    ],
    [
      "u",
      "it"
    ],
    [
      "ep",
      "ith"
    ],
    [
      "phyl",
      "lo"
    ],
    [
      "h",
      "ap"
    ],
    [
      "li",
      "ed</w>"
    ],
    [
      "de",
      "vil"
    ],
    [
      "-fo",
      "oted</w>"
    ],
    [
      "li",
      "gh"
    ],
    [
      "w",
      "ag"
    ],
    [
      "c",
      "n"
    ],
    [
      "c",
      "r"
    ],
    [
      "re",
      "ver"
    ],
    [
      "d",
      "ow"
    ],
    [
      "ro",
      "ad"
    ],
    [
      "le",
      "uco"
    ],
    [
      "n",
      "orth"
    ],
    [
      "un",
      "sc"
    ],
    [
      "t",
      "en</w>"
    ],
    [
      "se",
      "y</w>"
    ],
    [
      "ator",
      "ial</w>"
    ],
    [
      "ed",
      "i"
    ],
    [
      "oph",
      "yte</w>"
    ],
    [
      "och",
      "em"
    ],
    [
      "iv",
      "ity</w>"
    ],
    [
      "am",
      "ed</w>"
    ],
    [
      "-b",
      "orn</w>"
    ],
    [
      "im",
      "press"
    ],
    [
      "ag",
      "re"
    ],
    [
      "p",
      "lo"
    ],
    [
      "m",
      "im"
    ],
    [
      "igh",
      "ted</w>"
    ],
    [
      "al",
      "th"
    ],
    [
      "y",
      "r"
    ],
    [
      "ic",
      "o"
    ],
    [
      "ar",
      "ct"
    ],
    [
      "bo",
      "y"
    ],
    [
      "red",
      "uc"
    ],
    [
      "st",
      "rong"
    ],
    [
      "at",
      "ured</w>"
    ],
    [
      "k",
      "-"
    ],
    [
      "g",
      "ing"
    ],
    [
      "quar",
      "ter"
    ],
    [
      "ren",
      "ch"
    ],
    [
      "sh",
      "ak"
    ],
    [
      "s",
      "ic"
    ],
    [
      "n",
      "ap"
    ],
    [
      "ch",
      "as"
    ],
    [
      "cross",
      "-"
    ],
    [
      "k",
      "ol"
    ],
    [
      "tra",
      "g"
    ],
    [
      "sub",
      "t"
    ],
    [
      "mid",
      "d"
    ],
    [
      "sac",
      "char"
    ],
    [
      "sn",
      "ak"
    ],
    [
      "p",
      "le</w>"
    ],
    [
      "i",
      "oc"
    ],
    [
      "wor",
      "th</w>"
    ],
    [
      "n",
      "od"
    ],
    [
      "ac",
      "qu"
    ],
    [
      "ri",
      "d</w>"
    ],
    [
      "ber",
      "t</w>"
    ],
    [
      "iv",
      "er</w>"
    ],
    [
      "am",
      "or"
    ],
    [
      "ch",
      "im"
    ],
    [
      "lov",
      "ing</w>"
    ],
    [
      "ett",
      "es</w>"
    ],
    [
      "am",
      "mon"
    ],
    [
      "s",
      "al</w>"
    ],
    [
      "s",
      "et</w>"
    ],
    [
      "og",
      "g"
    ],
    [
      "my",
      "st"
    ],
    [
      "qu",
      "art"
    ],
    [
      "y",
      "b"
    ],
    [
      "ful",
      "s</w>"
    ],
    [
      "ru",
      "c"
    ],
    [
      "tri",
      "but"
    ],
    [
      "cur",
      "r"
    ],
    [
      "w",
      "an"
    ],
    [
      "op",
      "in"
    ],
    [
      "wh",
      "is"
    ],
    [
      "h",
      "ay"
    ],
    [
      "qu",
      "int"
    ],
    [
      "t",
      "z"
    ],
    [
      "cl",
      "ub"
    ],
    [
      "s",
      "ib"
    ],
    [
      "gl",
      "ass"
    ],
    [
      "tu",
      "bercul"
    ],
    [
      "sum",
      "mer"
    ],
    [
      "phot",
      "o"
    ],
    [
      "post",
      "-"
    ],
    [
      "v",
      "es</w>"
    ],
    [
      "ab",
      "or"
    ],
    [
      "ic",
      "ide</w>"
    ],
    [
      "oph",
      "ile</w>"
    ],
    [
      "et",
      "al</w>"
    ],
    [
      "rat",
      "es</w>"
    ],
    [
      "ter",
      "y</w>"
    ],
    [
      "ogn",
      "ath"
    ],
    [
      "ifor",
      "m"
    ],
    [
      "ther",
      "ap"
    ],
    [
      "phys",
      "i"
    ],
    [
      "u",
      "ous</w>"
    ],
    [
      "in",
      "ite</w>"
    ],
    [
      "yp",
      "e</w>"
    ],
    [
      "bo",
      "und</w>"
    ],
    [
      "om",
      "an</w>"
    ],
    [
      "ig",
      "n</w>"
    ],
    [
      "p",
      "all"
    ],
    [
      "u",
      "ph"
    ],
    [
      "m",
      "uc"
    ],
    [
      "ir",
      "id"
    ],
    [
      "le",
      "aved</w>"
    ],
    [
      "ro",
      "gen"
    ],
    [
      "d",
      "ot"
    ],
    [
      "in",
      "ct"
    ],
    [
      "h",
      "ir"
    ],
    [
      "w",
      "ax"
    ],
    [
      "l",
      "ub"
    ],
    [
      "su",
      "ck"
    ],
    [
      "t",
      "ag"
    ],
    [
      "mor",
      "t"
    ],
    [
      "enti",
      "ally</w>"
    ],
    [
      "h",
      "ack"
    ],
    [
      "mel",
      "od"
    ],
    [
      "ov",
      "</w>"
    ],
    [
      "b",
      "ass"
    ],
    [
      "s",
      "en</w>"
    ],
    [
      "ep",
      "it"
    ],
    [
      "il",
      "it"
    ],
    [
      "ion",
      "er</w>"
    ],
    [
      "ur",
      "ic</w>"
    ],
    [
      "ac",
      "on"
    ],
    [
      "ec",
      "tive</w>"
    ],
    [
      "ial",
      "ity</w>"
    ],
    [
      "od",
      "ynam"
    ],
    [
      "av",
      "es</w>"
    ],
    [
      "ric",
      "k</w>"
    ],
    [
      "ar",
      "med</w>"
    ],
    [
      "i",
      "ar"
    ],
    [
      "o",
      "ic</w>"
    ],
    [
      "sp",
      "ong"
    ],
    [
      "t",
      "own</w>"
    ],
    [
      "em",
      "en</w>"
    ],
    [
      "leg",
      "ged</w>"
    ],
    [
      "bo",
      "x</w>"
    ],
    [
      "r",
      "ym"
    ],
    [
      "ep",
      "ist"
    ],
    [
      "s",
      "it"
    ],
    [
      "but",
      "ter"
    ],
    [
      "if",
      "er"
    ],
    [
      "gu",
      "ar"
    ],
    [
      "in",
      "fl"
    ],
    [
      "sel",
      "f"
    ],
    [
      "pal",
      "at"
    ],
    [
      "sem",
      "im"
    ],
    [
      "s",
      "i</w>"
    ],
    [
      "air",
      "e</w>"
    ],
    [
      "ab",
      "ilities</w>"
    ],
    [
      "es",
      "es</w>"
    ],
    [
      "in",
      "ian</w>"
    ],
    [
      "ri",
      "e</w>"
    ],
    [
      "de",
      "hyd"
    ],
    [
      "im",
      "a</w>"
    ],
    [
      "am",
      "s</w>"
    ],
    [
      "-t",
      "ongu"
    ],
    [
      "ian",
      "a</w>"
    ],
    [
      "in",
      "er</w>"
    ],
    [
      "an",
      "o</w>"
    ],
    [
      "el",
      "ic</w>"
    ],
    [
      "or",
      "c"
    ],
    [
      "lo",
      "ss"
    ],
    [
      "ath",
      "ed</w>"
    ],
    [
      "er",
      "ite</w>"
    ],
    [
      "al",
      "k"
    ],
    [
      "al",
      "kal"
    ],
    [
      "-b",
      "l"
    ],
    [
      "es",
      "p"
    ],
    [
      "est",
      "ing</w>"
    ],
    [
      "arch",
      "y</w>"
    ],
    [
      "ot",
      "ing</w>"
    ],
    [
      "j",
      "ap"
    ],
    [
      "med",
      "ic"
    ],
    [
      "at",
      "ur"
    ],
    [
      "deter",
      "min"
    ],
    [
      "x",
      "er"
    ],
    [
      "blo",
      "ck"
    ],
    [
      "w",
      "ick"
    ],
    [
      "-o",
      "f-"
    ],
    [
      "l",
      "ich"
    ],
    [
      "s",
      "ail"
    ],
    [
      "g",
      "az"
    ],
    [
      "ch",
      "eck"
    ],
    [
      "t",
      "at"
    ],
    [
      "fre",
      "sh"
    ],
    [
      "sp",
      "ort"
    ],
    [
      "mu",
      "sc"
    ],
    [
      "non",
      "ad"
    ],
    [
      "non",
      "per"
    ],
    [
      "un",
      "cont"
    ],
    [
      "st",
      "own</w>"
    ],
    [
      "ut",
      "ed</w>"
    ],
    [
      "n",
      "erv"
    ],
    [
      "u",
      "ally</w>"
    ],
    [
      "omet",
      "rical</w>"
    ],
    [
      "am",
      "o"
    ],
    [
      "il",
      "lo"
    ],
    [
      "op",
      "e</w>"
    ],
    [
      "ti",
      "an</w>"
    ],
    [
      "ec",
      "</w>"
    ],
    [
      "it",
      "ism</w>"
    ],
    [
      "ph",
      "</w>"
    ],
    [
      "et",
      "es</w>"
    ],
    [
      "our",
      "s</w>"
    ],
    [
      "cra",
      "ck"
    ],
    [
      "r",
      "ar"
    ],
    [
      "sk",
      "y</w>"
    ],
    [
      "brow",
      "n"
    ],
    [
      "con",
      "cer"
    ],
    [
      "m",
      "n"
    ],
    [
      "el",
      "et</w>"
    ],
    [
      "tur",
      "k"
    ],
    [
      "ular",
      "ly</w>"
    ],
    [
      "el",
      "er</w>"
    ],
    [
      "ophthal",
      "m"
    ],
    [
      "f",
      "asc"
    ],
    [
      "int",
      "ell"
    ],
    [
      "re",
      "al"
    ],
    [
      "nat",
      "ur"
    ],
    [
      "wor",
      "ker</w>"
    ],
    [
      "row",
      "ed</w>"
    ],
    [
      "k",
      "ers</w>"
    ],
    [
      "b",
      "ank"
    ],
    [
      "n",
      "an"
    ],
    [
      "s",
      "ad"
    ],
    [
      "c",
      "ed"
    ],
    [
      "sc",
      "or"
    ],
    [
      "c",
      "red"
    ],
    [
      "f",
      "ox"
    ],
    [
      "un",
      "se"
    ],
    [
      "l",
      "ang"
    ],
    [
      "we",
      "ak"
    ],
    [
      "sm",
      "all"
    ],
    [
      "un",
      "par"
    ],
    [
      "anc",
      "ies</w>"
    ],
    [
      "i",
      "ology</w>"
    ],
    [
      "s",
      "er</w>"
    ],
    [
      "ru",
      "s</w>"
    ],
    [
      "ach",
      "ed</w>"
    ],
    [
      "ir",
      "a</w>"
    ],
    [
      "om",
      "al"
    ],
    [
      "oc",
      "racy</w>"
    ],
    [
      "ment",
      "al</w>"
    ],
    [
      "ul",
      "t"
    ],
    [
      "om",
      "ancy</w>"
    ],
    [
      "ey",
      "e</w>"
    ],
    [
      "at",
      "o</w>"
    ],
    [
      "al",
      "e"
    ],
    [
      "bo",
      "at</w>"
    ],
    [
      "al",
      "co"
    ],
    [
      "av",
      "ing</w>"
    ],
    [
      "m",
      "ain"
    ],
    [
      "oc",
      "cup"
    ],
    [
      "in",
      "fer"
    ],
    [
      "i",
      "or"
    ],
    [
      "t",
      "ens"
    ],
    [
      "or",
      "ang"
    ],
    [
      "ar",
      "ab"
    ],
    [
      "aw",
      "ay</w>"
    ],
    [
      "d",
      "ac"
    ],
    [
      "sk",
      "in</w>"
    ],
    [
      "in",
      "sul"
    ],
    [
      "n",
      "ucle"
    ],
    [
      "clo",
      "se-"
    ],
    [
      "d",
      "ed"
    ],
    [
      "gal",
      "van"
    ],
    [
      "gl",
      "en"
    ],
    [
      "pol",
      "ys"
    ],
    [
      "ph",
      "ant"
    ],
    [
      "she",
      "ep"
    ],
    [
      "s",
      "outh"
    ],
    [
      "b",
      "ay"
    ],
    [
      "ov",
      "e</w>"
    ],
    [
      "a",
      "id</w>"
    ],
    [
      "ar",
      "y"
    ],
    [
      "yl",
      "ene</w>"
    ],
    [
      "ind",
      "ing</w>"
    ],
    [
      "co",
      "sis</w>"
    ],
    [
      "sk",
      "i</w>"
    ],
    [
      "ation",
      "ally</w>"
    ],
    [
      "oc",
      "ol"
    ],
    [
      "ic",
      "ist</w>"
    ],
    [
      "op",
      "l"
    ],
    [
      "ok",
      "en</w>"
    ],
    [
      "am",
      "e</w>"
    ],
    [
      "m",
      "ost</w>"
    ],
    [
      "gra",
      "d"
    ],
    [
      "f",
      "s</w>"
    ],
    [
      "ron",
      "s</w>"
    ],
    [
      "ber",
      "g"
    ],
    [
      "am",
      "ar"
    ],
    [
      "ic",
      "o-"
    ],
    [
      "ic",
      "ness</w>"
    ],
    [
      "o",
      "i"
    ],
    [
      "r",
      "haph"
    ],
    [
      "am",
      "ing</w>"
    ],
    [
      "j",
      "ew"
    ],
    [
      "k",
      "es</w>"
    ],
    [
      "dis",
      "h</w>"
    ],
    [
      "pl",
      "ate</w>"
    ],
    [
      "g",
      "ard"
    ],
    [
      "g",
      "le"
    ],
    [
      "aw",
      "n"
    ],
    [
      "l",
      "ingly</w>"
    ],
    [
      "war",
      "e</w>"
    ],
    [
      "fore",
      "st"
    ],
    [
      "un",
      "th"
    ],
    [
      "sh",
      "el"
    ],
    [
      "t",
      "ul"
    ],
    [
      "p",
      "ing"
    ],
    [
      "quin",
      "qu"
    ],
    [
      "cle",
      "ar"
    ],
    [
      "di",
      "am"
    ],
    [
      "se",
      "ven"
    ],
    [
      "sp",
      "an"
    ],
    [
      "ty",
      "ph"
    ],
    [
      "rh",
      "od"
    ],
    [
      "ste",
      "el"
    ],
    [
      "oc",
      "yst"
    ],
    [
      "ut",
      "ion</w>"
    ],
    [
      "ish",
      "er</w>"
    ],
    [
      "in",
      "d</w>"
    ],
    [
      "ev",
      "er</w>"
    ],
    [
      "yn",
      "ia</w>"
    ],
    [
      "ion",
      "less</w>"
    ],
    [
      "ad",
      "el"
    ],
    [
      "ol",
      "i"
    ],
    [
      "d",
      "ynam"
    ],
    [
      "le",
      "af</w>"
    ],
    [
      "-bu",
      "ilt</w>"
    ],
    [
      "pos",
      "e</w>"
    ],
    [
      "bl",
      "er</w>"
    ],
    [
      "an",
      "ac"
    ],
    [
      "ap",
      "od"
    ],
    [
      "lo",
      "oking</w>"
    ],
    [
      "ro",
      "om</w>"
    ],
    [
      "emp",
      "lo"
    ],
    [
      "ed",
      "-"
    ],
    [
      "y",
      "ard</w>"
    ],
    [
      "ev",
      "il"
    ],
    [
      "h",
      "us"
    ],
    [
      "z",
      "on"
    ],
    [
      "ink",
      "ing</w>"
    ],
    [
      "ph",
      "ren"
    ],
    [
      "br",
      "and"
    ],
    [
      "pro",
      "mis"
    ],
    [
      "-w",
      "inged</w>"
    ],
    [
      "co",
      "en"
    ],
    [
      "so",
      "und"
    ],
    [
      "g",
      "um"
    ],
    [
      "dip",
      "lo"
    ],
    [
      "met",
      "aph"
    ],
    [
      "sem",
      "id"
    ],
    [
      "ep",
      "t</w>"
    ],
    [
      "int",
      "s</w>"
    ],
    [
      "ac",
      "tiv"
    ],
    [
      "ann",
      "a</w>"
    ],
    [
      "sc",
      "rip"
    ],
    [
      "om",
      "ic</w>"
    ],
    [
      "ec",
      "a</w>"
    ],
    [
      "riv",
      "en</w>"
    ],
    [
      "gra",
      "c"
    ],
    [
      "all",
      "el"
    ],
    [
      "cl",
      "ud"
    ],
    [
      "tra",
      "c"
    ],
    [
      "ass",
      "oc"
    ],
    [
      "or",
      "bit"
    ],
    [
      "z",
      "ym"
    ],
    [
      "oc",
      "on"
    ],
    [
      "b",
      "ud"
    ],
    [
      "heart",
      "edness</w>"
    ],
    [
      "au",
      "gh"
    ],
    [
      "b",
      "ug"
    ],
    [
      "h",
      "ind"
    ],
    [
      "con",
      "duc"
    ],
    [
      "sh",
      "ir"
    ],
    [
      "co",
      "b"
    ],
    [
      "t",
      "ry"
    ],
    [
      "prof",
      "ess"
    ],
    [
      "ch",
      "romat"
    ],
    [
      "g",
      "ob"
    ],
    [
      "non",
      "dis"
    ],
    [
      "s",
      "anc"
    ],
    [
      "v",
      "eg"
    ],
    [
      "sar",
      "co"
    ],
    [
      "im",
      "e</w>"
    ],
    [
      "le",
      "-b"
    ],
    [
      "wat",
      "er</w>"
    ],
    [
      "is",
      "s</w>"
    ],
    [
      "se",
      "e</w>"
    ],
    [
      "or",
      "ies</w>"
    ],
    [
      "ach",
      "ing</w>"
    ],
    [
      "e",
      "ol"
    ],
    [
      "am",
      "ic</w>"
    ],
    [
      "cra",
      "ft</w>"
    ],
    [
      "and",
      "er"
    ],
    [
      "pl",
      "ing</w>"
    ],
    [
      "t",
      "o</w>"
    ],
    [
      "u",
      "sc"
    ],
    [
      "ant",
      "il"
    ],
    [
      "wh",
      "er"
    ],
    [
      "k",
      "i</w>"
    ],
    [
      "p",
      "ell"
    ],
    [
      "w",
      "ig"
    ],
    [
      "th",
      "er</w>"
    ],
    [
      "fo",
      "ol"
    ],
    [
      "p",
      "y</w>"
    ],
    [
      "n",
      "oc"
    ],
    [
      "car",
      "d"
    ],
    [
      "un",
      "er"
    ],
    [
      "enc",
      "ed</w>"
    ],
    [
      "c",
      "au"
    ],
    [
      "lo",
      "os"
    ],
    [
      "s",
      "angu"
    ],
    [
      "em",
      "bar"
    ],
    [
      "gra",
      "ss"
    ],
    [
      "d",
      "e-"
    ],
    [
      "d",
      "ir"
    ],
    [
      "poss",
      "ess"
    ],
    [
      "n",
      "ur"
    ],
    [
      "s",
      "add"
    ],
    [
      "t",
      "all"
    ],
    [
      "high",
      "-"
    ],
    [
      "au",
      "x</w>"
    ],
    [
      "s",
      "ive</w>"
    ],
    [
      "le",
      "e</w>"
    ],
    [
      "il",
      "a</w>"
    ],
    [
      "if",
      "ier</w>"
    ],
    [
      "i",
      "asis</w>"
    ],
    [
      "j",
      "</w>"
    ],
    [
      "anc",
      "ing</w>"
    ],
    [
      "l",
      "ets</w>"
    ],
    [
      "an",
      "ite</w>"
    ],
    [
      "v",
      "a</w>"
    ],
    [
      "le",
      "y"
    ],
    [
      "pol",
      "yp"
    ],
    [
      "pl",
      "en"
    ],
    [
      "unc",
      "i"
    ],
    [
      "all",
      "ing</w>"
    ],
    [
      "um",
      "ent"
    ],
    [
      "l",
      "yn"
    ],
    [
      "p",
      "ond"
    ],
    [
      "h",
      "ul"
    ],
    [
      "sph",
      "er"
    ],
    [
      "yl",
      "ind"
    ],
    [
      "sk",
      "ir"
    ],
    [
      "b",
      "ip"
    ],
    [
      "pro",
      "s"
    ],
    [
      "z",
      "en"
    ],
    [
      "oc",
      "ean"
    ],
    [
      "re",
      "fl"
    ],
    [
      "ker",
      "at"
    ],
    [
      "ste",
      "ep"
    ],
    [
      "d",
      "un"
    ],
    [
      "p",
      "av"
    ],
    [
      "sh",
      "ire</w>"
    ],
    [
      "ogen",
      "y</w>"
    ],
    [
      "li",
      "a</w>"
    ],
    [
      "rit",
      "is</w>"
    ],
    [
      "ro",
      "ch"
    ],
    [
      "ar",
      "bit"
    ],
    [
      "ant",
      "e</w>"
    ],
    [
      "f",
      "r"
    ],
    [
      "ect",
      "ing</w>"
    ],
    [
      "ial",
      "ize</w>"
    ],
    [
      "s",
      "k</w>"
    ],
    [
      "o",
      "ing</w>"
    ],
    [
      "mat",
      "ical</w>"
    ],
    [
      "gre",
      "en</w>"
    ],
    [
      "worth",
      "y</w>"
    ],
    [
      "co",
      "cc"
    ],
    [
      "phar",
      "mac"
    ],
    [
      "e",
      "uc"
    ],
    [
      "um",
      "er"
    ],
    [
      "ph",
      "er"
    ],
    [
      "ind",
      "iv"
    ],
    [
      "oph",
      "yt"
    ],
    [
      "p",
      "end"
    ],
    [
      "enti",
      "f"
    ],
    [
      "st",
      "im"
    ],
    [
      "s",
      "ir"
    ],
    [
      "iv",
      "ed</w>"
    ],
    [
      "pet",
      "it"
    ],
    [
      "ple",
      "-"
    ],
    [
      "m",
      "ess"
    ],
    [
      "s",
      "phen"
    ],
    [
      "ou",
      "gh</w>"
    ],
    [
      "ob",
      "serv"
    ],
    [
      "et",
      "-"
    ],
    [
      "clo",
      "th"
    ],
    [
      "ben",
      "ef"
    ],
    [
      "g",
      "ad"
    ],
    [
      "e-",
      "sh"
    ],
    [
      "bo",
      "at"
    ],
    [
      "b",
      "rit"
    ],
    [
      "es",
      "ophag"
    ],
    [
      "g",
      "ur"
    ],
    [
      "p",
      "unct"
    ],
    [
      "ind",
      "ust"
    ],
    [
      "s",
      "ip"
    ],
    [
      "su",
      "sc"
    ],
    [
      "k",
      "or"
    ],
    [
      "s",
      "our"
    ],
    [
      "p",
      "ink"
    ],
    [
      "se",
      "a-"
    ],
    [
      "we",
      "ather"
    ],
    [
      "ash",
      "ed</w>"
    ],
    [
      "ab",
      "il"
    ],
    [
      "ar",
      "iness</w>"
    ],
    [
      "aph",
      "th"
    ],
    [
      "ul",
      "ose</w>"
    ],
    [
      "ach",
      "e</w>"
    ],
    [
      "b",
      "ill</w>"
    ],
    [
      "e",
      "in</w>"
    ],
    [
      "ri",
      "al</w>"
    ],
    [
      "st",
      "ip"
    ],
    [
      "a",
      "esth"
    ],
    [
      "lu",
      "x"
    ],
    [
      "os",
      "a</w>"
    ],
    [
      "in",
      "ize</w>"
    ],
    [
      "e",
      "en</w>"
    ],
    [
      "th",
      "orn"
    ],
    [
      "v",
      "at"
    ],
    [
      "es",
      "ville</w>"
    ],
    [
      "man",
      "n</w>"
    ],
    [
      "cul",
      "ar</w>"
    ],
    [
      "l",
      "ass"
    ],
    [
      "en",
      "u"
    ],
    [
      "ant",
      "id"
    ],
    [
      "intell",
      "ect"
    ],
    [
      "par",
      "ag"
    ],
    [
      "pl",
      "ag"
    ],
    [
      "hol",
      "der</w>"
    ],
    [
      "w",
      "ast"
    ],
    [
      "w",
      "er"
    ],
    [
      "mar",
      "sh"
    ],
    [
      "in",
      "k</w>"
    ],
    [
      "l",
      "itt"
    ],
    [
      "b",
      "all</w>"
    ],
    [
      "b",
      "oo"
    ],
    [
      "l",
      "amp"
    ],
    [
      "gn",
      "ath"
    ],
    [
      "c",
      "et"
    ],
    [
      "pen",
      "et"
    ],
    [
      "stru",
      "c"
    ],
    [
      "pol",
      "ar"
    ],
    [
      "sc",
      "ur"
    ],
    [
      "m",
      "om"
    ],
    [
      "d",
      "ub"
    ],
    [
      "fre",
      "e-"
    ],
    [
      "red",
      "-"
    ],
    [
      "s",
      "ne"
    ],
    [
      "on",
      "ing</w>"
    ],
    [
      "ab",
      "b"
    ],
    [
      "ing",
      "ton</w>"
    ],
    [
      "abl",
      "es</w>"
    ],
    [
      "ut",
      "il"
    ],
    [
      "al",
      "y"
    ],
    [
      "ide",
      "an</w>"
    ],
    [
      "ac",
      "er"
    ],
    [
      "ul",
      "um</w>"
    ],
    [
      "am",
      "ide</w>"
    ],
    [
      "icul",
      "ate</w>"
    ],
    [
      "in",
      "us</w>"
    ],
    [
      "p",
      "a</w>"
    ],
    [
      "em",
      "ing</w>"
    ],
    [
      "ad",
      "er</w>"
    ],
    [
      "o",
      "y</w>"
    ],
    [
      "oph",
      "ob"
    ],
    [
      "wor",
      "d</w>"
    ],
    [
      "raph",
      "ic</w>"
    ],
    [
      "if",
      "</w>"
    ],
    [
      "a",
      "ic</w>"
    ],
    [
      "on",
      "ism</w>"
    ],
    [
      "an",
      "y</w>"
    ],
    [
      "pro",
      "te"
    ],
    [
      "od",
      "d"
    ],
    [
      "or",
      "t</w>"
    ],
    [
      "ro",
      "l</w>"
    ],
    [
      "ak",
      "s</w>"
    ],
    [
      "ep",
      "il"
    ],
    [
      "g",
      "y</w>"
    ],
    [
      "en",
      "gl"
    ],
    [
      "w",
      "ing"
    ],
    [
      "par",
      "at"
    ],
    [
      "ap",
      "pe"
    ],
    [
      "lep",
      "id"
    ],
    [
      "co",
      "ck</w>"
    ],
    [
      "c",
      "ros"
    ],
    [
      "t",
      "ent"
    ],
    [
      "w",
      "av"
    ],
    [
      "ind",
      "ul"
    ],
    [
      "ma",
      "j"
    ],
    [
      "-b",
      "ar"
    ],
    [
      "th",
      "en"
    ],
    [
      "ca",
      "ul"
    ],
    [
      "comp",
      "ens"
    ],
    [
      "su",
      "gg"
    ],
    [
      "tur",
      "b"
    ],
    [
      "g",
      "au"
    ],
    [
      "s",
      "ax"
    ],
    [
      "f",
      "rost"
    ],
    [
      "sh",
      "op"
    ],
    [
      "tw",
      "in"
    ],
    [
      "vi",
      "ew"
    ],
    [
      "non",
      "com"
    ],
    [
      "tem",
      "por"
    ],
    [
      "sper",
      "mat"
    ],
    [
      "ros",
      "e-"
    ],
    [
      "un",
      "inter"
    ],
    [
      "ab",
      "i"
    ],
    [
      "chi",
      "ate</w>"
    ],
    [
      "id",
      "ent</w>"
    ],
    [
      "ator",
      "'s</w>"
    ],
    [
      "ol",
      "ytic</w>"
    ],
    [
      "od",
      "on</w>"
    ],
    [
      "e",
      "ae</w>"
    ],
    [
      "int",
      "ing</w>"
    ],
    [
      "thor",
      "ac"
    ],
    [
      "ack",
      "s</w>"
    ],
    [
      "et",
      "hyl"
    ],
    [
      "az",
      "ine</w>"
    ],
    [
      "ch",
      "ir"
    ],
    [
      "m",
      "end"
    ],
    [
      "o",
      "is"
    ],
    [
      "p",
      "ist"
    ],
    [
      "ol",
      "es</w>"
    ],
    [
      "unt",
      "ing</w>"
    ],
    [
      "meth",
      "od"
    ],
    [
      "po",
      "t</w>"
    ],
    [
      "pre",
      "d"
    ],
    [
      "su",
      "d"
    ],
    [
      "oc",
      "ul"
    ],
    [
      "ec",
      "ked</w>"
    ],
    [
      "m",
      "ec"
    ],
    [
      "v",
      "a"
    ],
    [
      "or",
      "ig"
    ],
    [
      "est",
      "im"
    ],
    [
      "d",
      "ry"
    ],
    [
      "whe",
      "el"
    ],
    [
      "sec",
      "ret"
    ],
    [
      "ure",
      "ter"
    ],
    [
      "mil",
      "li"
    ],
    [
      "su",
      "gar"
    ],
    [
      "pre",
      "f"
    ],
    [
      "quas",
      "i"
    ],
    [
      "re",
      "pro"
    ],
    [
      "unt",
      "ran"
    ],
    [
      "ak",
      "a</w>"
    ],
    [
      "id",
      "er</w>"
    ],
    [
      "om",
      "as</w>"
    ],
    [
      "ial",
      "ism</w>"
    ],
    [
      "li",
      "mat"
    ],
    [
      "rag",
      "e</w>"
    ],
    [
      "o",
      "ke</w>"
    ],
    [
      "or",
      "ia</w>"
    ],
    [
      "ant",
      "ness</w>"
    ],
    [
      "l",
      "ement</w>"
    ],
    [
      "ag",
      "ia</w>"
    ],
    [
      "ial",
      "ist</w>"
    ],
    [
      "oscop",
      "ic</w>"
    ],
    [
      "an",
      "ize</w>"
    ],
    [
      "oc",
      "ks</w>"
    ],
    [
      "ag",
      "ram"
    ],
    [
      "m",
      "em"
    ],
    [
      "j",
      "a</w>"
    ],
    [
      "our",
      "ing</w>"
    ],
    [
      "an",
      "ian</w>"
    ],
    [
      "st",
      "on</w>"
    ],
    [
      "u",
      "ed</w>"
    ],
    [
      "os",
      "yn"
    ],
    [
      "en",
      "erg"
    ],
    [
      "pro",
      "ph"
    ],
    [
      "sem",
      "it"
    ],
    [
      "um",
      "at"
    ],
    [
      "ass",
      "er"
    ],
    [
      "oglo",
      "ss"
    ],
    [
      "ic",
      "ality</w>"
    ],
    [
      "oo",
      "s</w>"
    ],
    [
      "bar",
      "bar"
    ],
    [
      "g",
      "ain"
    ],
    [
      "n",
      "ab"
    ],
    [
      "j",
      "a"
    ],
    [
      "-b",
      "acked</w>"
    ],
    [
      "bra",
      "ss"
    ],
    [
      "cal",
      "cul"
    ],
    [
      "chur",
      "ch"
    ],
    [
      "ne",
      "ut"
    ],
    [
      "de",
      "vel"
    ],
    [
      "commun",
      "ic"
    ],
    [
      "ru",
      "ff"
    ],
    [
      "is",
      "o"
    ],
    [
      "f",
      "if"
    ],
    [
      "s",
      "ob"
    ],
    [
      "in",
      "com"
    ],
    [
      "re",
      "im"
    ],
    [
      "d",
      "av"
    ],
    [
      "q",
      "</w>"
    ],
    [
      "ur",
      "us</w>"
    ],
    [
      "head",
      "s</w>"
    ],
    [
      "ti",
      "ous</w>"
    ],
    [
      "al",
      "isation</w>"
    ],
    [
      "ad",
      "am"
    ],
    [
      "ang",
      "le</w>"
    ],
    [
      "eless",
      "ness</w>"
    ],
    [
      "an",
      "ia</w>"
    ],
    [
      "sp",
      "ac"
    ],
    [
      "h",
      "ill"
    ],
    [
      "and",
      "a</w>"
    ],
    [
      "pe",
      "op"
    ],
    [
      "s",
      "-"
    ],
    [
      "yl",
      "lab"
    ],
    [
      "en",
      "ite</w>"
    ],
    [
      "pro",
      "st"
    ],
    [
      "w",
      "ing</w>"
    ],
    [
      "ha",
      "emat"
    ],
    [
      "b",
      "ub"
    ],
    [
      "pr",
      "is"
    ],
    [
      "wh",
      "ir"
    ],
    [
      "n",
      "y"
    ],
    [
      "row",
      "ned</w>"
    ],
    [
      "og",
      "ly"
    ],
    [
      "p",
      "ren"
    ],
    [
      "bran",
      "ch"
    ],
    [
      "ind",
      "ig"
    ],
    [
      "y",
      "ar"
    ],
    [
      "ch",
      "at"
    ],
    [
      "for",
      "mul"
    ],
    [
      "und",
      "e"
    ],
    [
      "double",
      "-"
    ],
    [
      "hom",
      "e"
    ],
    [
      "tech",
      "n"
    ],
    [
      "g",
      "at"
    ],
    [
      "in",
      "ex"
    ],
    [
      "mid",
      "-"
    ],
    [
      "ne",
      "o-"
    ],
    [
      "over",
      "s"
    ],
    [
      "sk",
      "y"
    ],
    [
      "squ",
      "am"
    ],
    [
      "tr",
      "il"
    ],
    [
      "ac",
      "ter"
    ],
    [
      "re",
      "t</w>"
    ],
    [
      "i",
      "i</w>"
    ],
    [
      "en",
      "es</w>"
    ],
    [
      "yl",
      "s</w>"
    ],
    [
      "ar",
      "ity</w>"
    ],
    [
      "e",
      "ur</w>"
    ],
    [
      "cer",
      "at"
    ],
    [
      "rom",
      "e</w>"
    ],
    [
      "ag",
      "er</w>"
    ],
    [
      "al",
      "izes</w>"
    ],
    [
      "w",
      "a</w>"
    ],
    [
      "k",
      "ins</w>"
    ],
    [
      "a",
      "ed"
    ],
    [
      "ial",
      "s</w>"
    ],
    [
      "ro",
      "s</w>"
    ],
    [
      "co",
      "ol"
    ],
    [
      "fac",
      "e</w>"
    ],
    [
      "or",
      "rhea</w>"
    ],
    [
      "om",
      "er</w>"
    ],
    [
      "re",
      "li"
    ],
    [
      "am",
      "n"
    ],
    [
      "fra",
      "ct"
    ],
    [
      "id",
      "ic</w>"
    ],
    [
      "fe",
      "ud"
    ],
    [
      "hist",
      "or"
    ],
    [
      "app",
      "end"
    ],
    [
      "gl",
      "ed</w>"
    ],
    [
      "itt",
      "en</w>"
    ],
    [
      "em",
      "bl"
    ],
    [
      "ed",
      "ged</w>"
    ],
    [
      "l",
      "ingu"
    ],
    [
      "h",
      "ad"
    ],
    [
      "if",
      "t"
    ],
    [
      "gu",
      "il"
    ],
    [
      "b",
      "omb"
    ],
    [
      "bre",
      "ad"
    ],
    [
      "ch",
      "anc"
    ],
    [
      "fle",
      "x"
    ],
    [
      "h",
      "ost"
    ],
    [
      "c",
      "ust"
    ],
    [
      "h",
      "aust"
    ],
    [
      "fl",
      "esh"
    ],
    [
      "fir",
      "st"
    ],
    [
      "f",
      "ive-"
    ],
    [
      "full",
      "-"
    ],
    [
      "gl",
      "ad"
    ],
    [
      "go",
      "os"
    ],
    [
      "lar",
      "yng"
    ],
    [
      "un",
      "be"
    ],
    [
      "or",
      "ac"
    ],
    [
      "j",
      "unc"
    ],
    [
      "com",
      "pan"
    ],
    [
      "an",
      "il"
    ],
    [
      "e",
      "ul"
    ],
    [
      "er",
      "ly</w>"
    ],
    [
      "ol",
      "ine</w>"
    ],
    [
      "ul",
      "ae</w>"
    ],
    [
      "am",
      "ent</w>"
    ],
    [
      "ok",
      "in"
    ],
    [
      "ag",
      "e"
    ],
    [
      "at",
      "ric"
    ],
    [
      "tib",
      "ility</w>"
    ],
    [
      "ion",
      "ate</w>"
    ],
    [
      "ra",
      "y"
    ],
    [
      "ell",
      "ar</w>"
    ],
    [
      "in",
      "ating</w>"
    ],
    [
      "rop",
      "e</w>"
    ],
    [
      "bra",
      "c"
    ],
    [
      "f",
      "ram"
    ],
    [
      "wom",
      "en</w>"
    ],
    [
      "ot",
      "a</w>"
    ],
    [
      "con",
      "sum"
    ],
    [
      "t",
      "ell"
    ],
    [
      "p",
      "est"
    ],
    [
      "ol",
      "ar</w>"
    ],
    [
      "wh",
      "ite</w>"
    ],
    [
      "mat",
      "ically</w>"
    ],
    [
      "as",
      "su"
    ],
    [
      "ep",
      "ip"
    ],
    [
      "olat",
      "ry</w>"
    ],
    [
      "h",
      "un"
    ],
    [
      "t",
      "emp"
    ],
    [
      "sil",
      "ic"
    ],
    [
      "x",
      "yl"
    ],
    [
      "f",
      "ou"
    ],
    [
      "f",
      "ung"
    ],
    [
      "l",
      "ect"
    ],
    [
      "ill",
      "er</w>"
    ],
    [
      "ur",
      "ban"
    ],
    [
      "met",
      "eor"
    ],
    [
      "rid",
      "den</w>"
    ],
    [
      "h",
      "ut"
    ],
    [
      "bac",
      "teri"
    ],
    [
      "ast",
      "ing</w>"
    ],
    [
      "keep",
      "er</w>"
    ],
    [
      "ber",
      "n"
    ],
    [
      "ok",
      "ed</w>"
    ],
    [
      "-d",
      "own</w>"
    ],
    [
      "n",
      "ig"
    ],
    [
      "in",
      "th"
    ],
    [
      "ch",
      "ev"
    ],
    [
      "ah",
      "ed"
    ],
    [
      "cir",
      "cul"
    ],
    [
      "col",
      "um"
    ],
    [
      "ext",
      "ens"
    ],
    [
      "inv",
      "est"
    ],
    [
      "g",
      "amb"
    ],
    [
      "ent",
      "om"
    ],
    [
      "tw",
      "ent"
    ],
    [
      "si",
      "phon"
    ],
    [
      "wat",
      "ch"
    ],
    [
      "sem",
      "if"
    ],
    [
      "s",
      "low"
    ],
    [
      "ste",
      "am"
    ],
    [
      "well",
      "-b"
    ],
    [
      "at",
      "able</w>"
    ],
    [
      "rom",
      "a</w>"
    ],
    [
      "m",
      "inded</w>"
    ],
    [
      "ab",
      "sor"
    ],
    [
      "acc",
      "ess"
    ],
    [
      "id",
      "in</w>"
    ],
    [
      "y",
      "cl"
    ],
    [
      "ist",
      "ry</w>"
    ],
    [
      "ion",
      "able</w>"
    ],
    [
      "it",
      "ory</w>"
    ],
    [
      "on",
      "c"
    ],
    [
      "yn",
      "ge"
    ],
    [
      "ath",
      "ing</w>"
    ],
    [
      "con",
      "sc"
    ],
    [
      "il",
      "lo</w>"
    ],
    [
      "oph",
      "yl"
    ],
    [
      "ic",
      "ing</w>"
    ],
    [
      "al",
      "ter"
    ],
    [
      "n",
      "ch"
    ],
    [
      "an",
      "ap"
    ],
    [
      "em",
      "ot"
    ],
    [
      "rhaph",
      "y</w>"
    ],
    [
      "ev",
      "en"
    ],
    [
      "est",
      "abl"
    ],
    [
      "u",
      "d</w>"
    ],
    [
      "k",
      "y"
    ],
    [
      "anti",
      "mon"
    ],
    [
      "d",
      "ru"
    ],
    [
      "qu",
      "ir"
    ],
    [
      "fol",
      "d</w>"
    ],
    [
      "w",
      "itch"
    ],
    [
      "s",
      "ight"
    ],
    [
      "b",
      "rick"
    ],
    [
      "br",
      "ut"
    ],
    [
      "or",
      "b"
    ],
    [
      "sp",
      "at"
    ],
    [
      "lab",
      "or"
    ],
    [
      "col",
      "lo"
    ],
    [
      "con",
      "serv"
    ],
    [
      "cor",
      "on"
    ],
    [
      "im",
      "pro"
    ],
    [
      "sat",
      "is"
    ],
    [
      "eu",
      "ph"
    ],
    [
      "tra",
      "vel"
    ],
    [
      "fran",
      "k"
    ],
    [
      "hy",
      "men"
    ],
    [
      "le",
      "uc"
    ],
    [
      "non",
      "</w>"
    ],
    [
      "ion",
      "ize</w>"
    ],
    [
      "pt",
      "ion</w>"
    ],
    [
      "is",
      "ion</w>"
    ],
    [
      "li",
      "s</w>"
    ],
    [
      "ex",
      "tr"
    ],
    [
      "ot",
      "rich"
    ],
    [
      "pres",
      "s</w>"
    ],
    [
      "ant",
      "in"
    ],
    [
      "aw",
      "n</w>"
    ],
    [
      "it",
      "im"
    ],
    [
      "ectom",
      "ies</w>"
    ],
    [
      "ch",
      "is"
    ],
    [
      "r",
      "unn"
    ],
    [
      "g",
      "row"
    ],
    [
      "y",
      "ear"
    ],
    [
      "rol",
      "l</w>"
    ],
    [
      "mor",
      "e</w>"
    ],
    [
      "w",
      "in</w>"
    ],
    [
      "j",
      "ob"
    ],
    [
      "ay",
      "ed</w>"
    ],
    [
      "gro",
      "ss"
    ],
    [
      "im",
      "it"
    ],
    [
      "ow",
      "er</w>"
    ],
    [
      "i",
      "op"
    ],
    [
      "ic",
      "o</w>"
    ],
    [
      "hy",
      "al"
    ],
    [
      "op",
      "sych"
    ],
    [
      "ric",
      "t"
    ],
    [
      "oco",
      "cc"
    ],
    [
      "in",
      "sur"
    ],
    [
      "r",
      "ent"
    ],
    [
      "ta",
      "in</w>"
    ],
    [
      "ap",
      "s</w>"
    ],
    [
      "d",
      "le</w>"
    ],
    [
      "h",
      "ug"
    ],
    [
      "p",
      "li"
    ],
    [
      "per",
      "ed</w>"
    ],
    [
      "m",
      "ate</w>"
    ],
    [
      "for",
      "tun"
    ],
    [
      "sk",
      "el"
    ],
    [
      "l",
      "az"
    ],
    [
      "bron",
      "ch"
    ],
    [
      "fl",
      "y"
    ],
    [
      "og",
      "ast"
    ],
    [
      "ch",
      "ick"
    ],
    [
      "p",
      "is"
    ],
    [
      "civ",
      "il"
    ],
    [
      "hab",
      "it"
    ],
    [
      "in",
      "her"
    ],
    [
      "sen",
      "su"
    ],
    [
      "ob",
      "lig"
    ],
    [
      "l",
      "anc"
    ],
    [
      "tran",
      "sl"
    ],
    [
      "mo",
      "ther"
    ],
    [
      "wh",
      "ol"
    ],
    [
      "som",
      "n"
    ],
    [
      "p",
      "eg"
    ],
    [
      "mil",
      "k"
    ],
    [
      "tru",
      "st"
    ],
    [
      "s",
      "mar"
    ],
    [
      "wi",
      "re"
    ],
    [
      "tim",
      "e-"
    ],
    [
      "ir",
      "rit"
    ],
    [
      "od",
      "ed</w>"
    ],
    [
      "ain",
      "s</w>"
    ],
    [
      "ide",
      "a</w>"
    ],
    [
      "aw",
      "s</w>"
    ],
    [
      "om",
      "ing</w>"
    ],
    [
      "op",
      "y"
    ],
    [
      "b",
      "in</w>"
    ],
    [
      "rab",
      "ility</w>"
    ],
    [
      "ros",
      "e</w>"
    ],
    [
      "rot",
      "ic</w>"
    ],
    [
      "-",
      "proof</w>"
    ],
    [
      "em",
      "s</w>"
    ],
    [
      "go",
      "ing</w>"
    ],
    [
      "ro",
      "-</w>"
    ],
    [
      "t",
      "ou"
    ],
    [
      "ag",
      "glut"
    ],
    [
      "bru",
      "sh"
    ],
    [
      "al",
      "er</w>"
    ],
    [
      "ion",
      "ic</w>"
    ],
    [
      "iv",
      "orous</w>"
    ],
    [
      "t",
      "t"
    ],
    [
      "hor",
      "n</w>"
    ],
    [
      "an",
      "k</w>"
    ],
    [
      "or",
      "ate</w>"
    ],
    [
      "ex",
      "u"
    ],
    [
      "i",
      "able</w>"
    ],
    [
      "il",
      "oqu"
    ],
    [
      "emat",
      "ic</w>"
    ],
    [
      "em",
      "an"
    ],
    [
      "f",
      "og"
    ],
    [
      "gal",
      "act"
    ],
    [
      "pri",
      "est"
    ],
    [
      "ra",
      "il"
    ],
    [
      "bu",
      "ild"
    ],
    [
      "um",
      "p</w>"
    ],
    [
      "p",
      "ill"
    ],
    [
      "re",
      "ar"
    ],
    [
      "-t",
      "ree</w>"
    ],
    [
      "ch",
      "ant"
    ],
    [
      "ov",
      "en</w>"
    ],
    [
      "con",
      "sul"
    ],
    [
      "b",
      "im"
    ],
    [
      "-",
      "off</w>"
    ],
    [
      "bl",
      "ind"
    ],
    [
      "e",
      "up"
    ],
    [
      "for",
      "mal"
    ],
    [
      "d",
      "eli"
    ],
    [
      "man",
      "u"
    ],
    [
      "exp",
      "ect"
    ],
    [
      "un",
      "l"
    ],
    [
      "larg",
      "e-"
    ],
    [
      "lif",
      "e-"
    ],
    [
      "p",
      "ay"
    ],
    [
      "pneum",
      "at"
    ],
    [
      "tra",
      "che"
    ],
    [
      "sing",
      "le-"
    ],
    [
      "tw",
      "elv"
    ],
    [
      "un",
      "ac"
    ],
    [
      "un",
      "cor"
    ],
    [
      "un",
      "v"
    ],
    [
      "d",
      ".</w>"
    ],
    [
      "ul",
      "i</w>"
    ],
    [
      "ash",
      "ing</w>"
    ],
    [
      "ib",
      "</w>"
    ],
    [
      "ra",
      "s"
    ],
    [
      "con",
      "d"
    ],
    [
      "ar",
      "di"
    ],
    [
      "tur",
      "al</w>"
    ],
    [
      "on",
      "ize</w>"
    ],
    [
      "il",
      "ia</w>"
    ],
    [
      "rit",
      "ic</w>"
    ],
    [
      "head",
      "edness</w>"
    ],
    [
      "rab",
      "ly</w>"
    ],
    [
      "m",
      "itt"
    ],
    [
      "pos",
      "ition</w>"
    ],
    [
      "ann",
      "e</w>"
    ],
    [
      "sm",
      "ith</w>"
    ],
    [
      "a",
      "ec"
    ],
    [
      "aff",
      "ir"
    ],
    [
      "gra",
      "ss</w>"
    ],
    [
      "ath",
      "ered</w>"
    ],
    [
      "oplast",
      "ic</w>"
    ],
    [
      "ian",
      "ize</w>"
    ],
    [
      "ail",
      "ed</w>"
    ],
    [
      "e",
      "ked</w>"
    ],
    [
      "o",
      "a</w>"
    ],
    [
      "g",
      "a</w>"
    ],
    [
      "ro",
      "ss"
    ],
    [
      "hous",
      "es</w>"
    ],
    [
      "al",
      "is</w>"
    ],
    [
      "ens",
      "e</w>"
    ],
    [
      "k",
      "ur"
    ],
    [
      "gl",
      "ing</w>"
    ],
    [
      "-h",
      "ouse</w>"
    ],
    [
      "-",
      "we"
    ],
    [
      "es",
      "ian</w>"
    ],
    [
      "ra",
      "ss"
    ],
    [
      "l",
      "om"
    ],
    [
      "ocrat",
      "ic</w>"
    ],
    [
      "an",
      "eous</w>"
    ],
    [
      "r",
      "ath"
    ],
    [
      "ym",
      "pan"
    ],
    [
      "l",
      "ent"
    ],
    [
      "in",
      "e-"
    ],
    [
      "h",
      "au"
    ],
    [
      "st",
      "ick</w>"
    ],
    [
      "st",
      "op"
    ],
    [
      "w",
      "ak"
    ],
    [
      "b",
      "eli"
    ],
    [
      "end",
      "er"
    ],
    [
      "cur",
      "v"
    ],
    [
      "is",
      "su"
    ],
    [
      "f",
      "old"
    ],
    [
      "l",
      "ak"
    ],
    [
      "w",
      "inn"
    ],
    [
      "com",
      "mon"
    ],
    [
      "par",
      "ti"
    ],
    [
      "du",
      "od"
    ],
    [
      "ex",
      "per"
    ],
    [
      "f",
      "ic"
    ],
    [
      "sh",
      "ap"
    ],
    [
      "sa",
      "int"
    ],
    [
      "l",
      "amb"
    ],
    [
      "mot",
      "or"
    ],
    [
      "rat",
      "ive</w>"
    ],
    [
      "rat",
      "or</w>"
    ],
    [
      "ol",
      "ith</w>"
    ],
    [
      "od",
      "ied</w>"
    ],
    [
      "n",
      "et</w>"
    ],
    [
      "ra",
      "st"
    ],
    [
      "sel",
      "y</w>"
    ],
    [
      "us",
      "ion</w>"
    ],
    [
      "ron",
      "e</w>"
    ],
    [
      "ot",
      "es</w>"
    ],
    [
      "m",
      "as</w>"
    ],
    [
      "mat",
      "a</w>"
    ],
    [
      "a",
      "int"
    ],
    [
      "'s",
      "-"
    ],
    [
      "at",
      "i</w>"
    ],
    [
      "st",
      "ring"
    ],
    [
      "et",
      "ics</w>"
    ],
    [
      "b",
      "and</w>"
    ],
    [
      "c",
      "rop"
    ],
    [
      "ag",
      "en"
    ],
    [
      "it",
      "o</w>"
    ],
    [
      "a",
      "ine</w>"
    ],
    [
      "bor",
      "n</w>"
    ],
    [
      "pos",
      "ing</w>"
    ],
    [
      "ith",
      "ec"
    ],
    [
      "cl",
      "ad"
    ],
    [
      "ble",
      "phar"
    ],
    [
      "ev",
      "angel"
    ],
    [
      "fer",
      "til"
    ],
    [
      "py",
      "r"
    ],
    [
      "w",
      "ed"
    ],
    [
      "om",
      "on"
    ],
    [
      "rac",
      "k</w>"
    ],
    [
      "-c",
      "ut</w>"
    ],
    [
      "lip",
      "ped</w>"
    ],
    [
      "l",
      "y-"
    ],
    [
      "emb",
      "ran"
    ],
    [
      "z",
      "er"
    ],
    [
      "p",
      "anc"
    ],
    [
      "m",
      "ig"
    ],
    [
      "co",
      "ad"
    ],
    [
      "resp",
      "ond"
    ],
    [
      "v",
      "ap"
    ],
    [
      "phar",
      "yng"
    ],
    [
      "fru",
      "it"
    ],
    [
      "m",
      "ust"
    ],
    [
      "se",
      "ed"
    ],
    [
      "p",
      "ric"
    ],
    [
      "hor",
      "se-"
    ],
    [
      "squ",
      "e"
    ],
    [
      "nar",
      "row"
    ],
    [
      "won",
      "der"
    ],
    [
      "tend",
      "er"
    ],
    [
      "re",
      "dis"
    ],
    [
      "t",
      "we"
    ],
    [
      "well",
      "-f"
    ],
    [
      "as",
      "ed</w>"
    ],
    [
      "od",
      "y</w>"
    ],
    [
      "a",
      "us</w>"
    ],
    [
      "ra",
      "y</w>"
    ],
    [
      "s",
      "enti"
    ],
    [
      "st",
      "em"
    ],
    [
      "er",
      "man</w>"
    ],
    [
      "ach",
      "es</w>"
    ],
    [
      "ou",
      "st"
    ],
    [
      "gu",
      "e</w>"
    ],
    [
      "ot",
      "ome</w>"
    ],
    [
      "ic",
      "le</w>"
    ],
    [
      "ospor",
      "e</w>"
    ],
    [
      "ech",
      "n"
    ],
    [
      "ann",
      "ed</w>"
    ],
    [
      "al",
      "ists</w>"
    ],
    [
      "at",
      "en</w>"
    ],
    [
      "alco",
      "hol"
    ],
    [
      "f",
      "en"
    ],
    [
      "end",
      "or"
    ],
    [
      "f",
      "er</w>"
    ],
    [
      "in",
      "ism</w>"
    ],
    [
      "ro",
      "c"
    ],
    [
      "o",
      "the"
    ],
    [
      "pre",
      "ter"
    ],
    [
      "ill",
      "s</w>"
    ],
    [
      "co",
      "x"
    ],
    [
      "iv",
      "or"
    ],
    [
      "pre",
      "st"
    ],
    [
      "at",
      "edness</w>"
    ],
    [
      "ym",
      "met"
    ],
    [
      "tre",
      "as"
    ],
    [
      "otom",
      "ies</w>"
    ],
    [
      "at",
      "e-"
    ],
    [
      "il",
      "er</w>"
    ],
    [
      "att",
      "er</w>"
    ],
    [
      "au",
      "ght</w>"
    ],
    [
      "ap",
      "ped</w>"
    ],
    [
      "ste",
      "in</w>"
    ],
    [
      "e",
      "fully</w>"
    ],
    [
      "p",
      "in</w>"
    ],
    [
      "lat",
      "er"
    ],
    [
      "g",
      "os"
    ],
    [
      "cat",
      "al"
    ],
    [
      "ch",
      "ild"
    ],
    [
      "t",
      "oo"
    ],
    [
      "k",
      "ra"
    ],
    [
      "ut",
      "ing</w>"
    ],
    [
      "produc",
      "ing</w>"
    ],
    [
      "conc",
      "ent"
    ],
    [
      "disc",
      "rimin"
    ],
    [
      "ser",
      "vic"
    ],
    [
      "c",
      "ram"
    ],
    [
      "d",
      "ib"
    ],
    [
      "st",
      "il"
    ],
    [
      "pro",
      "port"
    ],
    [
      "s",
      "und"
    ],
    [
      "d",
      "rum"
    ],
    [
      "e",
      "ud"
    ],
    [
      "f",
      "ant"
    ],
    [
      "f",
      "est"
    ],
    [
      "f",
      "id"
    ],
    [
      "n",
      "ect"
    ],
    [
      "ri",
      "ver"
    ],
    [
      "un",
      "lo"
    ],
    [
      "un",
      "sub"
    ],
    [
      "s",
      ".</w>"
    ],
    [
      "c",
      "y</w>"
    ],
    [
      "d",
      "on</w>"
    ],
    [
      "et",
      "ted</w>"
    ],
    [
      "ail",
      "s</w>"
    ],
    [
      "e",
      "i</w>"
    ],
    [
      "ish",
      "able</w>"
    ],
    [
      "un",
      "a</w>"
    ],
    [
      "ut",
      "ting</w>"
    ],
    [
      "ac",
      "ad"
    ],
    [
      "en",
      "su"
    ],
    [
      "dehyd",
      "e</w>"
    ],
    [
      "oph",
      "en"
    ],
    [
      "omet",
      "rically</w>"
    ],
    [
      "e",
      "i"
    ],
    [
      "op",
      "ia</w>"
    ],
    [
      "form",
      "ing</w>"
    ],
    [
      "quis",
      "it"
    ],
    [
      "i",
      "ence</w>"
    ],
    [
      "aw",
      "a</w>"
    ],
    [
      "ur",
      "er</w>"
    ],
    [
      "a",
      "eg"
    ],
    [
      "ag",
      "ger"
    ],
    [
      "and",
      "s</w>"
    ],
    [
      "ep",
      "id"
    ],
    [
      "gl",
      "or"
    ],
    [
      "me",
      "an"
    ],
    [
      "ic",
      "an"
    ],
    [
      "un",
      "it"
    ],
    [
      "l",
      "is"
    ],
    [
      "h",
      "id"
    ],
    [
      "d",
      "act"
    ],
    [
      "an",
      "o"
    ],
    [
      "ost",
      "rac"
    ],
    [
      "-b",
      "ack</w>"
    ],
    [
      "ox",
      "al"
    ],
    [
      "mod",
      "ern"
    ],
    [
      "pa",
      "ul"
    ],
    [
      "re",
      "lig"
    ],
    [
      "ob",
      "</w>"
    ],
    [
      "pl",
      "es</w>"
    ],
    [
      "po",
      "int</w>"
    ],
    [
      "l",
      "ind"
    ],
    [
      "inf",
      "ra"
    ],
    [
      "hand",
      "ed</w>"
    ],
    [
      "if",
      "f</w>"
    ],
    [
      "j",
      "ul"
    ],
    [
      "fo",
      "oted</w>"
    ],
    [
      "-n",
      "osed</w>"
    ],
    [
      "st",
      "ub"
    ],
    [
      "gu",
      "ard"
    ],
    [
      "hem",
      "i"
    ],
    [
      "ma",
      "id"
    ],
    [
      "b",
      "um"
    ],
    [
      "li",
      "ver"
    ],
    [
      "sp",
      "ond"
    ],
    [
      "cre",
      "sc"
    ],
    [
      "we",
      "b"
    ],
    [
      "dre",
      "am"
    ],
    [
      "d",
      "and"
    ],
    [
      "de",
      "uter"
    ],
    [
      "ra",
      "pt"
    ],
    [
      "kar",
      "y"
    ],
    [
      "qui",
      "et"
    ],
    [
      "k",
      "ick"
    ],
    [
      "ey",
      "e-"
    ],
    [
      "sch",
      "ol"
    ],
    [
      "k",
      "on"
    ],
    [
      "g",
      "rim"
    ],
    [
      "sens",
      "it"
    ],
    [
      "thor",
      "ough"
    ],
    [
      "st",
      "up"
    ],
    [
      "pan",
      "-"
    ],
    [
      "ple",
      "uro"
    ],
    [
      "quad",
      "ri"
    ],
    [
      "re",
      "en"
    ],
    [
      "twent",
      "y-"
    ],
    [
      "a",
      "is"
    ],
    [
      "ash",
      "es</w>"
    ],
    [
      "al",
      "ian</w>"
    ],
    [
      "r",
      "er</w>"
    ],
    [
      "im",
      "ent</w>"
    ],
    [
      "un",
      "e</w>"
    ],
    [
      "at",
      "edly</w>"
    ],
    [
      "ev",
      "ed</w>"
    ],
    [
      "o",
      "ol</w>"
    ],
    [
      "os",
      "ome</w>"
    ],
    [
      "ac",
      "tive</w>"
    ],
    [
      "ect",
      "or</w>"
    ],
    [
      "a",
      "is</w>"
    ],
    [
      "ect",
      "s</w>"
    ],
    [
      "ver",
      "b"
    ],
    [
      "ial",
      "ness</w>"
    ],
    [
      "i",
      "x</w>"
    ],
    [
      "d",
      "ers</w>"
    ],
    [
      "-b",
      "red</w>"
    ],
    [
      "lo",
      "s</w>"
    ],
    [
      "um",
      "en"
    ],
    [
      "ym",
      "ent</w>"
    ],
    [
      "co",
      "ch"
    ],
    [
      "n",
      "u"
    ],
    [
      "p",
      "au"
    ],
    [
      "-",
      "mar"
    ],
    [
      "te",
      "ut"
    ],
    [
      "int",
      "er</w>"
    ],
    [
      "op",
      "ist"
    ],
    [
      "ra",
      "in</w>"
    ],
    [
      "l",
      "ys"
    ],
    [
      "n",
      "id"
    ],
    [
      "ch",
      "y</w>"
    ],
    [
      "equ",
      "ip"
    ],
    [
      "ar",
      "ter"
    ],
    [
      "tif",
      "ic"
    ],
    [
      "b",
      "ep"
    ],
    [
      "i",
      "re"
    ],
    [
      "ot",
      "er</w>"
    ],
    [
      "spir",
      "ited</w>"
    ],
    [
      "ver",
      "te"
    ],
    [
      "stra",
      "w"
    ],
    [
      "ra",
      "ined</w>"
    ],
    [
      "bur",
      "g"
    ],
    [
      "op",
      "ed</w>"
    ],
    [
      "sh",
      "ell"
    ],
    [
      "y",
      "er"
    ],
    [
      "k",
      "id"
    ],
    [
      "re",
      "ed"
    ],
    [
      "tri",
      "p"
    ],
    [
      "if",
      "f-"
    ],
    [
      "pa",
      "ed"
    ],
    [
      "f",
      "unct"
    ],
    [
      "col",
      "d"
    ],
    [
      "cop",
      "per"
    ],
    [
      "pon",
      "der"
    ],
    [
      "prop",
      "ag"
    ],
    [
      "sym",
      "path"
    ],
    [
      "ter",
      "ror"
    ],
    [
      "m",
      "ous"
    ],
    [
      "fe",
      "as"
    ],
    [
      "d",
      "um"
    ],
    [
      "ill",
      "ust"
    ],
    [
      "spir",
      "itu"
    ],
    [
      "h",
      "ook"
    ],
    [
      "n",
      "eck"
    ],
    [
      "pu",
      "sh"
    ],
    [
      "par",
      "ap"
    ],
    [
      "pre",
      "ex"
    ],
    [
      "sc",
      "ol"
    ],
    [
      "wat",
      "er-"
    ],
    [
      "ay",
      "a</w>"
    ],
    [
      "le",
      "st</w>"
    ],
    [
      "t",
      "al</w>"
    ],
    [
      "op",
      "od</w>"
    ],
    [
      "ophil",
      "ous</w>"
    ],
    [
      "ist",
      "'s</w>"
    ],
    [
      "a",
      "emia</w>"
    ],
    [
      "at",
      "in"
    ],
    [
      "op",
      "ic</w>"
    ],
    [
      "os",
      "m"
    ],
    [
      "od",
      "ic</w>"
    ],
    [
      "ress",
      "es</w>"
    ],
    [
      "ang",
      "led</w>"
    ],
    [
      "oph",
      "ar"
    ],
    [
      "on",
      "ist</w>"
    ],
    [
      "low",
      "er</w>"
    ],
    [
      "ad",
      "ic</w>"
    ],
    [
      "bur",
      "y</w>"
    ],
    [
      "cra",
      "ft"
    ],
    [
      "-",
      "a"
    ],
    [
      "if",
      "lor"
    ],
    [
      "bur",
      "n</w>"
    ],
    [
      "m",
      "outh"
    ],
    [
      "m",
      "s"
    ],
    [
      "oblast",
      "ic</w>"
    ],
    [
      "ak",
      "es</w>"
    ],
    [
      "ow",
      "l</w>"
    ],
    [
      "op",
      "tim"
    ],
    [
      "ori",
      "ent"
    ],
    [
      "oxy",
      "gen"
    ],
    [
      "sc",
      "and"
    ],
    [
      "s",
      "y-"
    ],
    [
      "b",
      "ore"
    ],
    [
      "aul",
      "t</w>"
    ],
    [
      "ti",
      "d</w>"
    ],
    [
      "op",
      "al"
    ],
    [
      "rop",
      "ter"
    ],
    [
      "au",
      "th"
    ],
    [
      "low",
      "ing</w>"
    ],
    [
      "-h",
      "anded</w>"
    ],
    [
      "back",
      "s</w>"
    ],
    [
      "il",
      "ic"
    ],
    [
      "rou",
      "ght</w>"
    ],
    [
      "ec",
      "onom"
    ],
    [
      "tra",
      "p"
    ],
    [
      "com",
      "plex"
    ],
    [
      "we",
      "igh"
    ],
    [
      "comp",
      "li"
    ],
    [
      "t",
      "ant"
    ],
    [
      "disc",
      "ip"
    ],
    [
      "f",
      "iss"
    ],
    [
      "mast",
      "er"
    ],
    [
      "t",
      "us"
    ],
    [
      "dar",
      "k"
    ],
    [
      "d",
      "as"
    ],
    [
      "p",
      "ain"
    ],
    [
      "pass",
      "ion"
    ],
    [
      "syl",
      "lab"
    ],
    [
      "f",
      "un"
    ],
    [
      "met",
      "all"
    ],
    [
      "p",
      "ock"
    ],
    [
      "v",
      "apor"
    ],
    [
      "veg",
      "et"
    ],
    [
      "op",
      "en-"
    ],
    [
      "s",
      "au"
    ],
    [
      "pseud",
      "os"
    ],
    [
      "sh",
      "e-"
    ],
    [
      "un",
      "sl"
    ],
    [
      "-",
      "k"
    ],
    [
      "h",
      "is"
    ],
    [
      "in",
      "able</w>"
    ],
    [
      "-mind",
      "edness</w>"
    ],
    [
      "r",
      "an</w>"
    ],
    [
      "ti",
      "ze</w>"
    ],
    [
      "te",
      "e</w>"
    ],
    [
      "at",
      "rix</w>"
    ],
    [
      "ar",
      "ious</w>"
    ],
    [
      "phen",
      "yl"
    ],
    [
      "hor",
      "se</w>"
    ],
    [
      "tif",
      "y</w>"
    ],
    [
      "lo",
      "t</w>"
    ],
    [
      "sm",
      "ith"
    ],
    [
      "in",
      "ity</w>"
    ],
    [
      "t",
      "as"
    ],
    [
      "ra",
      "h</w>"
    ],
    [
      "bac",
      "ter"
    ],
    [
      "n",
      "ag"
    ],
    [
      "hor",
      "se"
    ],
    [
      "a",
      "id"
    ],
    [
      "et",
      "on</w>"
    ],
    [
      "al",
      "ex"
    ],
    [
      "id",
      "ol"
    ],
    [
      "ill",
      "umin"
    ],
    [
      "der",
      "ing</w>"
    ],
    [
      "h",
      "s</w>"
    ],
    [
      "it",
      "ude</w>"
    ],
    [
      "rous",
      "ly</w>"
    ],
    [
      "l",
      "an</w>"
    ],
    [
      "co",
      "ag"
    ],
    [
      "an",
      "es</w>"
    ],
    [
      "at",
      "roph"
    ],
    [
      "ech",
      "in"
    ],
    [
      "n",
      "em"
    ],
    [
      "her",
      "o"
    ],
    [
      "hyd",
      "roph"
    ],
    [
      "j",
      "es"
    ],
    [
      "st",
      "aph"
    ],
    [
      "u",
      "per"
    ],
    [
      "ste",
      "ad"
    ],
    [
      "lo",
      "ph"
    ],
    [
      "und",
      "er</w>"
    ],
    [
      "per",
      "is"
    ],
    [
      "vo",
      "iced</w>"
    ],
    [
      "m",
      "outhed</w>"
    ],
    [
      "d",
      "ing"
    ],
    [
      "dep",
      "end"
    ],
    [
      "tri",
      "m"
    ],
    [
      "c",
      "rim"
    ],
    [
      "c",
      "ylind"
    ],
    [
      "fer",
      "v"
    ],
    [
      "gl",
      "ac"
    ],
    [
      "exc",
      "it"
    ],
    [
      "in",
      "flu"
    ],
    [
      "ret",
      "in"
    ],
    [
      "cry",
      "st"
    ],
    [
      "t",
      "ure"
    ],
    [
      "d",
      "uck"
    ],
    [
      "k",
      "u"
    ],
    [
      "sel",
      "en"
    ],
    [
      "hon",
      "ey"
    ],
    [
      "m",
      "emor"
    ],
    [
      "pear",
      "l"
    ],
    [
      "ty",
      "ran"
    ],
    [
      "pe",
      "ac"
    ],
    [
      "squ",
      "ir"
    ],
    [
      "to",
      "ad"
    ],
    [
      "trans",
      "-"
    ],
    [
      "und",
      "ef"
    ],
    [
      "am",
      "p</w>"
    ],
    [
      "iss",
      "a</w>"
    ],
    [
      "el",
      "ian</w>"
    ],
    [
      "sol",
      "v"
    ],
    [
      "us",
      "ive</w>"
    ],
    [
      "oph",
      "orous</w>"
    ],
    [
      "acc",
      "ept"
    ],
    [
      "e",
      "ch</w>"
    ],
    [
      "on",
      "t</w>"
    ],
    [
      "ern",
      "al</w>"
    ],
    [
      "su",
      "</w>"
    ],
    [
      "ad",
      "en</w>"
    ],
    [
      "m",
      "ine</w>"
    ],
    [
      "op",
      "ex"
    ],
    [
      "aff",
      "ect"
    ],
    [
      "g",
      "o</w>"
    ],
    [
      "m",
      "ath"
    ],
    [
      "ar",
      "ic</w>"
    ],
    [
      "h",
      "ast"
    ],
    [
      "un",
      "t</w>"
    ],
    [
      "lin",
      "es</w>"
    ],
    [
      "post",
      "</w>"
    ],
    [
      "ep",
      "i"
    ],
    [
      "f",
      "red"
    ],
    [
      "ophag",
      "ous</w>"
    ],
    [
      "er",
      "ot"
    ],
    [
      "un",
      "ted</w>"
    ],
    [
      "k",
      "o</w>"
    ],
    [
      "ar",
      "ith"
    ],
    [
      "ec",
      "cl"
    ],
    [
      "ast",
      "ically</w>"
    ],
    [
      "jac",
      "ob"
    ],
    [
      "par",
      "tic"
    ],
    [
      "li",
      "p</w>"
    ],
    [
      "ple",
      "d"
    ],
    [
      "eg",
      "</w>"
    ],
    [
      "eg",
      "g"
    ],
    [
      "d",
      "own</w>"
    ],
    [
      "t",
      "able</w>"
    ],
    [
      "el",
      "ev"
    ],
    [
      "s",
      "ett"
    ],
    [
      "or",
      "h"
    ],
    [
      "e",
      "fulness</w>"
    ],
    [
      "qu",
      "il"
    ],
    [
      "b",
      "id"
    ],
    [
      "c",
      "ach"
    ],
    [
      "ish",
      "-"
    ],
    [
      "em",
      "aker</w>"
    ],
    [
      "l",
      "umin"
    ],
    [
      "p",
      "ont"
    ],
    [
      "c",
      "lim"
    ],
    [
      "le",
      "ar"
    ],
    [
      "sh",
      "ut"
    ],
    [
      "conf",
      "ir"
    ],
    [
      "co",
      "ok"
    ],
    [
      "se",
      "as"
    ],
    [
      "um",
      "ber"
    ],
    [
      "c",
      "z"
    ],
    [
      "do",
      "or"
    ],
    [
      "fi",
      "re-"
    ],
    [
      "th",
      "ec"
    ],
    [
      "h",
      "art"
    ],
    [
      "le",
      "uk"
    ],
    [
      "th",
      "umb"
    ],
    [
      "tro",
      "ch"
    ],
    [
      "yo",
      "ung"
    ],
    [
      "ne",
      "ver"
    ],
    [
      "tel",
      "e"
    ],
    [
      "pal",
      "m"
    ],
    [
      "per",
      "ip"
    ],
    [
      "w",
      "rong"
    ],
    [
      "s",
      "omat"
    ],
    [
      "squar",
      "e-"
    ],
    [
      "ston",
      "e-"
    ],
    [
      "ment",
      "'s</w>"
    ],
    [
      "o",
      "und</w>"
    ],
    [
      "ran",
      "ch"
    ],
    [
      "ace",
      "a</w>"
    ],
    [
      "el",
      "er"
    ],
    [
      "ul",
      "ative</w>"
    ],
    [
      "acet",
      "yl"
    ],
    [
      "ach",
      "i"
    ],
    [
      "al",
      "i</w>"
    ],
    [
      "it",
      "ical</w>"
    ],
    [
      "ress",
      "ed</w>"
    ],
    [
      "om",
      "ed"
    ],
    [
      "ter",
      "er</w>"
    ],
    [
      "ra",
      "ft</w>"
    ],
    [
      "ri",
      "gh"
    ],
    [
      "-",
      "he"
    ],
    [
      "f",
      "ut"
    ],
    [
      "enn",
      "y</w>"
    ],
    [
      "i",
      "qu"
    ],
    [
      "be",
      "e</w>"
    ],
    [
      "f",
      "ly</w>"
    ],
    [
      "em",
      "bro"
    ],
    [
      "ight",
      "s</w>"
    ],
    [
      "er",
      "ie</w>"
    ],
    [
      "ott",
      "en</w>"
    ],
    [
      "im",
      "port"
    ],
    [
      "mon",
      "t</w>"
    ],
    [
      "st",
      "ock</w>"
    ],
    [
      "am",
      "et"
    ],
    [
      "le",
      "'s</w>"
    ],
    [
      "pul",
      "l"
    ],
    [
      "indiv",
      "idu"
    ],
    [
      "an",
      "atom"
    ],
    [
      "ent",
      "er</w>"
    ],
    [
      "el",
      "eph"
    ],
    [
      "od",
      "end"
    ],
    [
      "go",
      "th"
    ],
    [
      "m",
      "ing"
    ],
    [
      "epis",
      "cop"
    ],
    [
      "ph",
      "th"
    ],
    [
      "app",
      "ing</w>"
    ],
    [
      "v",
      "ass"
    ],
    [
      "z",
      "eb"
    ],
    [
      "och",
      "ron"
    ],
    [
      "es",
      "ome</w>"
    ],
    [
      "bal",
      "d"
    ],
    [
      "stor",
      "m"
    ],
    [
      "op",
      "ped</w>"
    ],
    [
      "-m",
      "ade</w>"
    ],
    [
      "uff",
      "</w>"
    ],
    [
      "b",
      "if"
    ],
    [
      "-tongu",
      "ed</w>"
    ],
    [
      "-b",
      "illed</w>"
    ],
    [
      "g",
      "et"
    ],
    [
      "in",
      "dis"
    ],
    [
      "und",
      "el"
    ],
    [
      "c",
      "amb"
    ],
    [
      "t",
      "ouch"
    ],
    [
      "ca",
      "us"
    ],
    [
      "el",
      "ly</w>"
    ],
    [
      "ch",
      "and"
    ],
    [
      "des",
      "ign"
    ],
    [
      "exp",
      "lo"
    ],
    [
      "sugg",
      "est"
    ],
    [
      "man",
      "if"
    ],
    [
      "c",
      "ris"
    ],
    [
      "di",
      "aph"
    ],
    [
      "dis",
      "co"
    ],
    [
      "leg",
      "itim"
    ],
    [
      "dou",
      "b"
    ],
    [
      "wor",
      "m"
    ],
    [
      "im",
      "pre"
    ],
    [
      "fe",
      "ather"
    ],
    [
      "gu",
      "id"
    ],
    [
      "f",
      "os"
    ],
    [
      "g",
      "yp"
    ],
    [
      "pat",
      "ron"
    ],
    [
      "non",
      "sub"
    ],
    [
      "out",
      "w"
    ],
    [
      "re",
      "se"
    ],
    [
      "sw",
      "an"
    ],
    [
      ".",
      "c"
    ],
    [
      "ab",
      "er"
    ],
    [
      "ali",
      "en"
    ],
    [
      "el",
      "ite</w>"
    ],
    [
      "w",
      "y"
    ],
    [
      "j",
      "unct"
    ],
    [
      "act",
      "ing</w>"
    ],
    [
      "g",
      "ers</w>"
    ],
    [
      "ac",
      "ia</w>"
    ],
    [
      "ing",
      "ing</w>"
    ],
    [
      "t",
      "ann"
    ],
    [
      "och",
      "lor"
    ],
    [
      "ifi",
      "able</w>"
    ],
    [
      "unt",
      "er</w>"
    ],
    [
      "ial",
      "es</w>"
    ],
    [
      "contra",
      "ct"
    ],
    [
      "on",
      "ically</w>"
    ],
    [
      "oph",
      "one</w>"
    ],
    [
      "el",
      "lo</w>"
    ],
    [
      "at",
      "us</w>"
    ],
    [
      "ad",
      "vent"
    ],
    [
      "ig",
      "mat"
    ],
    [
      "i",
      "oid</w>"
    ],
    [
      "ar",
      "m</w>"
    ],
    [
      "it",
      "ated</w>"
    ],
    [
      "l",
      "ist"
    ],
    [
      "y",
      "z"
    ],
    [
      "yl",
      "ess</w>"
    ],
    [
      "v",
      "ed"
    ],
    [
      "h",
      "i</w>"
    ],
    [
      "sh",
      "ot</w>"
    ],
    [
      "fi",
      "er"
    ],
    [
      "f",
      "rag"
    ],
    [
      "ig",
      "erous</w>"
    ],
    [
      "comp",
      "ass"
    ],
    [
      "c",
      "rot"
    ],
    [
      "su",
      "as"
    ],
    [
      "m",
      "o</w>"
    ],
    [
      "am",
      "el"
    ],
    [
      "i",
      "eld"
    ],
    [
      "amph",
      "ib"
    ],
    [
      "el",
      "yt"
    ],
    [
      "a",
      "us"
    ],
    [
      "mod",
      "er"
    ],
    [
      "pl",
      "et"
    ],
    [
      "ens",
      "it"
    ],
    [
      "joh",
      "n"
    ],
    [
      "ap",
      "par"
    ],
    [
      "arg",
      "ent"
    ],
    [
      "ug",
      "h</w>"
    ],
    [
      "por",
      "phy"
    ],
    [
      "ob",
      "jec"
    ],
    [
      "ham",
      "mer"
    ],
    [
      "ha",
      "ul"
    ],
    [
      "land",
      "s</w>"
    ],
    [
      "b",
      "ail"
    ],
    [
      "h",
      "as"
    ],
    [
      "but",
      "ton"
    ],
    [
      "u",
      "ght</w>"
    ],
    [
      "in",
      "y</w>"
    ],
    [
      "st",
      "an"
    ],
    [
      "-f",
      "ish</w>"
    ],
    [
      "t",
      "s"
    ],
    [
      "bo",
      "ot"
    ],
    [
      "c",
      "is"
    ],
    [
      "char",
      "acter"
    ],
    [
      "pit",
      "ch"
    ],
    [
      "conc",
      "ili"
    ],
    [
      "proc",
      "ess"
    ],
    [
      "ran",
      "k"
    ],
    [
      "he",
      "ath"
    ],
    [
      "equ",
      "il"
    ],
    [
      "g",
      "av"
    ],
    [
      "f",
      "ell"
    ],
    [
      "ti",
      "r"
    ],
    [
      "s",
      "ak"
    ],
    [
      "fol",
      "k"
    ],
    [
      "ra",
      "sh"
    ],
    [
      "gym",
      "n"
    ],
    [
      "ne",
      "ar"
    ],
    [
      "n",
      "im"
    ],
    [
      "st",
      "y"
    ],
    [
      "ven",
      "er"
    ],
    [
      "o",
      "'"
    ],
    [
      "o",
      "ak"
    ],
    [
      "th",
      "in"
    ],
    [
      "twelv",
      "e-"
    ],
    [
      "un",
      "int"
    ],
    [
      "x",
      "ylo"
    ],
    [
      "ari",
      "us</w>"
    ],
    [
      "iv",
      "al</w>"
    ],
    [
      "nor",
      "mal"
    ],
    [
      "ac",
      "ted</w>"
    ],
    [
      "ep",
      "tive</w>"
    ],
    [
      "met",
      "hyl"
    ],
    [
      "on",
      "ous</w>"
    ],
    [
      "y",
      "m</w>"
    ],
    [
      "um",
      "a</w>"
    ],
    [
      "ench",
      "ym"
    ],
    [
      "ang",
      "ular</w>"
    ],
    [
      "ett",
      "o</w>"
    ],
    [
      "s",
      "ite</w>"
    ],
    [
      "ri",
      "um</w>"
    ],
    [
      "con",
      "</w>"
    ],
    [
      "ept",
      "ion</w>"
    ],
    [
      "miss",
      "ion</w>"
    ],
    [
      "i",
      "j"
    ],
    [
      "ul",
      "atory</w>"
    ],
    [
      "anc",
      "er</w>"
    ],
    [
      "otrop",
      "ism</w>"
    ],
    [
      "or",
      "d</w>"
    ],
    [
      "wood",
      "s</w>"
    ],
    [
      "ozo",
      "ic</w>"
    ],
    [
      "u",
      "k</w>"
    ],
    [
      "well",
      "ing</w>"
    ],
    [
      "ay",
      "er</w>"
    ],
    [
      "-l",
      "ine</w>"
    ],
    [
      "b",
      "ar</w>"
    ],
    [
      "est",
      "s</w>"
    ],
    [
      "s",
      "in</w>"
    ],
    [
      "omorph",
      "</w>"
    ],
    [
      "in",
      "vol"
    ],
    [
      "rhy",
      "th"
    ],
    [
      "bra",
      "d"
    ],
    [
      "on",
      "-"
    ],
    [
      "per",
      "y</w>"
    ],
    [
      "per",
      "s"
    ],
    [
      "pl",
      "ication</w>"
    ],
    [
      "ooth",
      "ed</w>"
    ],
    [
      "erv",
      "ed</w>"
    ],
    [
      "ure",
      "th"
    ],
    [
      "al",
      "istically</w>"
    ],
    [
      "vic",
      "tor"
    ],
    [
      "ick",
      "ing</w>"
    ],
    [
      "gh",
      "ost"
    ],
    [
      "ar",
      "ist</w>"
    ],
    [
      "ch",
      "a</w>"
    ],
    [
      "pre",
      "par"
    ],
    [
      "app",
      "er</w>"
    ],
    [
      "appro",
      "pri"
    ],
    [
      "pl",
      "ut"
    ],
    [
      "re",
      "present"
    ],
    [
      "-",
      "sm"
    ],
    [
      "d",
      "ay</w>"
    ],
    [
      "im",
      "il"
    ],
    [
      "ring",
      "ed</w>"
    ],
    [
      "r",
      "en</w>"
    ],
    [
      "ac",
      "iously</w>"
    ],
    [
      "it",
      "z"
    ],
    [
      "ard",
      "ing</w>"
    ],
    [
      "y",
      "ish</w>"
    ],
    [
      "bo",
      "ards</w>"
    ],
    [
      "ligh",
      "ted</w>"
    ],
    [
      "inn",
      "ing</w>"
    ],
    [
      "d",
      "led</w>"
    ],
    [
      "ter",
      "-"
    ],
    [
      "heart",
      "edly</w>"
    ],
    [
      "ar",
      "ize</w>"
    ],
    [
      "b",
      "ond"
    ],
    [
      "bra",
      "in"
    ],
    [
      "ren",
      "g"
    ],
    [
      "bro",
      "ok"
    ],
    [
      "st",
      "art"
    ],
    [
      "cat",
      "ech"
    ],
    [
      "e",
      "king</w>"
    ],
    [
      "im",
      "mer"
    ],
    [
      "con",
      "ver"
    ],
    [
      "cor",
      "rect"
    ],
    [
      "cot",
      "ton"
    ],
    [
      "cran",
      "i"
    ],
    [
      "indust",
      "ri"
    ],
    [
      "phys",
      "ic"
    ],
    [
      "mon",
      "os"
    ],
    [
      "sp",
      "oon"
    ],
    [
      "sid",
      "e-"
    ],
    [
      "dr",
      "y-"
    ],
    [
      "e",
      "ight"
    ],
    [
      "f",
      "rat"
    ],
    [
      "min",
      "im"
    ],
    [
      "v",
      "acc"
    ],
    [
      "tran",
      "sp"
    ],
    [
      "sor",
      "row"
    ],
    [
      "par",
      "aph"
    ],
    [
      "sp",
      "ear"
    ],
    [
      "ab",
      "a</w>"
    ],
    [
      "t",
      "or</w>"
    ],
    [
      "ac",
      "u"
    ],
    [
      "e",
      "au</w>"
    ],
    [
      "sc",
      "iss"
    ],
    [
      "b",
      "ers</w>"
    ],
    [
      "ul",
      "f"
    ],
    [
      "cur",
      "s"
    ],
    [
      "ren",
      "e</w>"
    ],
    [
      "-th",
      "e-"
    ],
    [
      "act",
      "u"
    ],
    [
      "ur",
      "ation</w>"
    ],
    [
      "c",
      "i</w>"
    ],
    [
      "oph",
      "y"
    ],
    [
      "ad",
      "ip"
    ],
    [
      "jour",
      "n"
    ],
    [
      "t",
      ".</w>"
    ],
    [
      "j",
      "ut"
    ],
    [
      "m",
      "i</w>"
    ],
    [
      "ra",
      "bleness</w>"
    ],
    [
      "ore",
      "t"
    ],
    [
      "om",
      "ot"
    ],
    [
      "osaur",
      "us</w>"
    ],
    [
      "sh",
      "af"
    ],
    [
      "ath",
      "e</w>"
    ],
    [
      "ber",
      "t"
    ],
    [
      "i",
      "ating</w>"
    ],
    [
      "-f",
      "ed</w>"
    ],
    [
      "ous",
      "es</w>"
    ],
    [
      "tra",
      "ck"
    ],
    [
      "el",
      "ine</w>"
    ],
    [
      "il",
      "d</w>"
    ],
    [
      "c",
      "le</w>"
    ],
    [
      "ex",
      "pan"
    ],
    [
      "f",
      "emin"
    ],
    [
      "g",
      "overn"
    ],
    [
      "ex",
      "ist"
    ],
    [
      "princ",
      "ip"
    ],
    [
      "oc",
      "ry"
    ],
    [
      "ap",
      "prec"
    ],
    [
      "p",
      "lot"
    ],
    [
      "ar",
      "teri"
    ],
    [
      "ge",
      "e</w>"
    ],
    [
      "el",
      "t</w>"
    ],
    [
      "n",
      "au"
    ],
    [
      "er",
      "ism</w>"
    ],
    [
      "d",
      "up"
    ],
    [
      "ow",
      "s</w>"
    ],
    [
      "y",
      "ard"
    ],
    [
      "c",
      "un"
    ],
    [
      "st",
      "omat"
    ],
    [
      "be",
      "f"
    ],
    [
      "-m",
      "outhed</w>"
    ],
    [
      "di",
      "ap"
    ],
    [
      "e",
      "y-"
    ],
    [
      "kn",
      "if"
    ],
    [
      "el",
      "and</w>"
    ],
    [
      "u",
      "rable</w>"
    ],
    [
      "n",
      "ud"
    ],
    [
      "tra",
      "ch"
    ],
    [
      "di",
      "az"
    ],
    [
      "m",
      "und"
    ],
    [
      "f",
      "ist"
    ],
    [
      "cru",
      "c"
    ],
    [
      "t",
      "ess"
    ],
    [
      "f",
      "oc"
    ],
    [
      "spl",
      "end"
    ],
    [
      "counter",
      "-"
    ],
    [
      "cro",
      "ok"
    ],
    [
      "pol",
      "lin"
    ],
    [
      "gl",
      "az"
    ],
    [
      "gly",
      "cer"
    ],
    [
      "ing",
      "en"
    ],
    [
      "fe",
      "ver"
    ],
    [
      "hy",
      "post"
    ],
    [
      "jo",
      "y"
    ],
    [
      "ug",
      "n"
    ],
    [
      "re",
      "qu"
    ],
    [
      "p",
      "low"
    ],
    [
      "rub",
      "ber"
    ],
    [
      "in",
      "struct"
    ],
    [
      "my",
      "ri"
    ],
    [
      "thy",
      "ro"
    ],
    [
      "pol",
      "yt"
    ],
    [
      "hom",
      "oe"
    ],
    [
      "v",
      "inc"
    ],
    [
      "ind",
      "ec"
    ],
    [
      "mus",
      "ic"
    ],
    [
      "non",
      "cont"
    ],
    [
      "tru",
      "th"
    ],
    [
      "sec",
      "ond"
    ],
    [
      "re",
      "ass"
    ],
    [
      "tim",
      "ber"
    ],
    [
      "sil",
      "k"
    ],
    [
      "un",
      "bl"
    ],
    [
      "un",
      "fl"
    ],
    [
      "un",
      "for"
    ],
    [
      "on",
      "er</w>"
    ],
    [
      "ste",
      "ad</w>"
    ],
    [
      "rom",
      "b"
    ],
    [
      "ath",
      "y</w>"
    ],
    [
      "r",
      "ations</w>"
    ],
    [
      "r",
      "ent</w>"
    ],
    [
      "as",
      "al</w>"
    ],
    [
      "h",
      "an</w>"
    ],
    [
      "ess",
      "ion</w>"
    ],
    [
      "p",
      "t</w>"
    ],
    [
      "st",
      "ain"
    ],
    [
      "ocarp",
      "ous</w>"
    ],
    [
      "ic",
      "idal</w>"
    ],
    [
      "id",
      "an</w>"
    ],
    [
      "ul",
      "ates</w>"
    ],
    [
      "am",
      "in</w>"
    ],
    [
      "glo",
      "bul"
    ],
    [
      "m",
      "on</w>"
    ],
    [
      "o",
      "f</w>"
    ],
    [
      "ip",
      "s</w>"
    ],
    [
      "it",
      "y's</w>"
    ],
    [
      "ynge",
      "al</w>"
    ],
    [
      "ag",
      "a</w>"
    ],
    [
      "at",
      "ically</w>"
    ],
    [
      "z",
      "oo"
    ],
    [
      "om",
      "el"
    ],
    [
      "st",
      "ret"
    ],
    [
      "e",
      "ably</w>"
    ],
    [
      "t",
      "rou"
    ],
    [
      "che",
      "eked</w>"
    ],
    [
      "-",
      "ra"
    ],
    [
      "ik",
      "a</w>"
    ],
    [
      "elli",
      "</w>"
    ],
    [
      "in",
      "idae</w>"
    ],
    [
      "i",
      "ers</w>"
    ],
    [
      "ator",
      "ily</w>"
    ],
    [
      "ap",
      "ol"
    ],
    [
      "ast",
      "s</w>"
    ],
    [
      "at",
      "he"
    ],
    [
      "sc",
      "rat"
    ],
    [
      "is",
      "ol"
    ],
    [
      "y",
      "ism</w>"
    ],
    [
      "c",
      "rimin"
    ],
    [
      "ial",
      "ized</w>"
    ],
    [
      "ym",
      "en</w>"
    ],
    [
      "as",
      "sum"
    ],
    [
      "ur",
      "ate</w>"
    ],
    [
      "w",
      "art"
    ],
    [
      "ac",
      "iousness</w>"
    ],
    [
      "rick",
      "en</w>"
    ],
    [
      "ger",
      "ing</w>"
    ],
    [
      "-",
      "tailed</w>"
    ],
    [
      "bar",
      "n"
    ],
    [
      "ne",
      "bul"
    ],
    [
      "b",
      "aw"
    ],
    [
      "w",
      "itt"
    ],
    [
      "m",
      "op"
    ],
    [
      "-w",
      "itted</w>"
    ],
    [
      "un",
      "cl"
    ],
    [
      "h",
      "ub"
    ],
    [
      "ip",
      "e</w>"
    ],
    [
      "can",
      "on"
    ],
    [
      "cat",
      "ch"
    ],
    [
      "d",
      "ob"
    ],
    [
      "com",
      "par"
    ],
    [
      "em",
      "pl"
    ],
    [
      "pro",
      "pri"
    ],
    [
      "c",
      "ren"
    ],
    [
      "s",
      "cop"
    ],
    [
      "gra",
      "du"
    ],
    [
      "el",
      "ig"
    ],
    [
      "h",
      "od"
    ],
    [
      "dod",
      "ec"
    ],
    [
      "sem",
      "il"
    ],
    [
      "to",
      "ol"
    ],
    [
      "py",
      "ram"
    ],
    [
      "hat",
      "ch"
    ],
    [
      "sal",
      "v"
    ],
    [
      "int",
      "ran"
    ],
    [
      "vir",
      "tu"
    ],
    [
      "li",
      "gn"
    ],
    [
      "mul",
      "tic"
    ],
    [
      "py",
      "th"
    ],
    [
      "tel",
      "eg"
    ],
    [
      "sn",
      "ap"
    ],
    [
      "p",
      "rick"
    ],
    [
      "sem",
      "ib"
    ],
    [
      ".",
      "a"
    ],
    [
      "ot",
      "ically</w>"
    ],
    [
      "ound",
      "ing</w>"
    ],
    [
      "ge",
      "able</w>"
    ],
    [
      "ib",
      "ilities</w>"
    ],
    [
      "id",
      "ence</w>"
    ],
    [
      "at",
      "ri"
    ],
    [
      "elect",
      "ric</w>"
    ],
    [
      "j",
      "um"
    ],
    [
      "enn",
      "e</w>"
    ],
    [
      "uro",
      "us</w>"
    ],
    [
      "vers",
      "ion</w>"
    ],
    [
      "ant",
      "ed</w>"
    ],
    [
      "-",
      "pl"
    ],
    [
      "-b",
      "lo"
    ],
    [
      "a",
      "im"
    ],
    [
      "av",
      "a</w>"
    ],
    [
      "alb",
      "umin"
    ],
    [
      "f",
      "y</w>"
    ],
    [
      "u",
      "vi"
    ],
    [
      "rop",
      "ic</w>"
    ],
    [
      "ocy",
      "an"
    ],
    [
      "cha",
      "et"
    ],
    [
      "iac",
      "al</w>"
    ],
    [
      "an",
      "ab"
    ],
    [
      "anal",
      "og"
    ],
    [
      "r",
      "ally</w>"
    ],
    [
      "ir",
      "on</w>"
    ],
    [
      "oman",
      "iac</w>"
    ],
    [
      "og",
      "yn"
    ],
    [
      "ar",
      "ianism</w>"
    ],
    [
      "ant",
      "e"
    ],
    [
      "if",
      "t</w>"
    ],
    [
      "orth",
      "od"
    ],
    [
      "par",
      "allel"
    ],
    [
      "re",
      "volut"
    ],
    [
      "r",
      "un</w>"
    ],
    [
      "i",
      "et"
    ],
    [
      "g",
      "ate</w>"
    ],
    [
      "press",
      "ed</w>"
    ],
    [
      "es",
      "h</w>"
    ],
    [
      "er",
      "ess</w>"
    ],
    [
      "u",
      "ously</w>"
    ],
    [
      "ar",
      "k"
    ],
    [
      "d",
      "i</w>"
    ],
    [
      "ph",
      "yll"
    ],
    [
      "se",
      "g"
    ],
    [
      "cour",
      "t"
    ],
    [
      "b",
      "rig"
    ],
    [
      "t",
      "o-"
    ],
    [
      "rib",
      "bed</w>"
    ],
    [
      "be",
      "au"
    ],
    [
      "ro",
      "ck</w>"
    ],
    [
      "ro",
      "ot"
    ],
    [
      "an",
      "ked</w>"
    ],
    [
      "em",
      "aking</w>"
    ],
    [
      "ess",
      "ness</w>"
    ],
    [
      "b",
      "udd"
    ],
    [
      "k",
      "it"
    ],
    [
      "t",
      "ac"
    ],
    [
      "pi",
      "er"
    ],
    [
      "lin",
      "e"
    ],
    [
      "ol",
      "iv"
    ],
    [
      "th",
      "ur"
    ],
    [
      "mer",
      "cur"
    ],
    [
      "tem",
      "per"
    ],
    [
      "ic",
      "it"
    ],
    [
      "clou",
      "d"
    ],
    [
      "dep",
      "os"
    ],
    [
      "im",
      "pl"
    ],
    [
      "comm",
      "end"
    ],
    [
      "ub",
      "il"
    ],
    [
      "el",
      "lig"
    ],
    [
      "cra",
      "w"
    ],
    [
      "c",
      "ri"
    ],
    [
      "c",
      "rum"
    ],
    [
      "pl",
      "umb"
    ],
    [
      "d",
      "au"
    ],
    [
      "hydro",
      "gen"
    ],
    [
      "re",
      "spect"
    ],
    [
      "f",
      "anc"
    ],
    [
      "s",
      "ong"
    ],
    [
      "gent",
      "lem"
    ],
    [
      "un",
      "gu"
    ],
    [
      "l",
      "aur"
    ],
    [
      "w",
      "au"
    ],
    [
      "mic",
      "rop"
    ],
    [
      "re",
      "fer"
    ],
    [
      "mon",
      "opol"
    ],
    [
      "non",
      "inter"
    ],
    [
      "su",
      "sp"
    ],
    [
      "spe",
      "ed"
    ],
    [
      "rh",
      "ab"
    ],
    [
      "st",
      "a"
    ],
    [
      "ax",
      "es</w>"
    ],
    [
      "ed",
      "e</w>"
    ],
    [
      "ab",
      "sol"
    ],
    [
      "d",
      "ness</w>"
    ],
    [
      "ect",
      "ic</w>"
    ],
    [
      "acc",
      "um"
    ],
    [
      "a",
      "et"
    ],
    [
      "ap",
      "e</w>"
    ],
    [
      "en",
      "ia</w>"
    ],
    [
      "ac",
      "ity</w>"
    ],
    [
      "-f",
      "oot</w>"
    ],
    [
      "al",
      "ic</w>"
    ],
    [
      "par",
      "al"
    ],
    [
      "tif",
      "ication</w>"
    ],
    [
      "lin",
      "s</w>"
    ],
    [
      "ust",
      "</w>"
    ],
    [
      "ograph",
      "ies</w>"
    ],
    [
      "osph",
      "ere</w>"
    ],
    [
      "anth",
      "us</w>"
    ],
    [
      "a",
      "est"
    ],
    [
      "fer",
      "n"
    ],
    [
      "m",
      "ers</w>"
    ],
    [
      "or",
      "i</w>"
    ],
    [
      "eu",
      "rop"
    ],
    [
      "wor",
      "king</w>"
    ],
    [
      "al",
      "ite</w>"
    ],
    [
      "it",
      "ative</w>"
    ],
    [
      "an",
      "om"
    ],
    [
      "ra",
      "ff"
    ],
    [
      "ru",
      "f"
    ],
    [
      "rol",
      "ling</w>"
    ],
    [
      "ail",
      "ing</w>"
    ],
[...]
