{
  "2</w>": 13,
  "10": 4,
  "8": 3,
  "0</w>": 3,
  "&": 7,
  "c</w>": 239,
  "-point</w>": 25,
  "th</w>": 212,
  "1": 11,
  "2": 11,
  "6": 6,
  "8-point</w>": 3,
  "st</w>": 208,
  ",": 3,
  "4": 7,
  "5": 4,
  "-t</w>": 3,
  "-d</w>": 4,
  "0": 2,
  "d</w>": 539,
  "n": 914,
  "3": 7,
  "-": 958,
  "m</w>": 436,
  "rd</w>": 7,
  "gl</w>": 4,
  "h</w>": 320,
  "7": 2,
  "9": 6,
  "a</w>": 1729,
  "a": 439,
  "'</w>": 24,
  "a-</w>": 33,
  "p</w>": 472,
  "a.</w>": 4,
  ".a": 7,
  ".a.</w>": 30,
  ".b.</w>": 17,
  ".b.a.</w>": 4,
  ".c.</w>": 25,
  ".d.</w>": 29,
  "a.": 5,
  "d": 1068,
  ".f.</w>": 14,
  "f.a": 3,
  ".m.</w>": 23,
  ".g.</w>": 13,
  ".h.</w>": 9,
  ".i.</w>": 14,
  ".i": 7,
  ".l.</w>": 5,
  "l": 686,
  ".p.</w>": 22,
  ".m": 9,
  ".": 16,
  "n.</w>": 10,
  ".r.</w>": 10,
  "r.c.s.</w>": 3,
  ".u.</w>": 6,
  ".u": 2,
  ".v.</w>": 13,
  ".w.</w>": 5,
  ".w": 11,
  ".o": 8,
  "a/": 6,
  "f</w>": 281,
  "o</w>": 1397,
  "v</w>": 148,
  "1</w>": 11,
  "a-": 173,
  "4</w>": 6,
  "5</w>": 5,
  "aa</w>": 20,
  "aaaa</w>": 3,
  "aa": 1,
  "aal</w>": 10,
  "aas</w>": 8,
  "aberg</w>": 3,
  "ach": 238,
  "en</w>": 990,
  "ae</w>": 508,
  "ae": 98,
  "e</w>": 1372,
  "aaf</w>": 3,
  "ag</w>": 125,
  "ah</w>": 381,
  "ahed</w>": 4,
  "ahing</w>": 3,
  "ahs</w>": 104,
  "ai": 81,
  "i</w>": 1404,
  "aal": 5,
  "borg</w>": 15,
  "es": 540,
  "und</w>": 83,
  "alii</w>": 3,
  "ali": 50,
  "is</w>": 753,
  "als</w>": 389,
  "alto</w>": 6,
  "aam</w>": 6,
  "am": 658,
  "si</w>": 64,
  "and": 287,
  "ahl</w>": 10,
  "and-": 8,
  "r</w>": 282,
  "ani</w>": 96,
  "ao</w>": 90,
  "ap</w>": 138,
  "ap": 666,
  "ss</w>": 60,
  "aq": 7,
  "bi": 440,
  "ye</w>": 96,
  "aar</w>": 4,
  "aara</w>": 3,
  "aar": 13,
  "au</w>": 146,
  "aard": 4,
  "vark</w>": 4,
  "var": 130,
  "ks</w>": 288,
  "wolf</w>": 7,
  "wolves</w>": 3,
  "arg": 133,
  "hus</w>": 10,
  "arika</w>": 3,
  "on</w>": 1114,
  "onic</w>": 309,
  "onical</w>": 29,
  "onite</w>": 89,
  "aaron": 4,
  "itic</w>": 381,
  "'s-beard</w>": 5,
  "sburg</w>": 123,
  "son</w>": 257,
  "arp</w>": 11,
  "r": 418,
  "gh</w>": 34,
  "gh": 137,
  "u</w>": 483,
  "a'": 3,
  "asia</w>": 68,
  "aas": 3,
  "vogel</w>": 3,
  "vog": 13,
  "els</w>": 260,
  "aau</w>": 3,
  "aup</w>": 6,
  "auw</w>": 4,
  "av": 328,
  "so</w>": 42,
  "ax</w>": 108,
  "axes</w>": 40,
  "axis</w>": 44,
  "ab</w>": 115,
  "ab": 726,
  "-</w>": 698,
  "aba</w>": 49,
  "de": 759,
  "ua</w>": 84,
  "ac</w>": 205,
  "aca</w>": 43,
  "abac": 15,
  "ay</w>": 248,
  "as</w>": 1029,
  "ate</w>": 1775,
  "ax": 175,
  "inate</w>": 143,
  "ination</w>": 103,
  "isci</w>": 8,
  "iscus</w>": 26,
  "ist</w>": 1277,
  "aback</w>": 4,
  "li</w>": 120,
  "aco</w>": 29,
  "ot</w>": 228,
  "acter": 9,
  "ial</w>": 572,
  "actinal</w>": 9,
  "actin": 136,
  "ally</w>": 649,
  "action</w>": 61,
  "actor</w>": 26,
  "uli</w>": 60,
  "ulus</w>": 67,
  "acus</w>": 25,
  "uses</w>": 269,
  "abad</w>": 14,
  "ada</w>": 121,
  "adan</w>": 7,
  "add": 81,
  "abad": 3,
  "ejo</w>": 4,
  "eng": 123,
  "adia</w>": 8,
  "adite</w>": 7,
  "aff</w>": 37,
  "aft</w>": 10,
  "abag": 4,
  "ael</w>": 9,
  "ail</w>": 97,
  "tha</w>": 25,
  "ayah</w>": 3,
  "ail": 78,
  "ard</w>": 350,
  "aisance</w>": 3,
  "aba": 7,
  "ised</w>": 520,
  "iser</w>": 201,
  "isse</w>": 32,
  "issed</w>": 10,
  "aka</w>": 67,
  "akan</w>": 9,
  "akas</w>": 5,
  "ak": 272,
  "um": 227,
  "ov</w>": 66,
  "al": 1009,
  "ation</w>": 1594,
  "abalien": 4,
  "ated</w>": 1265,
  "ating</w>": 1011,
  "alone</w>": 5,
  "ones</w>": 131,
  "ama</w>": 67,
  "amp</w>": 43,
  "ampere</w>": 13,
  "amperes</w>": 3,
  "amps</w>": 18,
  "ana</w>": 275,
  "and</w>": 187,
  "abandon</w>": 3,
  "aband": 10,
  "onable</w>": 16,
  "abandoned</w>": 5,
  "abandon": 4,
  "edly</w>": 600,
  "ee</w>": 485,
  "oner</w>": 48,
  "oners</w>": 18,
  "abandoning</w>": 3,
  "abandonment</w>": 3,
  "ments</w>": 185,
  "ons</w>": 339,
  "um</w>": 686,
  "anet</w>": 7,
  "anga</w>": 40,
  "anic</w>": 79,
  "ann": 182,
  "ition</w>": 147,
  "antes</w>": 30,
  "apical</w>": 6,
  "tist": 12,
  "ar": 905,
  "ambo</w>": 8,
  "arbar": 5,
  "ea</w>": 207,
  "aris</w>": 41,
  "arthrosis</w>": 21,
  "articular</w>": 15,
  "articulation</w>": 14,
  "abas</w>": 11,
  "abase</w>": 4,
  "ased</w>": 44,
  "abas": 13,
  "edness</w>": 599,
  "ement</w>": 335,
  "ements</w>": 106,
  "er</w>": 2430,
  "ers</w>": 1972,
  "ases</w>": 106,
  "gi</w>": 26,
  "ash</w>": 111,
  "ashed</w>": 57,
  "abash": 6,
  "ashes</w>": 52,
  "ashing</w>": 51,
  "less</w>": 982,
  "lessly</w>": 154,
  "ment</w>": 513,
  "ias</w>": 264,
  "asic</w>": 30,
  "asing</w>": 28,
  "io</w>": 205,
  "ask</w>": 27,
  "assi</w>": 3,
  "assi": 7,
  "eh</w>": 44,
  "assin</w>": 7,
  "ast": 308,
  "astardize</w>": 3,
  "astral</w>": 9,
  "atable</w>": 63,
  "abat": 11,
  "age</w>": 782,
  "ater</w>": 129,
  "aters</w>": 42,
  "ates</w>": 720,
  "abatic</w>": 6,
  "atis</w>": 21,
  "ises</w>": 212,
  "jour</w>": 5,
  "jour": 17,
  "s</w>": 1871,
  "aton</w>": 29,
  "ator</w>": 642,
  "ators</w>": 263,
  "ats</w>": 143,
  "abatt": 7,
  "tis</w>": 78,
  "oir</w>": 23,
  "oirs</w>": 9,
  "ue</w>": 132,
  "ature</w>": 96,
  "au": 184,
  "ave</w>": 123,
  "axial</w>": 34,
  "axile</w>": 5,
  "aze</w>": 28,
  "abb</w>": 3,
  "ba</w>": 83,
  "abbac": 3,
  "y</w>": 2149,
  "ies</w>": 925,
  "omes</w>": 25,
  "bad": 81,
  "ide</w>": 397,
  "bai</w>": 5,
  "bay": 61,
  "band": 158,
  "ono</w>": 6,
  "abb": 28,
  "bas": 206,
  "id</w>": 828,
  "abbass": 3,
  "abbat": 7,
  "abbatical</w>": 3,
  "ie</w>": 879,
  "be</w>": 81,
  "bey</w>": 12,
  "abbe": 6,
  "ys</w>": 160,
  "y's</w>": 148,
  "bey": 9,
  "stead</w>": 44,
  "yst": 84,
  "ede</w>": 46,
  "es</w>": 1942,
  "ess</w>": 293,
  "esses</w>": 109,
  "est</w>": 572,
  "vil": 70,
  "ean</w>": 251,
  "ville</w>": 436,
  "villian</w>": 3,
  "abby</w>": 4,
  "abbie</w>": 4,
  "bye</w>": 17,
  "byville</w>": 5,
  "oc": 416,
  "cato</w>": 6,
  "bog": 115,
  "abbot</w>": 4,
  "abbot": 12,
  "cy</w>": 57,
  "cies</w>": 13,
  "nulli": 12,
  "us</w>": 1254,
  "ric</w>": 175,
  "ots</w>": 105,
  "'s</w>": 1180,
  "sen</w>": 80,
  "sford</w>": 12,
  "ship</w>": 423,
  "ships</w>": 84,
  "sun</w>": 15,
  "t</w>": 825,
  "bott": 35,
  "stown</w>": 69,
  "bou": 87,
  "bo": 298,
  "zzo</w>": 14,
  "br</w>": 6,
  "bre": 137,
  "abbrevi": 12,
  "ately</w>": 211,
  "ations</w>": 694,
  "atory</w>": 502,
  "bro": 173,
  "achment</w>": 13,
  "cess</w>": 4,
  "c": 644,
  "issa</w>": 49,
  "coulomb</w>": 4,
  "cs</w>": 33,
  "dal</w>": 15,
  "dal": 84,
  "daria</w>": 4,
  "abd": 6,
  "at</w>": 438,
  "del</w>": 9,
  "d-": 20,
  "el": 783,
  "-k": 48,
  "ad": 705,
  "ir</w>": 171,
  "rim</w>": 18,
  "ella</w>": 270,
  "abder": 4,
  "hal": 316,
  "den</w>": 96,
  "ian</w>": 997,
  "ite</w>": 1313,
  "dest</w>": 9,
  "dias</w>": 3,
  "abdic": 9,
  "able</w>": 2173,
  "ant</w>": 1014,
  "ication</w>": 85,
  "ative</w>": 824,
  "diel</w>": 5,
  "dit": 73,
  "ive</w>": 352,
  "ory</w>": 278,
  "dom</w>": 218,
  "abdomen</w>": 4,
  "abdom": 4,
  "ens</w>": 360,
  "en's</w>": 11,
  "ina</w>": 475,
  "abdominal</w>": 12,
  "abdomin": 20,
  "ales</w>": 161,
  "alia</w>": 108,
  "alian</w>": 52,
  "oanterior</w>": 7,
  "ocardiac</w>": 12,
  "ocentesis</w>": 18,
  "ocystic</w>": 17,
  "ogenital</w>": 6,
  "ohysterectomy</w>": 4,
  "ohysterotomy</w>": 3,
  "oposterior</w>": 8,
  "oscope</w>": 200,
  "oscopy</w>": 121,
  "othoracic</w>": 8,
  "inous</w>": 127,
  "o-": 270,
  "uterotomy</w>": 3,
  "ovaginal</w>": 11,
  "ovesical</w>": 11,
  "don</w>": 54,
  "du</w>": 15,
  "abduc": 17,
  "ed</w>": 1741,
  "ent</w>": 654,
  "entes</w>": 14,
  "ing</w>": 2204,
  "ted</w>": 385,
  "ting</w>": 243,
  "duction</w>": 23,
  "tions</w>": 20,
  "tion's</w>": 10,
  "tor</w>": 41,
  "t": 838,
  "ores</w>": 86,
  "tors</w>": 31,
  "tor's</w>": 5,
  "ts</w>": 294,
  "ul</w>": 92,
  "dul": 60,
  "az": 253,
  "iz</w>": 34,
  "-b": 314,
  "aha</w>": 17,
  "dull": 44,
  "abe</w>": 19,
  "a-b": 9,
  "eam</w>": 5,
  "ear</w>": 15,
  "ear": 158,
  "ance</w>": 520,
  "ebi</w>": 5,
  "abeced": 8,
  "aire</w>": 68,
  "ary</w>": 591,
  "aria</w>": 244,
  "arian</w>": 234,
  "arians</w>": 23,
  "aries</w>": 197,
  "arium</w>": 90,
  "arius</w>": 47,
  "abed</w>": 8,
  "edge</w>": 30,
  "ed": 502,
  "neg": 51,
  "eg": 343,
  "ge</w>": 229,
  "ey</w>": 373,
  "abey": 5,
  "ances</w>": 174,
  "ancy</w>": 275,
  "ancies</w>": 77,
  "eigh</w>": 6,
  "abel</w>": 24,
  "abel": 5,
  "ele</w>": 83,
  "eles</w>": 17,
  "elia</w>": 90,
  "elian</w>": 47,
  "elic": 23,
  "elite</w>": 47,
  "abell</w>": 5,
  "abelmos": 3,
  "chus</w>": 25,
  "k</w>": 489,
  "mus": 119,
  "onian</w>": 145,
  "elson</w>": 14,
  "tree</w>": 45,
  "encer": 3,
  "rages</w>": 10,
  "end</w>": 139,
  "ends</w>": 92,
  "en": 1083,
  "ez": 61,
  "ra</w>": 344,
  "enteric</w>": 19,
  "e": 666,
  "ok": 192,
  "uta</w>": 31,
  "epithy": 5,
  "mia</w>": 61,
  "ep": 428,
  "erc": 31,
  "rom": 170,
  "by</w>": 187,
  "romb": 8,
  "aber": 41,
  "dare</w>": 3,
  "dav": 60,
  "ine</w>": 1245,
  "deen</w>": 10,
  "shire</w>": 64,
  "dev": 107,
  "donian</w>": 5,
  "du": 276,
  "vine</w>": 26,
  "fan</w>": 6,
  "glau": 16,
  "ia</w>": 1247,
  "wy": 47,
  "abern": 4,
  "athy</w>": 41,
  "eth": 208,
  "non</w>": 54,
  "rance</w>": 34,
  "rancy</w>": 17,
  "rancies</w>": 7,
  "rant</w>": 98,
  "rantly</w>": 20,
  "rants</w>": 18,
  "rate</w>": 204,
  "rated</w>": 119,
  "rating</w>": 103,
  "ration</w>": 120,
  "rational</w>": 31,
  "rations</w>": 48,
  "rative</w>": 45,
  "rator</w>": 59,
  "rometer</w>": 25,
  "roscope</w>": 35,
  "unc": 399,
  "esse</w>": 42,
  "essive</w>": 10,
  "et</w>": 859,
  "et": 482,
  "ets</w>": 353,
  "abett": 4,
  "al</w>": 1529,
  "etted</w>": 57,
  "etter</w>": 57,
  "etters</w>": 13,
  "etting</w>": 76,
  "or</w>": 831,
  "ors</w>": 378,
  "eu</w>": 21,
  "evacuation</w>": 6,
  "farad</w>": 10,
  "far": 254,
  "ads</w>": 102,
  "fm</w>": 12,
  "g": 853,
  "atha</w>": 22,
  "h": 719,
  "henry</w>": 5,
  "henries</w>": 4,
  "henrys</w>": 4,
  "hin": 22,
  "aya</w>": 50,
  "his": 20,
  "eka</w>": 11,
  "hom": 373,
  "inable</w>": 50,
  "hor</w>": 5,
  "abhor": 13,
  "red</w>": 249,
  "rence</w>": 8,
  "rences</w>": 3,
  "rency</w>": 3,
  "rent</w>": 33,
  "rently</w>": 6,
  "rer</w>": 56,
  "rers</w>": 15,
  "rible</w>": 9,
  "abhorring</w>": 6,
  "abi</w>": 11,
  "aby</w>": 10,
  "abia</w>": 5,
  "abi": 37,
  "ath": 169,
  "ar</w>": 786,
  "ib</w>": 56,
  "ichite</w>": 3,
  "idal</w>": 117,
  "abid": 3,
  "idden</w>": 23,
  "ided</w>": 73,
  "ider</w>": 67,
  "iders</w>": 12,
  "ides</w>": 216,
  "idi</w>": 8,
  "abiding</w>": 6,
  "idingly</w>": 10,
  "abidingness</w>": 3,
  "jan</w>": 21,
  "yd": 58,
  "os</w>": 770,
  "ied</w>": 221,
  "yed</w>": 50,
  "egh</w>": 7,
  "ence</w>": 380,
  "ient</w>": 75,
  "abies</w>": 7,
  "yes</w>": 23,
  "abiet": 6,
  "ene</w>": 356,
  "etic</w>": 270,
  "etin</w>": 20,
  "ineae</w>": 11,
  "ineous</w>": 21,
  "inic</w>": 145,
  "ezer</w>": 15,
  "abig": 8,
  "ails</w>": 53,
  "ale</w>": 180,
  "eat</w>": 19,
  "ei</w>": 57,
  "eus</w>": 104,
  "hu</w>": 13,
  "ying</w>": 241,
  "jah</w>": 12,
  "yla</w>": 21,
  "abil": 22,
  "iment</w>": 43,
  "yne</w>": 100,
  "itable</w>": 114,
  "ability</w>": 813,
  "abilities</w>": 79,
  "ability's</w>": 3,
  "illa</w>": 171,
  "ime</w>": 42,
  "im": 644,
  "elech</w>": 5,
  "iner": 64,
  "ing": 394,
  "inger</w>": 96,
  "ington</w>": 69,
  "in": 1600,
  "oam</w>": 8,
  "ino": 3,
  "em</w>": 171,
  "intest": 13,
  "ogeneses</w>": 10,
  "ogenesis</w>": 138,
  "ogen": 58,
  "esist</w>": 9,
  "ogenetic</w>": 106,
  "ogenetical</w>": 8,
  "ogenetically</w>": 24,
  "ogeny</w>": 71,
  "ogenist</w>": 9,
  "ogenous</w>": 133,
  "iology</w>": 59,
  "ological</w>": 366,
  "ologically</w>": 159,
  "oses</w>": 159,
  "abiosis</w>": 4,
  "abiotic</w>": 5,
  "otical</w>": 15,
  "abiotically</w>": 3,
  "otrophy</w>": 29,
  "otrophic</w>": 35,
  "ip": 263,
  "qui": 57,
  "irritant</w>": 8,
  "abirrit": 5,
  "is": 745,
  "isha</w>": 15,
  "ish": 119,
  "isia</w>": 15,
  "ysm</w>": 7,
  "aby": 3,
  "smal</w>": 13,
  "smally</w>": 4,
  "sms</w>": 5,
  "yss</w>": 6,
  "abyss": 11,
  "inia</w>": 38,
  "abyssinian</w>": 3,
  "inians</w>": 4,
  "obenth": 6,
  "olith</w>": 59,
  "opelagic</w>": 5,
  "yssus</w>": 3,
  "iston</w>": 11,
  "abit</w>": 6,
  "it": 503,
  "ibi</w>": 5,
  "uret</w>": 26,
  "ix": 61,
  "ject</w>": 27,
  "abject": 5,
  "jection</w>": 41,
  "ions</w>": 484,
  "jective</w>": 20,
  "ly</w>": 1246,
  "ness</w>": 823,
  "nesses</w>": 242,
  "joint</w>": 23,
  "judge</w>": 16,
  "judged</w>": 16,
  "judging</w>": 22,
  "judicate</w>": 6,
  "judicated</w>": 6,
  "judicating</w>": 3,
  "judication</w>": 7,
  "judicator</w>": 3,
  "jugate</w>": 18,
  "junct</w>": 12,
  "junction</w>": 19,
  "junctive</w>": 16,
  "abjur": 6,
  "jure</w>": 9,
  "jured</w>": 10,
  "j": 639,
  "urement</w>": 25,
  "ures</w>": 147,
  "kar</w>": 19,
  "kari</w>": 7,
  "k": 1002,
  "abkh": 6,
  "asian</w>": 17,
  "az</w>": 40,
  "azia</w>": 9,
  "abl</w>": 4,
  "abl": 74,
  ".</w>": 611,
  "ach</w>": 148,
  "ablact": 4,
  "aqu": 145,
  "eate</w>": 23,
  "are</w>": 134,
  "last</w>": 20,
  "ablast": 3,
  "emic</w>": 125,
  "in</w>": 1331,
  "ous</w>": 1087,
  "atitious</w>": 5,
  "atival</w>": 5,
  "atively</w>": 262,
  "atives</w>": 35,
  "aut</w>": 31,
  "auts</w>": 11,
  "le-bodied</w>": 3,
  "le-b": 43,
  "odi": 58,
  "able": 12,
  "eze</w>": 21,
  "legate</w>": 9,
  "leg": 182,
  "legation</w>": 3,
  "-minded</w>": 114,
  "-mindedness</w>": 50,
  "ableness</w>": 670,
  "ablephar": 4,
  "lepsy</w>": 4,
  "ablepsia</w>": 3,
  "leptical</w>": 3,
  "leptically</w>": 3,
  "abler</w>": 8,
  "ables</w>": 69,
  "ablest</w>": 3,
  "ablet</w>": 3,
  "whack": 8,
  "ably</w>": 726,
  "ings</w>": 737,
  "ins</w>": 454,
  "lock</w>": 109,
  "loom</w>": 14,
  "low</w>": 111,
  "ude</w>": 76,
  "u": 505,
  "ents</w>": 189,
  "ush</w>": 26,
  "ute</w>": 132,
  "uted</w>": 65,
  "ution</w>": 34,
  "ut": 224,
  "ionary</w>": 131,
  "utions</w>": 9,
  "uv": 38,
  "ion</w>": 705,
  "mho</w>": 3,
  "mhos</w>": 3,
  "modality</w>": 3,
  "mod": 136,
  "alities</w>": 107,
  "n</w>": 449,
  "nak": 35,
  "abneg": 12,
  "ner</w>": 181,
  "nerval</w>": 3,
  "net</w>": 46,
  "neural</w>": 9,
  "normal</w>": 15,
  "abnormal": 14,
  "ise</w>": 582,
  "ising</w>": 449,
  "ism</w>": 1437,
  "ity</w>": 596,
  "ities</w>": 361,
  "ize</w>": 1066,
  "ized</w>": 738,
  "izing</w>": 639,
  "normally</w>": 11,
  "norm": 10,
  "nor": 150,
  "mous</w>": 31,
  "numer": 39,
  "abo</w>": 10,
  "abo": 5,
  "ard": 160,
  "ob": 407,
  "oco": 57,
  "ck": 42,
  "od": 371,
  "ode</w>": 101,
  "oded</w>": 25,
  "odes</w>": 44,
  "ode's</w>": 4,
  "ody</w>": 47,
  "oding</w>": 14,
  "abog": 3,
  "ado</w>": 121,
  "ados</w>": 34,
  "ohm</w>": 10,
  "ohms</w>": 5,
  "aboide": 3,
  "aus</w>": 47,
  "aux</w>": 40,
  "oil</w>": 28,
  "aboit": 3,
  "eau</w>": 49,
  "eaus</w>": 11,
  "eaux</w>": 22,
  "abol": 20,
  "ete</w>": 164,
  "ish</w>": 1017,
  "ishable</w>": 57,
  "abolished</w>": 4,
  "isher</w>": 75,
  "ishers</w>": 26,
  "ishes</w>": 94,
  "ishing</w>": 111,
  "ishment</w>": 52,
  "ishments</w>": 18,
  "ishment's</w>": 6,
  "abolition</w>": 4,
  "abolit": 7,
  "abolition": 3,
  "ionism</w>": 84,
  "abolitionist</w>": 3,
  "ionists</w>": 38,
  "ionize</w>": 62,
  "ionized</w>": 19,
  "ionizing</w>": 14,
  "itions</w>": 36,
  "olla</w>": 17,
  "oll": 36,
  "oma</w>": 272,
  "omas</w>": 67,
  "abom": 9,
  "asa</w>": 27,
  "asal</w>": 29,
  "asi</w>": 28,
  "as": 515,
  "asus</w>": 10,
  "usi</w>": 13,
  "omb</w>": 26,
  "abomin": 13,
  "inated</w>": 97,
  "abomination</w>": 4,
  "ond": 96,
  "ongo</w>": 13,
  "onne</w>": 29,
  "onn": 29,
  "oon</w>": 99,
  "abor": 26,
  "ad</w>": 318,
  "oral</w>": 81,
  "aborig": 8,
  "inal</w>": 143,
  "ality</w>": 314,
  "inally</w>": 9,
  "inary</w>": 16,
  "ines</w>": 336,
  "ine's</w>": 21,
  "-m": 167,
  "iri</w>": 28,
  "orn</w>": 77,
  "orning</w>": 7,
  "sement</w>": 21,
  "sive</w>": 57,
  "abort": 12,
  "ters</w>": 304,
  "icide</w>": 81,
  "tient</w>": 6,
  "ti": 352,
  "facient</w>": 10,
  "orting</w>": 21,
  "abortion</w>": 3,
  "ional</w>": 278,
  "ionist</w>": 174,
  "ion's</w>": 185,
  "tive</w>": 183,
  "tively</w>": 132,
  "tiveness</w>": 100,
  "ogenic</w>": 186,
  "orts</w>": 24,
  "abos</w>": 6,
  "ote</w>": 178,
  "ott</w>": 32,
  "ouchement</w>": 4,
  "abou": 6,
  "dik": 22,
  "ro</w>": 135,
  "ought</w>": 25,
  "kir</w>": 4,
  "lia</w>": 65,
  "lias</w>": 6,
  "oul": 42,
  "ic</w>": 1332,
  "abound</w>": 3,
  "ounded</w>": 14,
  "ound": 11,
  "abounding</w>": 3,
  "oundingly</w>": 3,
  "ounds</w>": 13,
  "rez": 6,
  "about</w>": 29,
  "about-face</w>": 4,
  "about": 8,
  "-faced</w>": 166,
  "-facing</w>": 6,
  "abouts</w>": 13,
  "about-": 4,
  "shipped</w>": 11,
  "shipping</w>": 12,
  "-s": 214,
  "ledge</w>": 9,
  "turn</w>": 28,
  "above</w>": 3,
  "abov": 8,
  "eboard</w>": 15,
  "above-": 11,
  "board</w>": 185,
  "cited</w>": 4,
  "eck</w>": 85,
  "found</w>": 23,
  "given</w>": 7,
  "eground</w>": 4,
  "ement": 20,
  "ioned</w>": 137,
  "mentioned</w>": 8,
  "named</w>": 15,
  "eproof</w>": 41,
  "quoted</w>": 10,
  "re": 2561,
  "ported</w>": 22,
  "aid</w>": 50,
  "said</w>": 14,
  "est": 329,
  "airs</w>": 27,
  "water</w>": 73,
  "written</w>": 20,
  "ow</w>": 178,
  "ox</w>": 70,
  "pc</w>": 19,
  "q": 171,
  "q</w>": 66,
  "r.</w>": 32,
  "abra</w>": 9,
  "rac": 113,
  "rachia</w>": 5,
  "abra": 18,
  "chias</w>": 3,
  "abrad": 8,
  "ants</w>": 249,
  "rade</w>": 19,
  "ham</w>": 81,
  "abraham": 5,
  "idae</w>": 665,
  "hamite</w>": 8,
  "-man</w>": 30,
  "hams</w>": 8,
  "han</w>": 37,
  "ray</w>": 46,
  "ram</w>": 68,
  "ramis</w>": 4,
  "ram": 266,
  "rams</w>": 15,
  "ran</w>": 54,
  "ranchial</w>": 10,
  "ranch": 19,
  "ialism</w>": 59,
  "ranchian</w>": 5,
  "ranchiata</w>": 5,
  "ranchiate</w>": 10,
  "ious</w>": 390,
  "abras": 7,
  "se</w>": 306,
  "sed</w>": 122,
  "ser</w>": 77,
  "sh</w>": 96,
  "sing</w>": 102,
  "siometer</w>": 3,
  "abrasion</w>": 3,
  "ively</w>": 227,
  "iveness</w>": 210,
  "ivenesses</w>": 38,
  "ives</w>": 92,
  "rast": 25,
  "ol</w>": 416,
  "rax": 17,
  "abraz": 4,
  "abre": 10,
  "act</w>": 81,
  "acted</w>": 43,
  "acting</w>": 51,
  "reactions</w>": 3,
  "reacts</w>": 3,
  "ast</w>": 152,
  "reed</w>": 18,
  "renounc": 13,
  "ren": 244,
  "unciate</w>": 8,
  "renunciation</w>": 4,
  "ption</w>": 32,
  "ret</w>": 61,
  "voir</w>": 4,
  "ri</w>": 140,
  "abric": 6,
  "ock</w>": 155,
  "abridg": 5,
  "ridge</w>": 30,
  "abrid": 9,
  "geable</w>": 35,
  "ged</w>": 189,
  "gements</w>": 7,
  "ger</w>": 245,
  "gers</w>": 51,
  "ges</w>": 104,
  "ging</w>": 219,
  "rin</w>": 106,
  "rine</w>": 110,
  "ris</w>": 96,
  "rist": 30,
  "le</w>": 793,
  "abro": 3,
  "road</w>": 20,
  "coma</w>": 10,
  "come</w>": 31,
  "abrog": 10,
  "roma</w>": 31,
  "roms</w>": 3,
  "ronia</w>": 5,
  "rood</w>": 5,
  "rook</w>": 10,
  "rosia</w>": 3,
  "ros": 211,
  "rot": 169,
  "anum</w>": 14,
  "rotin</w>": 4,
  "rupt</w>": 12,
  "abrupt": 6,
  "rup": 43,
  "tio</w>": 11,
  "ruption</w>": 14,
  "iones</w>": 28,
  "rus</w>": 65,
  "ru": 214,
  "zzi</w>": 6,
  "abs</w>": 15,
  "abs": 16,
  "sa</w>": 99,
  "sal": 368,
  "om</w>": 205,
  "sam": 179,
  "pere</w>": 7,
  "absar": 4,
  "oka</w>": 31,
  "okee</w>": 7,
  "okite</w>": 4,
  "bh</w>": 6,
  "absc": 18,
  "am</w>": 337,
  "essed</w>": 42,
  "essing</w>": 22,
  "ession</w>": 36,
  "ess": 146,
  "root</w>": 112,
  "ind</w>": 36,
  "isin</w>": 14,
  "ision</w>": 43,
  "iss</w>": 55,
  "absciss": 7,
  "a's</w>": 44,
  "conc": 89,
  "abscon": 6,
  "ded</w>": 99,
  "abscond": 3,
  "der</w>": 117,
  "ding</w>": 100,
  "ds</w>": 112,
  "oulomb</w>": 4,
  "coun": 11,
  "sec": 123,
  "see</w>": 53,
  "sey</w>": 80,
  "abse": 4,
  "il</w>": 381,
  "iled</w>": 106,
  "iling</w>": 81,
  "ils</w>": 113,
  "ences</w>": 187,
  "ence's</w>": 23,
  "absent</w>": 3,
  "absent": 16,
  "ented</w>": 67,
  "eeism</w>": 7,
  "ees</w>": 97,
  "ee's</w>": 8,
  "eeship</w>": 5,
  "sen": 148,
  "senti": 14,
  "ently</w>": 284,
  "minded</w>": 30,
  "mindedly</w>": 11,
  "-mindedly</w>": 31,
  "mindedness</w>": 21,
  "mind": 49,
  "ednesses</w>": 26,
  "entness</w>": 94,
  "shen": 10,
  "ry</w>": 499,
  "shier</w>": 4,
  "absin": 4,
  "the</w>": 18,
  "absinth": 11,
  "iate</w>": 175,
  "absinthi": 3,
  "this": 10,
  "mic</w>": 114,
  "ium</w>": 603,
  "ole</w>": 211,
  "ths</w>": 88,
  "sy": 142,
  "rt": 18,
  "sis</w>": 61,
  "sist": 33,
  "it</w>": 506,
  "sm": 260,
  "ho</w>": 38,
  "so": 188,
  "hm</w>": 7,
  "soil</w>": 8,
  "absol": 23,
  "absolute</w>": 5,
  "absolutely</w>": 4,
  "absoluteness</w>": 3,
  "uter</w>": 24,
  "utes</w>": 36,
  "utism</w>": 4,
  "absolutist</w>": 4,
  "absolu": 7,
  "tista</w>": 3,
  "tistic</w>": 18,
  "tistically</w>": 4,
  "tists</w>": 21,
  "utive</w>": 20,
  "uti": 19,
  "zation</w>": 32,
  "tize</w>": 47,
  "utory</w>": 7,
  "solvable</w>": 10,
  "solv": 23,
  "ve</w>": 186,
  "ved</w>": 74,
  "solvent</w>": 6,
  "ver</w>": 106,
  "vers</w>": 111,
  "ves</w>": 72,
  "ving</w>": 52,
  "vit": 182,
  "sonant</w>": 11,
  "son": 164,
  "absorb</w>": 4,
  "absorb": 12,
  "absorbed</w>": 4,
  "absor": 13,
  "be": 565,
  "ency</w>": 298,
  "encies</w>": 119,
  "absorbent</w>": 5,
  "ber</w>": 150,
  "bers</w>": 49,
  "absorbing</w>": 8,
  "ingly</w>": 1183,
  "bit": 108,
  "bs</w>": 86,
  "tion</w>": 91,
  "pt</w>": 35,
  "pt": 97,
  "absorp": 5,
  "ometer</w>": 423,
  "ometric</w>": 148,
  "absorption</w>": 8,
  "ptions</w>": 8,
  "ption's</w>": 4,
  "ptive</w>": 13,
  "tivity</w>": 61,
  "squat": 16,
  "ulate</w>": 193,
  "ulation</w>": 134,
  "abst": 15,
  "ain</w>": 136,
  "ained</w>": 42,
  "stainer</w>": 4,
  "stainers</w>": 3,
  "staining</w>": 5,
  "stain": 19,
  "ains</w>": 55,
  "stemious</w>": 4,
  "stemiously</w>": 4,
  "stemiousness</w>": 4,
  "ention</w>": 28,
  "ent": 434,
  "entions</w>": 5,
  "entious</w>": 22,
  "abster": 10,
  "gent</w>": 23,
  "sion</w>": 67,
  "siveness</w>": 11,
  "abstinence</w>": 3,
  "abstin": 5,
  "ential</w>": 111,
  "stor": 61,
  "abstract</w>": 9,
  "abstract": 24,
  "abstracted</w>": 6,
  "abstraction</w>": 3,
  "itious</w>": 74,
  "ractive</w>": 16,
  "ractively</w>": 12,
  "ractiveness</w>": 7,
  "or's</w>": 100,
  "stra": 98,
  "hent</w>": 7,
  "strict</w>": 5,
  "stricted</w>": 4,
  "stricting</w>": 3,
  "striction</w>": 6,
  "stric": 9,
  "abstru": 10,
  "de</w>": 95,
  "sely</w>": 46,
  "seness</w>": 5,
  "senesses</w>": 4,
  "sest</w>": 5,
  "sity</w>": 3,
  "sities</w>": 3,
  "sume</w>": 10,
  "sumption</w>": 11,
  "absur": 12,
  "absurd": 4,
  "dist</w>": 10,
  "dly</w>": 23,
  "dness</w>": 17,
  "dum</w>": 10,
  "volt</w>": 8,
  "terminal</w>": 10,
  "abth": 3,
  "ain": 75,
  "rie</w>": 79,
  "than": 23,
  "tru": 101,
  "abu</w>": 3,
  "ubble</w>": 7,
  "abu": 4,
  "ek": 91,
  "uc": 136,
  "co</w>": 154,
  "ilding</w>": 13,
  "uk": 83,
  "abul": 15,
  "eia</w>": 25,
  "ulf": 19,
  "eda</w>": 36,
  "ye": 69,
  "omania</w>": 109,
  "umbral</w>": 6,
  "umbrellar</w>": 4,
  "una</w>": 57,
  "abund": 12,
  "antia</w>": 19,
  "antly</w>": 229,
  "une</w>": 49,
  "ura</w>": 129,
  "ura": 17,
  "boz": 11,
  "rag": 165,
  "urban</w>": 18,
  "ury</w>": 45,
  "urst</w>": 10,
  "ur": 390,
  "ton</w>": 248,
  "usable</w>": 27,
  "usage</w>": 8,
  "abuse</w>": 4,
  "abused</w>": 4,
  "usedly</w>": 9,
  "abuse": 3,
  "ful</w>": 769,
  "fully</w>": 306,
  "fulness</w>": 250,
  "user</w>": 33,
  "users</w>": 9,
  "using</w>": 80,
  "usion</w>": 38,
  "us": 257,
  "usive</w>": 53,
  "usively</w>": 22,
  "usiveness</w>": 20,
  "usivenesses</w>": 3,
  "ut</w>": 144,
  "util": 32,
  "abut": 4,
  "uts</w>": 39,
  "tal</w>": 28,
  "utt": 7,
  "utted</w>": 10,
  "utter</w>": 28,
  "utters</w>": 7,
  "utter": 26,
  "utting</w>": 19,
  "uz": 29,
  "z</w>": 276,
  "volts</w>": 3,
  "wab</w>": 3,
  "watt</w>": 3,
  "watt": 25,
  "ac": 594,
  "a-c": 5,
  "</w>": 420,
  "/": 26,
  "dc</w>": 9,
  "acac": 4,
  "allis</w>": 9,
  "acat": 13,
  "ech": 115,
  "acea</w>": 44,
  "acaceae</w>": 7,
  "acetin</w>": 8,
  "acia</w>": 18,
  "acian</w>": 8,
  "i": 696,
  "acin</w>": 15,
  "acine</w>": 7,
  "acad": 7,
  "eme</w>": 86,
  "academ": 27,
  "emia</w>": 159,
  "academic</w>": 11,
  "academical</w>": 5,
  "academically</w>": 7,
  "icals</w>": 19,
  "ician</w>": 79,
  "icians</w>": 20,
  "ic": 535,
  "ianship</w>": 5,
  "icism</w>": 160,
  "ics</w>": 403,
  "ization</w>": 579,
  "ialite</w>": 3,
  "aena</w>": 22,
  "ajou</w>": 3,
  "ajous</w>": 4,
  "acal</w>": 14,
  "alcul": 5,
  "acaleph": 8,
  "an</w>": 1133,
  "oid</w>": 777,
  "acal": 4,
  "yc": 68,
  "ycine</w>": 4,
  "aly": 24,
  "culate</w>": 9,
  "yph": 36,
  "alyp": 8,
  "ter": 428,
  "acalypt": 3,
  "rata</w>": 9,
  "rat": 230,
  "amar</w>": 13,
  "amas</w>": 24,
  "ampo</w>": 3,
  "amp": 58,
  "sia</w>": 60,
  "anaceous</w>": 4,
  "anonical</w>": 3,
  "acanth</w>": 6,
  "acanth": 54,
  "aceae</w>": 363,
  "aceous</w>": 415,
  "acanthin</w>": 3,
  "acanthine</w>": 8,
  "o-</w>": 610,
  "ocarpous</w>": 48,
  "ocephala</w>": 8,
  "ocephalan</w>": 5,
  "ocephali</w>": 10,
  "ocephalous</w>": 38,
  "ocereus</w>": 5,
  "oclad": 4,
  "odea</w>": 13,
  "acanthod": 3,
  "odian</w>": 17,
  "odidae</w>": 12,
  "odii</w>": 3,
  "ini</w>": 94,
  "acanthoid</w>": 3,
  "ol": 465,
  "imon</w>": 8,
  "olysis</w>": 100,
  "ology</w>": 647,
  "omer": 28,
  "op": 429,
  "anax</w>": 4,
  "ophis</w>": 8,
  "ophorous</w>": 50,
  "opod</w>": 55,
  "opodous</w>": 34,
  "omatous</w>": 74,
  "opore</w>": 11,
  "opteran</w>": 26,
  "opteri</w>": 4,
  "opterygian</w>": 6,
  "opterygii</w>": 5,
  "opterous</w>": 33,
  "osis</w>": 336,
  "otic</w>": 219,
  "acanthous</w>": 10,
  "uridae</w>": 28,
  "urus</w>": 66,
  "acanthus</w>": 7,
  "uth": 15,
  "acap": 3,
  "nia</w>": 45,
  "nial</w>": 3,
  "nias</w>": 5,
  "app": 76,
  "apsular</w>": 14,
  "apu</w>": 6,
  "apul": 8,
  "ara</w>": 172,
  "acar": 40,
  "apis</w>": 7,
  "ari</w>": 116,
  "ardia</w>": 18,
  "ardiac</w>": 8,
  "ardite</w>": 8,
  "ariasis</w>": 4,
  "ari": 93,
  "at": 665,
  "re</w>": 260,
  "icidal</w>": 48,
  "ida</w>": 153,
  "idan</w>": 48,
  "idans</w>": 4,
  "idea</w>": 50,
  "idean</w>": 54,
  "id": 415,
  "omatia</w>": 3,
  "omatium</w>": 4,
  "ids</w>": 203,
  "iform</w>": 472,
  "inosis</w>": 14,
  "arn": 55,
  "ocec": 2,
  "idia</w>": 81,
  "ocecidium</w>": 3,
  "odermatitis</w>": 8,
  "ologist</w>": 372,
  "ophilous</w>": 55,
  "ophobia</w>": 209,
  "otoxic</w>": 18,
  "acarp": 5,
  "ellous</w>": 9,
  "elous</w>": 15,
  "acas</w>": 3,
  "acatal": 4,
  "ectic</w>": 27,
  "epsy</w>": 18,
  "epsia</w>": 15,
  "eptic</w>": 28,
  "allactic</w>": 5,
  "amath": 4,
  "esia</w>": 66,
  "aphasia</w>": 5,
  "astatic</w>": 6,
  "orical</w>": 17,
  "ery</w>": 465,
  "athar": 3,
  "sy</w>": 144,
  "atholic</w>": 10,
  "audal</w>": 7,
  "audate</w>": 9,
  "aud": 101,
  "escent</w>": 134,
  "acaul": 5,
  "escence</w>": 105,
  "ose</w>": 440,
  "aws</w>": 44,
  "b</w>": 302,
  "bl</w>": 8,
  "acc</w>": 6,
  "acc": 117,
  "acca</w>": 11,
  "adian</w>": 10,
  "calia</w>": 4,
  "eded</w>": 32,
  "edence</w>": 3,
  "eder</w>": 36,
  "eders</w>": 10,
  "edes</w>": 21,
  "eding</w>": 51,
  "el</w>": 838,
  "acceler": 24,
  "ando</w>": 41,
  "atedly</w>": 56,
  "atingly</w>": 102,
  "ograph</w>": 264,
  "ometers</w>": 30,
  "ometer's</w>": 7,
  "endibility</w>": 3,
  "endible</w>": 14,
  "ensed</w>": 14,
  "ension</w>": 38,
  "ensor</w>": 12,
  "accent</w>": 3,
  "accented</w>": 6,
  "enting</w>": 39,
  "accent": 13,
  "accentu": 4,
  "ual</w>": 87,
  "uality</w>": 9,
  "ually</w>": 54,
  "uate</w>": 35,
  "accentuated</w>": 4,
  "uating</w>": 19,
  "accentuation</w>": 4,
  "ept</w>": 42,
  "accept": 29,
  "acceptance</w>": 9,
  "acceptances</w>": 3,
  "ance's</w>": 29,
  "avit</w>": 13,
  "accepted</w>": 8,
  "accep": 3,
  "tee</w>": 49,
  "tees</w>": 16,
  "ilate</w>": 26,
  "ilated</w>": 17,
  "ilating</w>": 5,
  "ilation</w>": 29,
  "accepting</w>": 3,
  "ingness</w>": 368,
  "eptive</w>": 24,
  "ress</w>": 195,
  "accepts</w>": 3,
  "accer": 3,
  "s": 811,
  "itor</w>": 77,
  "access": 43,
  "arily</w>": 95,
  "ariness</w>": 64,
  "aryship</w>": 19,
  "ibility</w>": 192,
  "ibilities</w>": 47,
  "ible</w>": 343,
  "ibleness</w>": 143,
  "ibly</w>": 140,
  "accession</w>": 5,
  "ioner</w>": 69,
  "ioning</w>": 67,
  "accessory</w>": 4,
  "orial</w>": 130,
  "ories</w>": 73,
  "orii</w>": 3,
  "orily</w>": 26,
  "oriness</w>": 17,
  "ory's</w>": 6,
  "orius</w>": 9,
  "ori": 37,
  "orize</w>": 39,
  "orized</w>": 10,
  "orizing</w>": 9,
  "acciac": 3,
  "cat": 295,
  "uras</w>": 11,
  "cature</w>": 4,
  "idence</w>": 18,
  "accid": 8,
  "accident</w>": 3,
  "accidental</w>": 3,
  "accident": 9,
  "alism</w>": 302,
  "alist</w>": 249,
  "accidentally</w>": 4,
  "alness</w>": 195,
  "identiality</w>": 4,
  "idently</w>": 17,
  "-prone</w>": 3,
  "inge</w>": 18,
  "inged</w>": 42,
  "inging</w>": 33,
  "accip": 3,
  "enser</w>": 8,
  "ipient</w>": 14,
  "iter</w>": 106,
  "accipit": 4,
  "ral</w>": 152,
  "rary</w>": 6,
  "res</w>": 154,
  "ter</w>": 253,
  "ismus</w>": 29,
  "ius</w>": 199,
  "claim</w>": 21,
  "claimable</w>": 8,
  "claimed</w>": 18,
  "claimer</w>": 7,
  "claimers</w>": 6,
  "claiming</w>": 15,
  "claims</w>": 9,
  "clamation</w>": 10,
  "clam": 69,
  "clamatory</w>": 7,
  "acclimat": 21,
  "limate</w>": 7,
  "limated</w>": 5,
  "limation</w>": 6,
  "isable</w>": 86,
  "isation</w>": 219,
  "izable</w>": 108,
  "izations</w>": 92,
  "izer</w>": 279,
  "izes</w>": 313,
  "ure</w>": 361,
  "clinal</w>": 7,
  "cl": 410,
  "accliv": 3,
  "livitous</w>": 5,
  "loy</w>": 8,
  "acco": 10,
  "ke": 224,
  "ek</w>": 112,
  "accol": 8,
  "ade</w>": 232,
  "aded</w>": 118,
  "ades</w>": 122,
  "coll</w>": 11,
  "led</w>": 454,
  "lee</w>": 72,
  "accom": 4,
  "combination</w>": 7,
  "accommod": 17,
  "accommodate</w>": 4,
  "accommodated</w>": 5,
  "ateness</w>": 109,
  "accommodating</w>": 5,
  "atingness</w>": 8,
  "accommodation</w>": 3,
  "ational</w>": 291,
  "ationist</w>": 117,
  "ativeness</w>": 135,
  "odate</w>": 8,
  "accompan": 17,
  "ier</w>": 920,
  "yist</w>": 7,
  "imental</w>": 19,
  "iments</w>": 13,
  "iment's</w>": 3,
  "ists</w>": 425,
  "ist's</w>": 43,
  "accompl": 9,
  "complet": 13,
  "comp": 106,
  "accomplic": 4,
  "eship</w>": 83,
  "lis</w>": 58,
  "accomplish</w>": 3,
  "accomplished</w>": 7,
  "accomplishment</w>": 5,
  "compt</w>": 4,
  "accord</w>": 7,
  "accord": 14,
  "accordance</w>": 4,
  "accordant</w>": 4,
  "accordantly</w>": 3,
  "atura</w>": 9,
  "aturas</w>": 3,
  "accorded</w>": 4,
  "corder</w>": 6,
  "according</w>": 3,
  "cords</w>": 7,
  "corporate</w>": 9,
  "corporation</w>": 9,
  "accost": 4,
  "ouche</w>": 15,
  "accou": 8,
  "chem": 118,
  "accouche": 4,
  "ur</w>": 186,
  "urs</w>": 36,
  "use</w>": 135,
  "counsel</w>": 8,
  "account</w>": 7,
  "account": 16,
  "ant's</w>": 39,
  "antship</w>": 15,
  "counted</w>": 16,
  "counters</w>": 6,
  "accounting</w>": 3,
  "rement</w>": 15,
  "ple</w>": 59,
  "plement</w>": 7,
  "rage</w>": 43,
  "ourt</w>": 24,
  "outer</w>": 24,
  "accoutered</w>": 3,
  "tering</w>": 97,
  "accout": 5,
  "outre": 8,
  "ring</w>": 149,
  "rease</w>": 5,
  "accredit</w>": 3,
  "accred": 10,
  "itate</w>": 91,
  "itation</w>": 88,
  "itations</w>": 10,
  "ited</w>": 162,
  "itee</w>": 3,
  "iting</w>": 130,
  "itment</w>": 5,
  "its</w>": 186,
  "ment": 78,
  "itial</w>": 17,
  "accresc": 3,
  "rescence</w>": 16,
  "endi</w>": 9,
  "endo</w>": 23,
  "rescent</w>": 21,
  "accret": 6,
  "rete</w>": 16,
  "reted</w>": 14,
  "reting</w>": 5,
  "retive</w>": 5,
  "rimin": 10,
  "rington</w>": 13,
  "accro": 5,
  "ached</w>": 56,
  "aching</w>": 52,
  "accru": 10,
  "rue</w>": 15,
  "ct.</w>": 4,
  "cts</w>": 4,
  "ubation</w>": 9,
  "accub": 3,
  "ita</w>": 179,
  "itum</w>": 10,
  "itus</w>": 32,
  "accu": 3,
  "eil</w>": 11,
  "cultural</w>": 10,
  "accultur": 12,
  "umb</w>": 22,
  "umbency</w>": 5,
  "umbent</w>": 8,
  "umber</w>": 32,
  "accum": 6,
  "ulable</w>": 15,
  "accumulate</w>": 6,
  "accumulated</w>": 8,
  "ulates</w>": 48,
  "accumulating</w>": 6,
  "accumulation</w>": 8,
  "ulations</w>": 35,
  "accumul": 3,
  "iv</w>": 23,
  "accumulative</w>": 3,
  "accumulatively</w>": 3,
  "accumulativeness</w>": 3,
  "ulator</w>": 35,
  "ator's</w>": 68,
  "up": 653,
  "accur": 8,
  "accuracy</w>": 4,
  "racies</w>": 15,
  "accurate</w>": 5,
  "accurately</w>": 5,
  "accurateness</w>": 4,
  "atenesses</w>": 12,
  "curs": 20,
  "tation</w>": 35,
  "accus": 26,
  "accusation</w>": 4,
  "ation's</w>": 119,
  "ativ": 6,
  "e-d": 48,
  "atorial</w>": 83,
  "atorially</w>": 24,
  "atrix</w>": 54,
  "atrixes</w>": 5,
  "accused</w>": 6,
  "accusing</w>": 3,
  "accustom</w>": 4,
  "accustom": 6,
  "accustomed</w>": 7,
  "accust": 5,
  "oming</w>": 40,
  "omize</w>": 12,
  "oms</w>": 59,
  "utron</w>": 3,
  "da</w>": 125,
  "-d": 251,
  "ace</w>": 112,
  "ace": 52,
  "acen": 5,
  "aphthene</w>": 4,
  "acean</w>": 37,
  "anthrene</w>": 8,
  "anth": 193,
  "equin": 8,
  "one</w>": 456,
  "ec": 421,
  "affin</w>": 3,
  "aff": 139,
  "econ": 16,
  "aced</w>": 28,
  "edy</w>": 31,
  "edia</w>": 9,
  "acedi": 3,
  "amin</w>": 48,
  "amine</w>": 114,
  "aced": 3,
  "e-high</w>": 6,
  "acey</w>": 7,
  "y-": 304,
  "deuc": 8,
  "eld": 54,
  "ellular</w>": 15,
  "emet": 18,
  "emetic</w>": 7,
  "em": 595,
  "ila</w>": 72,
  "aphth": 21,
  "enyl</w>": 13,
  "ylene</w>": 67,
  "esthesia</w>": 55,
  "ensu": 31,
  "ador</w>": 37,
  "entric</w>": 14,
  "acent": 4,
  "rous</w>": 156,
  "ologic</w>": 199,
  "phal</w>": 5,
  "acephal": 10,
  "aceph": 3,
  "ocyst</w>": 44,
  "acephalus</w>": 3,
  "epots</w>": 6,
  "quia</w>": 6,
  "qu": 417,
  "acer</w>": 10,
  "acer": 34,
  "ata</w>": 227,
  "acerate</w>": 4,
  "acerated</w>": 3,
  "ather": 63,
  "atosis</w>": 8,
  "acerb": 15,
  "ically</w>": 710,
  "y": 827,
  "bly</w>": 35,
  "dol</w>": 4,
  "eric</w>": 64,
  "ola</w>": 167,
  "olas</w>": 22,
  "erous</w>": 85,
  "acers</w>": 4,
  "ert": 38,
  "annin</w>": 13,
  "acerv": 10,
  "ervate</w>": 15,
  "atim</w>": 7,
  "acervation</w>": 3,
  "uline</w>": 18,
  "aces</w>": 33,
  "ace's</w>": 3,
  "escency</w>": 24,
  "escents</w>": 6,
  "esius</w>": 5,
  "odyne</w>": 6,
  "ynous</w>": 12,
  "amen": 26,
  "estes</w>": 9,
  "acet": 114,
  "acetab": 6,
  "ula</w>": 241,
  "acetabular</w>": 5,
  "ularia</w>": 33,
  "uliferous</w>": 20,
  "uliform</w>": 33,
  "ulous</w>": 110,
  "ulum</w>": 53,
  "ums</w>": 230,
  "acetic</w>": 27,
  "acetal</w>": 3,
  "aldehyd": 6,
  "ase</w>": 252,
  "acetaldehyde</w>": 3,
  "rase</w>": 11,
  "ald": 73,
  "alization</w>": 173,
  "alize</w>": 274,
  "amid</w>": 20,
  "acetamide</w>": 3,
  "amidin</w>": 4,
  "amidine</w>": 6,
  "amido</w>": 8,
  "amids</w>": 3,
  "amin": 88,
  "ophen</w>": 7,
  "anilid</w>": 3,
  "anilide</w>": 13,
  "anion</w>": 4,
  "acetanis": 3,
  "idine</w>": 81,
  "arious</w>": 54,
  "ars</w>": 188,
  "ars": 21,
  "acetate</w>": 13,
  "amide</w>": 58,
  "brom": 106,
  "hydrazide</w>": 3,
  "iam</w>": 5,
  "ify</w>": 324,
  "ification</w>": 247,
  "ified</w>": 241,
  "ifier</w>": 72,
  "ifies</w>": 105,
  "ifying</w>": 177,
  "acetyl</w>": 3,
  "acetyl": 48,
  "aceton": 14,
  "acetone</w>": 11,
  "aminobenzene</w>": 3,
  "aniline</w>": 15,
  "alic": 13,
  "ylic</w>": 82,
  "benzene</w>": 23,
  "benzo": 30,
  "benzoic</w>": 5,
  "carb": 57,
  "azole</w>": 27,
  "cellulose</w>": 9,
  "choline</w>": 4,
  "cholin": 4,
  "esterase</w>": 8,
  "chol": 87,
  "cyanide</w>": 9,
  "enation</w>": 5,
  "acetylene</w>": 9,
  "enedi": 3,
  "ure": 104,
  "enes</w>": 62,
  "enic</w>": 91,
  "ogen</w>": 103,
  "fluoride</w>": 16,
  "glycin</w>": 3,
  "glycine</w>": 6,
  "hydrazine</w>": 8,
  "acetyli": 8,
  "odide</w>": 6,
  "zable</w>": 14,
  "ze</w>": 136,
  "zed</w>": 75,
  "zer</w>": 65,
  "zing</w>": 62,
  "methyl": 40,
  "carbinol</w>": 5,
  "peroxide</w>": 4,
  "phenyl": 35,
  "phenol</w>": 10,
  "yls</w>": 62,
  "salic": 21,
  "ylate</w>": 27,
  "salol</w>": 3,
  "tannin</w>": 3,
  "thymol</w>": 4,
  "trop": 72,
  "eine</w>": 18,
  "urea</w>": 12,
  "imeter</w>": 91,
  "imetry</w>": 37,
  "imetric</w>": 34,
  "la</w>": 124,
  "methy": 10,
  "lan": 125,
  "ilide</w>": 6,
  "naphthal": 20,
  "oacet": 10,
  "oacetate</w>": 3,
  "oacetic</w>": 8,
  "o": 668,
  "amid": 62,
  "ophenol</w>": 17,
  "arsenite</w>": 8,
  "obacter</w>": 8,
  "obenzoic</w>": 8,
  "roman": 64,
  "ochlor": 19,
  "inn": 91,
  "amene</w>": 3,
  "oin</w>": 33,
  "olytic</w>": 68,
  "ometry</w>": 180,
  "ometrical</w>": 75,
  "ometrically</w>": 57,
  "omorph": 32,
  "omorphine</w>": 4,
  "aemia</w>": 51,
  "aemic</w>": 19,
  "onate</w>": 29,
  "yl</w>": 295,
  "yl": 157,
  "ylidene</w>": 12,
  "onitrile</w>": 7,
  "onization</w>": 23,
  "onize</w>": 57,
  "uria</w>": 113,
  "urometer</w>": 3,
  "acetophen": 5,
  "etide</w>": 5,
  "idin</w>": 56,
  "etidine</w>": 3,
  "acetophenone</w>": 4,
  "opi": 10,
  "per": 767,
  "opyrin</w>": 4,
  "opyrine</w>": 5,
  "osalicylic</w>": 3,
  "osity</w>": 143,
  "osol": 4,
  "uble</w>": 17,
  "ostear": 6,
  "othi": 13,
  "enone</w>": 6,
  "acetot": 3,
  "olu": 8,
  "oluide</w>": 3,
  "oluidine</w>": 7,
  "overat": 6,
  "rone</w>": 49,
  "oxyl</w>": 18,
  "oxyls</w>": 3,
  "oxim</w>": 3,
  "oxime</w>": 13,
  "oxy": 134,
  "phthal": 19,
  "phenet": 11,
  "ract</w>": 14,
  "ett": 71,
  "acetum</w>": 3,
  "uric</w>": 67,
  "globulin</w>": 8,
  "aea</w>": 89,
  "aean</w>": 74,
  "achaem": 4,
  "enian</w>": 34,
  "enid</w>": 6,
  "enidae</w>": 11,
  "achaemen": 3,
  "idian</w>": 71,
  "aen": 46,
  "ocarp</w>": 30,
  "odon</w>": 68,
  "eta</w>": 122,
  "aet": 26,
  "aeus</w>": 39,
  "afe</w>": 9,
  "agua</w>": 20,
  "aia</w>": 9,
  "aian</w>": 5,
  "zai</w>": 5,
  "achal": 3,
  "amoth</w>": 4,
  "achan</w>": 9,
  "ango</w>": 25,
  "ape</w>": 40,
  "aque</w>": 16,
  "arya</w>": 4,
  "ariaceae</w>": 28,
  "ariaceous</w>": 17,
  "arne</w>": 5,
  "ians</w>": 182,
  "achate</w>": 5,
  "atina</w>": 4,
  "atin": 10,
  "atour</w>": 4,
  "ache</w>": 70,
  "ech</w>": 38,
  "eer</w>": 90,
  "eft</w>": 10,
  "eil": 5,
  "ache": 3,
  "ilia</w>": 57,
  "ilous</w>": 13,
  "ei": 27,
  "ria</w>": 136,
  "irus</w>": 13,
  "enia</w>": 46,
  "achen": 4,
  "achenium</w>": 3,
  "odia</w>": 25,
  "odium</w>": 26,
  "acher</w>": 34,
  "erman</w>": 53,
  "ern": 74,
  "eron</w>": 15,
  "acher": 5,
  "ontic</w>": 27,
  "ont": 102,
  "ical</w>": 784,
  "aches</w>": 58,
  "eson</w>": 19,
  "oun</w>": 23,
  "etidae</w>": 9,
  "eul": 27,
  "eweed</w>": 32,
  "achy</w>": 31,
  "achier</w>": 3,
  "achiest</w>": 3,
  "achiev": 4,
  "achi": 14,
  "evable</w>": 15,
  "achieve</w>": 4,
  "achieved</w>": 10,
  "achievement</w>": 6,
  "ement's</w>": 31,
  "achiever</w>": 3,
  "achievers</w>": 3,
  "achieves</w>": 3,
  "achieving</w>": 5,
  "fi</w>": 10,
  "igan</w>": 16,
  "achil": 10,
  "ylia</w>": 8,
  "ill</w>": 183,
  "ille</w>": 75,
  "lea</w>": 27,
  "lean</w>": 37,
  "leas</w>": 7,
  "leid</w>": 3,
  "lein</w>": 10,
  "le": 653,
  "illes</w>": 24,
  "illize</w>": 4,
  "illo": 22,
  "burs": 12,
  "itis</w>": 393,
  "lod": 53,
  "ynia</w>": 20,
  "ylous</w>": 19,
  "achim": 4,
  "ymia</w>": 9,
  "ym": 140,
  "inese</w>": 8,
  "iness</w>": 777,
  "inesses</w>": 127,
  "achingly</w>": 5,
  "otes</w>": 59,
  "ira</w>": 66,
  "yran": 3,
  "thes</w>": 6,
  "irite</w>": 5,
  "rodes</w>": 4,
  "oph": 204,
  "kan</w>": 24,
  "lam": 222,
  "lamydeae</w>": 4,
  "lamydeous</w>": 7,
  "achlor": 7,
  "hydria</w>": 5,
  "hydric</w>": 25,
  "ophyllous</w>": 39,
  "opsia</w>": 28,
  "lu": 160,
  "med</w>": 144,
  "meth": 45,
  "oke</w>": 53,
  "olia</w>": 23,
  "achol": 4,
  "olic</w>": 72,
  "oe</w>": 69,
  "olous</w>": 24,
  "om": 385,
  "awi</w>": 10,
  "achond": 4,
  "rite</w>": 89,
  "ritic</w>": 44,
  "ro": 573,
  "plasia</w>": 7,
  "plastic</w>": 24,
  "oo</w>": 106,
  "achord": 3,
  "ordate</w>": 5,
  "orion</w>": 3,
  "ras</w>": 111,
  "ree</w>": 85,
  "achro": 10,
  "acyte</w>": 3,
  "anthes</w>": 15,
  "rod": 122,
  "extrin</w>": 4,
  "ex": 668,
  "trinase</w>": 3,
  "glo": 98,
  "bin</w>": 37,
  "ioc": 37,
  "yth": 33,
  "achrom": 13,
  "achromat": 34,
  "iaceae</w>": 104,
  "romatic</w>": 15,
  "icity</w>": 128,
  "achromatin</w>": 3,
  "ocyte</w>": 102,
  "ope</w>": 64,
  "ophil</w>": 37,
  "ophile</w>": 78,
  "ophilia</w>": 26,
  "ophilic</w>": 39,
  "opia</w>": 45,
  "opsy</w>": 10,
  "ycin</w>": 4,
  "obacterieae</w>": 4,
  "oderma</w>": 25,
  "otrichia</w>": 7,
  "achron": 8,
  "ych": 32,
  "achronism</w>": 3,
  "rop": 129,
  "sah</w>": 5,
  "te": 279,
  "tel</w>": 16,
  "tel": 219,
  "thaler</w>": 6,
  "veld</w>": 10,
  "uas</w>": 7,
  "acy</w>": 113,
  "yan": 34,
  "lepsia</w>": 6,
  "ichlor": 7,
  "ichloride</w>": 5,
  "yclic</w>": 15,
  "ycl": 14,
  "icula</w>": 37,
  "iculae</w>": 9,
  "icular</w>": 73,
  "acicul": 3,
  "arity</w>": 62,
  "icularly</w>": 9,
  "iculate</w>": 54,
  "iculated</w>": 23,
  "iculum</w>": 19,
  "acid</w>": 38,
  "acid": 68,
  "alium</w>": 9,
  "anthera</w>": 7,
  "aspis</w>": 13,
  "-binding</w>": 6,
  "acidemia</w>": 3,
  "emias</w>": 13,
  "-fast</w>": 20,
  "-fast": 3,
  "-forming</w>": 10,
  "head</w>": 304,
  "-head</w>": 43,
  "heads</w>": 66,
  "acidic</w>": 7,
  "iferous</w>": 337,
  "acidify</w>": 4,
  "ifiable</w>": 47,
  "ifiant</w>": 4,
  "ific</w>": 78,
  "acidification</w>": 3,
  "acidified</w>": 5,
  "ifiers</w>": 34,
  "acidifying</w>": 3,
  "imetrical</w>": 11,
  "imetrically</w>": 10,
  "acidity</w>": 10,
  "acidly</w>": 3,
  "acidness</w>": 3,
  "ophilus</w>": 11,
  "oprote": 15,
  "oste": 165,
  "ophyte</w>": 83,
  "proof</w>": 342,
  "acids</w>": 8,
  "-treat</w>": 7,
  "ulant</w>": 29,
  "acidulated</w>": 4,
  "ulating</w>": 90,
  "ulent</w>": 34,
  "ulously</w>": 23,
  "ulousness</w>": 23,
  "aciduria</w>": 4,
  "urias</w>": 8,
  "acier": 7,
  "acies</w>": 43,
  "acy": 4,
  "esis</w>": 166,
  "aciform</w>": 3,
  "acyl": 6,
  "obenzene</w>": 16,
  "amino</w>": 13,
  "ylated</w>": 13,
  "ylating</w>": 12,
  "ylation</w>": 16,
  "iliate</w>": 16,
  "iliated</w>": 7,
  "ilius</w>": 10,
  "ylog": 7,
  "acylo": 4,
  "xy</w>": 18,
  "x": 221,
  "ethane</w>": 10,
  "ima</w>": 70,
  "acin": 25,
  "ifoliate</w>": 18,
  "ifolious</w>": 17,
  "acious</w>": 81,
  "acity</w>": 46,
  "acinar</w>": 3,
  "etae</w>": 12,
  "etan</w>": 11,
  "acinet": 5,
  "inan</w>": 6,
  "acing</w>": 19,
  "ot": 532,
  "ubular</w>": 6,
  "acinous</w>": 6,
  "uni</w>": 13,
  "inus</w>": 63,
  "acip": 3,
  "ens": 159,
  "eres</w>": 27,
  "acipenser": 4,
  "erine</w>": 21,
  "oidei</w>": 20,
  "rology</w>": 36,
  "rological</w>": 23,
  "acis</w>": 4,
  "urgy</w>": 24,
  "ack</w>": 130,
  "ack": 62,
  "eys</w>": 76,
  "acker</w>": 31,
  "er": 763,
  "ley</w>": 275,
  "erly</w>": 51,
  "manville</w>": 5,
  "ler</w>": 400,
  "ackman</w>": 3,
  "men</w>": 391,
  "new</w>": 21,
  "now</w>": 10,
  "acknow": 1,
  "acknowledge</w>": 5,
  "acknowled": 6,
  "acknowledged</w>": 9,
  "acknowledg": 4,
  "acknowledgement</w>": 3,
  "acknowledging</w>": 4,
  "acknowledgment</w>": 6,
  "ment's</w>": 46,
  "own</w>": 98,
  "-p": 217,
  "irate</w>": 12,
  "worth</w>": 59,
  "l</w>": 370,
  "lastic</w>": 24,
  "acle</w>": 31,
  "leidian</w>": 3,
  "leist": 5,
  "ocardia</w>": 17,
  "lem": 127,
  "ly": 212,
  "des</w>": 20,
  "linal</w>": 18,
  "linic</w>": 10,
  "lys</w>": 6,
  "loud</w>": 5,
  "ls</w>": 115,
  "lu</w>": 8,
  "m": 726,
  "mae": 13,
  "ma": 210,
  "matic</w>": 100,
  "acme</w>": 4,
  "mes</w>": 34,
  "mis": 1296,
  "pon</w>": 14,
  "mite</w>": 20,
  "mon</w>": 44,
  "ne</w>": 117,
  "ned</w>": 96,
  "ne": 468,
  "form</w>": 127,
  "nemia</w>": 3,
  "nes</w>": 25,
  "nida</w>": 3,
  "nodal</w>": 5,
  "node</w>": 7,
  "nodes</w>": 4,
  "aco": 17,
  "asm</w>": 25,
  "asma</w>": 9,
  "coast</w>": 5,
  "acoc": 4,
  "anther": 27,
  "acock</w>": 3,
  "ock": 37,
  "bill</w>": 70,
  "cock": 177,
  "-bill</w>": 18,
  "cock-": 9,
  "horse</w>": 49,
  "cot": 131,
  "ela</w>": 108,
  "acoel": 5,
  "omata</w>": 99,
  "omate</w>": 4,
  "omi</w>": 13,
  "omous</w>": 39,
  "oen": 49,
  "aesthesia</w>": 21,
  "of</w>": 28,
  "acol</w>": 4,
  "acol": 9,
  "old</w>": 95,
  "hua</w>": 9,
  "hu": 150,
  "oly": 11,
  "ct": 71,
  "yte</w>": 69,
  "ytes</w>": 22,
  "ytus</w>": 5,
  "th": 634,
  "omia</w>": 15,
  "compass</w>": 7,
  "acon": 23,
  "ylo": 32,
  "acone</w>": 5,
  "elline</w>": 20,
  "aconic</w>": 5,
  "aconin</w>": 3,
  "aconine</w>": 3,
  "ital</w>": 73,
  "aconite</w>": 3,
  "ites</w>": 319,
  "itia</w>": 21,
  "aconitin</w>": 3,
  "aconitine</w>": 8,
  "aconit": 2,
  "tia</w>": 77,
  "tias</w>": 10,
  "tium</w>": 33,
  "tius</w>": 16,
  "uresis</w>": 15,
  "ool</w>": 24,
  "op</w>": 135,
  "opic</w>": 50,
  "orea</w>": 5,
  "oria</w>": 64,
  "orned</w>": 11,
  "orns</w>": 22,
  "orn": 82,
  "-shell</w>": 20,
  "orus</w>": 24,
  "osmic</w>": 8,
  "acosm": 3,
  "istic</w>": 481,
  "ost</w>": 72,
  "osta</w>": 8,
  "otyled": 2,
  "otyledonous</w>": 5,
  "acou": 9,
  "ouchi</w>": 3,
  "ouchy</w>": 3,
  "meter</w>": 89,
  "metry</w>": 24,
  "unter</w>": 30,
  "ophonia</w>": 3,
  "pa</w>": 66,
  "pe</w>": 65,
  "acous": 6,
  "ma</w>": 216,
  "mas</w>": 59,
  "mata</w>": 51,
  "acoustic</w>": 11,
  "acoustical</w>": 3,
  "acoustically</w>": 3,
  "acoust": 6,
  "ico-</w>": 28,
  "olateral</w>": 12,
  "icon</w>": 39,
  "acoustics</w>": 9,
  "sto": 57,
  "electric</w>": 38,
  "pt.</w>": 7,
  "acqu": 26,
  "acquaint</w>": 5,
  "acquaintance</w>": 10,
  "acquaint": 9,
  "acquaintanc": 3,
  "eships</w>": 11,
  "acquainted</w>": 8,
  "acqua": 4,
  "inting</w>": 36,
  "ints</w>": 46,
  "iva</w>": 29,
  "quer": 62,
  "eur</w>": 58,
  "quests</w>": 7,
  "acqui": 17,
  "esce</w>": 25,
  "esced</w>": 16,
  "acquiesc": 3,
  "escences</w>": 11,
  "acquiescent</w>": 4,
  "acquiescently</w>": 3,
  "esces</w>": 8,
  "escing</w>": 18,
  "rability</w>": 44,
  "rable</w>": 110,
  "ire</w>": 116,
  "acquired</w>": 9,
  "rements</w>": 4,
  "ir": 330,
  "enda</w>": 38,
  "irer</w>": 5,
  "iring</w>": 25,
  "acquis": 5,
  "acquisition</w>": 6,
  "acquisit": 5,
  "acquisitive</w>": 3,
  "acquisitively</w>": 3,
  "acquisitiveness</w>": 3,
  "quit": 32,
  "acquittal</w>": 3,
  "itt": 57,
  "acquittance</w>": 3,
  "itted</w>": 62,
  "itter</w>": 71,
  "itting</w>": 76,
  "r-</w>": 41,
  "rab</w>": 11,
  "racy</w>": 23,
  "acra": 10,
  "ein</w>": 63,
  "einae</w>": 3,
  "raldehyde</w>": 5,
  "rania</w>": 10,
  "ranial</w>": 14,
  "raniate</w>": 3,
  "rasia</w>": 13,
  "si": 172,
  "ras": 44,
  "iales</w>": 44,
  "sias</w>": 12,
  "sida</w>": 11,
  "eae</w>": 26,
  "rasin</w>": 4,
  "rasp": 30,
  "rawl</w>": 6,
  "acre</w>": 34,
  "acre": 17,
  "ages</w>": 288,
  "ak</w>": 204,
  "acred</w>": 18,
  "red": 535,
  "-foot</w>": 36,
  "re-": 293,
  "inch</w>": 34,
  "man</w>": 913,
  "acres</w>": 4,
  "rest": 191,
  "acrid</w>": 5,
  "acrid": 30,
  "ane</w>": 290,
  "iidae</w>": 82,
  "inium</w>": 20,
  "ry": 130,
  "dium</w>": 22,
  "onium</w>": 39,
  "ophagus</w>": 5,
  "ri": 359,
  "flavin</w>": 7,
  "flavine</w>": 8,
  "acr": 11,
  "acryl": 7,
  "aldehyde</w>": 38,
  "ril": 41,
  "acrylate</w>": 3,
  "acrimon": 5,
  "iously</w>": 221,
  "iousness</w>": 218,
  "ind": 304,
  "olin</w>": 38,
  "indoline</w>": 3,
  "acrin": 4,
  "risy</w>": 2,
  "risia</w>": 3,
  "ris": 107,
  "acrit": 6,
  "acrity</w>": 3,
  "ritical</w>": 14,
  "ochrom": 18,
  "nema</w>": 3,
  "acro": 80,
  "amata</w>": 4,
  "atic</w>": 143,
  "atical</w>": 38,
  "amat": 17,
  "anesthesia</w>": 11,
  "arthritis</w>": 22,
  "asis</w>": 88,
  "asphyx": 16,
  "ataxia</w>": 6,
  "bac": 87,
  "acrob": 5,
  "atholithic</w>": 6,
  "acrobat": 8,
  "ystitis</w>": 7,
  "blast</w>": 25,
  "carpi</w>": 3,
  "carpous</w>": 19,
  "centric</w>": 7,
  "cephaly</w>": 7,
  "cephalia</w>": 3,
  "cephalic</w>": 12,
  "cephalous</w>": 11,
  "cera</w>": 4,
  "cerat": 65,
  "ceraun": 10,
  "ceridae</w>": 3,
  "acrochord": 3,
  "inae</w>": 173,
  "cyanosis</w>": 3,
  "cyst</w>": 12,
  "ck</w>": 48,
  "clinium</w>": 3,
  "com": 414,
  "conidium</w>": 4,
  "contract": 34,
  "coracoid</w>": 9,
  "cor": 422,
  "inth</w>": 7,
  "acrod": 11,
  "actyla</w>": 3,
  "actyl": 6,
  "dermatitis</w>": 4,
  "ont</w>": 45,
  "ontism</w>": 5,
  "onts</w>": 4,
  "rome</w>": 42,
  "romous</w>": 7,
  "acrog": 4,
  "amy</w>": 41,
  "amous</w>": 23,
  "rogen</w>": 12,
  "genic</w>": 36,
  "genous</w>": 24,
  "gen": 208,
  "ously</w>": 481,
  "gens</w>": 18,
  "yn": 114,
  "rography</w>": 25,
  "rolith</w>": 9,
  "rolith": 8,
  "rol": 98,
  "ithic</w>": 24,
  "iths</w>": 17,
  "rologic</w>": 11,
  "rologically</w>": 13,
  "rologies</w>": 8,
  "rolog": 7,
  "logue</w>": 9,
  "mania</w>": 20,
  "acrom": 25,
  "astitis</w>": 3,
  "egaly</w>": 5,
  "egalia</w>": 3,
  "alic</w>": 42,
  "egal": 6,
  "elalgia</w>": 3,
  "acromial</w>": 11,
  "imia</w>": 5,
  "lavicular</w>": 1,
  "oracoid</w>": 9,
  "iod": 123,
  "toid</w>": 10,
  "acromyod": 3,
  "acromyodian</w>": 3,
  "odic</w>": 36,
  "io": 35,
  "hyoid</w>": 15,
  "humeral</w>": 10,
  "ios": 13,
  "capular</w>": 4,
  "osternal</w>": 10,
  "yot": 8,
  "onia</w>": 155,
  "onus</w>": 21,
  "monogram": 11,
  "phal": 34,
  "ron</w>": 167,
  "acron": 14,
  "arcotic</w>": 7,
  "eurosis</w>": 6,
  "ronic</w>": 25,
  "acronyc": 3,
  "ch</w>": 353,
  "ich": 112,
  "acronych": 3,
  "yct": 5,
  "ym</w>": 24,
  "ymic</w>": 10,
  "acronym": 7,
  "yx</w>": 24,
  "omy</w>": 83,
  "ok</w>": 53,
  "paralysis</w>": 7,
  "par": 689,
  "acrop": 6,
  "athology</w>": 4,
  "etal</w>": 37,
  "etally</w>": 5,
  "rophobia</w>": 20,
  "acroph": 5,
  "on": 566,
  "ony</w>": 88,
  "onically</w>": 51,
  "onies</w>": 24,
  "ropod": 6,
  "ropodium</w>": 3,
  "poleis</w>": 3,
  "polis</w>": 12,
  "polises</w>": 3,
  "politan</w>": 5,
  "ora</w>": 136,
  "ore</w>": 214,
  "ror": 62,
  "hag": 99,
  "rhe": 73,
  "uma</w>": 50,
  "acros": 6,
  "arc</w>": 8,
  "arca</w>": 8,
  "arc": 67,
  "scler": 130,
  "iasis</w>": 58,
  "roscopic</w>": 20,
  "rose</w>": 58,
  "ome</w>": 199,
  "phac": 36,
  "elus</w>": 18,
  "spire</w>": 14,
  "spired</w>": 25,
  "spiring</w>": 16,
  "spore</w>": 14,
  "sporous</w>": 11,
  "ross</w>": 30,
  "ss": 70,
  "-the-": 23,
  "acrost": 10,
  "acrostich": 4,
  "iche": 8,
  "olion</w>": 5,
  "olium</w>": 7,
  "acrot": 12,
  "eutic</w>": 14,
  "teral</w>": 10,
  "teria</w>": 24,
  "terial</w>": 6,
  "teric</w>": 8,
  "terion</w>": 6,
  "terium</w>": 4,
  "thoracica</w>": 3,
  "rotic</w>": 45,
  "isms</w>": 253,
  "reta</w>": 8,
  "ret": 329,
  "rophic</w>": 18,
  "roph": 71,
  "oneurosis</w>": 11,
  "x</w>": 164,
  "acs</w>": 40,
  "snet</w>": 4,
  "su</w>": 44,
  "act": 109,
  "actable</w>": 4,
  "acta": 4,
  "eaceae</w>": 8,
  "eon</w>": 32,
  "onidae</w>": 24,
  "g</w>": 310,
  "g.</w>": 27,
  "tian</w>": 61,
  "tify</w>": 54,
  "tification</w>": 42,
  "tifier</w>": 11,
  "actin</w>": 5,
  "autography</w>": 6,
  "autographic</w>": 7,
  "actine</w>": 12,
  "enchyma</w>": 18,
  "ing-out</w>": 26,
  "actinia</w>": 3,
  "iae</w>": 40,
  "iaria</w>": 4,
  "iarian</w>": 6,
  "actinic</w>": 7,
  "idiaceae</w>": 8,
  "ochrome</w>": 29,
  "hematin</w>": 7,
  "omorpha</w>": 20,
  "istia</w>": 3,
  "actinium</w>": 4,
  "iums</w>": 83,
  "obaccilli</w>": 3,
  "obacilli</w>": 4,
  "obacillosis</w>": 3,
  "obac": 8,
  "il": 430,
  "lotic</w>": 5,
  "obacillus</w>": 6,
  "oblast</w>": 98,
  "obranch</w>": 12,
  "obranchia</w>": 21,
  "ocarpic</w>": 20,
  "ochemical</w>": 29,
  "ochemistry</w>": 27,
  "actinocrin": 3,
  "rinus</w>": 11,
  "ocut": 1,
  "odrome</w>": 13,
  "odromous</w>": 7,
  "oelectric</w>": 9,
  "electrically</w>": 13,
  "electricity</w>": 16,
  "ogon": 38,
  "idiate</w>": 5,
  "ogram</w>": 138,
  "ography</w>": 327,
  "ographic</w>": 215,
  "oida</w>": 9,
  "oidea</w>": 99,
  "oids</w>": 84,
  "olite</w>": 118,
  "olitic</w>": 30,
  "ologous</w>": 6,
  "ologue</w>": 25,
  "omere</w>": 28,
  "omeric</w>": 36,
  "omet": 73,
  "ric": 133,
  "omyces</w>": 12,
  "actinomyc": 4,
  "ese</w>": 159,
  "estal</w>": 6,
  "omycetaceae</w>": 5,
  "omycetales</w>": 6,
  "omycete</w>": 13,
  "omycetous</w>": 13,
  "omycin</w>": 17,
  "omy": 42,
  "omycosis</w>": 26,
  "cos": 56,
  "omycotic</w>": 5,
  "omyx": 4,
  "idi": 167,
  "omorphy</w>": 16,
  "omorphic</w>": 88,
  "omorphous</w>": 37,
  "onema</w>": 14,
  "oneuritis</w>": 3,
  "ophone</w>": 51,
  "ophonic</w>": 28,
  "ophore</w>": 87,
  "ryan</w>": 4,
  "ophrys</w>": 3,
  "opoda</w>": 36,
  "raxis</w>": 6,
  "opteryg": 12,
  "osoma</w>": 18,
  "osome</w>": 46,
  "osphaer": 8,
  "ostere": 7,
  "ostom": 19,
  "ostome</w>": 24,
  "otherapeutic</w>": 14,
  "otherapeutics</w>": 17,
  "otherapy</w>": 86,
  "otoxemia</w>": 5,
  "otrich": 25,
  "otrocha</w>": 4,
  "ou": 232,
  "ranium</w>": 7,
  "ozoa</w>": 31,
  "ozoal</w>": 5,
  "ozoan</w>": 21,
  "ozoon</w>": 24,
  "ulae</w>": 64,
  "ionability</w>": 18,
  "actionable</w>": 3,
  "ionably</w>": 22,
  "actional</w>": 7,
  "actionary</w>": 5,
  "actionist</w>": 4,
  "ionless</w>": 75,
  "actions</w>": 14,
  "action's</w>": 3,
  "ion": 244,
  "-taking</w>": 13,
  "tious</w>": 46,
  "py": 209,
  "actis</w>": 4,
  "activ": 21,
  "activate</w>": 8,
  "activated</w>": 8,
  "activates</w>": 4,
  "activating</w>": 8,
  "activation</w>": 9,
  "activations</w>": 4,
  "activator</w>": 4,
  "active</w>": 56,
  "e-": 481,
  "bodied</w>": 20,
  "actively</w>": 15,
  "limbed</w>": 37,
  "e-minded</w>": 9,
  "activeness</w>": 10,
  "activity</w>": 21,
  "activities</w>": 8,
  "ity's</w>": 40,
  "omyosin</w>": 3,
  "actory</w>": 6,
  "oridae</w>": 14,
  "orish</w>": 6,
  "or-": 23,
  "manager</w>": 6,
  "or": 657,
  "-proof</w>": 30,
  "actors</w>": 6,
  "actor's</w>": 3,
  "orship</w>": 98,
  "pu</w>": 10,
  "resses</w>": 46,
  "ressy</w>": 3,
  "ress's</w>": 4,
  "acts</w>": 29,
  "actual</w>": 8,
  "actu": 35,
  "alisation</w>": 66,
  "alise</w>": 92,
  "alised</w>": 107,
  "alising</w>": 87,
  "alistic</w>": 130,
  "actuality</w>": 5,
  "actualization</w>": 3,
  "alizations</w>": 18,
  "alized</w>": 197,
  "alizes</w>": 65,
  "alizing</w>": 170,
  "actually</w>": 6,
  "actualness</w>": 3,
  "arial</w>": 40,
  "arially</w>": 4,
  "actuate</w>": 3,
  "up</w>": 149,
  "acture</w>": 5,
  "ience</w>": 39,
  "actus</w>": 6,
  "-wait</w>": 3,
  "acu</w>": 4,
  "acu": 21,
  "ub": 114,
  "uchi</w>": 9,
  "losure</w>": 3,
  "ud": 129,
  "uctor</w>": 3,
  "do</w>": 36,
  "erd": 14,
  "acuity</w>": 3,
  "acul": 19,
  "eated</w>": 6,
  "eiform</w>": 10,
  "eolate</w>": 8,
  "eolus</w>": 4,
  "umble</w>": 33,
  "umen</w>": 12,
  "umens</w>": 4,
  "acuminate</w>": 6,
  "acumin": 7,
  "uminous</w>": 18,
  "press</w>": 62,
  "pressure</w>": 14,
  "acupunct": 9,
  "uation</w>": 16,
  "uration</w>": 39,
  "acup": 4,
  "uncture</w>": 8,
  "ured</w>": 125,
  "uring</w>": 93,
  "urist</w>": 15,
  "urists</w>": 3,
  "urative</w>": 8,
  "ection</w>": 79,
  "ector</w>": 49,
  "ush": 62,
  "ustom</w>": 4,
  "acut": 13,
  "angular</w>": 41,
  "acute</w>": 10,
  "e-angled</w>": 3,
  "acutely</w>": 6,
  "aculum</w>": 16,
  "acuteness</w>": 6,
  "enesses</w>": 81,
  "ti-</w>": 8,
  "acuti": 3,
  "foliate</w>": 15,
  "acutil": 3,
  "ingu": 27,
  "ingual</w>": 13,
  "obate</w>": 18,
  "plantar</w>": 4,
  "og": 275,
  "rave</w>": 12,
  "odose</w>": 3,
  "orsion</w>": 5,
  "w</w>": 118,
  "wa</w>": 61,
  "w": 792,
  "oy": 55,
  "atl</w>": 10,
  "abelle</w>": 12,
  "achi</w>": 16,
  "actyl</w>": 16,
  "actylia</w>": 4,
  "actylism</w>": 7,
  "actylous</w>": 15,
  "agy</w>": 16,
  "adag": 7,
  "etto</w>": 50,
  "ettos</w>": 9,
  "ios</w>": 39,
  "issimo</w>": 16,
  "ai</w>": 165,
  "aday</w>": 5,
  "-day</w>": 36,
  "ha</w>": 92,
  "air</w>": 93,
  "air": 263,
  "sville</w>": 218,
  "adays</w>": 4,
  "aize</w>": 3,
  "adal</w>": 7,
  "ala</w>": 96,
  "adal": 6,
  "bert</w>": 71,
  "heid</w>": 4,
  "ali</w>": 52,
  "aliah</w>": 5,
  "alie</w>": 16,
  "aline</w>": 33,
  "all</w>": 188,
  "all": 332,
  "adam</w>": 5,
  "adam": 46,
  "-and-": 32,
  "eve</w>": 68,
  "adamant": 6,
  "antine</w>": 31,
  "antin": 51,
  "lies</w>": 109,
  "antness</w>": 67,
  "oblastoma</w>": 12,
  "astor</w>": 7,
  "awa</w>": 57,
  "aw": 221,
  "eastern</w>": 4,
  "ambulacral</w>": 6,
  "ec</w>": 68,
  "ellite</w>": 28,
  "ello</w>": 51,
  "hood</w>": 226,
  "amic</w>": 57,
  "ik</w>": 106,
  "adamite</w>": 3,
  "itical</w>": 41,
  "itism</w>": 59,
  "adams</w>": 4,
  "basin</w>": 3,
  "site</w>": 50,
  "sites</w>": 6,
  "ski</w>": 56,
  "'s-": 37,
  "needle</w>": 11,
  "adana</w>": 3,
  "-dance</w>": 6,
  "angle</w>": 62,
  "a-d": 3,
  "an": 752,
  "sonia</w>": 21,
  "adap": 18,
  "adapt</w>": 5,
  "adapt": 18,
  "tabilities</w>": 3,
  "adaptation</w>": 6,
  "ationally</w>": 68,
  "adapted</w>": 8,
  "adapting</w>": 3,
  "titude</w>": 16,
  "adaptive</w>": 3,
  "torial</w>": 21,
  "adar</w>": 16,
  "arbit": 38,
  "rium</w>": 46,
  "arme</w>": 6,
  "ati</w>": 59,
  "aty</w>": 10,
  "atom</w>": 6,
  "aunt</w>": 22,
  "aur": 106,
  "aw</w>": 120,
  "awe</w>": 8,
  "lut</w>": 3,
  "awn</w>": 42,
  "azzle</w>": 6,
  "cc": 35,
  "ci</w>": 41,
  "con</w>": 41,
  "cons</w>": 11,
  "craft</w>": 70,
  "add</w>": 4,
  "adda</w>": 4,
  "ams</w>": 63,
  "cp</w>": 4,
  "debted</w>": 7,
  "added</w>": 21,
  "deem</w>": 3,
  "endum</w>": 20,
  "endums</w>": 3,
  "adder</w>": 21,
  "adder": 7,
  "bolt</w>": 34,
  "fish</w>": 272,
  "adders</w>": 6,
  "adder's": 3,
  "-grass</w>": 29,
  "meat</w>": 22,
  "-mouth</w>": 12,
  "ouths</w>": 9,
  "spit</w>": 7,
  "-tongue</w>": 16,
  "'s-tongue</w>": 7,
  "wort</w>": 262,
  "addy</w>": 16,
  "ice</w>": 184,
  "addic": 9,
  "addict</w>": 3,
  "addicted</w>": 6,
  "addict": 3,
  "addicting</w>": 3,
  "addiction</w>": 3,
  "ictions</w>": 8,
  "tives</w>": 24,
  "die</w>": 107,
  "di": 530,
  "ego</w>": 23,
  "eville</w>": 94,
  "adding</w>": 17,
  "dio</w>": 4,
  "addis": 4,
  "iana</w>": 79,
  "addit": 12,
  "ament</w>": 41,
  "amentary</w>": 14,
  "itim": 6,
  "addition</w>": 7,
  "additional</w>": 4,
  "ionally</w>": 124,
  "itionist</w>": 15,
  "ition's</w>": 14,
  "additive</w>": 4,
  "itively</w>": 20,
  "ive's</w>": 8,
  "ivity</w>": 67,
  "itory</w>": 51,
  "addle</w>": 24,
  "addle": 7,
  "brain</w>": 32,
  "brained</w>": 35,
  "addled</w>": 9,
  "lehead</w>": 12,
  "headed</w>": 135,
  "headedly</w>": 20,
  "headedness</w>": 49,
  "lement</w>": 58,
  "leness</w>": 26,
  "addlep": 3,
  "patedness</w>": 4,
  "lot</w>": 51,
  "addles</w>": 6,
  "addling</w>": 10,
  "lings</w>": 101,
  "lins</w>": 46,
  "nl</w>": 6,
  "oom</w>": 15,
  "ossed</w>": 18,
  "address</w>": 9,
  "address": 8,
  "addressed</w>": 7,
  "addres": 3,
  "sees</w>": 14,
  "se": 464,
  "e's</w>": 253,
  "addresses</w>": 3,
  "addressing</w>": 4,
  "rest</w>": 36,
  "adds</w>": 5,
  "adduc": 19,
  "eable</w>": 159,
  "uct</w>": 19,
  "ul": 367,
  "ce</w>": 123,
  "ead</w>": 29,
  "dead</w>": 8,
  "eb": 265,
  "ayo</w>": 13,
  "adee</w>": 4,
  "eem</w>": 12,
  "ade": 6,
  "emed</w>": 26,
  "eming</w>": 23,
  "ems</w>": 61,
  "ep</w>": 79,
  "deep</w>": 16,
  "adel</w>": 6,
  "adel": 35,
  "aida</w>": 3,
  "aja</w>": 21,
  "ant": 315,
  "ante</w>": 71,
  "anto</w>": 13,
  "arthra</w>": 5,
  "arthros": 5,
  "aster</w>": 139,
  "ele": 63,
  "eling</w>": 139,
  "iza</w>": 23,
  "ell</w>": 315,
  "elle</w>": 171,
  "ocerous</w>": 9,
  "ochorda</w>": 4,
  "ops</w>": 103,
  "adelph": 13,
  "adelphia</w>": 6,
  "adelphian</w>": 5,
  "ogamy</w>": 45,
  "oi</w>": 84,
  "ophagy</w>": 37,
  "adelphous</w>": 8,
  "emon": 31,
  "empt</w>": 24,
  "empted</w>": 12,
  "emption</w>": 18,
  "aden</w>": 17,
  "aden": 118,
  "adena</w>": 6,
  "algy</w>": 12,
  "adenalgia</w>": 3,
  "asthenia</w>": 17,
  "auer</w>": 9,
  "adend": 3,
  "ectomy</w>": 166,
  "ectomies</w>": 62,
  "ectopia</w>": 9,
  "ect": 199,
  "emph": 16,
  "ractic</w>": 10,
  "emphraxis</w>": 7,
  "adenia</w>": 11,
  "pyrophosph": 4,
  "adenitis</w>": 20,
  "itises</w>": 16,
  "adeno": 5,
  "anc": 100,
  "roid</w>": 85,
  "ocarcinoma</w>": 13,
  "adenocarcin": 3,
  "ocele</w>": 106,
  "ocellulitis</w>": 3,
  "ochondroma</w>": 5,
  "ochond": 9,
  "rosarcoma</w>": 6,
  "ocystoma</w>": 6,
  "ocyst": 22,
  "odermia</w>": 12,
  "odiastasis</w>": 7,
  "odynia</w>": 45,
  "ofibroma</w>": 9,
  "ofibrosis</w>": 3,
  "ographer</w>": 122,
  "ographical</w>": 117,
  "hypersthen": 4,
  "hypophyseal</w>": 4,
  "hypophysial</w>": 3,
  "hypophysis</w>": 6,
  "oidal</w>": 118,
  "oidectomy</w>": 7,
  "oid": 51,
  "oidism</w>": 7,
  "oiditis</w>": 18,
  "olymph": 7,
  "oli": 26,
  "omyofibroma</w>": 3,
  "olipoma</w>": 3,
  "olip": 14,
  "omatosis</w>": 19,
  "olog": 44,
  "adenoma</w>": 15,
  "omalacia</w>": 23,
  "omat": 37,
  "omening": 4,
  "eal</w>": 112,
  "ometritis</w>": 9,
  "omyoma</w>": 11,
  "omyxoma</w>": 6,
  "osarcoma</w>": 21,
  "adenoncus</w>": 3,
  "oneural</w>": 13,
  "oneure</w>": 6,
  "opathy</w>": 92,
  "opharyngeal</w>": 20,
  "opharyngitis</w>": 4,
  "ophyma</w>": 9,
  "ophleg": 3,
  "ophora</w>": 42,
  "ore": 166,
  "ophthalmia</w>": 18,
  "osarcomas</w>": 3,
  "osarcom": 7,
  "osclerosis</w>": 17,
  "osine</w>": 16,
  "adenosis</w>": 3,
  "ostemonous</w>": 6,
  "ostoma</w>": 26,
  "otyphoid</w>": 8,
  "otyphus</w>": 4,
  "otome</w>": 58,
  "otomy</w>": 205,
  "otomic</w>": 11,
  "adenous</w>": 3,
  "oviral</w>": 3,
  "ovirus</w>": 9,
  "ovir": 3,
  "atus</w>": 51,
  "ona</w>": 115,
  "adeph": 8,
  "aga</w>": 48,
  "agan</w>": 24,
  "agia</w>": 13,
  "agous</w>": 14,
  "eps</w>": 41,
  "adept": 7,
  "eption</w>": 27,
  "adequ": 6,
  "adequate</w>": 3,
  "adequately</w>": 3,
  "ader</w>": 54,
  "ader": 5,
  "min</w>": 36,
  "mine</w>": 44,
  "ades": 3,
  "my</w>": 82,
  "pot": 221,
  "enarian</w>": 6,
  "este</w>": 9,
  "eu": 177,
  "ev": 277,
  "ew</w>": 71,
  "adf": 3,
  "ected</w>": 64,
  "ffroze</w>": 5,
  "ffrozen</w>": 4,
  "fix</w>": 15,
  "fluxion</w>": 3,
  "freeze</w>": 10,
  "freezing</w>": 9,
  "fr": 55,
  "froze</w>": 5,
  "frozen</w>": 7,
  "glut": 61,
  "ha": 175,
  "fera</w>": 3,
  "ham": 219,
  "hara</w>": 19,
  "har": 367,
  "adher": 20,
  "ent's</w>": 42,
  "adhes": 11,
  "adhesive</w>": 3,
  "iv": 177,
  "emeter</w>": 11,
  "adhib": 4,
  "hibition</w>": 6,
  "ocracy</w>": 67,
  "hort</w>": 7,
  "adi</w>": 17,
  "ady</w>": 18,
  "adi": 73,
  "atically</w>": 44,
  "adiad": 4,
  "och": 176,
  "okinesia</w>": 8,
  "okinesis</w>": 16,
  "okin": 11,
  "esi</w>": 10,
  "agnostic</w>": 5,
  "amorphic</w>": 9,
  "amorphism</w>": 8,
  "anti": 830,
  "antum</w>": 6,
  "adiaph": 9,
  "anous</w>": 28,
  "aphanousness</w>": 3,
  "oresis</w>": 19,
  "oretic</w>": 21,
  "adiaphor": 6,
  "orous</w>": 113,
  "neust": 9,
  "adiate</w>": 5,
  "adiather": 4,
  "mal</w>": 77,
  "mancy</w>": 5,
  "manous</w>": 4,
  "athetic</w>": 6,
  "ib": 224,
  "-budd": 4,
  "adic": 9,
  "eux</w>": 23,
  "ige</w>": 17,
  "ady": 3,
  "adig": 3,
  "ge": 397,
  "igh": 29,
  "ghe</w>": 3,
  "ight</w>": 99,
  "ranth</w>": 3,
  "un</w>": 177,
  "im</w>": 178,
  "adin</w>": 11,
  "adynam": 3,
  "ynamic</w>": 13,
  "adine</w>": 19,
  "adin": 3,
  "invention</w>": 3,
  "adip": 42,
  "phen": 113,
  "ocellulose</w>": 4,
  "ere</w>": 145,
  "ocer": 36,
  "ocerite</w>": 11,
  "opectic</w>": 3,
  "opexia</w>": 11,
  "opexic</w>": 3,
  "opexis</w>": 5,
  "adipose</w>": 3,
  "oseness</w>": 17,
  "osities</w>": 41,
  "os": 481,
  "osuria</w>": 9,
  "sic</w>": 11,
  "acks</w>": 61,
  "adis</w>": 10,
  "yta</w>": 5,
  "itya</w>": 3,
  "yton</w>": 21,
  "yt": 83,
  "ta</w>": 141,
  "j</w>": 72,
  "j.</w>": 9,
  "jacence</w>": 3,
  "jacency</w>": 6,
  "jacencies</w>": 3,
  "adjacent</w>": 4,
  "adjacently</w>": 3,
  "adj": 6,
  "ject": 27,
  "adjec": 3,
  "tival</w>": 12,
  "adjectiv": 3,
  "jectively</w>": 10,
  "tivism</w>": 12,
  "jig": 37,
  "join</w>": 16,
  "adjoin": 3,
  "joined</w>": 19,
  "joiner</w>": 3,
  "joining</w>": 10,
  "joins</w>": 7,
  "joints</w>": 4,
  "journ</w>": 7,
  "journ": 36,
  "journed</w>": 5,
  "journing</w>": 3,
  "journment</w>": 7,
  "journs</w>": 3,
  "jou": 27,
  "t.</w>": 39,
  "judgeable</w>": 3,
  "judger</w>": 5,
  "judges</w>": 5,
  "judgment</w>": 10,
  "adjudic": 12,
  "jument</w>": 3,
  "junctively</w>": 11,
  "adjunct": 3,
  "untas</w>": 3,
  "adjur": 8,
  "adjust</w>": 5,
  "adjust": 22,
  "-pitch</w>": 8,
  "adjusted</w>": 7,
  "adjusting</w>": 3,
  "adjustment</w>": 5,
  "mental</w>": 47,
  "oring</w>": 95,
  "adjut": 14,
  "-general</w>": 15,
  "orious</w>": 21,
  "rice</w>": 32,
  "rix</w>": 72,
  "juv": 6,
  "ju": 102,
  "vate</w>": 12,
  "kins</w>": 65,
  "la": 190,
  "lay</w>": 43,
  "lar</w>": 21,
  "lare</w>": 7,
  "iare</w>": 5,
  "lei</w>": 5,
  "lerian</w>": 5,
  "let</w>": 286,
  "ad-": 1,
  "lib</w>": 6,
  "ad-lib": 3,
  "bed</w>": 170,
  "bing</w>": 111,
  "adlum": 5,
  "m.</w>": 8,
  "mah</w>": 6,
  "marginate</w>": 4,
  "mass</w>": 13,
  "maxillary</w>": 8,
  "md</w>": 9,
  "measure</w>": 20,
  "measured</w>": 17,
  "measurement</w>": 8,
  "meas": 34,
  "urer</w>": 43,
  "measuring</w>": 12,
  "medial</w>": 7,
  "median</w>": 7,
  "mens": 25,
  "mer": 394,
  "ve": 114,
  "ylle</w>": 3,
  "mete</w>": 8,
  "met": 406,
  "mi</w>": 49,
  "admin": 9,
  "icle</w>": 50,
  "iculary</w>": 3,
  "iculation</w>": 17,
  "minister</w>": 16,
  "minister": 13,
  "administered</w>": 3,
  "ministerial</w>": 10,
  "administ": 23,
  "ering</w>": 239,
  "rates</w>": 81,
  "administration</w>": 7,
  "rationist</w>": 12,
  "ratively</w>": 16,
  "rators</w>": 24,
  "rator's</w>": 5,
  "ratress</w>": 5,
  "rices</w>": 33,
  "ratrix</w>": 6,
  "st": 771,
  "admi": 11,
  "rableness</w>": 31,
  "rably</w>": 38,
  "admiral</w>": 5,
  "admir": 19,
  "al's</w>": 35,
  "alship</w>": 12,
  "alty</w>": 35,
  "alties</w>": 14,
  "admiration</w>": 3,
  "mire</w>": 11,
  "admired</w>": 6,
  "redly</w>": 23,
  "admiring</w>": 6,
  "admiss": 6,
  "missibility</w>": 11,
  "missible</w>": 21,
  "missibly</w>": 10,
  "mission</w>": 46,
  "missions</w>": 12,
  "missive</w>": 22,
  "missively</w>": 9,
  "mit</w>": 31,
  "mits</w>": 13,
  "admitt": 5,
  "atur</w>": 6,
  "admitted</w>": 5,
  "mittedly</w>": 8,
  "admit": 3,
  "mitter</w>": 5,
  "tible</w>": 84,
  "mitting</w>": 15,
  "mixed</w>": 15,
  "xes</w>": 77,
  "mixing</w>": 10,
  "mixt</w>": 7,
  "mixtion</w>": 3,
  "mixture</w>": 9,
  "mixtures</w>": 3,
  "admon": 22,
  "ished</w>": 108,
  "ishingly</w>": 21,
  "itioner</w>": 7,
  "itive</w>": 93,
  "itorial</w>": 9,
  "itorily</w>": 8,
  "itrix</w>": 5,
  "mor": 371,
  "tization</w>": 20,
  "mov": 42,
  "move</w>": 12,
  "mr": 20,
  "adna</w>": 3,
  "adn": 14,
  "asc": 116,
  "ascent</w>": 10,
  "nephrine</w>": 3,
  "ex</w>": 105,
  "adnex": 4,
  "exed</w>": 8,
  "opexy</w>": 33,
  "nominal</w>": 4,
  "nomin": 26,
  "nom": 93,
  "opo": 12,
  "noun</w>": 4,
  "no": 161,
  "uns</w>": 25,
  "obe</w>": 37,
  "obes</w>": 4,
  "obo</w>": 10,
  "obos</w>": 3,
  "od</w>": 110,
  "adol": 20,
  "escently</w>": 21,
  "esc": 76,
  "fo</w>": 16,
  "ph</w>": 55,
  "phe</w>": 3,
  "pho</w>": 3,
  "phus</w>": 15,
  "adon</w>": 7,
  "adon": 18,
  "ais</w>": 56,
  "iad</w>": 30,
  "ica</w>": 156,
  "ij": 35,
  "onin</w>": 25,
  "onist</w>": 55,
  "onit": 17,
  "oy</w>": 60,
  "oors</w>": 5,
  "operate</w>": 4,
  "operation</w>": 9,
  "adop": 19,
  "adopt": 10,
  "adopted</w>": 4,
  "tianism</w>": 5,
  "anist</w>": 39,
  "adora</w>": 5,
  "ador": 15,
  "orable</w>": 23,
  "oration</w>": 32,
  "adore</w>": 8,
  "ored</w>": 144,
  "oree</w>": 16,
  "orer</w>": 26,
  "adores</w>": 6,
  "oret": 19,
  "adoring</w>": 3,
  "adorn</w>": 4,
  "adorn": 9,
  "orne</w>": 14,
  "adorned</w>": 6,
  "adorning</w>": 5,
  "adornment</w>": 4,
  "osculation</w>": 5,
  "oula</w>": 10,
  "adou": 3,
  "lie</w>": 97,
  "owa</w>": 10,
  "adox": 5,
  "oxy</w>": 27,
  "p-</w>": 3,
  "pa": 139,
  "pc": 13,
  "position</w>": 56,
  "promission</w>": 4,
  "promissor</w>": 4,
  "rad</w>": 20,
  "radial</w>": 14,
  "radially</w>": 5,
  "radius</w>": 9,
  "mel": 313,
  "ra": 429,
  "ste": 137,
  "rea</w>": 25,
  "read</w>": 23,
  "ream</w>": 12,
  "reamed</w>": 4,
  "reamt</w>": 3,
  "rectal</w>": 9,
  "rell</w>": 32,
  "adren": 24,
  "adrenal": 8,
  "cortical</w>": 6,
  "ectomize</w>": 19,
  "ectomized</w>": 15,
  "ectomizing</w>": 11,
  "alin</w>": 28,
  "adrenaline</w>": 3,
  "ergic</w>": 23,
  "adrenocort": 1,
  "adrenocortic": 4,
  "osteroid</w>": 3,
  "otrophin</w>": 6,
  "otropic</w>": 85,
  "omedullary</w>": 4,
  "osterone</w>": 4,
  "adri": 17,
  "rial</w>": 35,
  "amycin</w>": 4,
  "rian</w>": 80,
  "anna</w>": 74,
  "anne</w>": 60,
  "ano</w>": 79,
  "anop": 9,
  "opolis</w>": 22,
  "adriatic</w>": 3,
  "ena</w>": 172,
  "enne</w>": 39,
  "rift</w>": 24,
  "rogate</w>": 5,
  "adro": 11,
  "itly</w>": 17,
  "itness</w>": 15,
  "itnesses</w>": 4,
  "rop</w>": 37,
  "rost": 69,
  "rostral</w>": 12,
  "row": 95,
  "sbud</w>": 3,
  "sc": 474,
  "endent</w>": 13,
  "scit": 4,
  "itiously</w>": 24,
  "script</w>": 25,
  "scripted</w>": 7,
  "scription</w>": 32,
  "script": 38,
  "itius</w>": 3,
  "scriptive</w>": 16,
  "scripts</w>": 11,
  "sess": 16,
  "shear": 25,
  "signify</w>": 3,
  "sign": 131,
  "smith</w>": 60,
  "smithing</w>": 10,
  "adsor": 8,
  "adsorb": 6,
  "p": 775,
  "sp</w>": 35,
  "spiration</w>": 8,
  "sr</w>": 14,
  "adstip": 5,
  "ulated</w>": 136,
  "stringe</w>": 3,
  "sum</w>": 38,
  "adt</w>": 4,
  "tev": 5,
  "ular</w>": 193,
  "ular": 27,
  "adul": 16,
  "arias</w>": 14,
  "ulatory</w>": 45,
  "atress</w>": 33,
  "ull": 45,
  "adult</w>": 4,
  "adulter": 22,
  "terer</w>": 49,
  "er's</w>": 104,
  "tery</w>": 70,
  "ousness</w>": 402,
  "thood</w>": 8,
  "thoods</w>": 4,
  "tic": 43,
  "adult": 7,
  "like</w>": 1021,
  "adumb": 5,
  "adumbr": 4,
  "un": 4081,
  "adunc": 6,
  "adur</w>": 4,
  "urol</w>": 3,
  "usk</w>": 11,
  "ust</w>": 36,
  "ustion</w>": 8,
  "ust": 78,
  "iosis</w>": 18,
  "uwa</w>": 4,
  "adv": 20,
  "aita</w>": 5,
  "advance</w>": 4,
  "advanc": 7,
  "advanced</w>": 6,
  "advancement</w>": 3,
  "ancer</w>": 40,
  "advancing</w>": 6,
  "advantage</w>": 5,
  "advant": 5,
  "aged</w>": 137,
  "advantageous</w>": 6,
  "advantageously</w>": 4,
  "ageousness</w>": 4,
  "aging</w>": 65,
  "ect</w>": 90,
  "ecting</w>": 46,
  "ective</w>": 50,
  "ects</w>": 52,
  "veh": 17,
  "adven": 5,
  "vene</w>": 15,
  "advent": 24,
  "entist</w>": 19,
  "entists</w>": 3,
  "itiousness</w>": 18,
  "iousnesses</w>": 22,
  "ventive</w>": 8,
  "adventure</w>": 6,
  "adventured</w>": 3,
  "adventure": 7,
  "adventurer</w>": 7,
  "urers</w>": 14,
  "some</w>": 174,
  "somely</w>": 30,
  "someness</w>": 42,
  "somes</w>": 3,
  "uress</w>": 11,
  "sses</w>": 15,
  "urish</w>": 3,
  "urism</w>": 12,
  "uristic</w>": 8,
  "adventurous</w>": 4,
  "urously</w>": 7,
  "urousness</w>": 6,
  "adver": 19,
  "adverb": 4,
  "iality</w>": 69,
  "ialize</w>": 71,
  "bially</w>": 4,
  "bless</w>": 26,
  "advers": 20,
  "ary's</w>": 24,
  "verse</w>": 42,
  "eness</w>": 347,
  "version</w>": 43,
  "sus</w>": 82,
  "vert</w>": 35,
  "verted</w>": 25,
  "advertence</w>": 3,
  "advert": 12,
  "advertised</w>": 4,
  "advertis": 4,
  "isement</w>": 15,
  "isers</w>": 19,
  "tizable</w>": 7,
  "tized</w>": 27,
  "tizement</w>": 3,
  "tizer</w>": 8,
  "tizes</w>": 12,
  "tizing</w>": 21,
  "advice</w>": 4,
  "vic": 116,
  "eful</w>": 152,
  "vices</w>": 3,
  "advis": 29,
  "advise</w>": 5,
  "advised</w>": 8,
  "advisedly</w>": 3,
  "ership</w>": 99,
  "advising</w>": 3,
  "advoc": 18,
  "ateship</w>": 13,
  "atrice</w>": 17,
  "vo": 61,
  "yer</w>": 74,
  "voke</w>": 3,
  "volution</w>": 17,
  "oter": 11,
  "advow": 5,
  "sons</w>": 28,
  "ward</w>": 199,
  "wes": 20,
  "zes</w>": 72,
  "adz": 3,
  "istan</w>": 16,
  "zooks</w>": 4,
  "e-</w>": 45,
  "acidae</w>": 6,
  "aech": 5,
  "mag": 125,
  "oras</w>": 16,
  "ophorus</w>": 21,
  "aec": 21,
  "idial</w>": 27,
  "aecidi": 4,
  "oform</w>": 12,
  "omycetes</w>": 15,
  "ospore</w>": 55,
  "ostage</w>": 4,
  "idium</w>": 97,
  "iospore</w>": 3,
  "aeciot": 3,
  "eli": 86,
  "elium</w>": 9,
  "aedeag": 3,
  "aed": 39,
  "icule</w>": 26,
  "ber": 314,
  "ct</w>": 17,
  "ile</w>": 332,
  "iles</w>": 73,
  "ilian</w>": 37,
  "ilic</w>": 31,
  "ility</w>": 95,
  "ilit": 14,
  "ilities</w>": 48,
  "aedoe": 3,
  "agi</w>": 12,
  "agus</w>": 16,
  "etes</w>": 53,
  "aefal": 3,
  "dy</w>": 106,
  "faul": 19,
  "aeg": 41,
  "aeon</w>": 4,
  "aegag": 2,
  "aegagrop": 4,
  "emony</w>": 10,
  "aeger</w>": 3,
  "eria</w>": 36,
  "erian</w>": 36,
  "iid</w>": 29,
  "esta</w>": 17,
  "iale</w>": 9,
  "ial": 65,
  "ialia</w>": 7,
  "aegin": 3,
  "ochus</w>": 10,
  "ipan</w>": 4,
  "ypt": 5,
  "irine</w>": 4,
  "yrite</w>": 6,
  "isth": 19,
  "aegith": 4,
  "alos</w>": 7,
  "ognathae</w>": 7,
  "ognathism</w>": 10,
  "ognathous</w>": 24,
  "ophony</w>": 25,
  "opodium</w>": 19,
  "ami</w>": 24,
  "ritude</w>": 5,
  "ipathy</w>": 3,
  "ker": 202,
  "ael": 5,
  "elbert</w>": 7,
  "odicon</w>": 4,
  "uroid</w>": 16,
  "uroidea</w>": 7,
  "aelu": 3,
  "ropodous</w>": 11,
  "eas</w>": 25,
  "eid</w>": 20,
  "eolithic</w>": 3,
  "eous</w>": 108,
  "iah</w>": 42,
  "igma</w>": 9,
  "igmat": 14,
  "aeol": 27,
  "harmon": 54,
  "aeolian</w>": 3,
  "ididae</w>": 25,
  "oline</w>": 55,
  "yle</w>": 75,
  "odion</w>": 4,
  "omel": 34,
  "alon</w>": 4,
  "otropy</w>": 25,
  "otropism</w>": 50,
  "sk": 329,
  "lav": 103,
  "onial</w>": 18,
  "aeonic</w>": 3,
  "aepy": 4,
  "ceros</w>": 3,
  "ornis</w>": 20,
  "ornithidae</w>": 7,
  "ornithiformes</w>": 4,
  "aep": 1,
  "qui</w>": 11,
  "aequ": 8,
  "iculi</w>": 11,
  "ipal": 4,
  "pia</w>": 14,
  "oreal</w>": 10,
  "orin</w>": 16,
  "aer</w>": 5,
  "aer": 234,
  "aerated</w>": 3,
  "aeration</w>": 3,
  "enter": 158,
  "ectasia</w>": 24,
  "i-</w>": 145,
  "aerial</w>": 6,
  "ialist</w>": 63,
  "ialists</w>": 9,
  "ially</w>": 158,
  "ialness</w>": 56,
  "ials</w>": 55,
  "ial's</w>": 4,
  "aeric</w>": 3,
  "iel</w>": 31,
  "iela</w>": 3,
  "iest</w>": 690,
  "ifaction</w>": 3,
  "ily</w>": 594,
  "aero": 11,
  "aerob": 21,
  "acter</w>": 11,
  "aerobacteri": 4,
  "istics</w>": 23,
  "atics</w>": 11,
  "obia</w>": 31,
  "obiology</w>": 22,
  "obiologic</w>": 10,
  "obiological</w>": 19,
  "obiologically</w>": 5,
  "obiologist</w>": 11,
  "iont</w>": 9,
  "obi": 41,
  "obiosis</w>": 14,
  "obiotic</w>": 17,
  "otically</w>": 33,
  "oat</w>": 5,
  "obranchiate</w>": 28,
  "aeroc": 5,
  "amera</w>": 9,
  "art": 151,
  "aridae</w>": 6,
  "ocol": 28,
  "pos</w>": 20,
  "raft</w>": 31,
  "ocur": 10,
  "oderm": 12,
  "odynamic</w>": 25,
  "odynamical</w>": 6,
  "odynamically</w>": 4,
  "odynam": 15,
  "icist</w>": 68,
  "odynamics</w>": 20,
  "aerod": 4,
  "ynes</w>": 12,
  "odon": 31,
  "etics</w>": 54,
  "odont": 93,
  "algia</w>": 94,
  "odontia</w>": 30,
  "odontic</w>": 12,
  "odrom": 11,
  "ucts</w>": 3,
  "elastic</w>": 14,
  "elasticity</w>": 7,
  "elast": 33,
  "embolism</w>": 3,
  "oenter": 3,
  "flot</w>": 3,
  "foil</w>": 32,
  "foils</w>": 9,
  "ogel</w>": 6,
  "ogene</w>": 32,
  "ogenes</w>": 8,
  "ogenically</w>": 9,
  "ogeography</w>": 12,
  "ogeology</w>": 3,
  "oge": 25,
  "ognosy</w>": 7,
  "ogramme</w>": 3,
  "ograms</w>": 26,
  "ographics</w>": 4,
  "ographies</w>": 46,
  "aerohydro": 4,
  "dynamic</w>": 8,
  "hydrop": 30,
  "plane</w>": 34,
  "therapy</w>": 19,
  "acht</w>": 5,
  "oides</w>": 22,
  "jet</w>": 27,
  "olites</w>": 8,
  "olithology</w>": 3,
  "oliths</w>": 9,
  "olit": 14,
  "ologies</w>": 151,
  "ologists</w>": 84,
  "aerom": 3,
  "chan": 37,
  "omagnetic</w>": 12,
  "omancy</w>": 77,
  "omantic</w>": 19,
  "arine</w>": 33,
  "omech": 6,
  "omechanical</w>": 8,
  "omechanics</w>": 5,
  "omedical</w>": 7,
  "omedicine</w>": 3,
  "ometeor": 6,
  "omotor</w>": 33,
  "aeron": 6,
  "aeronaut": 5,
  "ef</w>": 31,
  "onomer</w>": 4,
  "onomy</w>": 30,
  "onomic</w>": 20,
  "onomical</w>": 6,
  "onomics</w>": 5,
  "onomies</w>": 4,
  "onomist</w>": 10,
  "otitis</w>": 4,
  "opause</w>": 9,
  "operitoneum</w>": 6,
  "operit": 4,
  "ophagia</w>": 18,
  "ophagist</w>": 15,
  "ophane</w>": 18,
  "aerophil": 3,
  "atelic</w>": 3,
  "atel": 23,
  "aerophile</w>": 3,
  "aerophilic</w>": 3,
  "ophysical</w>": 14,
  "ophysicist</w>": 4,
  "ophysics</w>": 13,
  "ophobic</w>": 15,
  "ophor</w>": 9,
  "ophoto</w>": 3,
  "ophotography</w>": 10,
  "ophot": 18,
  "oplane</w>": 8,
  "aeroplan": 3,
  "oplankton</w>": 13,
  "ople": 15,
  "opor": 13,
  "opul": 12,
  "aeros": 6,
  "osc": 30,
  "epsis</w>": 17,
  "oscopic</w>": 67,
  "oscopically</w>": 16,
  "iderite</w>": 11,
  "ider": 28,
  "osinusitis</w>": 3,
  "osol</w>": 16,
  "aerosol": 3,
  "olize</w>": 14,
  "ols</w>": 110,
  "osp": 19,
  "osphere</w>": 46,
  "ospor": 39,
  "ostat</w>": 24,
  "ostatic</w>": 27,
  "ostatical</w>": 4,
  "ostatics</w>": 8,
  "ost": 232,
  "ostats</w>": 4,
  "otactic</w>": 25,
  "otaxis</w>": 25,
  "otechnical</w>": 6,
  "otechnics</w>": 8,
  "other": 55,
  "ynamics</w>": 8,
  "aeroton": 3,
  "ovi": 6,
  "ug": 117,
  "ugo</w>": 10,
  "aes</w>": 5,
  "aes": 16,
  "esc</w>": 4,
  "aesch": 4,
  "ylus</w>": 18,
  "aeschyn": 3,
  "anthus</w>": 46,
  "ynite</w>": 8,
  "omen": 28,
  "aescul": 6,
  "apian</w>": 4,
  "culus</w>": 10,
  "esh": 61,
  "opian</w>": 4,
  "aest": 17,
  "ethic</w>": 11,
  "aesth": 17,
  "esics</w>": 4,
  "esi": 25,
  "aesthesis</w>": 6,
  "aesthetic</w>": 21,
  "aesthetical</w>": 4,
  "aesthetically</w>": 6,
  "etician</w>": 7,
  "eticism</w>": 13,
  "aesthet": 3,
  "icize</w>": 99,
  "ic's</w>": 31,
  "ophysiology</w>": 15,
  "physi": 67,
  "ii</w>": 60,
  "ival</w>": 31,
  "aestiv": 6,
  "uary</w>": 20,
  "uous</w>": 60,
  "aethal": 4,
  "ioid</w>": 51,
  "aeth": 17,
  "aethe": 3,
  "ogam</w>": 10,
  "ogamic</w>": 25,
  "ogamous</w>": 31,
  "ether</w>": 25,
  "ethereal</w>": 6,
  "aether": 4,
  "ethyl": 39,
  "ema</w>": 104,
  "usa</w>": 34,
  "aeti": 6,
  "aetiological</w>": 3,
  "iologically</w>": 9,
  "iologist</w>": 25,
  "ophyllin</w>": 8,
  "otropically</w>": 18,
  "na</w>": 164,
  "obatidae</w>": 4,
  "olian</w>": 10,
  "olus</w>": 12,
  "omorphae</w>": 16,
  "osaur</w>": 27,
  "osaurian</w>": 21,
  "osaurus</w>": 49,
  "kees</w>": 3,
  "aev": 8,
  "ernal</w>": 32,
  "af</w>": 46,
  "af-": 3,
  "af": 213,
  "afa</w>": 4,
  "aint</w>": 24,
  "cac</w>": 3,
  "cc</w>": 28,
  "cho</w>": 17,
  "eard</w>": 3,
  "eared</w>": 64,
  "ebrile</w>": 4,
  "afer</w>": 3,
  "fern": 42,
  "aires</w>": 15,
  "aite</w>": 45,
  "amish</w>": 9,
  "affect</w>": 5,
  "affect": 23,
  "affectation</w>": 5,
  "affected</w>": 17,
  "affectedly</w>": 4,
  "affectedness</w>": 6,
  "ecters</w>": 5,
  "ectibility</w>": 4,
  "ectible</w>": 23,
  "affecting</w>": 7,
  "affection</w>": 4,
  "affectionate</w>": 7,
  "affectionately</w>": 4,
  "ionateness</w>": 11,
  "affectioned</w>": 4,
  "ectious</w>": 3,
  "ectively</w>": 28,
  "ectivity</w>": 6,
  "lessness</w>": 232,
  "affe": 7,
  "eble</w>": 7,
  "erer</w>": 93,
  "erment</w>": 4,
  "pin": 256,
  "scher</w>": 9,
  "spal": 8,
  "te</w>": 117,
  "affer</w>": 8,
  "erent</w>": 8,
  "oso</w>": 45,
  "osos</w>": 8,
  "affy</w>": 4,
  "affi": 11,
  "affianced</w>": 3,
  "ancing</w>": 49,
  "iant</w>": 25,
  "ich</w>": 74,
  "iche</w>": 34,
  "iches</w>": 23,
  "icion": 1,
  "affid": 6,
  "idation</w>": 30,
  "avy</w>": 7,
  "it's</w>": 14,
  "affili": 5,
  "affiliate</w>": 5,
  "affiliated</w>": 7,
  "affiliating</w>": 5,
  "affiliation</w>": 8,
  "inage</w>": 22,
  "ined</w>": 174,
  "inely</w>": 29,
  "affing</w>": 9,
  "affinit": 3,
  "inite</w>": 74,
  "affinity</w>": 3,
  "inities</w>": 11,
  "inition</w>": 6,
  "initive</w>": 5,
  "affirm</w>": 7,
  "affir": 9,
  "mable</w>": 18,
  "affirm": 2,
  "affirmance</w>": 4,
  "mant</w>": 12,
  "affirmation</w>": 10,
  "affirmat": 7,
  "affirmative</w>": 5,
  "ive-": 11,
  "affirmatively</w>": 3,
  "matory</w>": 13,
  "affirmed</w>": 6,
  "mer</w>": 135,
  "mers</w>": 42,
  "affirming</w>": 4,
  "mingly</w>": 10,
  "affirms</w>": 3,
  "ix</w>": 50,
  "affix": 10,
  "ixed</w>": 17,
  "ixing</w>": 10,
  "ture</w>": 69,
  "late</w>": 19,
  "lated</w>": 12,
  "lation</w>": 14,
  "lat": 239,
  "afflict</w>": 4,
  "afflicted</w>": 3,
  "afflic": 12,
  "tedness</w>": 15,
  "afflicting</w>": 5,
  "tingly</w>": 26,
  "affliction</w>": 5,
  "loof</w>": 3,
  "lue</w>": 9,
  "affluence</w>": 3,
  "afflu": 6,
  "affluent</w>": 3,
  "affluently</w>": 3,
  "lux": 28,
  "afforc": 3,
  "ord</w>": 41,
  "ordable</w>": 3,
  "orded</w>": 9,
  "ording</w>": 4,
  "ords</w>": 5,
  "afforest</w>": 7,
  "afforest": 4,
  "afforestation</w>": 4,
  "affore": 3,
  "sted</w>": 28,
  "sting</w>": 14,
  "sts</w>": 31,
  "ormative</w>": 3,
  "rayed</w>": 33,
  "rayer</w>": 3,
  "rayers</w>": 5,
  "raying</w>": 8,
  "rays</w>": 10,
  "ranchise</w>": 4,
  "ranchised</w>": 3,
  "ran": 185,
  "chis": 24,
  "rap</w>": 30,
  "affre": 3,
  "ighter</w>": 18,
  "ightment</w>": 3,
  "reux</w>": 5,
  "rica</w>": 13,
  "ricate</w>": 13,
  "affric": 3,
  "rication</w>": 8,
  "riended</w>": 3,
  "right</w>": 46,
  "affrighted</w>": 3,
  "affright": 8,
  "ront</w>": 16,
  "affron": 10,
  "affront": 5,
  "ty</w>": 180,
  "usions</w>": 10,
  "afghan</w>": 3,
  "afgh": 5,
  "anis</w>": 12,
  "ans</w>": 337,
  "god</w>": 27,
  "afi</w>": 5,
  "rin": 72,
  "aficion": 4,
  "adas</w>": 17,
  "field</w>": 140,
  "ifi</w>": 3,
  "fi": 136,
  "omen</w>": 21,
  "yon</w>": 26,
  "ips</w>": 37,
  "afl": 11,
  "flag": 72,
  "ellar</w>": 39,
  "flame</w>": 11,
  "flat</w>": 8,
  "flat": 147,
  "oxin</w>": 25,
  "cio</w>": 11,
  "-c": 215,
  "lex</w>": 25,
  "icker</w>": 38,
  "fl": 381,
  "light</w>": 103,
  "loat</w>": 3,
  "lower</w>": 37,
  "flu": 132,
  "king</w>": 239,
  "flush</w>": 9,
  "nor</w>": 10,
  "ocal</w>": 17,
  "oot</w>": 65,
  "afore</w>": 3,
  "afore-": 8,
  "afore": 18,
  "-cited</w>": 4,
  "coming</w>": 24,
  "dec": 405,
  "ried</w>": 73,
  "-given</w>": 7,
  "going</w>": 61,
  "granted</w>": 4,
  "hand</w>": 43,
  "-heard</w>": 4,
  "known</w>": 24,
  "-mentioned</w>": 7,
  "foren": 13,
  "amed</w>": 54,
  "-pl": 19,
  "anned</w>": 46,
  "running</w>": 22,
  "-seeing</w>": 8,
  "-seen</w>": 4,
  "-spoken</w>": 26,
  "-st": 143,
  "thought</w>": 18,
  "time</w>": 106,
  "times</w>": 27,
  "-told</w>": 4,
  "forti": 3,
  "ori</w>": 46,
  "oul</w>": 18,
  "afraid</w>": 4,
  "afra": 4,
  "idness</w>": 80,
  "-frame</w>": 8,
  "ican</w>": 44,
  "rasian</w>": 5,
  "reet</w>": 6,
  "resc": 60,
  "afric": 16,
  "african</w>": 12,
  "ander</w>": 104,
  "ander": 27,
  "anism</w>": 99,
  "anization</w>": 5,
  "anize</w>": 59,
  "anized</w>": 7,
  "anizing</w>": 5,
  "anoid</w>": 8,
  "anthropus</w>": 11,
  "rid": 107,
  "rika</w>": 10,
  "afri": 1,
  "ka": 81,
  "afrik": 3,
  "afrikander": 3,
  "afrikan": 3,
  "erdom</w>": 24,
  "erize</w>": 25,
  "rit</w>": 36,
  "rits</w>": 5,
  "ro-</w>": 61,
  "afro-": 6,
  "american</w>": 27,
  "afro": 3,
  "asiatic</w>": 17,
  "-chain</w>": 4,
  "comb</w>": 23,
  "uban</w>": 4,
  "european</w>": 17,
  "rogaea</w>": 3,
  "rogaean</w>": 3,
  "mos": 105,
  "ros</w>": 62,
  "semitic</w>": 10,
  "rown</w>": 43,
  "afs</w>": 11,
  "sc</w>": 36,
  "me</w>": 106,
  "shah</w>": 6,
  "shar</w>": 6,
  "sk</w>": 52,
  "tab": 174,
  "after</w>": 11,
  "after": 202,
  "after-": 8,
  "attack</w>": 4,
  "bay</w>": 11,
  "band</w>": 54,
  "beat</w>": 20,
  "birth</w>": 11,
  "births</w>": 5,
  "blow</w>": 14,
  "body</w>": 25,
  "bodies</w>": 15,
  "-born</w>": 83,
  "breach</w>": 9,
  "breast</w>": 10,
  "burner</w>": 8,
  "burn": 70,
  "burning</w>": 13,
  "care</w>": 10,
  "career</w>": 4,
  "cast</w>": 36,
  "catar": 10,
  "cause</w>": 6,
  "chance</w>": 8,
  "chrome</w>": 16,
  "church</w>": 10,
  "clap</w>": 7,
  "clause</w>": 7,
  "comer</w>": 13,
  "cooler</w>": 7,
  "cost</w>": 3,
  "course</w>": 22,
  "-course</w>": 6,
  "crop</w>": 11,
  "cure</w>": 20,
  "days</w>": 16,
  "damp</w>": 7,
  "date</w>": 20,
  "dated</w>": 6,
  "deal</w>": 10,
  "death</w>": 5,
  "deck</w>": 26,
  "decks</w>": 8,
  "escribed</w>": 4,
  "-des": 8,
  "igned</w>": 30,
  "inner</w>": 32,
  "discharge</w>": 4,
  "drain</w>": 7,
  "drops</w>": 14,
  "effect</w>": 11,
  "effects</w>": 4,
  "eye</w>": 55,
  "fall</w>": 45,
  "fame</w>": 7,
  "feed</w>": 17,
  "fermentation</w>": 7,
  "friend</w>": 9,
  "fruits</w>": 6,
  "fut": 45,
  "game</w>": 15,
  "-g": 142,
  "ame</w>": 66,
  "gas</w>": 7,
  "glide</w>": 8,
  "glow</w>": 8,
  "glows</w>": 4,
  "go</w>": 45,
  "good</w>": 16,
  "grass</w>": 60,
  "grave</w>": 27,
  "grief</w>": 4,
  "grind</w>": 9,
  "growth</w>": 12,
  "guard</w>": 29,
  "-guard</w>": 10,
  "guns</w>": 8,
  "harm</w>": 3,
  "hatch</w>": 9,
  "heat</w>": 11,
  "help</w>": 8,
  "hend</w>": 3,
  "hold</w>": 37,
  "hope</w>": 9,
  "hours</w>": 3,
  "years</w>": 7,
  "image</w>": 6,
  "impression</w>": 8,
  "knowledge</w>": 10,
  "life</w>": 26,
  "lif": 78,
  "etime</w>": 8,
  "lives</w>": 13,
  "loss</w>": 8,
  "love</w>": 18,
  "mark</w>": 77,
  "market</w>": 14,
  "marriage</w>": 14,
  "mast</w>": 28,
  "math</w>": 5,
  "maths</w>": 3,
  "matter</w>": 9,
  "meal</w>": 23,
  "milk</w>": 7,
  "most</w>": 72,
  "-named</w>": 8,
  "night</w>": 18,
  "afternoon</w>": 3,
  "noons</w>": 3,
  "on's</w>": 35,
  "nose</w>": 23,
  "note</w>": 14,
  "oar</w>": 4,
  "pain</w>": 10,
  "part</w>": 37,
  "past</w>": 10,
  "peak</w>": 12,
  "piece</w>": 79,
  "play</w>": 33,
  "planting</w>": 16,
  "potential</w>": 7,
  "rake</w>": 20,
  "reckoning</w>": 7,
  "rider</w>": 19,
  "ripening</w>": 8,
  "roll</w>": 53,
  "school</w>": 21,
  "send</w>": 11,
  "sensation</w>": 3,
  "shaft</w>": 18,
  "shafted</w>": 5,
  "shave</w>": 5,
  "sh": 719,
  "aves</w>": 41,
  "shine</w>": 18,
  "shock</w>": 10,
  "shocks</w>": 3,
  "song</w>": 11,
  "sound</w>": 10,
  "specified</w>": 5,
  "speech</w>": 11,
  "spring</w>": 23,
  "stain</w>": 10,
  "ampable</w>": 3,
  "state</w>": 25,
  "storm</w>": 11,
  "strain</w>": 14,
  "stretch</w>": 5,
  "study</w>": 8,
  "supper</w>": 5,
  "swarm</w>": 6,
  "swarming</w>": 3,
  "swell</w>": 4,
  "tan</w>": 28,
  "task</w>": 5,
  "taste</w>": 4,
  "tastes</w>": 3,
  "tax</w>": 17,
  "theater</w>": 3,
  "theat": 22,
  "thinker</w>": 5,
  "thoughted</w>": 10,
  "thought": 61,
  "thrift</w>": 7,
  "touch</w>": 5,
  "treatment</w>": 9,
  "trial</w>": 6,
  "vision</w>": 15,
  "wale</w>": 7,
  "war</w>": 26,
  "afterward</w>": 3,
  "wards</w>": 108,
  "wash</w>": 25,
  "while</w>": 13,
  "wisdom</w>": 6,
  "wise</w>": 332,
  "wit</w>": 31,
  "-wit</w>": 5,
  "witted</w>": 15,
  "word</w>": 50,
  "work</w>": 282,
  "working</w>": 46,
  "world</w>": 21,
  "rath</w>": 7,
  "wrist</w>": 4,
  "-written</w>": 10,
  "tonian</w>": 21,
  "osa</w>": 66,
  "tos": 33,
  "tra</w>": 22,
  "tward</w>": 7,
  "twards</w>": 7,
  "unction</w>": 11,
  "unctional</w>": 10,
  "uu</w>": 6,
  "will": 90,
  "z": 672,
  "ag": 509,
  "anee</w>": 8,
  "abus</w>": 4,
  "agac": 3,
  "acles</w>": 14,
  "adic</w>": 51,
  "ian": 78,
  "again</w>": 3,
  "again": 7,
  "buy</w>": 6,
  "say</w>": 18,
  "stand</w>": 38,
  "agal</w>": 5,
  "agal": 18,
  "actia</w>": 6,
  "actic</w>": 56,
  "al-": 23,
  "awood</w>": 12,
  "axy</w>": 14,
  "axia</w>": 8,
  "inis</w>": 9,
  "alite</w>": 46,
  "agallo": 4,
  "chs</w>": 11,
  "ch": 645,
  "mat": 332,
  "wood</w>": 361,
  "woods</w>": 50,
  "agam": 29,
  "a-g": 8,
  "amm": 47,
  "aglobul": 4,
  "inemia</w>": 12,
  "obium</w>": 17,
  "ogony</w>": 28,
  "ospermy</w>": 3,
  "anglionic</w>": 4,
  "agan": 3,
  "ippe</w>": 16,
  "anus</w>": 40,
  "agap": 13,
  "anthuses</w>": 4,
  "eic</w>": 14,
  "agapemon": 3,
  "eti</w>": 21,
  "etid</w>": 5,
  "aph": 181,
  "agar</w>": 6,
  "agar": 16,
  "aric</w>": 44,
  "icaceae</w>": 6,
  "icaceous</w>": 8,
  "agaric": 3,
  "iciform</w>": 9,
  "icin</w>": 28,
  "icine</w>": 23,
  "icoid</w>": 12,
  "icus</w>": 39,
  "arist": 46,
  "wal</w>": 12,
  "asp</w>": 6,
  "ass": 228,
  "agast": 3,
  "ya</w>": 124,
  "reae</w>": 3,
  "astric</w>": 14,
  "astron": 16,
  "euria</w>": 6,
  "astroph": 12,
  "agata</w>": 3,
  "agate</w>": 5,
  "agat": 6,
  "elike</w>": 230,
  "eware</w>": 10,
  "agath": 16,
  "arch": 385,
  "aum": 21,
  "athe</w>": 28,
  "athy": 22,
  "ocles</w>": 9,
  "agathod": 3,
  "aemon</w>": 7,
  "aemonic</w>": 3,
  "emon</w>": 22,
  "atine</w>": 24,
  "atize</w>": 23,
  "atized</w>": 10,
  "atizing</w>": 11,
  "azed</w>": 17,
  "ca</w>": 88,
  "cy": 134,
  "dist": 163,
  "ageable</w>": 15,
  "age-": 29,
  "e-bent</w>": 4,
  "co": 1116,
  "eval</w>": 14,
  "cracked</w>": 3,
  "despo": 13,
  "dispelling</w>": 8,
  "agedness</w>": 3,
  "agee</w>": 4,
  "age": 34,
  "jawed</w>": 15,
  "encrusted</w>": 5,
  "enfee": 8,
  "bled</w>": 117,
  "group</w>": 18,
  "harden</w>": 12,
  "honored</w>": 6,
  "eing</w>": 106,
  "agel": 8,
  "itidae</w>": 25,
  "ela": 10,
  "lasting</w>": 14,
  "ageless</w>": 5,
  "elessly</w>": 42,
  "elessness</w>": 66,
  "ong</w>": 125,
  "long</w>": 20,
  "agen</w>": 12,
  "agena</w>": 4,
  "agen": 30,
  "agency</w>": 11,
  "agencies</w>": 4,
  "ency's</w>": 8,
  "end": 529,
  "aless</w>": 14,
  "endas</w>": 6,
  "eses</w>": 69,
  "esias</w>": 11,
  "esic</w>": 29,
  "agenesis</w>": 8,
  "agenetic</w>": 7,
  "enn": 85,
  "ois</w>": 39,
  "agent</w>": 13,
  "entess</w>": 4,
  "entry</w>": 22,
  "entries</w>": 6,
  "agents</w>": 3,
  "entship</w>": 10,
  "peeled</w>": 3,
  "ager</w>": 59,
  "ager": 3,
  "atum</w>": 38,
  "erat": 9,
  "agers</w>": 22,
  "struck</w>": 22,
  "aget</w>": 3,
  "usia</w>": 25,
  "usic</w>": 5,
  "ustia</w>": 4,
  "weary</w>": 15,
  "weathered</w>": 3,
  "worn</w>": 51,
  "agg": 39,
  "oth</w>": 44,
  "appe</w>": 14,
  "apper": 17,
  "pora</w>": 5,
  "gar": 275,
  "elation</w>": 15,
  "generate</w>": 9,
  "agger</w>": 11,
  "agger": 11,
  "aggers</w>": 4,
  "geus</w>": 6,
  "aggi</w>": 3,
  "aggy</w>": 22,
  "amenti</w>": 3,
  "ornament": 15,
  "agglomer": 10,
  "agglomerative</w>": 3,
  "agglutin": 13,
  "agglut": 5,
  "agglutinant</w>": 3,
  "agglutinate</w>": 4,
  "agglutinated</w>": 4,
  "agglutinating</w>": 7,
  "agglutination</w>": 7,
  "agglutinative</w>": 6,
  "agglutinin</w>": 12,
  "inize</w>": 70,
  "inoid</w>": 40,
  "grace</w>": 9,
  "gradation</w>": 7,
  "gradational</w>": 3,
  "grade</w>": 28,
  "graded</w>": 16,
  "grades</w>": 7,
  "grading</w>": 18,
  "gram": 64,
  "matism</w>": 27,
  "aggrand": 17,
  "izement</w>": 11,
  "iz": 143,
  "izers</w>": 90,
  "grate</w>": 3,
  "aggrav": 6,
  "aggravate</w>": 4,
  "aggravated</w>": 4,
  "aggravating</w>": 4,
  "aggravation</w>": 5,
  "aggreg": 16,
  "atae</w>": 19,
  "aggregate</w>": 5,
  "aggregated</w>": 5,
  "aggregation</w>": 4,
  "aggregative</w>": 3,
  "ato-</w>": 21,
  "grege</w>": 3,
  "aggress": 10,
  "aggression</w>": 6,
  "aggressionist</w>": 3,
  "aggressions</w>": 3,
  "aggressive</w>": 11,
  "aggressively</w>": 6,
  "aggressiveness</w>": 6,
  "aggriev": 4,
  "aggri": 4,
  "eved</w>": 28,
  "eves</w>": 26,
  "eving</w>": 23,
  "gro</w>": 3,
  "gro": 149,
  "groupment</w>": 3,
  "agh</w>": 18,
  "aghan</w>": 11,
  "han": 105,
  "agh": 20,
  "hast": 48,
  "lab": 157,
  "hor": 226,
  "anthi</w>": 4,
  "agy": 10,
  "iomania</w>": 4,
  "ilely</w>": 23,
  "ileness</w>": 19,
  "ill": 293,
  "mente</w>": 4,
  "agin</w>": 4,
  "inc": 242,
  "agings</w>": 3,
  "ynic</w>": 8,
  "inners</w>": 9,
  "agynous</w>": 5,
  "agio</w>": 5,
  "iot": 26,
  "agism</w>": 3,
  "agist</w>": 8,
  "agist": 4,
  "isted</w>": 36,
  "ister</w>": 87,
  "isting</w>": 29,
  "itability</w>": 26,
  "itant</w>": 33,
  "agitate</w>": 6,
  "agitated</w>": 5,
  "agit": 20,
  "agitating</w>": 4,
  "agitation</w>": 11,
  "itative</w>": 43,
  "ato</w>": 77,
  "prop</w>": 11,
  "prop": 86,
  "props</w>": 4,
  "punk": 23,
  "kist": 8,
  "rodon</w>": 4,
  "agla": 4,
  "lance</w>": 8,
  "ozonia</w>": 3,
  "las": 61,
  "pis</w>": 7,
  "lau": 57,
  "laus</w>": 8,
  "agle</w>": 10,
  "leaf</w>": 75,
  "agler</w>": 3,
  "let": 94,
  "lets</w>": 72,
  "agly": 9,
  "cone</w>": 20,
  "cones</w>": 5,
  "suric</w>": 3,
  "limmer</w>": 4,
  "lint</w>": 6,
  "lip": 165,
  "ayan</w>": 28,
  "ay": 177,
  "pha</w>": 9,
  "aglyph": 4,
  "odont</w>": 103,
  "odonta</w>": 18,
  "listen</w>": 3,
  "litter</w>": 4,
  "lossa</w>": 5,
  "lossal</w>": 5,
  "lossate</w>": 5,
  "lossia</w>": 4,
  "glucosid": 7,
  "lut": 80,
  "matology</w>": 7,
  "min": 316,
  "agna</w>": 5,
  "agn": 94,
  "agnath": 6,
  "athic</w>": 23,
  "ostomata</w>": 20,
  "ostomatous</w>": 21,
  "agnathous</w>": 3,
  "nean</w>": 14,
  "neau</w>": 12,
  "agnes</w>": 3,
  "agni</w>": 3,
  "agno": 5,
  "etism</w>": 35,
  "oite</w>": 16,
  "omens</w>": 5,
  "omical</w>": 19,
  "omina</w>": 6,
  "ominal</w>": 12,
  "omination</w>": 8,
  "osy</w>": 14,
  "osia</w>": 19,
  "agnosis</w>": 5,
  "agnost": 8,
  "ozoic</w>": 50,
  "ago</w>": 39,
  "agog</w>": 6,
  "agoge</w>": 5,
  "agogic</w>": 17,
  "agog": 12,
  "agogue</w>": 35,
  "oho</w>": 3,
  "oing</w>": 55,
  "ensin</w>": 3,
  "agomph": 3,
  "agon</w>": 34,
  "agonal</w>": 16,
  "agones</w>": 3,
  "agon": 49,
  "agonia</w>": 3,
  "iada</w>": 4,
  "iat": 80,
  "isingly</w>": 12,
  "agonist</w>": 4,
  "ista</w>": 32,
  "ist": 192,
  "arch</w>": 95,
  "istical</w>": 132,
  "istically</w>": 177,
  "agonize</w>": 4,
  "izedly</w>": 5,
  "izingly</w>": 22,
  "ostomus</w>": 6,
  "oth": 129,
  "othetic</w>": 5,
  "agons</w>": 9,
  "ood</w>": 51,
  "agor": 12,
  "amania</w>": 4,
  "anom": 38,
  "aphobia</w>": 11,
  "obiac</w>": 10,
  "obic</w>": 9,
  "agoras</w>": 5,
  "-blood</w>": 8,
  "agos</w>": 11,
  "agost": 4,
  "adero</w>": 9,
  "ino</w>": 109,
  "agou": 7,
  "outa</w>": 3,
  "ti</w>": 150,
  "outy</w>": 10,
  "ties</w>": 110,
  "agra</w>": 23,
  "race</w>": 38,
  "agra": 8,
  "fe</w>": 29,
  "raf": 13,
  "agraff": 3,
  "rah</w>": 54,
  "agram</w>": 18,
  "agram": 15,
  "matical</w>": 56,
  "ologia</w>": 6,
  "agranul": 3,
  "ocytosis</w>": 20,
  "oplastic</w>": 60,
  "agraph": 10,
  "agraphic</w>": 8,
  "agr": 4,
  "agrarian</w>": 5,
  "agrar": 5,
  "ianism</w>": 173,
  "ianisms</w>": 3,
  "ianize</w>": 45,
  "ianly</w>": 29,
  "eum</w>": 40,
  "rav": 74,
  "agre</w>": 5,
  "agre": 32,
  "agree</w>": 7,
  "eability</w>": 32,
  "agreeable</w>": 7,
  "eableness</w>": 34,
  "ablenesses</w>": 9,
  "-sounding</w>": 24,
  "eably</w>": 40,
  "agreed</w>": 10,
  "agreeing</w>": 8,
  "eingly</w>": 5,
  "agreement</w>": 9,
  "reg": 209,
  "agreing</w>": 3,
  "mens</w>": 5,
  "agrest": 6,
  "agri": 19,
  "rib": 106,
  "agric": 9,
  "olist</w>": 7,
  "ultor</w>": 3,
  "agricultural</w>": 6,
  "agricultur": 4,
  "alists</w>": 54,
  "agricul": 5,
  "turally</w>": 10,
  "turer</w>": 7,
  "ult": 36,
  "rig": 111,
  "ento</w>": 14,
  "mony</w>": 7,
  "monia</w>": 4,
  "monies</w>": 5,
  "motor</w>": 10,
  "oer": 11,
  "ochoerus</w>": 3,
  "agrion": 3,
  "otype</w>": 92,
  "otyp": 20,
  "agrip": 3,
  "agryp": 4,
  "ni": 160,
  "agry": 2,
  "pn": 11,
  "notic</w>": 6,
  "pina</w>": 3,
  "rise</w>": 21,
  "rising</w>": 17,
  "rito</w>": 4,
  "ritos</w>": 3,
  "agro": 19,
  "bacterium</w>": 9,
  "biology</w>": 8,
  "biologic</w>": 3,
  "biological</w>": 8,
  "biologically</w>": 5,
  "biologist</w>": 7,
  "rodol": 6,
  "geology</w>": 5,
  "geological</w>": 5,
  "rologist</w>": 22,
  "romania</w>": 8,
  "romy": 11,
  "za</w>": 78,
  "romyz": 2,
  "agron</w>": 3,
  "agron": 11,
  "omial</w>": 14,
  "omic</w>": 74,
  "omically</w>": 10,
  "omics</w>": 8,
  "omies</w>": 22,
  "omist</w>": 17,
  "rope</w>": 51,
  "agrost": 10,
  "emma</w>": 17,
  "ster": 114,
  "sterol</w>": 8,
  "agrostis</w>": 3,
  "rote</w>": 11,
  "techny</w>": 4,
  "tera</w>": 16,
  "rotype</w>": 10,
  "round</w>": 24,
  "rufe</w>": 5,
  "if</w>": 69,
  "ags</w>": 24,
  "sam</w>": 10,
  "basic</w>": 9,
  "agu</w>": 5,
  "agu": 74,
  "eca</w>": 45,
  "adilla</w>": 7,
  "aji</w>": 8,
  "ardi": 11,
  "ente</w>": 35,
  "ascal": 7,
  "ague</w>": 15,
  "ague-": 4,
  "faced</w>": 66,
  "plagued</w>": 3,
  "rid</w>": 77,
  "agues</w>": 3,
  "e-s": 15,
  "eweeds</w>": 3,
  "ijan</w>": 4,
  "ilar</w>": 9,
  "arite</w>": 22,
  "ilt</w>": 32,
  "aldo</w>": 13,
  "aldos</w>": 3,
  "ishly</w>": 240,
  "ishness</w>": 289,
  "istin</w>": 4,
  "jon</w>": 18,
  "has</w>": 11,
  "ung</w>": 136,
  "uro": 101,
  "agust": 3,
  "way</w>": 198,
  "aha": 3,
  "aina</w>": 7,
  "ah": 204,
  "kara</w>": 8,
  "ank": 78,
  "chu": 36,
  "yuk</w>": 3,
  "aron</w>": 9,
  "av</w>": 14,
  "asu": 6,
  "erus</w>": 16,
  "unch</w>": 25,
  "choo</w>": 5,
  "ders</w>": 40,
  "ahe</w>": 3,
  "ahead</w>": 3,
  "ahe": 5,
  "hear": 37,
  "hey</w>": 15,
  "height</w>": 3,
  "aher": 11,
  "gw": 31,
  "ching</w>": 103,
  "hi": 75,
  "ahi</w>": 10,
  "jo</w>": 25,
  "-high</w>": 21,
  "a-h": 3,
  "-lone</w>": 3,
  "ahim": 4,
  "sas</w>": 10,
  "int</w>": 65,
  "hyp": 233,
  "isar</w>": 3,
  "oric</w>": 64,
  "ith": 128,
  "gren</w>": 10,
  "wal": 147,
  "mad</w>": 15,
  "ahmad": 6,
  "iya</w>": 19,
  "nagar</w>": 4,
  "ou</w>": 114,
  "pur</w>": 18,
  "mar</w>": 29,
  "ahmed": 3,
  "ahme": 3,
  "met</w>": 31,
  "fel": 95,
  "aho</w>": 8,
  "oys</w>": 12,
  "olds</w>": 29,
  "olt</w>": 23,
  "horizon</w>": 6,
  "orse</w>": 7,
  "orse": 4,
  "back</w>": 157,
  "horseback</w>": 4,
  "kie</w>": 37,
  "ous": 72,
  "aht</w>": 4,
  "rend": 31,
  "ron": 167,
  "rens</w>": 5,
  "manian</w>": 3,
  "sah": 24,
  "ka</w>": 181,
  "san</w>": 17,
  "ten": 284,
  "ahu</w>": 3,
  "ahu": 25,
  "ehu": 6,
  "ull</w>": 26,
  "gered</w>": 21,
  "ung": 264,
  "unt</w>": 36,
  "-hunt</w>": 8,
  "zz": 38,
  "ath</w>": 81,
  "v": 638,
  "ven": 216,
  "maa</w>": 3,
  "wah": 31,
  "nee</w>": 36,
  "y-</w>": 29,
  "uch": 43,
  "ahau": 3,
  "sca</w>": 6,
  "asca</w>": 7,
  "uca</w>": 27,
  "aias</w>": 3,
  "atoll": 4,
  "aib": 7,
  "ito</w>": 59,
  "aic</w>": 59,
  "cliffe</w>": 8,
  "aidable</w>": 3,
  "aid": 39,
  "idd": 29,
  "-de-camp</w>": 3,
  "aided</w>": 4,
  "e-de-": 7,
  "camp</w>": 4,
  "camp": 88,
  "del": 297,
  "otte</w>": 27,
  "mem": 40,
  "oire</w>": 13,
  "moire</w>": 4,
  "aiden</w>": 4,
  "dendron</w>": 3,
  "aidin</w>": 3,
  "din</w>": 20,
  "aiding</w>": 3,
  "lett</w>": 14,
  "man": 501,
  "aids</w>": 10,
  "aye</w>": 12,
  "aye-": 14,
  "year</w>": 42,
  "ceas": 6,
  "eless</w>": 291,
  "e-dwelling</w>": 6,
  "eee</w>": 4,
  "reen</w>": 14,
  "aiel</w>": 3,
  "living</w>": 32,
  "elp</w>": 3,
  "yel": 35,
  "bite</w>": 22,
  "enst</w>": 3,
  "ayer</w>": 38,
  "er-": 74,
  "rem": 133,
  "aining</w>": 26,
  "renewed</w>": 5,
  "rolling</w>": 36,
  "ayers</w>": 17,
  "esha</w>": 8,
  "sought</w>": 6,
  "troubled</w>": 4,
  "turning</w>": 16,
  "varied</w>": 7,
  "welcome</w>": 5,
  "aig": 22,
  "aigial": 3,
  "osauridae</w>": 12,
  "lette</w>": 6,
  "-doux</w>": 3,
  "ay-": 7,
  "green</w>": 44,
  "more</w>": 62,
  "rets</w>": 17,
  "rette</w>": 23,
  "rettes</w>": 3,
  "aigu": 12,
  "ell": 208,
  "ette</w>": 379,
  "marine</w>": 18,
  "iere</w>": 27,
  "esque</w>": 115,
  "illette</w>": 6,
  "aih</w>": 3,
  "ield</w>": 9,
  "ayy": 4,
  "aik</w>": 3,
  "aik": 16,
  "ido</w>": 20,
  "idos</w>": 5,
  "anthic</w>": 5,
  "aile</w>": 5,
  "ailed</w>": 55,
  "een</w>": 66,
  "erons</w>": 3,
  "ayl": 8,
  "bury</w>": 42,
  "ayless</w>": 3,
  "ylet</w>": 11,
  "ett</w>": 87,
  "yn</w>": 97,
  "ailing</w>": 35,
  "iller": 5,
  "yll": 28,
  "ailment</w>": 11,
  "ailments</w>": 3,
  "ssa</w>": 9,
  "sworth</w>": 18,
  "uro</w>": 14,
  "ailuroph": 5,
  "urophobia</w>": 3,
  "ropoda</w>": 6,
  "urop": 19,
  "weed</w>": 283,
  "aim</w>": 10,
  "aim": 27,
  "aym": 13,
  "aran</w>": 10,
  "aras</w>": 20,
  "yme</w>": 12,
  "aimed</w>": 8,
  "aiming</w>": 5,
  "lessnesses</w>": 25,
  "aimo</w>": 3,
  "oro</w>": 18,
  "well</w>": 128,
  "worthiness</w>": 23,
  "ayn</w>": 4,
  "ale": 48,
  "ayn": 3,
  "aine</w>": 45,
  "ayne</w>": 9,
  "hum</w>": 6,
  "ynor</w>": 6,
  "sell</w>": 6,
  "sells</w>": 4,
  "sle": 74,
  "sley</w>": 19,
  "'t</w>": 17,
  "aint": 15,
  "tab</w>": 6,
  "ioli</w>": 8,
  "iol": 46,
  "aion</w>": 4,
  "ond</w>": 43,
  "aira</w>": 6,
  "po</w>": 29,
  "bag</w>": 25,
  "bags</w>": 15,
  "allo": 148,
  "bills</w>": 16,
  "-bind</w>": 7,
  "-blasted</w>": 6,
  "-blown</w>": 19,
  "boat</w>": 77,
  "boats</w>": 34,
  "born</w>": 59,
  "borne</w>": 27,
  "-borne</w>": 30,
  "bound</w>": 81,
  "-bound</w>": 90,
  "raked</w>": 5,
  "bra": 210,
  "-braving</w>": 5,
  "-bre": 17,
  "-breathed</w>": 15,
  "ather</w>": 44,
  "-breathing</w>": 25,
  "-bred</w>": 56,
  "brick</w>": 6,
  "brush</w>": 29,
  "brush": 52,
  "brushes</w>": 6,
  "brushing</w>": 3,
  "-built</w>": 75,
  "burst</w>": 12,
  "bursts</w>": 6,
  "bus</w>": 21,
  "b": 690,
  "busses</w>": 3,
  "-ch": 112,
  "ambered</w>": 5,
  "check</w>": 12,
  "checks</w>": 5,
  "air-": 21,
  "cheeked</w>": 33,
  "-clear</w>": 8,
  "coach</w>": 11,
  "condition</w>": 6,
  "conditioned</w>": 14,
  "conditioning</w>": 5,
  "condit": 23,
  "conscious</w>": 26,
  "convey": 19,
  "air-co": 3,
  "oled</w>": 34,
  "core</w>": 13,
  "aircraft</w>": 3,
  "aircraft": 7,
  "sman</w>": 196,
  "smen</w>": 100,
  "swoman</w>": 25,
  "swomen</w>": 13,
  "craf": 3,
  "twoman</w>": 4,
  "crew</w>": 3,
  "crew": 15,
  "cre": 247,
  "ws</w>": 24,
  "-cured</w>": 9,
  "dates</w>": 6,
  "def": 203,
  "dock</w>": 20,
  "-drawn</w>": 29,
  "-dry</w>": 16,
  "dri": 42,
  "-dried</w>": 17,
  "-drying</w>": 17,
  "-driven</w>": 32,
  "drome</w>": 5,
  "drom": 30,
  "drop</w>": 21,
  "dropped</w>": 7,
  "dropping</w>": 8,
  "aired</w>": 13,
  "rel</w>": 75,
  "embraced</w>": 7,
  "fare</w>": 25,
  "fares</w>": 7,
  "-faring</w>": 5,
  "fields</w>": 17,
  "field's</w>": 4,
  "-filled</w>": 23,
  "-flo": 9,
  "flow</w>": 18,
  "flows</w>": 7,
  "formed</w>": 60,
  "frame</w>": 16,
  "frames</w>": 6,
  "freight</w>": 5,
  "freighter</w>": 4,
  "graph</w>": 30,
  "graph": 69,
  "-hardening</w>": 4,
  "-he": 16,
  "airy</w>": 7,
  "rier</w>": 70,
  "riest</w>": 24,
  "fair": 106,
  "riferous</w>": 14,
  "rify</w>": 37,
  "rified</w>": 23,
  "airing</w>": 12,
  "-insul": 3,
  "int": 253,
  "ake</w>": 129,
  "airish</w>": 4,
  "air-l": 3,
  "anced</w>": 59,
  "-penny</w>": 14,
  "li": 360,
  "lift</w>": 19,
  "lifted</w>": 8,
  "lifting</w>": 10,
  "lifts</w>": 5,
  "lift": 12,
  "line</w>": 154,
  "-line</w>": 50,
  "liner</w>": 26,
  "liners</w>": 8,
  "lines</w>": 50,
  "ling</w>": 709,
  "locks</w>": 44,
  "lock": 91,
  "logged</w>": 16,
  "mail</w>": 7,
  "-mail</w>": 4,
  "mailed</w>": 5,
  "mailing</w>": 4,
  "mails</w>": 3,
  "manship</w>": 75,
  "marker</w>": 8,
  "mobile</w>": 10,
  "monger</w>": 106,
  "airn</w>": 3,
  "ns</w>": 113,
  "hydrogen</w>": 8,
  "park</w>": 8,
  "parks</w>": 3,
  "pervious</w>": 3,
  "phobia</w>": 12,
  "plays</w>": 16,
  "airplane</w>": 4,
  "planed</w>": 11,
  "planer</w>": 4,
  "planes</w>": 10,
  "plane's</w>": 3,
  "planing</w>": 9,
  "plan": 149,
  "plot</w>": 16,
  "port</w>": 108,
  "ports</w>": 17,
  "port": 156,
  "post</w>": 45,
  "posts</w>": 12,
  "proofed</w>": 11,
  "proofing</w>": 13,
  "proofs</w>": 11,
  "-ra": 18,
  "scape</w>": 22,
  "scapes</w>": 7,
  "screw</w>": 16,
  "screws</w>": 7,
  "-season</w>": 6,
  "-seasoned</w>": 6,
  "shed</w>": 44,
  "sheds</w>": 10,
  "sheet</w>": 24,
  "-shy</w>": 8,
  "ship's</w>": 14,
  "sick</w>": 27,
  "sickness</w>": 9,
  "air-sl": 3,
  "aked</w>": 72,
  "aking</w>": 106,
  "space</w>": 22,
  "spaces</w>": 6,
  "speed</w>": 17,
  "spe": 54,
  "eds</w>": 68,
  "-sp": 76,
  "-spun</w>": 14,
  "-stirring</w>": 12,
  "stream</w>": 24,
  "strip</w>": 9,
  "strips</w>": 5,
  "strip": 32,
  "-sw": 22,
  "allowing</w>": 4,
  "thed</w>": 13,
  "thing</w>": 15,
  "threatening</w>": 10,
  "tight</w>": 29,
  "tight": 60,
  "tightness</w>": 9,
  "air-to-": 3,
  "ground</w>": 25,
  "surface</w>": 8,
  "trampling</w>": 3,
  "twisted</w>": 11,
  "vessel</w>": 3,
  "view</w>": 46,
  "way": 54,
  "wayman</w>": 11,
  "ways</w>": 110,
  "way's</w>": 13,
  "wave</w>": 9,
  "-wise</w>": 25,
  "-w": 175,
  "iseness</w>": 5,
  "woman</w>": 111,
  "women</w>": 60,
  "worthy</w>": 61,
  "worthier</w>": 4,
  "worthiest</w>": 4,
  "ays</w>": 103,
  "ais": 26,
  "atre": 5,
  "aisle</w>": 3,
  "aisled</w>": 5,
  "leless</w>": 14,
  "les</w>": 377,
  "ne-": 4,
  "marne</w>": 5,
  "iss": 111,
  "aou": 7,
  "aist": 7,
  "opodes</w>": 6,
  "ait</w>": 16,
  "itch</w>": 45,
  "aitch": 4,
  "bone</w>": 37,
  "-bone</w>": 20,
  "itches</w>": 7,
  "ait": 14,
  "aith</w>": 4,
  "thy": 54,
  "aith": 14,
  "ochroi</w>": 3,
  "ken</w>": 59,
  "ken": 90,
  "kin</w>": 177,
  "itut": 4,
  "akian</w>": 6,
  "ayu</w>": 3,
  "hya</w>": 8,
  "uyu</w>": 3,
  "untam": 11,
  "iento</w>": 4,
  "ientos</w>": 3,
  "ayur": 3,
  "veda</w>": 9,
  "ved": 35,
  "vedic</w>": 7,
  "thea</w>": 11,
  "iver</w>": 62,
  "wain</w>": 8,
  "wan</w>": 20,
  "where</w>": 12,
  "aix</w>": 3,
  "x-": 9,
  "en-": 44,
  "provence</w>": 3,
  "-l": 140,
  "chap": 97,
  "-les": 3,
  "aiz": 4,
  "oaceae</w>": 3,
  "oaceous</w>": 3,
  "aj</w>": 12,
  "aj": 84,
  "accio</w>": 6,
  "anta</w>": 30,
  "ru</w>": 24,
  "ava</w>": 47,
  "har</w>": 17,
  "ez</w>": 31,
  "ivas</w>": 5,
  "ika</w>": 48,
  "ajo</w>": 6,
  "og</w>": 86,
  "jol": 77,
  "oure</w>": 5,
  "our": 125,
  "owan</w>": 4,
  "ow": 141,
  "uga</w>": 7,
  "ugas</w>": 3,
  "emi</w>": 7,
  "akal</w>": 3,
  "imba</w>": 5,
  "amai</w>": 3,
  "amatsu</w>": 4,
  "nik</w>": 25,
  "akan": 4,
  "unik</w>": 3,
  "ania</w>": 51,
  "ke</w>": 226,
  "oa</w>": 57,
  "asha</w>": 14,
  "aska</w>": 8,
  "hi</w>": 41,
  "akaz": 3,
  "ga</w>": 56,
  "gin</w>": 15,
  "gine</w>": 3,
  "bar</w>": 39,
  "che": 102,
  "ake": 12,
  "akee</w>": 3,
  "horne</w>": 4,
  "eki</w>": 5,
  "elas</w>": 16,
  "eley</w>": 11,
  "embol": 27,
  "bold</w>": 13,
  "eite</w>": 27,
  "epi": 33,
  "aker</w>": 83,
  "boom</w>": 15,
  "erite</w>": 79,
  "akers</w>": 30,
  "eton</w>": 36,
  "akh</w>": 4,
  "akha</w>": 3,
  "hen": 123,
  "aten</w>": 15,
  "het": 23,
  "hy": 210,
  "akh": 17,
  "lame</w>": 4,
  "ova</w>": 28,
  "mimic</w>": 4,
  "nat": 132,
  "ho": 199,
  "rot</w>": 25,
  "hund": 4,
  "zada</w>": 7,
  "akia</w>": 13,
  "iak</w>": 13,
  "iba</w>": 25,
  "ih": 27,
  "iy": 30,
  "enik</w>": 4,
  "ili</w>": 28,
  "imbo</w>": 6,
  "ovsky</w>": 6,
  "akin</w>": 15,
  "indle</w>": 11,
  "akinesia</w>": 3,
  "akin": 4,
  "akinesis</w>": 8,
  "akinetic</w>": 7,
  "akins</w>": 4,
  "akis": 4,
  "kem": 11,
  "ik": 121,
  "akkad": 3,
  "kerman</w>": 5,
  "kra</w>": 5,
  "log</w>": 23,
  "mol": 202,
  "insk</w>": 12,
  "mud": 82,
  "mudd": 41,
  "ako</w>": 11,
  "outh": 53,
  "thia</w>": 11,
  "onge</w>": 10,
  "ontae</w>": 4,
  "alion</w>": 10,
  "akov</w>": 3,
  "pe": 290,
  "rab": 97,
  "attine</w>": 3,
  "akro": 4,
  "roch": 36,
  "ord": 79,
  "sel</w>": 80,
  "tieb": 4,
  "ellsch": 3,
  "ty": 151,
  "tiv": 40,
  "tivist</w>": 7,
  "aku</w>": 7,
  "ammin</w>": 5,
  "ammine</w>": 12,
  "ule</w>": 196,
  "utan</w>": 9,
  "vav": 4,
  "wap": 20,
  "al.</w>": 3,
  "alab": 13,
  "aman</w>": 31,
  "amian</w>": 9,
  "amians</w>": 3,
  "asters</w>": 21,
  "alabast": 9,
  "astra</w>": 12,
  "rites</w>": 17,
  "rons</w>": 56,
  "rum</w>": 102,
  "rums</w>": 36,
  "acha</w>": 14,
  "alac": 10,
  "alacreat": 3,
  "inin</w>": 10,
  "inine</w>": 19,
  "rious</w>": 20,
  "riously</w>": 11,
  "rities</w>": 10,
  "rit": 134,
  "alact": 3,
  "inist</w>": 39,
  "alag": 10,
  "arto</w>": 5,
  "oas</w>": 5,
  "oz</w>": 7,
  "ala": 3,
  "hee</w>": 36,
  "alai</w>": 3,
  "alay</w>": 3,
  "-f": 239,
  "nier</w>": 10,
  "uk</w>": 43,
  "aki</w>": 23,
  "alal": 4,
  "onga</w>": 18,
  "unga</w>": 15,
  "alus</w>": 22,
  "alam": 27,
  "anni</w>": 14,
  "annian</w>": 7,
  "annic</w>": 21,
  "ambique</w>": 3,
  "edas</w>": 4,
  "iqu": 17,
  "odality</w>": 4,
  "ordo</w>": 3,
  "onti</w>": 3,
  "amort</w>": 4,
  "osite</w>": 23,
  "ota</w>": 64,
  "alan</w>": 7,
  "alan": 12,
  "-a-d": 10,
  "brooke</w>": 5,
  "aland</w>": 11,
  "ands</w>": 51,
  "ang</w>": 219,
  "alang": 5,
  "ange</w>": 35,
  "angiaceae</w>": 3,
  "angium</w>": 15,
  "anin</w>": 23,
  "anine</w>": 19,
  "annah</w>": 8,
  "antic</w>": 46,
  "antin</w>": 8,
  "alant": 4,
  "olactone</w>": 5,
  "apa</w>": 28,
  "alap": 3,
  "alar</w>": 7,
  "alar": 10,
  "ares</w>": 42,
  "arge</w>": 15,
  "alary</w>": 4,
  "alaria</w>": 3,
  "ick</w>": 196,
  "alarm</w>": 4,
  "alarm": 9,
  "clock</w>": 9,
  "armed</w>": 66,
  "arming</w>": 17,
  "misms</w>": 5,
  "arms</w>": 17,
  "arum</w>": 14,
  "umed</w>": 15,
  "uming</w>": 6,
  "alas</w>": 15,
  "alas": 4,
  "ascan</w>": 9,
  "alask": 5,
  "alast": 4,
  "eir</w>": 3,
  "alate</w>": 13,
  "alat": 4,
  "ater": 29,
  "athia</w>": 5,
  "alaud": 3,
  "aun": 31,
  "alb": 73,
  "alba</w>": 3,
  "albac": 3,
  "alban": 9,
  "enses</w>": 24,
  "ensian</w>": 20,
  "albanian</w>": 3,
  "albar": 6,
  "ardine</w>": 9,
  "elli</w>": 48,
  "ellos</w>": 11,
  "albat": 6,
  "nius</w>": 5,
  "rosses</w>": 5,
  "albed": 5,
  "oes</w>": 113,
  "bee</w>": 52,
  "emar": 3,
  "ben": 150,
  "alber": 15,
  "berg": 38,
  "ghi</w>": 12,
  "oni</w>": 40,
  "albert": 11,
  "tin": 126,
  "type</w>": 23,
  "tist</w>": 79,
  "to</w>": 55,
  "-type</w>": 14,
  "aler</w>": 42,
  "bes": 176,
  "pine</w>": 21,
  "besp": 14,
  "best": 125,
  "bet": 161,
  "icans</w>": 9,
  "icant</w>": 16,
  "ificative</w>": 18,
  "iflorous</w>": 30,
  "albig": 3,
  "albin</w>": 5,
  "byn</w>": 4,
  "albin": 11,
  "oism</w>": 23,
  "reo</w>": 6,
  "bites</w>": 6,
  "albit": 4,
  "ophyre</w>": 14,
  "izia</w>": 6,
  "izz": 32,
  "ocarbon</w>": 6,
  "coccus</w>": 10,
  "bol": 178,
  "ith</w>": 118,
  "ruin": 17,
  "albor": 4,
  "anite</w>": 69,
  "brecht</w>": 3,
  "br": 137,
  "bright</w>": 14,
  "right": 88,
  "ronze</w>": 4,
  "albug": 5,
  "inaceae</w>": 11,
  "inea</w>": 16,
  "initis</w>": 9,
  "album": 10,
  "albumen</w>": 4,
  "albumen": 12,
  "albumin</w>": 14,
  "albumin": 33,
  "aturia</w>": 3,
  "iparous</w>": 41,
  "ocholia</w>": 4,
  "ofib": 12,
  "albuminoid</w>": 3,
  "orrhea</w>": 53,
  "albuminosis</w>": 3,
  "albuminous</w>": 4,
  "albuminuria</w>": 4,
  "albumose</w>": 9,
  "bu": 135,
  "que</w>": 133,
  "bur</w>": 21,
  "burg</w>": 101,
  "burga</w>": 4,
  "burn</w>": 55,
  "burnett</w>": 3,
  "alburn": 3,
  "bur": 281,
  "but": 114,
  "alc": 58,
  "alca": 9,
  "cab": 144,
  "cades</w>": 5,
  "ests</w>": 46,
  "alcal": 8,
  "deship</w>": 3,
  "dia</w>": 17,
  "igen": 16,
  "izate</w>": 9,
  "zar</w>": 6,
  "cam": 179,
  "cand": 83,
  "cann": 60,
  "cant": 111,
  "arines</w>": 3,
  "cap": 280,
  "ton": 199,
  "alcar": 2,
  "gen</w>": 16,
  "raz": 34,
  "cath": 67,
  "raz</w>": 4,
  "cav": 123,
  "alcaz": 4,
  "azar</w>": 10,
  "alced": 3,
  "inidae</w>": 48,
  "edo</w>": 16,
  "alcel": 3,
  "aphus</w>": 9,
  "ester</w>": 90,
  "estis</w>": 3,
  "alchem": 19,
  "alchemical</w>": 3,
  "istry</w>": 21,
  "chera</w>": 6,
  "cher": 111,
  "inga</w>": 22,
  "chim": 64,
  "alchym": 3,
  "chit": 39,
  "choch": 3,
  "oden</w>": 4,
  "chor": 102,
  "nea</w>": 28,
  "iad": 9,
  "ibi": 4,
  "cic": 49,
  "idice</w>": 3,
  "alcim": 3,
  "edon</w>": 13,
  "cin": 84,
  "alcy": 8,
  "alcyon": 6,
  "oniaceae</w>": 10,
  "onoid</w>": 12,
  "clad</w>": 51,
  "mena</w>": 7,
  "mene</w>": 4,
  "alco</w>": 4,
  "alco": 19,
  "cog": 56,
  "gene</w>": 16,
  "alcohol</w>": 8,
  "alcohol": 33,
  "alcoholic</w>": 5,
  "ysis</w>": 48,
  "alcoholism</w>": 3,
  "alcoholist</w>": 3,
  "ytic</w>": 54,
  "alcoholize</w>": 3,
  "alcoholized</w>": 3,
  "metric</w>": 34,
  "col": 388,
  "con": 626,
  "alco-": 4,
  "ionic</w>": 46,
  "alcor</w>": 3,
  "alcor": 5,
  "sol</w>": 5,
  "cott</w>": 14,
  "va</w>": 72,
  "ve's</w>": 5,
  "vin": 113,
  "cu": 213,
  "inian</w>": 66,
  "cum": 100,
  "ald</w>": 43,
  "alda</w>": 15,
  "damin</w>": 3,
  "damine</w>": 4,
  "dar": 162,
  "cie</w>": 5,
  "azin</w>": 15,
  "azine</w>": 52,
  "dea</w>": 14,
  "alde": 3,
  "debar": 12,
  "anium</w>": 6,
  "alded</w>": 4,
  "dehydro": 15,
  "hol</w>": 16,
  "denville</w>": 7,
  "alder</w>": 6,
  "alder": 22,
  "fly</w>": 52,
  "flies</w>": 31,
  "-leaved</w>": 106,
  "lief": 3,
  "alderman</w>": 3,
  "alderman": 7,
  "derm": 45,
  "manic</w>": 13,
  "manly</w>": 13,
  "manlike</w>": 14,
  "ries</w>": 216,
  "mast": 120,
  "ney</w>": 122,
  "shot</w>": 51,
  "fara</w>": 3,
  "dim</w>": 7,
  "aldim": 3,
  "aldine</w>": 6,
  "do": 150,
  "heptose</w>": 3,
  "hexose</w>": 5,
  "oket": 3,
  "aldol": 7,
  "don": 166,
  "entose</w>": 4,
  "dora</w>": 5,
  "oside</w>": 20,
  "oster": 24,
  "onism</w>": 65,
  "ov": 274,
  "andi</w>": 20,
  "aldoxime</w>": 6,
  "redge</w>": 7,
  "rich</w>": 40,
  "ridge-": 3,
  "brown": 78,
  "hills</w>": 5,
  "drin</w>": 3,
  "dr": 50,
  "rov": 29,
  "anda</w>": 60,
  "aldus</w>": 3,
  "win</w>": 62,
  "won</w>": 9,
  "alea</w>": 8,
  "ardi</w>": 13,
  "atoric</w>": 4,
  "ench</w>": 15,
  "berry</w>": 191,
  "ale-": 6,
  "blown</w>": 9,
  "ebush</w>": 13,
  "ecia</w>": 11,
  "ecithal</w>": 6,
  "alec": 3,
  "ecs</w>": 9,
  "alect": 12,
  "oriae</w>": 4,
  "alector": 8,
  "orioid</w>": 3,
  "oris</w>": 14,
  "omachy</w>": 13,
  "rion</w>": 25,
  "ryon</w>": 8,
  "rion": 8,
  "ecup</w>": 7,
  "alee</w>": 20,
  "ece</w>": 28,
  "edis</w>": 3,
  "aleen</w>": 4,
  "etha</w>": 6,
  "fed</w>": 53,
  "ef": 124,
  "efs</w>": 18,
  "zero</w>": 8,
  "aleg": 7,
  "eger</w>": 21,
  "eh": 78,
  "oof</w>": 14,
  "house</w>": 148,
  "houses</w>": 52,
  "aley</w>": 4,
  "eyard</w>": 14,
  "hem</w>": 10,
  "aley": 4,
  "dis</w>": 8,
  "oum</w>": 9,
  "ikum</w>": 3,
  "aleip": 3,
  "tes</w>": 26,
  "tic</w>": 56,
  "andre</w>": 8,
  "andra</w>": 33,
  "jand": 4,
  "rina</w>": 29,
  "jo": 151,
  "alek": 3,
  "hine</w>": 7,
  "kn": 193,
  "knight</w>": 9,
  "aleksand": 5,
  "ropol": 5,
  "rov</w>": 4,
  "rovsk</w>": 3,
  "sey": 5,
  "ska</w>": 14,
  "sin</w>": 42,
  "alem</w>": 5,
  "eman</w>": 173,
  "alem": 9,
  "annish</w>": 8,
  "alemb": 4,
  "icate</w>": 104,
  "icated</w>": 62,
  "embro": 36,
  "emite</w>": 12,
  "emonger</w>": 24,
  "alen</w>": 3,
  "alena</w>": 3,
  "alene</w>": 3,
  "enge</w>": 6,
  "ength</w>": 3,
  "enson</w>": 17,
  "alent": 3,
  "ours</w>": 75,
  "enu</w>": 5,
  "aleph": 7,
  "-n": 105,
  "epid": 23,
  "alep": 3,
  "epole</w>": 5,
  "epot</w>": 12,
  "aler": 12,
  "ert</w>": 37,
  "alert": 5,
  "esan</w>": 7,
  "andrin": 5,
  "eshot</w>": 7,
  "aless": 4,
  "andria</w>": 17,
  "andro</w>": 3,
  "swilling</w>": 4,
  "alet": 4,
  "aleth": 10,
  "ethe": 9,
  "iologic</w>": 14,
  "iological</w>": 29,
  "opteroid</w>": 8,
  "etta</w>": 133,
  "aleu": 12,
  "aleur": 8,
  "bius</w>": 7,
  "romancy</w>": 20,
  "tians</w>": 5,
  "eut": 48,
  "evin</w>": 5,
  "itsa</w>": 5,
  "washed</w>": 13,
  "wh": 292,
  "ewife</w>": 5,
  "wife</w>": 34,
  "ew": 130,
  "alex": 32,
  "anders</w>": 32,
  "alexand": 15,
  "reid</w>": 3,
  "retta</w>": 14,
  "rianism</w>": 5,
  "rines</w>": 8,
  "andro": 34,
  "olis</w>": 13,
  "iares</w>": 4,
  "alexin</w>": 3,
  "alexi": 4,
  "pharmacon</w>": 4,
  "pharmac": 57,
  "pharmic</w>": 4,
  "phar": 35,
  "mical</w>": 15,
  "retic</w>": 7,
  "iter": 54,
  "ezan</w>": 3,
  "alf": 32,
  "fad": 43,
  "aje</w>": 3,
  "akis</w>": 6,
  "fal": 108,
  "fa</w>": 32,
  "fas</w>": 5,
  "aqui</w>": 8,
  "aquin</w>": 8,
  "arga</w>": 7,
  "fen": 42,
  "fe": 178,
  "fer": 284,
  "feus</w>": 3,
  "heim</w>": 31,
  "fy</w>": 42,
  "fier": 14,
  "alfil": 4,
  "illo</w>": 53,
  "iona</w>": 13,
  "ione</w>": 32,
  "fir": 62,
  "alfon": 4,
  "cino</w>": 3,
  "ons": 32,
  "zo</w>": 35,
  "ford</w>": 148,
  "forge</w>": 6,
  "for": 380,
  "ja</w>": 61,
  "jas</w>": 10,
  "frag": 34,
  "freda</w>": 5,
  "fred": 33,
  "res": 332,
  "fur</w>": 6,
  "alg": 110,
  "aeology</w>": 4,
  "algal": 3,
  "algar</w>": 4,
  "algar": 11,
  "arde</w>": 21,
  "oba</w>": 21,
  "obas</w>": 4,
  "roba</w>": 4,
  "rob": 105,
  "robin</w>": 7,
  "sife</w>": 3,
  "azel</w>": 7,
  "algeb": 2,
  "algebra</w>": 4,
  "algebraic</w>": 4,
  "algebraical</w>": 4,
  "algebraically</w>": 3,
  "algebra": 8,
  "ebri": 13,
  "iras</w>": 3,
  "edi</w>": 6,
  "onics</w>": 20,
  "alger": 8,
  "algerian</w>": 3,
  "ienne</w>": 8,
  "algesia</w>": 9,
  "algesic</w>": 4,
  "rec": 244,
  "eptor</w>": 13,
  "esthesis</w>": 12,
  "ero</w>": 64,
  "algic</w>": 25,
  "icides</w>": 16,
  "idity</w>": 80,
  "idities</w>": 33,
  "eba</w>": 15,
  "iers</w>": 48,
  "inates</w>": 22,
  "omuscular</w>": 14,
  "ivorous</w>": 58,
  "ocyan</w>": 4,
  "cillo</w>": 3,
  "go": 188,
  "esthesiometer</w>": 3,
  "algolagn": 4,
  "oman</w>": 33,
  "omian</w>": 9,
  "algon": 8,
  "kian</w>": 3,
  "quin</w>": 14,
  "quins</w>": 6,
  "ophagous</w>": 53,
  "ophilist</w>": 20,
  "algor": 4,
  "orism</w>": 25,
  "ismic</w>": 8,
  "orist</w>": 23,
  "algorith": 5,
  "mically</w>": 18,
  "ms</w>": 168,
  "m's</w>": 14,
  "ovite</w>": 6,
  "raphy</w>": 22,
  "raphic</w>": 32,
  "guac": 6,
  "algu": 3,
  "if": 131,
  "hac": 7,
  "hamb": 10,
  "resque</w>": 6,
  "hand": 309,
  "haz": 52,
  "henna</w>": 4,
  "het</w>": 5,
  "aly</w>": 31,
  "alya</w>": 3,
  "ensis</w>": 10,
  "amenta</w>": 13,
  "alias</w>": 4,
  "att": 205,
  "alib": 11,
  "amu</w>": 7,
  "ang": 228,
  "bang</w>": 8,
  "iber</w>": 13,
  "i's</w>": 5,
  "alice</w>": 4,
  "yce</w>": 17,
  "ice-": 70,
  "onder": 5,
  "land</w>": 278,
  "oche</w>": 22,
  "paine</w>": 3,
  "ict": 37,
  "isal</w>": 6,
  "idad</w>": 7,
  "alid": 5,
  "idus</w>": 10,
  "alien</w>": 4,
  "alien": 32,
  "ened</w>": 204,
  "ener</w>": 111,
  "icola</w>": 11,
  "icolae</w>": 5,
  "ening</w>": 181,
  "eska</w>": 3,
  "ethmoid</w>": 13,
  "ethmoidal</w>": 8,
  "ife</w>": 18,
  "aliform</w>": 4,
  "ifs</w>": 22,
  "igar": 5,
  "igerous</w>": 51,
  "ighted</w>": 34,
  "ighten</w>": 3,
  "ighting</w>": 30,
  "ights</w>": 35,
  "ign</w>": 55,
  "aligned</w>": 3,
  "igner</w>": 11,
  "align": 5,
  "igning</w>": 27,
  "alignment</w>": 5,
  "igns</w>": 16,
  "ig": 240,
  "reek</w>": 4,
  "yah</w>": 12,
  "yas</w>": 14,
  "yos</w>": 6,
  "yot</w>": 7,
  "yo": 30,
  "alike</w>": 26,
  "alik": 6,
  "ewise</w>": 41,
  "uf</w>": 3,
  "uf": 22,
  "alim": 6,
  "aliment": 12,
  "alimentation</w>": 6,
  "imented</w>": 9,
  "entive</w>": 24,
  "entiveness</w>": 13,
  "imon": 15,
  "ymph": 16,
  "opot": 14,
  "alina</w>": 7,
  "inasal</w>": 5,
  "ineation</w>": 3,
  "inement</w>": 14,
  "iner</w>": 76,
  "iners</w>": 30,
  "alines</w>": 3,
  "ining</w>": 125,
  "alin": 3,
  "inna</w>": 16,
  "otum</w>": 9,
  "of": 82,
  "osha</w>": 3,
  "alip": 10,
  "iped</w>": 28,
  "iph": 68,
  "tae</w>": 5,
  "ipter": 14,
  "aliqu": 5,
  "ippa</w>": 5,
  "alis</w>": 53,
  "isa</w>": 41,
  "alys": 5,
  "alis": 23,
  "yse</w>": 22,
  "eptal</w>": 7,
  "alish</w>": 6,
  "ysia</w>": 8,
  "kand": 9,
  "alism": 3,
  "ismal</w>": 19,
  "mal": 459,
  "ismoid</w>": 5,
  "ison</w>": 69,
  "yson</w>": 9,
  "ison": 38,
  "phenoid</w>": 10,
  "phenoidal</w>": 8,
  "sson</w>": 13,
  "sums</w>": 6,
  "alit": 4,
  "aliter</w>": 3,
  "itha</w>": 7,
  "ithea</w>": 3,
  "ithia</w>": 3,
  "runk</w>": 15,
  "itta</w>": 20,
  "urgic</w>": 24,
  "urgical</w>": 23,
  "unde</w>": 6,
  "alive</w>": 4,
  "incular</w>": 3,
  "aliz": 8,
  "arin</w>": 38,
  "arins</w>": 4,
  "aljam": 5,
  "job": 52,
  "fain": 15,
  "alk</w>": 24,
  "alk": 59,
  "alkah": 5,
  "estic</w>": 16,
  "alkal": 60,
  "alkali</w>": 3,
  "igen</w>": 6,
  "igenous</w>": 46,
  "alkaline</w>": 8,
  "inisation</w>": 7,
  "inise</w>": 8,
  "inised</w>": 9,
  "inising</w>": 9,
  "alkalinity</w>": 4,
  "inization</w>": 38,
  "inized</w>": 37,
  "inizes</w>": 6,
  "inizing</w>": 34,
  "inuria</w>": 10,
  "alkaloid</w>": 4,
  "kam": 100,
  "alkan": 6,
  "alkane</w>": 3,
  "iol</w>": 14,
  "alkap": 3,
  "apt": 30,
  "kar": 172,
  "sine</w>": 18,
  "sel": 193,
  "tzer</w>": 3,
  "kek": 4,
  "enna</w>": 25,
  "kh": 148,
  "ovo</w>": 10,
  "ky</w>": 142,
  "yd</w>": 9,
  "yds</w>": 5,
  "ylamine</w>": 17,
  "alkyl": 6,
  "aryl": 3,
  "sulf": 94,
  "alkylation</w>": 3,
  "benz": 100,
  "enes": 4,
  "ulfonate</w>": 3,
  "ylize</w>": 6,
  "ko": 81,
  "oran</w>": 4,
  "oxid</w>": 12,
  "oxide</w>": 35,
  "alla</w>": 40,
  "all-": 244,
  "actite</w>": 6,
  "agite</w>": 8,
  "allag": 5,
  "allah</w>": 9,
  "ayed</w>": 58,
  "allaying</w>": 3,
  "yment</w>": 21,
  "allam": 3,
  "amaz": 31,
  "a-mor": 3,
  "otti</w>": 8,
  "amuch": 5,
  "allan</w>": 6,
  "anitic</w>": 4,
  "anson</w>": 5,
  "all'": 3,
  "antica</w>": 3,
  "allant": 18,
  "ochorion</w>": 3,
  "allantoic</w>": 5,
  "oidean</w>": 27,
  "oidian</w>": 5,
  "oin": 24,
  "ox": 219,
  "appal": 10,
  "appointing</w>": 4,
  "approved</w>": 9,
  "approving</w>": 5,
  "ardt</w>": 4,
  "around</w>": 9,
  "arra": 18,
  "arranging</w>": 5,
  "asch</w>": 6,
  "assist": 14,
  "otonic</w>": 18,
  "oning</w>": 55,
  "empting</w>": 12,
  "-bearing</w>": 87,
  "all-be": 3,
  "auteous</w>": 3,
  "tiful</w>": 4,
  "holding</w>": 22,
  "all-b": 5,
  "owing</w>": 40,
  "-black</w>": 28,
  "less": 28,
  "-bo": 43,
  "unte": 21,
  "unti": 24,
  "-bright</w>": 26,
  "rilliant</w>": 3,
  "-british</w>": 7,
  "aucasian</w>": 4,
  "changing</w>": 15,
  "cheering</w>": 6,
  "collected</w>": 7,
  "colored</w>": 73,
  "comfort": 12,
  "commander</w>": 4,
  "commanding</w>": 7,
  "compelling</w>": 13,
  "complying</w>": 4,
  "composing</w>": 3,
  "comprehending</w>": 3,
  "comprehensive</w>": 4,
  "comprehensiveness</w>": 3,
  "concealing</w>": 6,
  "conceiving</w>": 7,
  "concerning</w>": 4,
  "confounding</w>": 6,
  "conquering</w>": 5,
  "sidering</w>": 5,
  "constant</w>": 9,
  "constra": 8,
  "consuming</w>": 17,
  "content</w>": 12,
  "controlling</w>": 10,
  "convincing</w>": 3,
  "convincingly</w>": 3,
  "cot</w>": 19,
  "covering</w>": 10,
  "-creating</w>": 6,
  "-cre": 6,
  "curing</w>": 10,
  "all-d": 14,
  "aring</w>": 67,
  "azzling</w>": 7,
  "deciding</w>": 3,
  "defiance</w>": 4,
  "defying</w>": 6,
  "ending</w>": 108,
  "esired</w>": 3,
  "espising</w>": 4,
  "royer</w>": 4,
  "estroying</w>": 2,
  "devast": 12,
  "devouring</w>": 17,
  "imming</w>": 10,
  "directing</w>": 7,
  "discerning</w>": 3,
  "discovering</w>": 3,
  "disgraced</w>": 4,
  "dispensing</w>": 5,
  "dispos": 13,
  "disposing</w>": 5,
  "ivine</w>": 5,
  "readed</w>": 8,
  "read": 107,
  "alle</w>": 12,
  "earnest</w>": 7,
  "eating</w>": 23,
  "ecret</w>": 4,
  "led": 66,
  "alle": 16,
  "effic": 10,
  "efficient</w>": 7,
  "alleg": 25,
  "any</w>": 63,
  "allegation</w>": 5,
  "allege</w>": 5,
  "alleged</w>": 8,
  "allegh": 6,
  "anian</w>": 52,
  "eny</w>": 31,
  "enies</w>": 11,
  "allegiance</w>": 3,
  "allegi": 4,
  "alleging</w>": 4,
  "allegoric</w>": 3,
  "allegorical</w>": 4,
  "allegorically</w>": 3,
  "allegor": 17,
  "icalness</w>": 172,
  "allegorize</w>": 3,
  "allegorized</w>": 3,
  "gress": 13,
  "retto</w>": 7,
  "tos</w>": 14,
  "to": 211,
  "allegro</w>": 3,
  "alley</w>": 7,
  "eyed</w>": 92,
  "alley": 4,
  "oop</w>": 4,
  "allel": 15,
  "allelic</w>": 3,
  "allelism</w>": 3,
  "atalytic</w>": 6,
  "omorph</w>": 50,
  "omorphism</w>": 39,
  "eloquent</w>": 6,
  "allelu": 5,
  "iatic</w>": 14,
  "elv": 21,
  "allem": 5,
  "ande</w>": 19,
  "embracing</w>": 7,
  "embrac": 10,
  "ontite</w>": 5,
  "allen</w>": 7,
  "allen": 11,
  "arly</w>": 62,
  "encompass": 6,
  "endale</w>": 12,
  "ende</w>": 10,
  "endorf</w>": 6,
  "enduring</w>": 8,
  "engross": 13,
  "ulfing</w>": 4,
  "hurst</w>": 19,
  "enlightened</w>": 4,
  "enlightening</w>": 4,
  "enrag": 6,
  "ensville</w>": 13,
  "enti": 91,
  "acan</w>": 17,
  "enton</w>": 10,
  "entown</w>": 4,
  "envied</w>": 3,
  "lep": 53,
  "pey</w>": 10,
  "aller</w>": 35,
  "eras</w>": 11,
  "allerg": 10,
  "aller": 6,
  "genicity</w>": 5,
  "erie</w>": 52,
  "eris</w>": 9,
  "our</w>": 183,
  "erton</w>": 13,
  "essential</w>": 15,
  "sthesia</w>": 3,
  "allevi": 14,
  "evil</w>": 12,
  "excellent</w>": 3,
  "expense</w>": 4,
  "exp": 72,
  "es-": 18,
  "paid</w>": 25,
  "-v": 5,
  "all-f": 8,
  "atherly</w>": 4,
  "-filling</w>": 11,
  "-fired</w>": 14,
  "ired": 4,
  "flaming</w>": 9,
  "lot": 76,
  "-flow": 4,
  "-water</w>": 22,
  "seeing</w>": 16,
  "forgetful</w>": 4,
  "forgetting</w>": 5,
  "forgiving</w>": 3,
  "forgotten</w>": 10,
  "fullness</w>": 8,
  "all-g": 3,
  "glorious</w>": 8,
  "olden</w>": 16,
  "-governing</w>": 3,
  "gracious</w>": 10,
  "grasping</w>": 5,
  "great</w>": 10,
  "guiding</w>": 6,
  "hallow</w>": 7,
  "hallowed</w>": 5,
  "hallow": 12,
  "lows</w>": 27,
  "tide</w>": 37,
  "all-h": 6,
  "appy</w>": 23,
  "heal</w>": 11,
  "healing</w>": 5,
  "heals</w>": 3,
  "hearing</w>": 9,
  "he": 342,
  "ping</w>": 193,
  "iding</w>": 70,
  "holy</w>": 5,
  "onored</w>": 5,
  "oping</w>": 37,
  "alli</w>": 10,
  "alli": 44,
  "alliance</w>": 10,
  "alliances</w>": 5,
  "allic": 3,
  "pane</w>": 13,
  "holly</w>": 4,
  "iciency</w>": 14,
  "icient</w>": 25,
  "icit</w>": 5,
  "idolizing</w>": 3,
  "allied</w>": 15,
  "lier</w>": 171,
  "allies</w>": 11,
  "allig": 10,
  "alligator": 3,
  "fishes</w>": 186,
  "allying</w>": 9,
  "allyl</w>": 4,
  "illuminating</w>": 6,
  "thiourea</w>": 5,
  "imitating</w>": 8,
  "important</w>": 7,
  "impressive</w>": 3,
  "cluding</w>": 17,
  "inclusive</w>": 5,
  "clusiveness</w>": 14,
  "india</w>": 4,
  "ineate</w>": 5,
  "infolding</w>": 3,
  "informing</w>": 4,
  "in-": 65,
  "inter": 1384,
  "esting</w>": 58,
  "interpreting</w>": 5,
  "inv": 73,
  "ading</w>": 99,
  "involving</w>": 5,
  "ionia</w>": 9,
  "you</w>": 7,
  "isan</w>": 13,
  "ital": 48,
  "iteral</w>": 6,
  "alliter": 15,
  "allium</w>": 5,
  "val": 208,
  "jarred</w>": 3,
  "just</w>": 9,
  "justifying</w>": 6,
  "kind</w>": 23,
  "knav": 8,
  "knowing</w>": 12,
  "know": 34,
  "-land</w>": 16,
  "-licensed</w>": 3,
  "lov": 66,
  "ely</w>": 378,
  "loving</w>": 42,
  "-maker</w>": 20,
  "-making</w>": 31,
  "maturing</w>": 4,
  "meaningness</w>": 4,
  "merciful</w>": 3,
  "metal</w>": 11,
  "miscre": 12,
  "mouth</w>": 41,
  "mouths</w>": 11,
  "-murdering</w>": 3,
  "-night</w>": 6,
  "-noble</w>": 6,
  "-nour": 4,
  "allo</w>": 9,
  "antibody</w>": 5,
  "baric</w>": 5,
  "bars</w>": 22,
  "obedient</w>": 11,
  "obeying</w>": 3,
  "oblivious</w>": 4,
  "brog": 5,
  "obsc": 15,
  "alloc": 7,
  "affeine</w>": 4,
  "allocat": 3,
  "allocate</w>": 5,
  "allocated</w>": 6,
  "allocates</w>": 4,
  "allocating</w>": 5,
  "allocation</w>": 4,
  "allocations</w>": 3,
  "cator</w>": 16,
  "cheiria</w>": 5,
  "chet": 26,
  "zia</w>": 18,
  "chir": 64,
  "chiria</w>": 4,
  "chlor": 181,
  "ophyll</w>": 20,
  "chroic</w>": 5,
  "chroite</w>": 4,
  "chromatic</w>": 8,
  "chro": 17,
  "thon</w>": 10,
  "chth": 8,
  "onous</w>": 28,
  "cyanine</w>": 4,
  "cinnamic</w>": 3,
  "allock</w>": 3,
  "clas": 7,
  "coch": 41,
  "cryptic</w>": 5,
  "crot": 41,
  "cute</w>": 3,
  "cution</w>": 3,
  "delph": 23,
  "desm": 31,
  "dge</w>": 9,
  "dial</w>": 17,
  "allodi": 6,
  "dian</w>": 13,
  "dies</w>": 17,
  "alloe": 3,
  "erotic</w>": 8,
  "erotism</w>": 5,
  "allog": 5,
  "amies</w>": 4,
  "gene": 17,
  "genically</w>": 4,
  "graft</w>": 10,
  "lograph</w>": 10,
  "lographic</w>": 8,
  "alloy</w>": 6,
  "alloyed</w>": 3,
  "immune</w>": 8,
  "iometry</w>": 8,
  "iometric</w>": 5,
  "allois": 3,
  "omer</w>": 62,
  "omerism</w>": 17,
  "kinesis</w>": 7,
  "kinetic</w>": 11,
  "kur": 60,
  "olalia</w>": 10,
  "allomer": 4,
  "omerous</w>": 15,
  "omuc": 4,
  "onges</w>": 4,
  "onym</w>": 26,
  "onymous</w>": 18,
  "onymously</w>": 5,
  "onyms</w>": 10,
  "onomous</w>": 6,
  "alloo</w>": 3,
  "octap": 5,
  "loid</w>": 59,
  "pallad": 21,
  "path</w>": 17,
  "allopath": 8,
  "etically</w>": 109,
  "allopat": 3,
  "rically</w>": 38,
  "pelagic</w>": 4,
  "allophan": 4,
  "phane</w>": 5,
  "ph": 293,
  "phy": 26,
  "lian</w>": 30,
  "phyl": 70,
  "phite</w>": 3,
  "phyt": 177,
  "phone</w>": 22,
  "phones</w>": 8,
  "phonic</w>": 7,
  "phon": 165,
  "phore</w>": 8,
  "plasm</w>": 11,
  "plasmatic</w>": 4,
  "plasmic</w>": 6,
  "plast</w>": 9,
  "plasty</w>": 20,
  "ploidy</w>": 3,
  "polyp": 57,
  "loidy</w>": 21,
  "psychic</w>": 4,
  "pur": 224,
  "inol</w>": 15,
  "alloqu": 3,
  "ordering</w>": 9,
  "orhyth": 5,
  "none</w>": 7,
  "rhy": 43,
  "rhythmic</w>": 10,
  "saur</w>": 3,
  "saurus</w>": 3,
  "sem": 166,
  "syndesis</w>": 3,
  "synd": 11,
  "allot</w>": 7,
  "tell": 51,
  "theism</w>": 5,
  "theist</w>": 5,
  "theistic</w>": 4,
  "theria</w>": 10,
  "thig": 8,
  "alloth": 5,
  "igenetic</w>": 6,
  "thim": 8,
  "orph</w>": 8,
  "orphic</w>": 8,
  "allotyp": 6,
  "allotment</w>": 7,
  "allot": 9,
  "transpl": 19,
  "antation</w>": 8,
  "tr": 162,
  "allotri": 8,
  "ognathi</w>": 7,
  "allotrop": 11,
  "trophic</w>": 3,
  "allots</w>": 3,
  "tt": 19,
  "ott": 65,
  "allotted</w>": 6,
  "allotting</w>": 4,
  "out</w>": 186,
  "over</w>": 74,
  "all-over": 4,
  "powering</w>": 3,
  "overs</w>": 29,
  "topping</w>": 6,
  "allow</w>": 15,
  "allowable</w>": 5,
  "allow": 12,
  "allowably</w>": 3,
  "allowance</w>": 6,
  "allowed</w>": 7,
  "allows</w>": 3,
  "allox": 9,
  "anate</w>": 14,
  "xy": 11,
  "prote": 55,
  "zooid</w>": 9,
  "all-p": 12,
  "anting</w>": 37,
  "parent</w>": 14,
  "ass</w>": 92,
  "patient</w>": 16,
  "peaceful</w>": 4,
  "enet": 11,
  "peopled</w>": 18,
  "perceptive</w>": 9,
  "perfect</w>": 18,
  "perfection</w>": 5,
  "perfectness</w>": 3,
  "perf": 36,
  "persuasive</w>": 4,
  "pervading</w>": 5,
  "pervad": 5,
  "pervasive</w>": 3,
  "pervasiveness</w>": 3,
  "piercing</w>": 20,
  "iless</w>": 15,
  "ondering</w>": 4,
  "possessed</w>": 16,
  "otency</w>": 4,
  "otent</w>": 11,
  "otential</w>": 6,
  "ower</w>": 49,
  "all-power": 3,
  "praised</w>": 17,
  "praiseworthy</w>": 3,
  "presence</w>": 11,
  "present</w>": 23,
  "prevailing</w>": 3,
  "prevail": 5,
  "preval": 13,
  "prevalent</w>": 4,
  "preventing</w>": 4,
  "prolif": 13,
  "protecting</w>": 4,
  "provident</w>": 3,
  "providing</w>": 4,
  "issant</w>": 9,
  "purpose</w>": 12,
  "quick": 91,
  "rail</w>": 38,
  "rapacious</w>": 4,
  "reaching</w>": 6,
  "redeeming</w>": 3,
  "relieving</w>": 4,
  "rending</w>": 13,
  "righteous</w>": 9,
  "round": 109,
  "rounder</w>": 3,
  "rubber</w>": 5,
  "rud</w>": 7,
  "ruling</w>": 16,
  "russia</w>": 4,
  "russian</w>": 21,
  "alls</w>": 37,
  "all-s": 11,
  "tifying</w>": 35,
  "iating</w>": 45,
  "atis": 10,
  "fying</w>": 11,
  "aving</w>": 43,
  "sea</w>": 19,
  "searching</w>": 3,
  "seed</w>": 44,
  "seeds</w>": 14,
  "seeingly</w>": 4,
  "seeingness</w>": 3,
  "seer</w>": 9,
  "-shaking</w>": 8,
  "all-sh": 3,
  "-shaped</w>": 243,
  "uding</w>": 23,
  "unned</w>": 8,
  "-sided</w>": 34,
  "-sized</w>": 25,
  "liming</w>": 4,
  "oothing</w>": 6,
  "sop": 25,
  "-soul</w>": 5,
  "-southern</w>": 4,
  "spice</w>": 5,
  "spices</w>": 4,
  "preading</w>": 10,
  "-star</w>": 11,
  "steel</w>": 13,
  "ston</w>": 67,
  "rangling</w>": 4,
  "subduing</w>": 10,
  "submissive</w>": 3,
  "substantial</w>": 10,
  "sufficiency</w>": 8,
  "sufficient</w>": 10,
  "sufficiently</w>": 8,
  "sufficing</w>": 4,
  "-sur": 14,
  "passing</w>": 6,
  "rounding</w>": 7,
  "-surveying</w>": 4,
  "sustain": 10,
  "sustaining</w>": 7,
  "sw": 367,
  "aying</w>": 68,
  "swallowing</w>": 3,
  "all-t": 3,
  "elling</w>": 160,
  "terrible</w>": 3,
  "thorn</w>": 19,
  "thorn": 56,
  "oler": 16,
  "transc": 14,
  "triumph": 11,
  "ruth</w>": 9,
  "tu": 192,
  "turned</w>": 20,
  "uded</w>": 26,
  "udes</w>": 26,
  "umin": 22,
  "understanding</w>": 9,
  "unw": 204,
  "illing</w>": 71,
  "uph": 44,
  "older</w>": 27,
  "olding</w>": 18,
  "urance</w>": 8,
  "urements</w>": 5,
  "uringly</w>": 5,
  "uringness</w>": 3,
  "usory</w>": 6,
  "uvia</w>": 7,
  "uvial</w>": 13,
  "alluv": 4,
  "uviate</w>": 7,
  "alluvi": 3,
  "uvium</w>": 9,
  "vivia</w>": 5,
  "viv": 113,
  "var</w>": 17,
  "various</w>": 3,
  "vast</w>": 3,
  "all-w": 7,
  "atched</w>": 13,
  "weak</w>": 3,
  "weather</w>": 7,
  "weight</w>": 36,
  "wein</w>": 9,
  "whither</w>": 6,
  "whole</w>": 5,
  "isely</w>": 4,
  "-wood</w>": 27,
  "worshiped</w>": 5,
  "rong": 14,
  "alm</w>": 6,
  "alma</w>": 3,
  "alma": 3,
  "almac": 5,
  "antar</w>": 5,
  "alm": 36,
  "iga</w>": 20,
  "igo</w>": 26,
  "almad": 4,
  "almag": 3,
  "mah": 105,
  "main</w>": 16,
  "maine</w>": 6,
  "main-": 3,
  "riv": 70,
  "mater": 32,
  "amo": 20,
  "alman</w>": 11,
  "alman": 5,
  "almand": 4,
  "-t": 245,
  "med": 163,
  "alme": 7,
  "hs</w>": 46,
  "idina</w>": 3,
  "almem": 3,
  "mend": 55,
  "mera</w>": 8,
  "mery</w>": 20,
  "meria</w>": 4,
  "meric</w>": 6,
  "meries</w>": 4,
  "meri": 6,
  "mice</w>": 9,
  "mic": 116,
  "mida</w>": 3,
  "ighty</w>": 7,
  "ight": 19,
  "mi": 140,
  "mira</w>": 5,
  "my": 282,
  "mistry</w>": 4,
  "mita</w>": 4,
  "mn": 30,
  "mo</w>": 51,
  "moch": 5,
  "reb": 85,
  "avar</w>": 3,
  "almoh": 3,
  "almo": 3,
  "almon": 12,
  "mond</w>": 23,
  "almond": 6,
  "-eyed</w>": 130,
  "-furn": 3,
  "mont</w>": 52,
  "almorav": 3,
  "alms</w>": 3,
  "s-": 40,
  "dealing</w>": 13,
  "alms": 8,
  "deed</w>": 7,
  "-fed</w>": 49,
  "folk</w>": 29,
  "giver</w>": 5,
  "giving</w>": 18,
  "shouse</w>": 6,
  "-house</w>": 52,
  "ouses</w>": 44,
  "money</w>": 19,
  "almuc": 3,
  "mud</w>": 7,
  "almud": 4,
  "mu": 130,
  "mug</w>": 3,
  "mug": 38,
  "mur": 156,
  "mut": 144,
  "nage</w>": 9,
  "nag": 46,
  "nas": 114,
  "char</w>": 9,
  "char": 220,
  "nath</w>": 5,
  "nic": 95,
  "nil": 20,
  "resin": 28,
  "nit": 140,
  "nith": 3,
  "niv": 19,
  "irid": 81,
  "nu": 50,
  "nus</w>": 10,
  "alo</w>": 25,
  "alo": 29,
  "adae</w>": 7,
  "ochia</w>": 9,
  "odd": 38,
  "alod": 8,
  "odial</w>": 10,
  "odial": 6,
  "odies</w>": 20,
  "oed</w>": 70,
  "emodin</w>": 4,
  "eroot</w>": 12,
  "aloes</w>": 6,
  "eswood</w>": 3,
  "etical</w>": 75,
  "oe": 48,
  "ewood</w>": 43,
  "oft</w>": 9,
  "alog": 19,
  "alogy</w>": 13,
  "alogical</w>": 13,
  "oh": 66,
  "aloid</w>": 15,
  "alois": 3,
  "ys": 117,
  "aloma</w>": 3,
  "alon": 8,
  "along</w>": 7,
  "along": 5,
  "shore</w>": 16,
  "shoreman</w>": 3,
  "side</w>": 93,
  "aloo": 3,
  "f": 848,
  "opathic</w>": 46,
  "alop": 6,
  "alopec": 6,
  "eke</w>": 4,
  "orcin": 6,
  "orton</w>": 5,
  "alose</w>": 5,
  "alou": 5,
  "atta</w>": 25,
  "atte</w>": 9,
  "ettes</w>": 82,
  "alow</w>": 6,
  "owe</w>": 3,
  "paca</w>": 3,
  "pac": 68,
  "parg": 15,
  "pas": 87,
  "pau": 24,
  "alp": 3,
  "peen</w>": 7,
  "pen</w>": 39,
  "alpen": 7,
  "horn</w>": 51,
  "horns</w>": 12,
  "stock</w>": 46,
  "stock": 114,
  "stocks</w>": 10,
  "per</w>": 152,
  "pers</w>": 200,
  "pert</w>": 12,
  "pes": 28,
  "-de-": 41,
  "haute-": 10,
  "-mar": 21,
  "alpest": 3,
  "pet": 244,
  "alph": 31,
  "alpha-": 3,
  "amylase</w>": 6,
  "alphab": 11,
  "alphabet": 18,
  "eted</w>": 137,
  "alphabetic</w>": 5,
  "alphabetical</w>": 4,
  "alphabetically</w>": 3,
  "eting</w>": 101,
  "etize</w>": 32,
  "alphabetized</w>": 4,
  "et's</w>": 37,
  "ellulose</w>": 6,
  "eucaine</w>": 3,
  "hypoph": 15,
  "americ</w>": 6,
  "amer": 62,
  "alpha-naphth": 3,
  "alphan": 1,
  "alphanumer": 3,
  "atype</w>": 6,
  "a-t": 10,
  "pher": 21,
  "oluic</w>": 6,
  "illine</w>": 12,
  "phenic</w>": 3,
  "iboea</w>": 3,
  "alphon": 8,
  "osises</w>": 11,
  "pian</w>": 15,
  "pid</w>": 15,
  "pi": 202,
  "pig": 132,
  "alpine</w>": 5,
  "alpin": 14,
  "pist": 53,
  "oca</w>": 17,
  "ps</w>": 151,
  "pu": 114,
  "jarra</w>": 3,
  "que": 86,
  "ready</w>": 10,
  "readiness</w>": 4,
  "rick</w>": 66,
  "roi</w>": 9,
  "roy</w>": 28,
  "run": 72,
  "alsac": 3,
  "lor": 141,
  "raine</w>": 10,
  "rainer</w>": 10,
  "-sah": 4,
  "ih</w>": 3,
  "alsat": 3,
  "als": 5,
  "bachite</w>": 7,
  "sif": 17,
  "ilm</w>": 5,
  "sik": 30,
  "sin": 197,
  "ip</w>": 80,
  "alson</w>": 3,
  "soon</w>": 7,
  "ophila</w>": 9,
  "so-": 29,
  "alston": 4,
  "stro": 52,
  "emer": 68,
  "swe": 43,
  "alt</w>": 34,
  "alt": 54,
  "alta</w>": 3,
  "alta": 7,
  "altaian</w>": 4,
  "altaic</w>": 6,
  "tal": 239,
  "altam": 3,
  "altar</w>": 5,
  "altar": 10,
  "pieces</w>": 15,
  "azim": 9,
  "uth</w>": 13,
  "dorf</w>": 9,
  "dor": 217,
  "fer</w>": 52,
  "alten": 3,
  "alter</w>": 4,
  "alter": 33,
  "alteration</w>": 3,
  "cate</w>": 26,
  "cated</w>": 13,
  "cating</w>": 9,
  "cation</w>": 18,
  "cations</w>": 5,
  "cative</w>": 5,
  "altered</w>": 4,
  "egoism</w>": 3,
  "egoistic</w>": 3,
  "altering</w>": 3,
  "altern</w>": 4,
  "altern": 27,
  "amente</w>": 13,
  "naria</w>": 6,
  "ariose</w>": 4,
  "alternat": 13,
  "e-leaved</w>": 12,
  "alternating</w>": 5,
  "ivo</w>": 8,
  "ipetalous</w>": 5,
  "ipinnate</w>": 8,
  "isepalous</w>": 3,
  "ocentric</w>": 30,
  "zza</w>": 11,
  "geld</w>": 6,
  "alth": 14,
  "aein</w>": 6,
  "aemenes</w>": 3,
  "althe": 4,
  "imer</w>": 15,
  "though</w>": 3,
  "alti": 12,
  "tica</w>": 5,
  "amel": 22,
  "ili": 84,
  "tiloqu": 3,
  "meters</w>": 15,
  "metrical</w>": 20,
  "metrically</w>": 10,
  "iaceous</w>": 79,
  "inck</w>": 9,
  "rilievi</w>": 5,
  "tis": 31,
  "cope</w>": 36,
  "isonant</w>": 9,
  "isonous</w>": 8,
  "altit": 5,
  "onant</w>": 7,
  "udinal</w>": 4,
  "udin": 5,
  "udinous</w>": 6,
  "ocumulus</w>": 4,
  "alto-": 4,
  "cumulus</w>": 5,
  "cumul": 16,
  "ether": 55,
  "alto": 5,
  "alton</w>": 3,
  "tona</w>": 3,
  "o-relievo</w>": 4,
  "o-relievos</w>": 4,
  "rilievo</w>": 5,
  "altos</w>": 3,
  "ostratus</w>": 7,
  "stratus</w>": 3,
  "trices</w>": 3,
  "tric": 116,
  "trin": 48,
  "tro": 154,
  "altru": 8,
  "altruistic</w>": 3,
  "alts</w>": 3,
  "sch": 369,
  "tum": 86,
  "tura</w>": 4,
  "alu</w>": 5,
  "uco</w>": 11,
  "alu": 3,
  "conidae</w>": 4,
  "alud": 4,
  "uin</w>": 5,
  "ulet</w>": 11,
  "alum</w>": 9,
  "alum": 30,
  "umb": 104,
  "ank</w>": 41,
  "brad": 35,
  "alumin": 32,
  "aphone</w>": 7,
  "aluminate</w>": 3,
  "aluminic</w>": 3,
  "io-</w>": 18,
  "ofer": 4,
  "osilicate</w>": 14,
  "othermy</w>": 11,
  "othermic</w>": 20,
  "mics</w>": 9,
  "aluminum</w>": 3,
  "nae</w>": 5,
  "nal</w>": 6,
  "na": 101,
  "ni</w>": 37,
  "ohydro": 15,
  "calcite</w>": 6,
  "roots</w>": 16,
  "stone</w>": 191,
  "un-": 120,
  "undum</w>": 4,
  "unite</w>": 10,
  "unites</w>": 5,
  "urd</w>": 10,
  "urg": 43,
  "tite</w>": 19,
  "uzz": 19,
  "alv": 21,
  "vad": 16,
  "van</w>": 21,
  "alvar": 3,
  "vat": 36,
  "alve": 11,
  "vel": 153,
  "alveol": 20,
  "alveolar</w>": 14,
  "olar": 3,
  "olate</w>": 39,
  "oli</w>": 39,
  "oclasia</w>": 11,
  "odental</w>": 4,
  "olabial</w>": 13,
  "olingual</w>": 8,
  "onasal</w>": 14,
  "osub": 5,
  "nasal</w>": 8,
  "vera</w>": 7,
  "verda</w>": 3,
  "verson</w>": 8,
  "verta</w>": 3,
  "verton</w>": 5,
  "vy</w>": 43,
  "iani</w>": 3,
  "vid": 29,
  "ucous</w>": 9,
  "vin</w>": 41,
  "vino</w>": 5,
  "vira</w>": 3,
  "vis</w>": 27,
  "alvis": 3,
  "vita</w>": 4,
  "vito</w>": 4,
  "wyn</w>": 16,
  "alwise</w>": 4,
  "wite</w>": 11,
  "witt</w>": 5,
  "heimer</w>": 11,
  "abella</w>": 10,
  "abile</w>": 7,
  "ratic</w>": 24,
  "acrine</w>": 3,
  "amad": 9,
  "avat</w>": 4,
  "eo</w>": 31,
  "ingo</w>": 12,
  "sett</w>": 7,
  "asaki</w>": 3,
  "amah</w>": 3,
  "amay</w>": 4,
  "bo</w>": 41,
  "aist</w>": 21,
  "aister</w>": 3,
  "ebe</w>": 7,
  "amal": 22,
  "bena</w>": 3,
  "ekite</w>": 6,
  "itan</w>": 19,
  "amalg": 3,
  "amalgam": 16,
  "amalgamation</w>": 3,
  "rician</w>": 14,
  "the": 230,
  "ondo</w>": 9,
  "andy</w>": 21,
  "amand": 3,
  "andine</w>": 8,
  "aman": 12,
  "itas</w>": 22,
  "amanit": 4,
  "opsis</w>": 34,
  "ann</w>": 35,
  "antil": 57,
  "lo</w>": 91,
  "amar": 55,
  "kos": 32,
  "anth</w>": 10,
  "anthaceae</w>": 11,
  "anthaceous</w>": 8,
  "anthine</w>": 10,
  "amaranth": 3,
  "-purple</w>": 6,
  "antite</w>": 5,
  "antus</w>": 7,
  "elles</w>": 26,
  "argo</w>": 7,
  "amarg": 3,
  "illas</w>": 29,
  "lid</w>": 37,
  "amaryll": 4,
  "idaceae</w>": 16,
  "idaceous</w>": 11,
  "ideous</w>": 19,
  "illis</w>": 7,
  "yllis</w>": 4,
  "illos</w>": 15,
  "amarin</w>": 4,
  "ce": 86,
  "amarine</w>": 3,
  "itude</w>": 54,
  "vel</w>": 24,
  "asias</w>": 6,
  "amass": 5,
  "assed</w>": 28,
  "asser</w>": 8,
  "asses</w>": 35,
  "assing</w>": 16,
  "asta</w>": 11,
  "asthenic</w>": 6,
  "asty</w>": 25,
  "astia</w>": 3,
  "amat</w>": 5,
  "amate</w>": 12,
  "bu</w>": 20,
  "asu</w>": 8,
  "ialistic</w>": 16,
  "amateurish</w>": 3,
  "amateurishly</w>": 3,
  "amateur": 6,
  "eurs</w>": 30,
  "athist</w>": 7,
  "iste</w>": 24,
  "amatory</w>": 5,
  "atorian</w>": 12,
  "atories</w>": 36,
  "atorio</w>": 4,
  "atorious</w>": 8,
  "rud": 82,
  "su": 354,
  "mara</w>": 7,
  "ungula</w>": 3,
  "amau": 3,
  "rosis</w>": 42,
  "amazing</w>": 3,
  "onas</w>": 9,
  "onis</w>": 13,
  "onom": 40,
  "achia</w>": 11,
  "ulu</w>": 9,
  "amb</w>": 8,
  "amba</w>": 15,
  "amb": 140,
  "ambag": 4,
  "iosity</w>": 28,
  "agious</w>": 6,
  "ambala</w>": 4,
  "ambar": 11,
  "ambass": 8,
  "ambassad": 9,
  "at-large</w>": 4,
  "orially</w>": 30,
  "atch</w>": 29,
  "oar": 32,
  "ambe</w>": 5,
  "beer</w>": 11,
  "amber</w>": 20,
  "amber": 31,
  "-colored</w>": 128,
  "-days</w>": 8,
  "-dropping</w>": 8,
  "berg</w>": 97,
  "grease</w>": 3,
  "gris</w>": 6,
  "gr": 130,
  "-headed</w>": 159,
  "-hued</w>": 30,
  "bery</w>": 33,
  "-yielding</w>": 7,
  "jack</w>": 37,
  "jacks</w>": 15,
  "-locked</w>": 4,
  "ambers</w>": 3,
  "ambert</w>": 4,
  "-tinted</w>": 29,
  "-tipped</w>": 18,
  "-we": 25,
  "eping</w>": 27,
  "-white</w>": 25,
  "iance</w>": 6,
  "ambi": 8,
  "icol": 29,
  "orate</w>": 61,
  "ambidext": 7,
  "ambidexter": 3,
  "ambid": 1,
  "extral</w>": 3,
  "rously</w>": 46,
  "rousness</w>": 35,
  "iency</w>": 27,
  "ambient</w>": 3,
  "ambigu": 9,
  "ambil": 8,
  "-an": 4,
  "ateral</w>": 21,
  "aterally</w>": 10,
  "aterality</w>": 5,
  "evous</w>": 7,
  "ogy</w>": 25,
  "iopia</w>": 3,
  "ambis": 8,
  "ext": 81,
  "exual</w>": 15,
  "exuality</w>": 11,
  "exualities</w>": 3,
  "yllabic</w>": 21,
  "por": 218,
  "angiate</w>": 3,
  "omidae</w>": 11,
  "ambit": 8,
  "endency</w>": 4,
  "ambition</w>": 4,
  "ambitious</w>": 8,
  "ambitiously</w>": 6,
  "ambitiousness</w>": 5,
  "itty</w>": 21,
  "ambival": 4,
  "ivalent</w>": 10,
  "versive</w>": 18,
  "verts</w>": 9,
  "amble</w>": 12,
  "ambled</w>": 4,
  "ocarpus</w>": 26,
  "bler</w>": 72,
  "blers</w>": 42,
  "bles</w>": 87,
  "ambly": 14,
  "acousia</w>": 5,
  "aphia</w>": 9,
  "ambl": 9,
  "ycephal": 12,
  "amblyg": 3,
  "onal</w>": 72,
  "ambling</w>": 5,
  "blingly</w>": 33,
  "opsidae</w>": 5,
  "pod</w>": 34,
  "yp": 68,
  "oda</w>": 33,
  "ypodous</w>": 3,
  "rhynch": 34,
  "egite</w>": 3,
  "losis</w>": 16,
  "ept": 46,
  "oceptor</w>": 10,
  "ambo": 8,
  "coelia</w>": 4,
  "boy</w>": 87,
  "yna</w>": 13,
  "inas</w>": 42,
  "omalleal</w>": 3,
  "bos</w>": 39,
  "osexual</w>": 3,
  "brac": 22,
  "reate</w>": 9,
  "rein</w>": 5,
  "tol": 96,
  "rog": 67,
  "roids</w>": 6,
  "ambros": 16,
  "iac</w>": 62,
  "sac": 94,
  "ambulac": 3,
  "riform</w>": 38,
  "ambulacrum</w>": 3,
  "ambul": 36,
  "ambulant</w>": 5,
  "ambulate</w>": 9,
  "ambulated</w>": 3,
  "ambulating</w>": 3,
  "atio</w>": 14,
  "ambulation</w>": 9,
  "ambulatory</w>": 8,
  "atoria</w>": 12,
  "atorily</w>": 48,
  "atorium</w>": 21,
  "atoriums</w>": 5,
  "bial</w>": 3,
  "gey</w>": 5,
  "ambusc": 8,
  "adoed</w>": 7,
  "ambush</w>": 6,
  "ushed</w>": 8,
  "usher</w>": 7,
  "ambush": 5,
  "cho": 43,
  "dahl</w>": 4,
  "dg</w>": 5,
  "dt</w>": 20,
  "eagle</w>": 9,
  "ameb": 16,
  "ame": 9,
  "bean</w>": 18,
  "ameboid</w>": 3,
  "idism</w>": 16,
  "eed</w>": 29,
  "erate</w>": 19,
  "eers</w>": 28,
  "amei": 4,
  "oeira</w>": 3,
  "anch": 68,
  "corn</w>": 20,
  "corns</w>": 4,
  "elet</w>": 78,
  "ameli": 14,
  "orableness</w>": 6,
  "orant</w>": 5,
  "orated</w>": 11,
  "orates</w>": 13,
  "orating</w>": 7,
  "orations</w>": 7,
  "orat": 3,
  "orative</w>": 10,
  "orator</w>": 9,
  "oratory</w>": 8,
  "ellus</w>": 24,
  "oblastic</w>": 55,
  "amen</w>": 25,
  "endable</w>": 35,
  "amend": 5,
  "amended</w>": 3,
  "honorable</w>": 7,
  "ender</w>": 94,
  "enders</w>": 29,
  "amendment</w>": 4,
  "enite</w>": 59,
  "orrheal</w>": 9,
  "orrheic</w>": 8,
  "orrh": 17,
  "orrhoea</w>": 22,
  "orrhoeal</w>": 6,
  "orrhoeic</w>": 4,
  "amens</w>": 4,
  "ament": 15,
  "amental</w>": 16,
  "entia</w>": 30,
  "ferae</w>": 3,
  "entiferous</w>": 8,
  "entiform</w>": 5,
  "aments</w>": 13,
  "amentum</w>": 9,
  "amer</w>": 14,
  "ceable</w>": 17,
  "ced</w>": 16,
  "amerc": 3,
  "cer</w>": 14,
  "cers</w>": 5,
  "ces</w>": 14,
  "iable</w>": 55,
  "ci": 33,
  "cing</w>": 12,
  "amery</w>": 3,
  "america</w>": 4,
  "americ": 10,
  "american": 21,
  "americanism</w>": 6,
  "americanization</w>": 4,
  "americanize</w>": 4,
  "americanized</w>": 3,
  "ancest": 16,
  "award</w>": 6,
  "awards</w>": 4,
  "ophobe</w>": 29,
  "indian</w>": 11,
  "indic</w>": 4,
  "inds</w>": 15,
  "amerism</w>": 4,
  "fo": 140,
  "ort</w>": 48,
  "sham</w>": 11,
  "veil</w>": 7,
  "ames</w>": 15,
  "ames": 4,
  "esite</w>": 25,
  "lan</w>": 54,
  "esville</w>": 70,
  "amet": 36,
  "abola</w>": 6,
  "abole</w>": 4,
  "ametabol": 5,
  "abolism</w>": 9,
  "allous</w>": 5,
  "ameth": 6,
  "hyst": 5,
  "odical</w>": 5,
  "odically</w>": 5,
  "oecious</w>": 15,
  "ropia</w>": 11,
  "ropic</w>": 44,
  "fort": 31,
  "amher": 3,
  "dale</w>": 89,
  "stite</w>": 4,
  "amia</w>": 13,
  "iability</w>": 13,
  "ami": 8,
  "amiable</w>": 3,
  "iableness</w>": 10,
  "iably</w>": 19,
  "ianth</w>": 3,
  "amianth": 6,
  "amy": 27,
  "atonic</w>": 8,
  "amic": 10,
  "iced</w>": 70,
  "ices</w>": 83,
  "heme</w>": 5,
  "ici</w>": 12,
  "icous</w>": 14,
  "robic</w>": 4,
  "ucleate</w>": 14,
  "ctic</w>": 7,
  "ictus</w>": 4,
  "ycus</w>": 3,
  "amides</w>": 3,
  "amidic</w>": 3,
  "ophen": 18,
  "amido": 7,
  "azo</w>": 14,
  "azobenzene</w>": 5,
  "obenzol</w>": 4,
  "ocap": 13,
  "ocyanogen</w>": 6,
  "fluorid</w>": 3,
  "ogens</w>": 17,
  "ogu": 6,
  "oketone</w>": 5,
  "omyelin</w>": 3,
  "ydon</w>": 8,
  "ophosphoric</w>": 7,
  "oplast</w>": 41,
  "oplastid</w>": 4,
  "osuccin": 4,
  "osul": 3,
  "ulin</w>": 18,
  "amie</w>": 7,
  "amyel": 9,
  "encephalia</w>": 6,
  "encephalic</w>": 26,
  "encephalous</w>": 12,
  "eva</w>": 19,
  "igas</w>": 4,
  "amyg": 4,
  "amygdal": 23,
  "amygd": 3,
  "amygdalitis</w>": 3,
  "oncus</w>": 19,
  "rip": 86,
  "uvular</w>": 3,
  "itrile</w>": 5,
  "ophenin</w>": 3,
  "igos</w>": 9,
  "amyl</w>": 4,
  "amyl": 20,
  "amylamine</w>": 3,
  "ildar</w>": 4,
  "enol</w>": 11,
  "amylidene</w>": 3,
  "yli": 19,
  "ferous</w>": 30,
  "amylo": 29,
  "clastic</w>": 10,
  "coagul": 9,
  "dextr": 21,
  "dysp": 25,
  "logen</w>": 4,
  "genesis</w>": 25,
  "hydrolysis</w>": 3,
  "hydrol": 20,
  "idosis</w>": 9,
  "oleucite</w>": 4,
  "pect": 49,
  "phagia</w>": 7,
  "phosphate</w>": 9,
  "phosphoric</w>": 4,
  "plastid</w>": 5,
  "ps": 53,
  "psin</w>": 5,
  "amylose</w>": 4,
  "ses</w>": 152,
  "synthesis</w>": 4,
  "eche</w>": 13,
  "imide</w>": 21,
  "mone</w>": 8,
  "aminase</w>": 7,
  "aminate</w>": 13,
  "aminated</w>": 11,
  "amination</w>": 9,
  "inded</w>": 20,
  "amines</w>": 15,
  "aminic</w>": 9,
  "aminoacet": 5,
  "amino": 8,
  "aminoacidemia</w>": 3,
  "anthraquinone</w>": 5,
  "obarbit": 4,
  "aminobenz": 3,
  "roic</w>": 10,
  "phenyl</w>": 9,
  "amyn": 3,
  "ethionic</w>": 3,
  "formic</w>": 8,
  "anidine</w>": 5,
  "olipin</w>": 5,
  "omal": 21,
  "oxyp": 5,
  "urin</w>": 9,
  "opeptidase</w>": 3,
  "ophylline</w>": 4,
  "opolyp": 7,
  "eptidase</w>": 3,
  "opropionic</w>": 3,
  "urine</w>": 20,
  "oquin</w>": 3,
  "quinoline</w>": 6,
  "aminosis</w>": 3,
  "osulphonic</w>": 3,
  "otrans": 3,
  "otri": 11,
  "oval": 33,
  "oxyl": 15,
  "amins</w>": 9,
  "inta</w>": 10,
  "osthen": 7,
  "osthenic</w>": 5,
  "otaxia</w>": 4,
  "otonia</w>": 6,
  "otrophia</w>": 4,
  "iral</w>": 7,
  "ral": 71,
  "dism</w>": 3,
  "anha</w>": 7,
  "irates</w>": 3,
  "rol</w>": 57,
  "irs</w>": 35,
  "irship</w>": 4,
  "amis</w>": 9,
  "amiss": 7,
  "issing</w>": 14,
  "ission</w>": 8,
  "amit": 15,
  "ytal</w>": 4,
  "amite</w>": 23,
  "aon</w>": 9,
  "yville</w>": 26,
  "ript": 11,
  "yline</w>": 15,
  "role</w>": 16,
  "roles</w>": 3,
  "tai</w>": 5,
  "ixia</w>": 3,
  "ilis</w>": 15,
  "lac": 118,
  "lik": 50,
  "lin</w>": 132,
  "amma</w>": 3,
  "amaria</w>": 3,
  "amman</w>": 3,
  "manite</w>": 5,
  "mann</w>": 70,
  "melin</w>": 4,
  "meline</w>": 3,
  "me": 248,
  "ammer</w>": 17,
  "ammer": 5,
  "ammeter</w>": 9,
  "ammi</w>": 3,
  "ammi": 4,
  "ianus</w>": 14,
  "mines</w>": 15,
  "ammin": 7,
  "ochloride</w>": 14,
  "mish": 32,
  "ammo": 4,
  "chaeta</w>": 6,
  "chaetae</w>": 5,
  "chrys": 104,
  "ammoco": 3,
  "ammocoet": 3,
  "ammod": 4,
  "ytidae</w>": 4,
  "ytoid</w>": 4,
  "ammon</w>": 3,
  "ammon": 63,
  "iacal</w>": 22,
  "iac": 22,
  "iacs</w>": 16,
  "ammoni": 4,
  "iated</w>": 70,
  "iation</w>": 79,
  "jarosite</w>": 5,
  "itrate</w>": 8,
  "itess</w>": 6,
  "iticone</w>": 3,
  "itiferous</w>": 5,
  "itish</w>": 28,
  "itoid</w>": 18,
  "ammonium</w>": 10,
  "iuret</w>": 6,
  "ureted</w>": 7,
  "obasic</w>": 4,
  "ocarbonic</w>": 10,
  "ocarbon": 7,
  "olyses</w>": 6,
  "olyze</w>": 5,
  "olyzed</w>": 3,
  "olyzing</w>": 3,
  "sl": 342,
  "ammu</w>": 3,
  "unit": 51,
  "amn": 36,
  "emonic</w>": 7,
  "esty</w>": 9,
  "amnest": 3,
  "amni": 15,
  "igenia</w>": 4,
  "nin": 65,
  "lepsis</w>": 6,
  "ionata</w>": 3,
  "ionate</w>": 52,
  "amniotic</w>": 5,
  "otin</w>": 20,
  "amo</w>": 10,
  "uh</w>": 8,
  "obarbital</w>": 5,
  "ober</w>": 9,
  "yr</w>": 11,
  "oco</w>": 15,
  "amoeba</w>": 9,
  "amoeb": 26,
  "aeum</w>": 16,
  "amoe": 5,
  "boid</w>": 20,
  "oyan</w>": 6,
  "ibite</w>": 3,
  "inder</w>": 41,
  "oks</w>": 7,
  "oles</w>": 65,
  "amol": 3,
  "omal</w>": 12,
  "omis</w>": 6,
  "omum</w>": 7,
  "amon</w>": 12,
  "among</w>": 3,
  "ong": 41,
  "on-": 27,
  "amor</w>": 3,
  "amor": 45,
  "amore": 5,
  "orette</w>": 6,
  "oretti</w>": 3,
  "oretto</w>": 4,
  "ux": 23,
  "orgos</w>": 4,
  "ousnesses</w>": 78,
  "amorph</w>": 5,
  "amorph": 15,
  "amorphia</w>": 4,
  "inism</w>": 55,
  "allus</w>": 10,
  "amorphous</w>": 5,
  "row</w>": 98,
  "amort": 7,
  "issement</w>": 3,
  "isseur</w>": 3,
  "tiz": 7,
  "keag</w>": 5,
  "otion</w>": 16,
  "otions</w>": 7,
  "otus</w>": 24,
  "ouli</w>": 6,
  "amount</w>": 4,
  "unted</w>": 18,
  "unters</w>": 7,
  "unting</w>": 26,
  "amounts</w>": 3,
  "amour</w>": 5,
  "amou": 3,
  "ourist</w>": 9,
  "pro": 1072,
  "pre</w>": 10,
  "amov": 4,
  "ove</w>": 47,
  "oved</w>": 17,
  "oving</w>": 13,
  "owt</w>": 4,
  "pal": 297,
  "assy</w>": 9,
  "ampel": 15,
  "ographist</w>": 45,
  "rap": 88,
  "ny</w>": 81,
  "elop": 9,
  "sid": 133,
  "amper</w>": 17,
  "amper": 14,
  "ampere-": 4,
  "foot</w>": 92,
  "e-hour</w>": 3,
  "minute</w>": 20,
  "second</w>": 14,
  "pery</w>": 45,
  "pers": 23,
  "sands</w>": 3,
  "sand": 210,
  "amph": 67,
  "anthia</w>": 6,
  "anthium</w>": 7,
  "lexis</w>": 4,
  "erot": 39,
  "oky</w>": 9,
  "okous</w>": 9,
  "etamine</w>": 4,
  "iar": 26,
  "amphi": 11,
  "arthrodial</w>": 7,
  "arthroses</w>": 5,
  "amphib": 41,
  "amphibia</w>": 3,
  "amphibian</w>": 4,
  "ian's</w>": 23,
  "ichnite</w>": 3,
  "iety</w>": 13,
  "iotic</w>": 9,
  "lastula</w>": 4,
  "lest": 9,
  "ritis</w>": 24,
  "oly</w>": 15,
  "amphibol": 3,
  "ologism</w>": 11,
  "ostylous</w>": 6,
  "rach</w>": 9,
  "rach": 67,
  "amphicarp": 8,
  "amphic": 12,
  "amphich": 5,
  "rom</w>": 12,
  "romy</w>": 6,
  "yr": 39,
  "ico": 35,
  "reat": 33,
  "bral</w>": 13,
  "amphicty": 6,
  "amphid": 11,
  "isc</w>": 5,
  "coph": 19,
  "phoran</w>": 3,
  "isk</w>": 20,
  "romic</w>": 11,
  "ier": 64,
  "otism</w>": 25,
  "amphig": 21,
  "amae</w>": 5,
  "astria</w>": 3,
  "astrula</w>": 6,
  "igenesis</w>": 6,
  "ikaryon</w>": 4,
  "ikary": 3,
  "amphil": 3,
  "amphim": 10,
  "achus</w>": 9,
  "arus</w>": 13,
  "ictic</w>": 9,
  "ictical</w>": 7,
  "ictically</w>": 5,
  "ixes</w>": 11,
  "ixis</w>": 8,
  "orula</w>": 4,
  "amphin": 5,
  "esian</w>": 53,
  "ine": 57,
  "eurous</w>": 3,
  "omus</w>": 18,
  "ucleus</w>": 8,
  "amphiox": 5,
  "oxides</w>": 7,
  "oxid": 52,
  "amphip": 17,
  "eptone</w>": 4,
  "ithy": 8,
  "lo": 465,
  "yan</w>": 36,
  "leura</w>": 6,
  "neust</w>": 4,
  "neustic</w>": 5,
  "nous</w>": 5,
  "odal</w>": 35,
  "odan</w>": 8,
  "odous</w>": 16,
  "ods</w>": 46,
  "stylar</w>": 6,
  "prostyle</w>": 3,
  "protic</w>": 5,
  "amphir": 3,
  "hina</w>": 3,
  "hinal</w>": 5,
  "amphis": 7,
  "amphisba": 9,
  "enae</w>": 5,
  "enas</w>": 12,
  "enoid</w>": 16,
  "enous</w>": 13,
  "isc": 45,
  "ilidae</w>": 5,
  "permous</w>": 6,
  "pore</w>": 25,
  "amphist": 9,
  "ylar</w>": 15,
  "yly</w>": 18,
  "omatic</w>": 55,
  "omoid</w>": 4,
  "amphit": 16,
  "amphith": 10,
  "alamus</w>": 5,
  "heater</w>": 8,
  "amphitheat": 7,
  "ered</w>": 283,
  "rical</w>": 66,
  "amphithec": 4,
  "cia</w>": 25,
  "emis</w>": 8,
  "amphithy": 3,
  "uron</w>": 10,
  "urons</w>": 5,
  "aene</w>": 10,
  "richa</w>": 3,
  "rich": 114,
  "richous</w>": 7,
  "ropal</w>": 7,
  "ropous</w>": 10,
  "ium": 8,
  "oidae</w>": 6,
  "odip": 4,
  "lop": 36,
  "olyte</w>": 5,
  "amphora</w>": 4,
  "amphor": 7,
  "amphoric</w>": 3,
  "iloquy</w>": 11,
  "koi</w>": 6,
  "kos</w>": 12,
  "amphot": 3,
  "rys": 13,
  "ampy": 7,
  "pyc": 8,
  "illin</w>": 15,
  "cus</w>": 29,
  "ithe": 8,
  "ample</w>": 14,
  "ampl": 9,
  "plect": 23,
  "ampler</w>": 4,
  "ple": 122,
  "plex</w>": 27,
  "amplex": 5,
  "icaudate</w>": 6,
  "amplexicaul</w>": 3,
  "amplexic": 1,
  "aul": 77,
  "ampli": 7,
  "plication</w>": 28,
  "plicative</w>": 3,
  "idyne</w>": 3,
  "lify</w>": 27,
  "fiable</w>": 22,
  "amplif": 7,
  "lification</w>": 23,
  "ications</w>": 14,
  "icative</w>": 14,
  "icator</w>": 25,
  "amplified</w>": 3,
  "amplifier</w>": 4,
  "fiers</w>": 18,
  "lifying</w>": 20,
  "itudes</w>": 19,
  "itude's</w>": 8,
  "itudinous</w>": 14,
  "pol": 251,
  "losity</w>": 6,
  "ongue</w>": 8,
  "oule</w>": 6,
  "le's</w>": 43,
  "ampul": 11,
  "ampull": 11,
  "laria</w>": 6,
  "ariidae</w>": 31,
  "liform</w>": 11,
  "us-": 4,
  "amput": 12,
  "amputation</w>": 4,
  "etas</w>": 15,
  "relle</w>": 9,
  "rita</w>": 5,
  "sar</w>": 8,
  "roc</w>": 6,
  "sat</w>": 9,
  "sat": 112,
  "sden</w>": 5,
  "a-sp": 3,
  "dam</w>": 7,
  "dam": 141,
  "sw</w>": 12,
  "tman</w>": 10,
  "tor": 253,
  "trac</w>": 4,
  "track</w>": 21,
  "tracks</w>": 5,
  "trac": 25,
  "tra": 224,
  "uck</w>": 70,
  "ucks</w>": 22,
  "amu": 6,
  "gu": 306,
  "uy": 13,
  "ulas</w>": 33,
  "amul": 3,
  "ulla</w>": 13,
  "und": 385,
  "amur": 4,
  "cosity</w>": 8,
  "cous</w>": 6,
  "amus</w>": 19,
  "amused</w>": 3,
  "amus": 10,
  "amusement</w>": 4,
  "amuses</w>": 5,
  "amusing</w>": 4,
  "zzle</w>": 33,
  "vet</w>": 16,
  "rak": 37,
  "ikos</w>": 5,
  "zel</w>": 30,
  "'a</w>": 3,
  "anab": 38,
  "antid</w>": 3,
  "aptism</w>": 3,
  "aptist</w>": 7,
  "anabap": 9,
  "tistical</w>": 4,
  "asin</w>": 14,
  "asine</w>": 10,
  "asse</w>": 30,
  "moi</w>": 4,
  "mos</w>": 36,
  "athrum</w>": 4,
  "oga</w>": 29,
  "azon</w>": 8,
  "lepses</w>": 3,
  "anabol": 7,
  "ranch</w>": 13,
  "anac": 54,
  "ampsis</w>": 3,
  "ptic</w>": 34,
  "anacampt": 3,
  "acanthini</w>": 3,
  "ardic</w>": 12,
  "ardium</w>": 4,
  "idymus</w>": 5,
  "atharsis</w>": 6,
  "athartic</w>": 7,
  "anach": 4,
  "oret</w>": 4,
  "achromasis</w>": 3,
  "anachron": 16,
  "ismatical</w>": 3,
  "ism's</w>": 15,
  "lasis</w>": 13,
  "last": 44,
  "anaclet": 4,
  "icum</w>": 24,
  "lis": 48,
  "litic</w>": 10,
  "anacolu": 3,
  "anacoluth": 3,
  "onda</w>": 11,
  "ort": 97,
  "oustic</w>": 3,
  "anacre": 4,
  "risis</w>": 7,
  "yod": 27,
  "rotism</w>": 8,
  "ruses</w>": 9,
  "rustic</w>": 5,
  "rustically</w>": 4,
  "ulture</w>": 3,
  "usis</w>": 17,
  "anad": 15,
  "ko</w>": 48,
  "esm</w>": 7,
  "yom": 6,
  "anadip": 4,
  "ana": 13,
  "ematosis</w>": 4,
  "anaemia</w>": 4,
  "aemias</w>": 3,
  "anaemic</w>": 3,
  "aem": 5,
  "anaer": 9,
  "anaerob": 11,
  "oplasty</w>": 85,
  "anaesth": 10,
  "anaesthesi": 3,
  "etist</w>": 18,
  "etization</w>": 8,
  "etized</w>": 13,
  "etizer</w>": 5,
  "etizing</w>": 11,
  "hyl</w>": 8,
  "anag": 23,
  "ign": 136,
  "kom": 26,
  "yrin</w>": 7,
  "anagly": 6,
  "phy</w>": 6,
  "anaglyphic</w>": 3,
  "anaglyph": 3,
  "phs</w>": 17,
  "anaglypt": 5,
  "ptical</w>": 11,
  "pton</w>": 14,
  "anagn": 6,
  "isis</w>": 20,
  "anagoge</w>": 3,
  "anagog": 6,
  "anagram": 11,
  "matically</w>": 51,
  "anagrammat": 6,
  "matist</w>": 21,
  "matize</w>": 17,
  "ming</w>": 98,
  "raph</w>": 28,
  "hao</w>": 4,
  "anah": 4,
  "akes</w>": 42,
  "anak": 4,
  "akinetomer</w>": 3,
  "akinet": 2,
  "rous": 24,
  "anal</w>": 33,
  "anal": 46,
  "analcim": 3,
  "cite</w>": 12,
  "cit": 120,
  "ecta</w>": 4,
  "analem": 3,
  "epses</w>": 7,
  "eptical</w>": 7,
  "analg": 11,
  "analgesia</w>": 4,
  "analys": 11,
  "analyses</w>": 6,
  "analysis</w>": 24,
  "analyst</w>": 6,
  "analyst": 3,
  "analy": 3,
  "analytic</w>": 12,
  "analytical</w>": 12,
  "analytically</w>": 10,
  "analyt": 3,
  "icities</w>": 21,
  "ico-": 37,
  "architectural</w>": 7,
  "analytics</w>": 3,
  "analyz": 6,
  "analyzable</w>": 4,
  "analyze</w>": 6,
  "analyzed</w>": 10,
  "analyzer</w>": 3,
  "analyzes</w>": 4,
  "analyzing</w>": 7,
  "kal": 174,
  "inity</w>": 43,
  "anall": 3,
  "analog": 33,
  "ues</w>": 40,
  "omin": 40,
  "analphab": 5,
  "anam": 6,
  "adromous</w>": 3,
  "tin</w>": 15,
  "anamn": 7,
  "estically</w>": 4,
  "anamni": 3,
  "anamorph": 7,
  "anan</w>": 6,
  "anana</w>": 3,
  "anap": 40,
  "las</w>": 23,
  "anas</w>": 31,
  "ananda</w>": 6,
  "rar": 46,
  "androus</w>": 22,
  "anan": 6,
  "epionic</w>": 4,
  "angi": 104,
  "astic</w>": 83,
  "anter</w>": 35,
  "antherous</w>": 6,
  "anthous</w>": 21,
  "anthrop": 110,
  "anapaest": 3,
  "aganize</w>": 4,
  "eir": 8,
  "anaph": 15,
  "anaphyl": 5,
  "actically</w>": 17,
  "anaphylact": 4,
  "atoxin</w>": 3,
  "anaphylaxis</w>": 6,
  "anaphora</w>": 3,
  "anaphoral</w>": 4,
  "anaphor": 3,
  "rodis": 2,
  "itous</w>": 31,
  "lasia</w>": 7,
  "lasm</w>": 11,
  "anaplas": 3,
  "moses</w>": 10,
  "mosis</w>": 4,
  "lasty</w>": 10,
  "anapler": 3,
  "neic</w>": 8,
  "noeic</w>": 7,
  "apode": 7,
  "ophys": 14,
  "ophysial</w>": 9,
  "ophysis</w>": 8,
  "sid</w>": 11,
  "sidan</w>": 6,
  "anapteryg": 4,
  "otous</w>": 7,
  "anapty": 6,
  "chi</w>": 43,
  "xis</w>": 18,
  "anapt": 3,
  "urna</w>": 8,
  "aqua</w>": 8,
  "anarch": 23,
  "archy</w>": 79,
  "anarchic</w>": 6,
  "anarchistic</w>": 4,
  "individualist</w>": 3,
  "osyn": 17,
  "dic": 139,
  "syndicalism</w>": 3,
  "syndicalist</w>": 3,
  "osoc": 6,
  "anar": 8,
  "argy": 19,
  "aryan</w>": 10,
  "arith": 7,
  "anarth": 7,
  "arthrop": 11,
  "ismos</w>": 6,
  "anas": 10,
  "arcous</w>": 7,
  "azi</w>": 12,
  "asco</w>": 14,
  "eismic</w>": 8,
  "anasp": 4,
  "aspid": 15,
  "anast": 28,
  "alsis</w>": 8,
  "altic</w>": 12,
  "asie</w>": 5,
  "imos</w>": 5,
  "asio</w>": 5,
  "asius</w>": 6,
  "assia</w>": 6,
  "atius</w>": 3,
  "igmatic</w>": 11,
  "anastom": 6,
  "osed</w>": 56,
  "osing</w>": 19,
  "anastomosis</w>": 6,
  "rophe</w>": 7,
  "rophy</w>": 14,
  "rophia</w>": 9,
  "anat": 49,
  "exes</w>": 26,
  "exis</w>": 6,
  "anath": 6,
  "emas</w>": 23,
  "anathemat": 16,
  "ematic</w>": 53,
  "atherum</w>": 3,
  "ifa</w>": 4,
  "ifer</w>": 38,
  "inacea</w>": 3,
  "anatolian</w>": 3,
  "olio</w>": 3,
  "anatomy</w>": 5,
  "anatomic</w>": 6,
  "anatomical</w>": 7,
  "anatomically</w>": 3,
  "anatom": 25,
  "anatomic": 7,
  "ochir": 6,
  "opathologic</w>": 11,
  "opathological</w>": 12,
  "ophysiologic</w>": 3,
  "ophysiological</w>": 10,
  "icos": 25,
  "opism</w>": 3,
  "oxins</w>": 3,
  "atto</w>": 7,
  "attos</w>": 5,
  "audia</w>": 3,
  "aunters</w>": 3,
  "auxite</w>": 6,
  "anax": 8,
  "orean</w>": 17,
  "ibia</w>": 5,
  "anaxim": 3,
  "andrian</w>": 11,
  "axon</w>": 21,
  "azoturia</w>": 4,
  "anc</w>": 9,
  "ancel</w>": 5,
  "elin</w>": 40,
  "eline</w>": 49,
  "ancestral</w>": 3,
  "ancestrally</w>": 3,
  "ancha</w>": 7,
  "anchi": 4,
  "etine</w>": 3,
  "eutectic</w>": 4,
  "anchylo": 6,
  "eral</w>": 62,
  "isaurus</w>": 3,
  "ithere</w>": 3,
  "ither": 25,
  "oic</w>": 42,
  "anchor</w>": 7,
  "anchor": 18,
  "age's</w>": 19,
  "anchored</w>": 4,
  "oress</w>": 28,
  "oresses</w>": 5,
  "oretical</w>": 10,
  "orite</w>": 35,
  "itically</w>": 21,
  "anchov": 3,
  "therium</w>": 13,
  "usas</w>": 5,
  "usin</w>": 4,
  "ien</w>": 31,
  "anci": 9,
  "ancient</w>": 3,
  "enter</w>": 52,
  "entest</w>": 6,
  "enty</w>": 15,
  "entism</w>": 12,
  "iently</w>": 32,
  "ilin</w>": 12,
  "illae</w>": 14,
  "illary</w>": 36,
  "illaries</w>": 4,
  "ancylo": 10,
  "ceras</w>": 4,
  "cladus</w>": 3,
  "dactyl": 19,
  "poda</w>": 9,
  "stoma</w>": 7,
  "stome</w>": 6,
  "stom": 47,
  "ancip": 7,
  "ipitous</w>": 3,
  "ancy": 3,
  "rean</w>": 21,
  "rene</w>": 41,
  "ancistro": 3,
  "clad": 46,
  "ancist": 2,
  "dont</w>": 13,
  "hum": 173,
  "ancon": 15,
  "assu</w>": 8,
  "atism</w>": 23,
  "andale</w>": 4,
  "andal": 3,
  "usian</w>": 10,
  "usite</w>": 7,
  "anese</w>": 24,
  "amento</w>": 5,
  "amentos</w>": 3,
  "antinos</w>": 3,
  "aste</w>": 41,
  "andean</w>": 3,
  "anded</w>": 24,
  "andel</w>": 6,
  "elee</w>": 5,
  "egg</w>": 13,
  "anderer</w>": 6,
  "cht</w>": 20,
  "sonville</w>": 28,
  "ssen</w>": 5,
  "andes": 7,
  "andesite</w>": 5,
  "evo</w>": 9,
  "hra</w>": 6,
  "andia</w>": 4,
  "andian</w>": 4,
  "anding</w>": 17,
  "iron</w>": 34,
  "irons</w>": 7,
  "andor": 5,
  "andou": 3,
  "illet</w>": 14,
  "andr</w>": 3,
  "rad": 113,
  "atomy</w>": 6,
  "andras</w>": 3,
  "rass": 27,
  "andre": 13,
  "aeaceae</w>": 7,
  "rey</w>": 33,
  "ev</w>": 31,
  "yev": 4,
  "rena</w>": 7,
  "rew</w>": 31,
  "war": 285,
  "andrew": 6,
  "andry</w>": 17,
  "andri": 4,
  "rias</w>": 10,
  "andric</w>": 8,
  "andrite</w>": 4,
  "cephal": 116,
  "rocyte</w>": 7,
  "clinia</w>": 4,
  "clea</w>": 3,
  "cles</w>": 7,
  "clus</w>": 4,
  "conia</w>": 6,
  "conium</w>": 4,
  "rocracy</w>": 4,
  "roc": 29,
  "ynam": 12,
  "oecism</w>": 14,
  "ecial</w>": 7,
  "ecium</w>": 8,
  "androg": 16,
  "rogenesis</w>": 6,
  "rogenetic</w>": 6,
  "rogenic</w>": 15,
  "rogenous</w>": 11,
  "rogen": 9,
  "androgyn": 6,
  "neity</w>": 4,
  "onidium</w>": 6,
  "rograph": 13,
  "olide</w>": 5,
  "kinin</w>": 5,
  "androm": 7,
  "otoxin</w>": 42,
  "mon": 768,
  "romorphous</w>": 5,
  "androp": 3,
  "etal": 9,
  "etalous</w>": 23,
  "rophagous</w>": 7,
  "androph": 5,
  "yll</w>": 16,
  "onos</w>": 7,
  "rophore</w>": 9,
  "orum</w>": 15,
  "ogon</w>": 6,
  "andros": 3,
  "cogg": 7,
  "seme</w>": 4,
  "androsph": 3,
  "inges</w>": 10,
  "inx</w>": 10,
  "inxes</w>": 3,
  "sporangium</w>": 5,
  "ta": 214,
  "rotomy</w>": 29,
  "rou": 50,
  "vare</w>": 3,
  "vari</w>": 3,
  "ane": 32,
  "earing</w>": 8,
  "ears</w>": 6,
  "anecd": 3,
  "anecdot": 12,
  "anec": 6,
  "echoic</w>": 4,
  "aney</w>": 4,
  "elace</w>": 3,
  "electrode</w>": 6,
  "electrotonic</w>": 3,
  "electrotonus</w>": 3,
  "eled</w>": 133,
  "elytrous</w>": 3,
  "anem": 39,
  "anemat": 3,
  "anemia</w>": 5,
  "anemic</w>": 6,
  "agraph</w>": 19,
  "anemoch": 4,
  "oclastic</w>": 20,
  "ographically</w>": 93,
  "ometrograph</w>": 8,
  "rographic</w>": 13,
  "rographically</w>": 4,
  "anemon": 5,
  "anemone</w>": 3,
  "ophily</w>": 13,
  "emot": 26,
  "otis</w>": 13,
  "encephaly</w>": 5,
  "anencephalia</w>": 3,
  "encephal": 65,
  "encephalus</w>": 8,
  "-end</w>": 16,
  "energ": 37,
  "epig": 53,
  "raph": 40,
  "epiploic</w>": 4,
  "erethisia</w>": 3,
  "aner": 6,
  "ergy</w>": 8,
  "ergia</w>": 7,
  "anerg": 4,
  "erythro": 20,
  "anes</w>": 51,
  "anes": 3,
  "anest": 5,
  "anesthesi": 6,
  "anesth": 16,
  "anesthetic</w>": 4,
  "etizes</w>": 5,
  "eth</w>": 85,
  "ethene</w>": 4,
  "anet": 6,
  "hole</w>": 88,
  "holes</w>": 28,
  "hols</w>": 3,
  "eto</w>": 14,
  "euch</w>": 4,
  "aneuria</w>": 3,
  "aneur": 14,
  "ilem": 3,
  "aneury": 3,
  "ism": 36,
  "ismatic</w>": 11,
  "eld</w>": 34,
  "fract</w>": 4,
  "anfract": 5,
  "uose</w>": 6,
  "uosity</w>": 13,
  "uousness</w>": 27,
  "fus": 66,
  "reme</w>": 15,
  "sma</w>": 12,
  "angak": 3,
  "i-": 102,
  "naga</w>": 4,
  "angar": 6,
  "eb</w>": 28,
  "are": 75,
  "angas</w>": 4,
  "ey": 126,
  "angek": 3,
  "kok</w>": 4,
  "angel</w>": 4,
  "angel": 77,
  "-bu": 11,
  "ilded</w>": 5,
  "eldom</w>": 7,
  "eyes</w>": 37,
  "eno</w>": 33,
  "enos</w>": 8,
  "-guarded</w>": 6,
  "her": 310,
  "angelic</w>": 11,
  "angelical</w>": 7,
  "angelically</w>": 5,
  "icas</w>": 14,
  "icness</w>": 64,
  "ico</w>": 59,
  "angeli": 3,
  "informal</w>": 4,
  "angelo</w>": 6,
  "olater</w>": 22,
  "olatry</w>": 64,
  "ophany</w>": 6,
  "ophanic</w>": 7,
  "-seeming</w>": 20,
  "'s": 60,
  "-trumpet</w>": 3,
  "-warned</w>": 3,
  "anger</w>": 36,
  "anger": 4,
  "bod": 96,
  "angered</w>": 5,
  "erless</w>": 41,
  "enar</w>": 5,
  "evine</w>": 6,
  "angi</w>": 9,
  "angia</w>": 10,
  "ectasis</w>": 15,
  "angiitis</w>": 4,
  "ild</w>": 33,
  "ilo</w>": 8,
  "angina</w>": 4,
  "iniform</w>": 10,
  "inose</w>": 14,
  "angio": 9,
  "oat": 29,
  "angiocardi": 5,
  "arditis</w>": 7,
  "ocarp": 18,
  "ocarpian</w>": 4,
  "ocavernous</w>": 6,
  "ocholec": 5,
  "olitis</w>": 7,
  "oclast</w>": 10,
  "ascopy</w>": 3,
  "elephanti": 5,
  "oglioma</w>": 3,
  "angiography</w>": 3,
  "angiographic</w>": 3,
  "hemophilia</w>": 3,
  "hyal": 56,
  "hyd": 83,
  "hypertonia</w>": 3,
  "hypotonia</w>": 3,
  "okerat": 5,
  "okinetic</w>": 16,
  "angiol": 5,
  "euc": 46,
  "angioma</w>": 11,
  "omegaly</w>": 6,
  "angion": 5,
  "oplasm</w>": 42,
  "oparalysis</w>": 15,
  "opar": 22,
  "alytic</w>": 5,
  "oparesis</w>": 9,
  "oplan": 6,
  "ler": 85,
  "opoietic</w>": 15,
  "orrhagia</w>": 37,
  "orrhaphy</w>": 44,
  "orrhexis</w>": 13,
  "osclerotic</w>": 5,
  "osymphysis</w>": 4,
  "ospasm</w>": 23,
  "ospastic</w>": 5,
  "osperm</w>": 22,
  "ospermae</w>": 4,
  "angiosper": 3,
  "matous</w>": 22,
  "ospermic</w>": 8,
  "ospermous</w>": 18,
  "osporous</w>": 18,
  "ostegnosis</w>": 3,
  "ostenosis</w>": 24,
  "osteosis</w>": 4,
  "ostomy</w>": 54,
  "angiot": 6,
  "elect": 93,
  "enosis</w>": 11,
  "inase</w>": 14,
  "lipsis</w>": 5,
  "oton": 7,
  "otribe</w>": 8,
  "otripsy</w>": 10,
  "kha": 8,
  "hak</w>": 6,
  "kor</w>": 5,
  "l.</w>": 15,
  "leberry</w>": 12,
  "angled</w>": 43,
  "angle": 8,
  "dozer</w>": 4,
  "-toothed</w>": 42,
  "hook</w>": 26,
  "eter</w>": 81,
  "le-": 93,
  "off</w>": 113,
  "pods</w>": 5,
  "lers</w>": 171,
  "angles</w>": 3,
  "angles": 3,
  "mith</w>": 6,
  "leton</w>": 25,
  "ouch</w>": 21,
  "witch</w>": 11,
  "wing</w>": 61,
  "lewise</w>": 18,
  "worm</w>": 119,
  "worms</w>": 45,
  "angli": 7,
  "lic</w>": 11,
  "anglican</w>": 8,
  "anglic": 18,
  "anisms</w>": 5,
  "anly</w>": 13,
  "angl": 8,
  "anglicized</w>": 3,
  "lified</w>": 14,
  "lim</w>": 16,
  "maniac</w>": 8,
  "angling</w>": 3,
  "lish</w>": 30,
  "list</w>": 19,
  "list": 34,
  "anglo": 39,
  "anglo-": 34,
  "australian</w>": 9,
  "austrian</w>": 9,
  "-belgian</w>": 3,
  "-brazilian</w>": 3,
  "-canadian</w>": 4,
  "catholicism</w>": 3,
  "atholicism</w>": 5,
  "-chinese</w>": 5,
  "anglo-d": 3,
  "anish</w>": 7,
  "utch</w>": 8,
  "chman</w>": 15,
  "ecclesiastical</w>": 11,
  "ecuad": 4,
  "orian</w>": 42,
  "egyptian</w>": 14,
  "-french</w>": 9,
  "log": 178,
  "-gallic</w>": 3,
  "german</w>": 30,
  "greek</w>": 23,
  "-h": 165,
  "ibern": 3,
  "irish</w>": 15,
  "irishism</w>": 4,
  "israel</w>": 6,
  "isra": 5,
  "elism</w>": 33,
  "israelite</w>": 4,
  "italian</w>": 13,
  "-j": 43,
  "-jew": 5,
  "judaic</w>": 4,
  "latin</w>": 18,
  "maltese</w>": 4,
  "lom": 35,
  "omaniac</w>": 47,
  "omaniacal</w>": 18,
  "exican</w>": 5,
  "mohammedan</w>": 11,
  "-norman</w>": 5,
  "-norwegian</w>": 3,
  "ubian</w>": 7,
  "persian</w>": 15,
  "phil</w>": 7,
  "phile</w>": 6,
  "phil": 208,
  "angloph": 3,
  "philia</w>": 5,
  "philic</w>": 8,
  "philism</w>": 7,
  "phob": 14,
  "phobic</w>": 5,
  "portuguese</w>": 7,
  "anglo-s": 6,
  "ondom</w>": 4,
  "axonic</w>": 8,
  "tish</w>": 24,
  "serbian</w>": 6,
  "oviet</w>": 4,
  "-spanish</w>": 4,
  "-swiss</w>": 3,
  "teutonic</w>": 11,
  "turkish</w>": 13,
  "venetian</w>": 6,
  "oise</w>": 17,
  "olan</w>": 9,
  "olans</w>": 3,
  "olar</w>": 43,
  "olese</w>": 4,
  "mian</w>": 21,
  "mo": 260,
  "angry</w>": 9,
  "ry-": 29,
  "angrily</w>": 3,
  "looking</w>": 29,
  "riness</w>": 14,
  "rist</w>": 61,
  "ster</w>": 160,
  "angstrom</w>": 3,
  "strom": 19,
  "angu": 41,
  "anguill": 4,
  "illidae</w>": 8,
  "illiform</w>": 18,
  "illoid</w>": 7,
  "ulidae</w>": 17,
  "imorph": 6,
  "ineal</w>": 21,
  "anguineous</w>": 5,
  "anguished</w>": 4,
  "anguish": 3,
  "ulare</w>": 3,
  "angularity</w>": 6,
  "ularities</w>": 9,
  "ularization</w>": 5,
  "ularize</w>": 12,
  "angularly</w>": 9,
  "angularness</w>": 6,
  "angulate</w>": 7,
  "angulated</w>": 3,
  "angul": 15,
  "bous</w>": 6,
  "atos": 9,
  "inuous</w>": 7,
  "inerved</w>": 11,
  "odentate</w>": 10,
  "ulose</w>": 51,
  "oso-</w>": 9,
  "osplen": 7,
  "angust": 8,
  "lave</w>": 8,
  "irostrate</w>": 9,
  "angustis": 3,
  "ellate</w>": 58,
  "eptate</w>": 19,
  "wich</w>": 11,
  "haemat": 62,
  "opoiesis</w>": 19,
  "haem": 84,
  "anhal": 8,
  "onine</w>": 21,
  "anh": 10,
  "hang": 72,
  "harmonic</w>": 16,
  "hed": 93,
  "hedonic</w>": 3,
  "hedral</w>": 27,
  "hedron</w>": 19,
  "anhel": 4,
  "hemat": 134,
  "hemit": 17,
  "hem": 305,
  "hyd</w>": 3,
  "hydra": 19,
  "hydrate</w>": 28,
  "hydrated</w>": 17,
  "anhyd": 14,
  "remia</w>": 11,
  "remic</w>": 6,
  "ride</w>": 36,
  "rides</w>": 15,
  "rization</w>": 14,
  "rize</w>": 35,
  "anhydro": 4,
  "cose</w>": 19,
  "hydrom": 33,
  "yelia</w>": 5,
  "hidrosis</w>": 10,
  "hidrotic</w>": 4,
  "usly</w>": 8,
  "hydrox": 21,
  "him": 30,
  "ingas</w>": 6,
  "hyster": 82,
  "hist": 116,
  "hungered</w>": 4,
  "hungry</w>": 3,
  "wei</w>": 7,
  "any": 31,
  "ani": 11,
  "chak</w>": 6,
  "udo</w>": 16,
  "body": 22,
  "'d</w>": 24,
  "anic": 3,
  "etus</w>": 24,
  "ychia</w>": 7,
  "icon": 77,
  "icut</w>": 6,
  "idiomatic</w>": 4,
  "idiomatical</w>": 3,
  "idrosis</w>": 24,
  "ellidae</w>": 25,
  "igh</w>": 39,
  "how</w>": 11,
  "anil</w>": 5,
  "anil": 22,
  "anilic</w>": 6,
  "idic</w>": 62,
  "anilin</w>": 5,
  "inct": 15,
  "anilla</w>": 3,
  "anim</w>": 8,
  "anim": 87,
  "acule</w>": 3,
  "animadvers": 5,
  "animad": 3,
  "animadver": 3,
  "animal</w>": 7,
  "animalcul": 9,
  "animal": 10,
  "cular</w>": 32,
  "illi": 49,
  "animality</w>": 3,
  "ivora</w>": 6,
  "ivore</w>": 7,
  "animalize</w>": 3,
  "astical</w>": 23,
  "animate</w>": 9,
  "animated</w>": 7,
  "animating</w>": 6,
  "animation</w>": 8,
  "atist</w>": 24,
  "ike": 4,
  "ikite</w>": 9,
  "ymore</w>": 6,
  "otheism</w>": 18,
  "animous</w>": 7,
  "ionics</w>": 5,
  "place</w>": 35,
  "anis": 116,
  "anise</w>": 3,
  "eeds</w>": 3,
  "eik": 6,
  "anisic</w>": 3,
  "idino</w>": 3,
  "ocercal</w>": 5,
  "ochromatic</w>": 17,
  "ochromia</w>": 5,
  "ocycle</w>": 5,
  "ocotyled": 5,
  "ocoty": 3,
  "ocratic</w>": 45,
  "odactyl</w>": 11,
  "odactyla</w>": 4,
  "odactyle</w>": 5,
  "odactyli</w>": 4,
  "odactylic</w>": 5,
  "odactylous</w>": 11,
  "ogamete</w>": 8,
  "ogam": 20,
  "ogametic</w>": 4,
  "ogynous</w>": 13,
  "oic": 7,
  "oyl</w>": 7,
  "anisole</w>": 3,
  "oleu": 8,
  "cocytosis</w>": 3,
  "omeles</w>": 3,
  "omelia</w>": 6,
  "omelus</w>": 8,
  "anisomet": 3,
  "omyarian</w>": 7,
  "anisomy": 3,
  "odi</w>": 7,
  "opetalous</w>": 7,
  "ophylly</w>": 7,
  "opleural</w>": 10,
  "urous</w>": 37,
  "opodal</w>": 7,
  "ogonous</w>": 13,
  "optera</w>": 35,
  "osepalous</w>": 6,
  "anisost": 3,
  "aminous</w>": 5,
  "ichous</w>": 12,
  "ostomous</w>": 20,
  "otropal</w>": 5,
  "otrope</w>": 17,
  "otropical</w>": 4,
  "otrop": 7,
  "otropous</w>": 12,
  "ither</w>": 30,
  "anyth": 4,
  "arianism</w>": 47,
  "institut": 22,
  "ionalism</w>": 37,
  "itos</w>": 9,
  "itra</w>": 5,
  "iw": 27,
  "when</w>": 4,
  "whence</w>": 4,
  "whereness</w>": 4,
  "wheres</w>": 6,
  "why</w>": 3,
  "with": 91,
  "anj": 3,
  "jan": 89,
  "jou</w>": 5,
  "atrite</w>": 4,
  "anker</w>": 15,
  "erites</w>": 3,
  "ankyl": 6,
  "enteron</w>": 7,
  "ankylo": 21,
  "blepharon</w>": 3,
  "cheilia</w>": 3,
  "dactylia</w>": 5,
  "dontia</w>": 7,
  "podia</w>": 5,
  "poietic</w>": 5,
  "proc": 65,
  "orrhinia</w>": 3,
  "ankylosis</w>": 3,
  "tome</w>": 4,
  "tomy</w>": 8,
  "ureth": 42,
  "anking</w>": 15,
  "ankle</w>": 3,
  "lebone</w>": 6,
  "bones</w>": 31,
  "ankled</w>": 18,
  "le-deep</w>": 3,
  "jacked</w>": 6,
  "lung</w>": 5,
  "usha</w>": 9,
  "ushes</w>": 3,
  "lace</w>": 22,
  "laces</w>": 9,
  "lage</w>": 10,
  "lag": 78,
  "lages</w>": 3,
  "lases</w>": 6,
  "laut</w>": 6,
  "laut": 15,
  "moore</w>": 3,
  "abal</w>": 5,
  "erg": 76,
  "anna-": 3,
  "diana</w>": 3,
  "iane</w>": 8,
  "alistically</w>": 43,
  "annam": 3,
  "maria</w>": 7,
  "annamese</w>": 3,
  "-mu": 3,
  "apolis</w>": 10,
  "arbor</w>": 4,
  "annas</w>": 5,
  "awan</w>": 10,
  "anneal</w>": 3,
  "annealed</w>": 5,
  "anne": 3,
  "alers</w>": 16,
  "annealing</w>": 3,
  "inne</w>": 10,
  "ectant</w>": 6,
  "annel": 10,
  "idous</w>": 10,
  "eman": 37,
  "arie</w>": 14,
  "marie</w>": 5,
  "ki</w>": 69,
  "ensky</w>": 5,
  "odite</w>": 8,
  "erre</w>": 4,
  "annet</w>": 3,
  "annex</w>": 6,
  "annex": 15,
  "annexable</w>": 3,
  "annexation</w>": 6,
  "ationism</w>": 43,
  "annexationist</w>": 3,
  "annexed</w>": 5,
  "annexes</w>": 3,
  "annexing</w>": 3,
  "wn</w>": 9,
  "anny</w>": 13,
  "annia</w>": 4,
  "annib": 4,
  "annie</w>": 9,
  "anni": 6,
  "annihil": 21,
  "ationistic</w>": 4,
  "ation": 29,
  "iken</w>": 6,
  "annite</w>": 9,
  "versal": 7,
  "annivers": 6,
  "nora</w>": 4,
  "annoy</w>": 3,
  "annoy": 11,
  "annoyed</w>": 3,
  "annoying</w>": 3,
  "annoyingly</w>": 3,
  "ominate</w>": 9,
  "annon": 5,
  "orah</w>": 11,
  "annotate</w>": 3,
  "annotated</w>": 5,
  "annot": 13,
  "annotating</w>": 3,
  "otto</w>": 16,
  "announce</w>": 3,
  "announc": 8,
  "announced</w>": 5,
  "announcement</w>": 5,
  "annual</w>": 5,
  "annu": 13,
  "eler</w>": 63,
  "eller</w>": 92,
  "isance</w>": 11,
  "annuit": 3,
  "annular</w>": 4,
  "ulary</w>": 30,
  "ularity</w>": 40,
  "ularly</w>": 59,
  "annul": 23,
  "annulate</w>": 6,
  "ettee</w>": 5,
  "annull": 4,
  "osan</w>": 9,
  "umerate</w>": 7,
  "annunci": 8,
  "iata</w>": 15,
  "unciated</w>": 6,
  "unciation</w>": 11,
  "unciative</w>": 11,
  "unciatory</w>": 12,
  "unz": 6,
  "wf": 3,
  "ano": 32,
  "obiidae</w>": 4,
  "ocathartic</w>": 5,
  "anoc": 3,
  "association</w>": 12,
  "ococcygeal</w>": 6,
  "anod": 16,
  "odendron</w>": 18,
  "egen": 9,
  "estrous</w>": 4,
  "estrus</w>": 4,
  "anointed</w>": 3,
  "inter</w>": 40,
  "inters</w>": 21,
  "intment</w>": 4,
  "olympi": 7,
  "anomal</w>": 4,
  "anomaly</w>": 3,
  "anomal": 20,
  "ocephalus</w>": 23,
  "ofl": 9,
  "alogon": 3,
  "atous</w>": 22,
  "opteryx</w>": 4,
  "anomalous</w>": 4,
  "iacea</w>": 5,
  "eanism</w>": 13,
  "omery</w>": 8,
  "orhom": 4,
  "boidal</w>": 5,
  "ural</w>": 74,
  "uran</w>": 21,
  "anon</w>": 10,
  "anon": 6,
  "oncillo</w>": 3,
  "onychia</w>": 8,
  "anonym": 9,
  "uncule</w>": 4,
  "operineal</w>": 4,
  "anoph": 4,
  "ophel": 6,
  "ophoria</w>": 14,
  "ophthalmos</w>": 6,
  "ophthalmus</w>": 9,
  "anopia</w>": 3,
  "anopisth": 3,
  "anopl": 3,
  "anoplo": 6,
  "lonemer": 2,
  "tean</w>": 13,
  "tini</w>": 9,
  "there</w>": 6,
  "theriidae</w>": 4,
  "ther": 153,
  "uriform</w>": 5,
  "ubic</w>": 11,
  "anor": 3,
  "aks</w>": 60,
  "anorch": 4,
  "orchism</w>": 6,
  "anorect": 3,
  "anorex": 7,
  "igenic</w>": 13,
  "org": 64,
  "organic</w>": 26,
  "organism</w>": 9,
  "organ": 148,
  "ormal</w>": 15,
  "ormality</w>": 6,
  "orth</w>": 6,
  "anorth": 17,
  "ite-": 16,
  "basalt</w>": 11,
  "itite</w>": 13,
  "oclase</w>": 8,
  "anos": 3,
  "osmia</w>": 5,
  "mias</w>": 10,
  "ognosia</w>": 3,
  "osph": 26,
  "osphres": 10,
  "ospinal</w>": 16,
  "ostosis</w>": 15,
  "ostraca</w>": 13,
  "other</w>": 10,
  "another": 6,
  "guess</w>": 5,
  "-gu": 17,
  "otia</w>": 8,
  "otropia</w>": 4,
  "otta</w>": 10,
  "oura</w>": 12,
  "ourous</w>": 13,
  "anov": 5,
  "ovular</w>": 9,
  "anox": 8,
  "biosis</w>": 7,
  "biotic</w>": 7,
  "oxic</w>": 14,
  "oxidative</w>": 3,
  "oxys": 13,
  "era</w>": 89,
  "ans": 12,
  "sarian</w>": 2,
  "sar": 230,
  "schau": 3,
  "lus": 28,
  "anse</w>": 4,
  "seis</w>": 4,
  "ansel": 7,
  "anser": 11,
  "iformes</w>": 29,
  "shan</w>": 11,
  "ansi</w>": 4,
  "sil": 193,
  "spess": 3,
  "anst": 4,
  "oss</w>": 22,
  "osse</w>": 4,
  "sul": 107,
  "answer</w>": 7,
  "answer": 8,
  "answerable</w>": 3,
  "-back</w>": 57,
  "answered</w>": 4,
  "answ": 8,
  "erers</w>": 25,
  "answering</w>": 4,
  "eringly</w>": 32,
  "antagon": 28,
  "erina</w>": 8,
  "antal</w>": 15,
  "antan": 3,
  "antap": 5,
  "aphrodisiac</w>": 3,
  "aphrod": 7,
  "ocha</w>": 7,
  "apod": 29,
  "apoplectic</w>": 5,
  "archism</w>": 7,
  "archist</w>": 16,
  "antarct": 7,
  "antarctic</w>": 5,
  "ogaea</w>": 11,
  "ogaean</w>": 11,
  "arthritic</w>": 7,
  "antas</w>": 3,
  "asphy": 4,
  "asthmatic</w>": 6,
  "atrophic</w>": 8,
  "bird</w>": 158,
  "ante": 34,
  "ante-": 26,
  "-eater</w>": 13,
  "babyl": 11,
  "onish</w>": 18,
  "anteb": 8,
  "aptismal</w>": 3,
  "ellum</w>": 26,
  "bellum</w>": 4,
  "rachial</w>": 4,
  "rachium</w>": 5,
  "antec": 23,
  "inet</w>": 16,
  "aecal</w>": 5,
  "avern</w>": 4,
  "edal</w>": 15,
  "anteced": 9,
  "aneous</w>": 36,
  "aneously</w>": 21,
  "ental</w>": 63,
  "essor</w>": 7,
  "antech": 6,
  "echin": 54,
  "omys</w>": 17,
  "christian</w>": 15,
  "christ": 96,
  "urch</w>": 3,
  "lass": 37,
  "los": 38,
  "mun": 59,
  "sonantal</w>": 6,
  "ornu</w>": 4,
  "oxal</w>": 6,
  "vi": 165,
  "anted</w>": 43,
  "anted": 8,
  "antedil": 3,
  "uvi": 7,
  "uvian</w>": 12,
  "orsal</w>": 6,
  "eternity</w>": 8,
  "antef": 5,
  "fix": 50,
  "fixal</w>": 4,
  "fixes</w>": 10,
  "flected</w>": 8,
  "lexed</w>": 6,
  "lexion</w>": 7,
  "antefur": 3,
  "cae</w>": 7,
  "cal</w>": 17,
  "uture</w>": 6,
  "arden</w>": 14,
  "gothic</w>": 14,
  "egrade</w>": 3,
  "ehall</w>": 3,
  "hieronym": 4,
  "historic</w>": 13,
  "human</w>": 29,
  "initial</w>": 5,
  "entacular</w>": 4,
  "judiciary</w>": 4,
  "jurament": 5,
  "justinian</w>": 4,
  "elab": 5,
  "eleg": 44,
  "antel": 3,
  "ocation</w>": 10,
  "elope</w>": 6,
  "antelop": 4,
  "eluc": 19,
  "antem": 11,
  "arginal</w>": 3,
  "edial</w>": 14,
  "allic</w>": 24,
  "ennial</w>": 28,
  "ingent</w>": 7,
  "ortal</w>": 4,
  "mortem</w>": 4,
  "mosaic</w>": 3,
  "mosa": 13,
  "undane</w>": 5,
  "anten": 11,
  "atal</w>": 15,
  "atal": 21,
  "nicene</w>": 3,
  "antenn": 16,
  "antennal</w>": 3,
  "antennary</w>": 3,
  "ariid</w>": 7,
  "norman</w>": 7,
  "uptial</w>": 4,
  "occupation</w>": 8,
  "ocular</w>": 44,
  "opercle</w>": 4,
  "operculum</w>": 9,
  "eor": 17,
  "orbital</w>": 26,
  "antepag": 3,
  "menta</w>": 6,
  "antep": 21,
  "alatal</w>": 3,
  "partum</w>": 3,
  "aschal</w>": 3,
  "chel</w>": 14,
  "asts</w>": 48,
  "atri": 30,
  "archal</w>": 14,
  "ectoral</w>": 6,
  "ectus</w>": 5,
  "antepend": 3,
  "enu": 14,
  "antepen": 6,
  "ult</w>": 17,
  "ultima</w>": 3,
  "ultimate</w>": 7,
  "ults</w>": 8,
  "eph": 128,
  "epileptic</w>": 6,
  "irrh": 6,
  "orch</w>": 3,
  "anteport": 3,
  "icoes</w>": 4,
  "icos</w>": 8,
  "osition</w>": 6,
  "rand": 59,
  "predicament</w>": 4,
  "predic": 34,
  "preter": 58,
  "pre": 2548,
  "tonic</w>": 28,
  "prohibition</w>": 4,
  "prostate</w>": 4,
  "prostatic</w>": 9,
  "equal": 16,
  "anter": 37,
  "formation</w>": 38,
  "formational</w>": 9,
  "esur": 8,
  "rection</w>": 5,
  "evolutional</w>": 7,
  "evolutionary</w>": 14,
  "gic</w>": 10,
  "anteri": 6,
  "anterior</w>": 3,
  "ority</w>": 11,
  "orly</w>": 11,
  "oclusion</w>": 3,
  "odorsal</w>": 10,
  "antero": 5,
  "external</w>": 7,
  "fixation</w>": 14,
  "ofrontal</w>": 14,
  "ograde</w>": 4,
  "inferior</w>": 7,
  "ior</w>": 22,
  "internal</w>": 7,
  "olat": 15,
  "omedial</w>": 5,
  "omedian</w>": 4,
  "room</w>": 75,
  "ooms</w>": 6,
  "oparietal</w>": 12,
  "opyg": 2,
  "ior": 21,
  "osuperior</w>": 3,
  "oventral</w>": 6,
  "ovent": 3,
  "rally</w>": 29,
  "escript</w>": 5,
  "antes": 6,
  "fort</w>": 27,
  "pring</w>": 5,
  "antest": 3,
  "ernum</w>": 9,
  "uperior</w>": 1,
  "antet": 4,
  "emple</w>": 3,
  "temp": 25,
  "ype</w>": 46,
  "ypes</w>": 17,
  "even": 57,
  "antever": 4,
  "victorian</w>": 7,
  "evoc": 15,
  "anthe</w>": 11,
  "ecology</w>": 6,
  "ecologist</w>": 3,
  "anthel": 5,
  "elion</w>": 11,
  "elix</w>": 4,
  "elminthic</w>": 4,
  "mint": 22,
  "emata</w>": 28,
  "anthem": 10,
  "emy</w>": 17,
  "ideae</w>": 6,
  "idiophore</w>": 5,
  "ozoid</w>": 3,
  "ozo": 11,
  "ozooid</w>": 17,
  "oz": 94,
  "oo": 76,
  "anthester": 5,
  "icidae</w>": 9,
  "ills</w>": 52,
  "anthyp": 3,
  "oceros</w>": 5,
  "anthocer": 3,
  "otaceae</w>": 5,
  "lor</w>": 13,
  "ocyan": 9,
  "ocyanin</w>": 7,
  "oclin": 7,
  "oecology</w>": 8,
  "oecological</w>": 7,
  "oecologist</w>": 6,
  "ologion</w>": 4,
  "ologise</w>": 11,
  "ologised</w>": 11,
  "ologising</w>": 11,
  "ologize</w>": 32,
  "ologized</w>": 19,
  "ologizer</w>": 5,
  "ologizing</w>": 21,
  "omedusae</w>": 6,
  "omedusan</w>": 5,
  "omyia</w>": 4,
  "onomus</w>": 3,
  "anthood</w>": 5,
  "ophil": 31,
  "ophyllite</w>": 13,
  "ophyll": 14,
  "ophyta</w>": 19,
  "ophoridae</w>": 9,
  "orine</w>": 8,
  "osiderite</w>": 8,
  "ospermum</w>": 8,
  "otaxy</w>": 17,
  "oxanthin</w>": 3,
  "anthra": 21,
  "anthrac": 19,
  "anthracene</w>": 8,
  "itization</w>": 12,
  "nosis</w>": 4,
  "coc": 43,
  "coid</w>": 24,
  "anthracom": 5,
  "artian</w>": 3,
  "cometric</w>": 3,
  "ecrosis</w>": 9,
  "conite</w>": 3,
  "aurus</w>": 21,
  "anthraco": 4,
  "silicosis</w>": 3,
  "cosis</w>": 27,
  "cotic</w>": 8,
  "cox": 41,
  "radiol</w>": 3,
  "radi": 192,
  "quinone</w>": 13,
  "flav": 64,
  "allol</w>": 3,
  "hydroquinone</w>": 3,
  "ramin</w>": 8,
  "ramine</w>": 14,
  "anthran": 8,
  "pyrid": 16,
  "purpur": 13,
  "quinol</w>": 4,
  "quinon": 5,
  "rath": 31,
  "ophene</w>": 9,
  "anthrax</w>": 6,
  "xylon</w>": 5,
  "ryl</w>": 13,
  "hop": 111,
  "anthrone</w>": 3,
  "anthropic</w>": 17,
  "ocentrically</w>": 6,
  "ocentricity</w>": 7,
  "ocentrism</w>": 6,
  "oclimatology</w>": 6,
  "oclimatologist</w>": 3,
  "ocosmic</w>": 4,
  "ode": 23,
  "cholic</w>": 6,
  "odus</w>": 27,
  "ogeographer</w>": 3,
  "ogeographic</w>": 9,
  "ogeographical</w>": 13,
  "oglot</w>": 5,
  "anthropography</w>": 3,
  "anthropol": 9,
  "atry</w>": 22,
  "atric</w>": 4,
  "anthropology</w>": 4,
  "anthropological</w>": 3,
  "ologist's</w>": 7,
  "omantist</w>": 3,
  "ometrist</w>": 12,
  "anthropomorph": 26,
  "anthropomorphic</w>": 3,
  "anthropomorphism</w>": 4,
  "otheist</w>": 10,
  "opathia</w>": 12,
  "opathically</w>": 9,
  "opath": 22,
  "anthropophag": 10,
  "ophagic</w>": 12,
  "ophysiography</w>": 3,
  "uism</w>": 10,
  "opithecus</w>": 10,
  "opsychic</w>": 12,
  "opsychism</w>": 3,
  "osociology</w>": 3,
  "osomat": 3,
  "osophy</w>": 19,
  "osophic</w>": 3,
  "osophical</w>": 3,
  "osophist</w>": 5,
  "logy</w>": 19,
  "eleological</w>": 5,
  "otheistic</w>": 7,
  "otomical</w>": 5,
  "otomist</w>": 18,
  "opol": 33,
  "rox": 23,
  "urium</w>": 7,
  "anti</w>": 19,
  "anti-": 151,
  "antidote</w>": 3,
  "enzyme</w>": 6,
  "antitoxin</w>": 6,
  "anxiety</w>": 5,
  "aparthe": 3,
  "apostle</w>": 7,
  "aquatic</w>": 8,
  "arab</w>": 7,
  "archi</w>": 3,
  "antiarist": 6,
  "ocracies</w>": 19,
  "ocrat</w>": 32,
  "ocratical</w>": 17,
  "ocratically</w>": 10,
  "aristotelian</w>": 6,
  "aristot": 7,
  "armenian</w>": 4,
  "arminian</w>": 3,
  "armin": 5,
  "ascetic</w>": 6,
  "astronomical</w>": 5,
  "athanasian</w>": 3,
  "antiathe": 5,
  "athenian</w>": 5,
  "atoms</w>": 3,
  "atonement</w>": 3,
  "attrition</w>": 4,
  "aust": 49,
  "author": 45,
  "itarian</w>": 29,
  "itarianism</w>": 21,
  "aut": 326,
  "olysin</w>": 29,
  "auxin</w>": 4,
  "-babyl": 2,
  "onianism</w>": 7,
  "bacchic</w>": 3,
  "chii</w>": 9,
  "bacchius</w>": 3,
  "bacterial</w>": 5,
  "bacteriol": 6,
  "ball": 114,
  "ballo": 16,
  "balm</w>": 3,
  "bank</w>": 39,
  "bar": 563,
  "anti-b": 4,
  "arth": 66,
  "olom": 4,
  "basil": 30,
  "beriber": 4,
  "bes</w>": 17,
  "bias</w>": 16,
  "-bibl": 1,
  "-biblical</w>": 4,
  "-biblically</w>": 3,
  "bibli": 69,
  "big": 128,
  "otry</w>": 8,
  "bilious</w>": 3,
  "biont</w>": 4,
  "biotically</w>": 3,
  "biotics</w>": 4,
  "ming": 42,
  "bishop</w>": 6,
  "black</w>": 14,
  "black": 248,
  "blastic</w>": 14,
  "blenn": 38,
  "orrhagic</w>": 5,
  "block</w>": 18,
  "blue</w>": 12,
  "-bohemian</w>": 4,
  "boycott</w>": 4,
  "anti-bolshev": 4,
  "onapar": 3,
  "boss</w>": 5,
  "bourgeois</w>": 3,
  "boxing</w>": 6,
  "brachial</w>": 7,
  "breakage</w>": 3,
  "bridal</w>": 3,
  "-brit": 6,
  "ishism</w>": 3,
  "bromic</w>": 3,
  "bub": 51,
  "bug</w>": 23,
  "bureaucratic</w>": 3,
  "burgher</w>": 4,
  "burgl": 17,
  "business</w>": 6,
  "busing</w>": 3,
  "antic": 116,
  "anti-c": 4,
  "antical</w>": 8,
  "imine</w>": 11,
  "antically</w>": 11,
  "calvinism</w>": 5,
  "calvinist</w>": 7,
  "calvinistic</w>": 6,
  "calvinistical</w>": 3,
  "calvinistically</w>": 3,
  "anticap": 3,
  "anticapit": 3,
  "atalyst</w>": 4,
  "ytically</w>": 17,
  "ataly": 3,
  "atar": 13,
  "rh": 122,
  "athed": 7,
  "ralist</w>": 3,
  "athode</w>": 3,
  "aus": 31,
  "austic</w>": 8,
  "anticens": 4,
  "oriously</w>": 13,
  "ensor": 10,
  "entr": 12,
  "ralization</w>": 10,
  "ephal": 14,
  "anticeremon": 7,
  "antich": 17,
  "antichlor": 3,
  "hol": 308,
  "holin": 4,
  "omanic</w>": 12,
  "horus</w>": 3,
  "resis</w>": 8,
  "antichrist": 4,
  "-christian</w>": 9,
  "anti-christ": 4,
  "ianity</w>": 9,
  "rists</w>": 11,
  "ronism</w>": 5,
  "chian</w>": 6,
  "anticycl": 7,
  "yclo": 9,
  "ynical</w>": 6,
  "ynically</w>": 3,
  "anticip": 16,
  "anticipated</w>": 6,
  "ivic</w>": 6,
  "ivism</w>": 27,
  "icked</w>": 41,
  "icking</w>": 36,
  "icks</w>": 41,
  "ick": 67,
  "lactic</w>": 3,
  "anticlass": 7,
  "icalism</w>": 20,
  "icalist</w>": 6,
  "anticler": 4,
  "gy</w>": 69,
  "anticly</w>": 4,
  "anticlim": 4,
  "actical</w>": 8,
  "limax</w>": 6,
  "lin": 206,
  "orium</w>": 38,
  "logging</w>": 9,
  "nem": 47,
  "anticness</w>": 4,
  "anticoag": 9,
  "ulan</w>": 4,
  "ulative</w>": 49,
  "incidence</w>": 3,
  "anticom": 9,
  "bination</w>": 4,
  "anticommerc": 7,
  "anticommun": 6,
  "mutative</w>": 4,
  "petitive</w>": 6,
  "pl": 262,
  "ementary</w>": 5,
  "onc": 33,
  "onductor</w>": 5,
  "anticonfeder": 3,
  "anticon": 14,
  "formist</w>": 7,
  "formity</w>": 14,
  "form": 73,
  "science</w>": 14,
  "anticonserv": 5,
  "servative</w>": 7,
  "stitution</w>": 2,
  "anticonstitut": 4,
  "ionalist</w>": 32,
  "sumer</w>": 3,
  "anticont": 2,
  "agion</w>": 5,
  "anticontag": 3,
  "vell": 33,
  "vention</w>": 18,
  "ventional</w>": 5,
  "anticonvent": 3,
  "vul": 63,
  "sant</w>": 7,
  "anticor": 3,
  "anticorros": 5,
  "set</w>": 82,
  "metic</w>": 10,
  "ounc": 8,
  "tier</w>": 126,
  "oven": 27,
  "anticre": 13,
  "eper</w>": 14,
  "puscular</w>": 5,
  "pusc": 3,
  "rime</w>": 8,
  "rypt": 7,
  "ritically</w>": 7,
  "ique</w>": 33,
  "elty</w>": 8,
  "antics</w>": 3,
  "icularia</w>": 6,
  "icul": 42,
  "icultural</w>": 21,
  "antid": 52,
  "ruff</w>": 8,
  "-dar": 4,
  "-darwinian</w>": 5,
  "-darwin": 4,
  "alogue</w>": 7,
  "antide": 4,
  "flation</w>": 5,
  "antidem": 6,
  "press": 78,
  "depress": 32,
  "pressive</w>": 15,
  "ivative</w>": 4,
  "eton": 1,
  "antidi": 5,
  "abetic</w>": 3,
  "icom": 9,
  "arian": 21,
  "iff": 37,
  "antidyn": 4,
  "astically</w>": 32,
  "antidiph": 1,
  "antidiphther": 3,
  "iscip": 3,
  "scrat": 13,
  "establishment": 5,
  "uretic</w>": 10,
  "ivor": 22,
  "antidog": 5,
  "omestic</w>": 3,
  "omest": 4,
  "ominican</w>": 3,
  "orcas</w>": 4,
  "oron</w>": 7,
  "otal</w>": 16,
  "otary</w>": 5,
  "oted</w>": 63,
  "oting</w>": 52,
  "rag</w>": 22,
  "rey": 8,
  "fusard</w>": 3,
  "rug</w>": 8,
  "idu": 16,
  "umping</w>": 13,
  "eaves": 10,
  "ecclesiastic</w>": 6,
  "ecclesiastically</w>": 4,
  "ecclesiast": 10,
  "education</w>": 18,
  "educational</w>": 12,
  "educ": 48,
  "ationalist</w>": 22,
  "educationally</w>": 8,
  "educationist</w>": 3,
  "antiego": 5,
  "antiegoti": 4,
  "stic</w>": 16,
  "stical</w>": 8,
  "stically</w>": 10,
  "eyest": 8,
  "rain</w>": 48,
  "ejac": 15,
  "electron</w>": 6,
  "emperor</w>": 9,
  "empiric</w>": 4,
  "empirical</w>": 9,
  "empirically</w>": 7,
  "empiricism</w>": 5,
  "empiricist</w>": 4,
  "endowment</w>": 6,
  "energistic</w>": 3,
  "english</w>": 15,
  "entente</w>": 3,
  "enthusiasm</w>": 10,
  "enthusi": 9,
  "enthusiastic</w>": 11,
  "enthusiastically</w>": 8,
  "antienvironment": 3,
  "enzymatic</w>": 4,
  "enzymic</w>": 3,
  "epic": 105,
  "episcopal</w>": 11,
  "episcop": 28,
  "epithelial</w>": 11,
  "erysipelas</w>": 5,
  "eros": 13,
  "establishment</w>": 13,
  "etam</w>": 3,
  "mc</w>": 17,
  "ethnic</w>": 13,
  "eugenic</w>": 4,
  "europe</w>": 4,
  "europ": 19,
  "evangelical</w>": 8,
  "evolution</w>": 8,
  "evolutionally</w>": 3,
  "evolutionist</w>": 7,
  "evolut": 13,
  "ionistic</w>": 24,
  "expansion</w>": 12,
  "expans": 25,
  "exporting</w>": 4,
  "antiexpress": 5,
  "expressive</w>": 9,
  "extreme</w>": 3,
  "face</w>": 57,
  "faction</w>": 14,
  "fanatic</w>": 3,
  "antifasc": 3,
  "anti-fasc": 3,
  "isti</w>": 5,
  "fat</w>": 10,
  "fatigue</w>": 3,
  "febrile</w>": 4,
  "feb": 13,
  "fed": 21,
  "feder": 39,
  "federalist</w>": 4,
  "anti-f": 3,
  "eder": 33,
  "felon</w>": 6,
  "felony</w>": 4,
  "female</w>": 3,
  "feminine</w>": 6,
  "antifemin": 3,
  "ferment</w>": 5,
  "fermentative</w>": 6,
  "ferro": 24,
  "antiferromagn": 3,
  "fertility</w>": 6,
  "fertilizer</w>": 3,
  "antifeud": 5,
  "fibrin": 27,
  "fide": 10,
  "fire</w>": 34,
  "flash</w>": 8,
  "flattering</w>": 5,
  "flux</w>": 12,
  "foam</w>": 4,
  "aming</w>": 44,
  "fogg": 11,
  "fog": 58,
  "foreign</w>": 3,
  "foreign": 19,
  "formant</w>": 6,
  "formin</w>": 5,
  "fou": 35,
  "erist</w>": 7,
  "fowl</w>": 16,
  "fraud</w>": 3,
  "freezes</w>": 4,
  "anti-fre": 3,
  "ud</w>": 44,
  "friction</w>": 4,
  "frict": 11,
  "frost</w>": 4,
  "fundament": 10,
  "fungal</w>": 3,
  "fung": 53,
  "fungus</w>": 4,
  "gay</w>": 6,
  "galact": 56,
  "galactic</w>": 7,
  "-gall": 8,
  "icanism</w>": 4,
  "gambling</w>": 5,
  "antigen</w>": 3,
  "genes</w>": 3,
  "antigenic</w>": 3,
  "germanic</w>": 14,
  "germanism</w>": 5,
  "germanization</w>": 3,
  "ghost": 50,
  "gig": 88,
  "gy": 127,
  "glare</w>": 3,
  "glyoxal": 3,
  "gnostic</w>": 7,
  "gnost": 19,
  "gone</w>": 7,
  "antigon": 5,
  "ococcic</w>": 9,
  "gor": 114,
  "goth": 38,
  "government</w>": 11,
  "governmental</w>": 5,
  "govern": 20,
  "mentally</w>": 34,
  "grammatical</w>": 5,
  "grammatically</w>": 4,
  "grammaticalness</w>": 4,
  "graphy</w>": 23,
  "antigravit": 4,
  "gravity</w>": 4,
  "gre": 163,
  "grop": 9,
  "elos</w>": 8,
  "guerilla</w>": 3,
  "gug": 10,
  "gler</w>": 37,
  "gun</w>": 25,
  "halation</w>": 3,
  "over": 2828,
  "hectic</w>": 3,
  "hel": 201,
  "helix</w>": 3,
  "heli": 117,
  "helminthic</w>": 3,
  "antihem": 5,
  "hemis": 17,
  "phere</w>": 25,
  "hemoglobin</w>": 12,
  "hemorrhagic</w>": 5,
  "orrhe": 6,
  "hero</w>": 5,
  "heroes</w>": 4,
  "heroic</w>": 14,
  "hero": 38,
  "heter": 279,
  "hydrophobic</w>": 3,
  "antihier": 6,
  "archic</w>": 26,
  "archical</w>": 24,
  "hierarchically</w>": 3,
  "archies</w>": 31,
  "hierarch": 11,
  "hygienic</w>": 3,
  "hygienically</w>": 3,
  "hyl": 34,
  "hypertens": 11,
  "hypnotic</w>": 9,
  "hypnotically</w>": 6,
  "hypochondri": 9,
  "antihist": 3,
  "hysteric</w>": 3,
  "historical</w>": 17,
  "holiday</w>": 7,
  "homos": 10,
  "hormone</w>": 5,
  "huff</w>": 3,
  "humanism</w>": 3,
  "humanist</w>": 3,
  "humanistic</w>": 8,
  "humanity</w>": 7,
  "humb": 19,
  "ugg": 23,
  "hunting</w>": 8,
  "ibsen": 6,
  "icer</w>": 20,
  "icteric</w>": 4,
  "ide": 155,
  "idealistic</w>": 6,
  "idealistically</w>": 4,
  "idolatrous</w>": 5,
  "immigration</w>": 6,
  "immig": 16,
  "imperialism</w>": 4,
  "imperialist</w>": 4,
  "imperialistic</w>": 3,
  "incrust": 18,
  "indemnity</w>": 3,
  "induction</w>": 7,
  "inductive</w>": 9,
  "inductively</w>": 3,
  "induc": 46,
  "infalli": 8,
  "bilist</w>": 4,
  "inf": 205,
  "inflammatory</w>": 3,
  "inflammat": 3,
  "innovationist</w>": 3,
  "institution": 10,
  "insurrect": 20,
  "intellectual</w>": 15,
  "anti-intellectu": 3,
  "intermedi": 13,
  "anti-isol": 4,
  "ysin</w>": 11,
  "jacob": 48,
  "jam</w>": 7,
  "jamming</w>": 3,
  "jansen": 7,
  "japanese</w>": 11,
  "japanism</w>": 3,
  "jesuit</w>": 5,
  "jesuitic</w>": 3,
  "anti-jesuit": 4,
  "jewish</w>": 8,
  "judaism</w>": 3,
  "jud": 54,
  "juda": 19,
  "kath": 36,
  "antiket": 3,
  "kinase</w>": 5,
  "kings</w>": 10,
  "ky": 53,
  "thera</w>": 3,
  "klan": 5,
  "knock</w>": 3,
  "ocks</w>": 49,
  "sse</w>": 10,
  "sser</w>": 4,
  "anti-l": 5,
  "-faire</w>": 4,
  "ckian</w>": 4,
  "apsarian</w>": 3,
  "apse</w>": 12,
  "latinism</w>": 3,
  "eague</w>": 7,
  "-leaguer</w>": 6,
  "eak</w>": 6,
  "-le": 36,
  "banon</w>": 3,
  "ecom": 12,
  "omena</w>": 6,
  "harg": 3,
  "euk": 6,
  "iberal</w>": 3,
  "liberal</w>": 9,
  "antiliber": 6,
  "ift</w>": 29,
  "iliqu": 5,
  "yss": 10,
  "antilit": 6,
  "urgically</w>": 7,
  "urgist</w>": 10,
  "ridae</w>": 29,
  "antilog": 10,
  "arithm</w>": 4,
  "arithmic</w>": 3,
  "ogs</w>": 24,
  "imic</w>": 12,
  "opinae</w>": 5,
  "opine</w>": 11,
  "oquy</w>": 5,
  "macass": 4,
  "anti-m": 7,
  "acedonian</w>": 4,
  "machination</w>": 3,
  "machine</w>": 7,
  "machinery</w>": 3,
  "machus</w>": 3,
  "magistrat": 7,
  "magnetic</w>": 3,
  "malarial</w>": 5,
  "male</w>": 5,
  "malle": 39,
  "malthusian</w>": 5,
  "malthusianism</w>": 3,
  "management</w>": 5,
  "maniacal</w>": 7,
  "marian</w>": 11,
  "martyr</w>": 5,
  "antimas": 9,
  "ker</w>": 190,
  "ason</w>": 18,
  "asonic</w>": 4,
  "onry</w>": 7,
  "asonry</w>": 3,
  "quer</w>": 14,
  "materialistic</w>": 5,
  "materialistically</w>": 4,
  "matrimonial</w>": 6,
  "matrimon": 8,
  "antimechan": 5,
  "mediaeval</w>": 4,
  "antimediaev": 3,
  "medical</w>": 4,
  "medically</w>": 4,
  "medication</w>": 3,
  "medic": 63,
  "medicine</w>": 3,
  "medieval</w>": 6,
  "antimediev": 3,
  "melancholic</w>": 3,
  "mell": 38,
  "mening": 41,
  "meph": 10,
  "mere</w>": 13,
  "antimer": 4,
  "merism</w>": 6,
  "meristem</w>": 3,
  "mes": 346,
  "meson</w>": 5,
  "metab": 19,
  "metabol": 23,
  "metath": 14,
  "method</w>": 4,
  "methodic</w>": 4,
  "methodical</w>": 6,
  "methodically</w>": 5,
  "methodicalness</w>": 4,
  "mias": 15,
  "mycotic</w>": 4,
  "microbial</w>": 3,
  "microbic</w>": 4,
  "military</w>": 11,
  "antimilitar": 4,
  "ministerially</w>": 4,
  "miscegen": 9,
  "missile</w>": 3,
  "missionary</w>": 4,
  "miss": 74,
  "antimyst": 5,
  "mythic</w>": 4,
  "mythical</w>": 7,
  "mit": 117,
  "model</w>": 3,
  "modern</w>": 9,
  "antimodern": 6,
  "antimon": 31,
  "antimonarch": 6,
  "antimonate</w>": 7,
  "mongolian</w>": 10,
  "antimonic</w>": 6,
  "antimonide</w>": 3,
  "yellow</w>": 28,
  "antimonious</w>": 5,
  "antimonite</w>": 5,
  "uretted</w>": 7,
  "opoly</w>": 9,
  "opolist</w>": 5,
  "opolistic</w>": 5,
  "moral</w>": 16,
  "antimor": 4,
  "-mos": 10,
  "aical</w>": 9,
  "mosquit": 15,
  "musical</w>": 8,
  "musically</w>": 6,
  "musicalness</w>": 4,
  "ationalism</w>": 30,
  "anti-n": 7,
  "ationalistic</w>": 10,
  "ationalistically</w>": 3,
  "ationalists</w>": 4,
  "ationalization</w>": 5,
  "atural</w>": 19,
  "antinatur": 5,
  "nebra": 5,
  "egro</w>": 5,
  "negro</w>": 8,
  "negroes</w>": 3,
  "roism</w>": 6,
  "negro": 22,
  "antine": 4,
  "ologian</w>": 14,
  "rotoxin</w>": 6,
  "antineut": 8,
  "ralism</w>": 3,
  "rality</w>": 13,
  "rino</w>": 8,
  "ing-": 66,
  "icotine</w>": 3,
  "antinihil": 3,
  "ihil": 3,
  "ahite</w>": 6,
  "oness</w>": 4,
  "ordic</w>": 3,
  "ormal": 3,
  "ovel</w>": 6,
  "ovelist</w>": 3,
  "ucle": 15,
  "inu": 17,
  "obesity</w>": 3,
  "och</w>": 30,
  "antioch": 3,
  "odontalgic</w>": 4,
  "opelmous</w>": 4,
  "open": 82,
  "-shop</w>": 9,
  "ophthalmic</w>": 11,
  "opium</w>": 3,
  "opium": 10,
  "optimism</w>": 3,
  "optimist</w>": 5,
  "optimistic</w>": 8,
  "optimistical</w>": 4,
  "optimistically</w>": 6,
  "opt": 75,
  "orgastic</w>": 4,
  "oriental</w>": 11,
  "orient": 38,
  "orthodox</w>": 12,
  "orthodoxy</w>": 9,
  "orthodoxly</w>": 5,
  "antioxid": 4,
  "oxidizing</w>": 8,
  "oxygen</w>": 3,
  "antioxygen": 4,
  "ozon": 32,
  "antipacif": 4,
  "antipap": 7,
  "parab": 30,
  "paragraph": 11,
  "parag": 41,
  "paralytic</w>": 6,
  "paral": 24,
  "ytical</w>": 6,
  "parallel</w>": 8,
  "parallelogram</w>": 4,
  "parasitic</w>": 10,
  "parasitical</w>": 4,
  "parasitically</w>": 4,
  "parast": 12,
  "atitis</w>": 5,
  "parliament</w>": 5,
  "parliamental</w>": 3,
  "parliamentary</w>": 6,
  "antiparliament": 4,
  "arist</w>": 50,
  "particle</w>": 7,
  "partic": 8,
  "pas</w>": 16,
  "cha</w>": 50,
  "pass</w>": 14,
  "antipast": 3,
  "pat": 227,
  "antipath": 15,
  "eticalness</w>": 5,
  "patriarch</w>": 3,
  "patriarchal</w>": 5,
  "patriarchally</w>": 3,
  "patri": 37,
  "patriot</w>": 7,
  "patriotic</w>": 12,
  "patriotically</w>": 8,
  "patriotism</w>": 8,
  "paul</w>": 4,
  "pauline</w>": 5,
  "pedal</w>": 11,
  "ped": 225,
  "obaptism</w>": 4,
  "obaptist</w>": 5,
  "peduncular</w>": 5,
  "elag": 5,
  "pellag": 7,
  "pend": 59,
  "pep": 70,
  "pept": 31,
  "periodic</w>": 19,
  "antiperist": 6,
  "person": 73,
  "nel</w>": 32,
  "perspir": 10,
  "perthite</w>": 3,
  "antipestil": 4,
  "petalous</w>": 7,
  "pew": 18,
  "phagocytic</w>": 3,
  "pharis": 12,
  "phase</w>": 22,
  "philipp": 22,
  "phyllox": 3,
  "philosophy</w>": 4,
  "philosophic</w>": 7,
  "philosophical</w>": 9,
  "philosophically</w>": 6,
  "philosophies</w>": 3,
  "philosoph": 45,
  "physic</w>": 4,
  "physical</w>": 11,
  "physically</w>": 7,
  "physicalness</w>": 3,
  "phys": 87,
  "phlogist": 14,
  "phlogistic</w>": 3,
  "phon</w>": 9,
  "antiphon": 12,
  "phons</w>": 4,
  "antiphra": 5,
  "phthisic</w>": 3,
  "phthisical</w>": 3,
  "antipy": 7,
  "pyretic</w>": 5,
  "pyret": 12,
  "pyr": 22,
  "plague</w>": 3,
  "plat": 157,
  "anti-plat": 5,
  "plen": 35,
  "plethor": 8,
  "pleuritic</w>": 3,
  "plurality</w>": 3,
  "pneum": 79,
  "antipod": 11,
  "eans</w>": 9,
  "antipo": 4,
  "enus</w>": 19,
  "poetic</w>": 7,
  "poetical</w>": 7,
  "points</w>": 19,
  "polar</w>": 18,
  "pole</w>": 40,
  "polem": 16,
  "poles</w>": 10,
  "police</w>": 4,
  "polygam": 15,
  "poly": 469,
  "neuritic</w>": 5,
  "polish</w>": 20,
  "political</w>": 16,
  "politically</w>": 8,
  "politics</w>": 3,
  "pollution</w>": 3,
  "pool</w>": 15,
  "oling</w>": 25,
  "pope</w>": 5,
  "pop": 141,
  "popular</w>": 6,
  "popular": 20,
  "popul": 27,
  "porn": 12,
  "pornographic</w>": 4,
  "portable</w>": 15,
  "pot</w>": 68,
  "pover": 8,
  "antiprag": 5,
  "pragmat": 11,
  "precipitin</w>": 4,
  "predetermin": 15,
  "pre-existentiary</w>": 3,
  "prelate</w>": 5,
  "antiprelat": 3,
  "preparedness</w>": 3,
  "prestidig": 9,
  "priest</w>": 15,
  "priest": 45,
  "priesthood</w>": 3,
  "prime</w>": 6,
  "primer</w>": 4,
  "priming</w>": 4,
  "principle</w>": 5,
  "prism</w>": 5,
  "produc": 35,
  "tionist</w>": 5,
  "productive</w>": 14,
  "productively</w>": 8,
  "productiveness</w>": 7,
  "productivity</w>": 5,
  "profiteering</w>": 4,
  "progressive</w>": 4,
  "prohib": 23,
  "jectivity</w>": 4,
  "prophet</w>": 5,
  "prostitut": 8,
  "protestant</w>": 9,
  "protestantism</w>": 3,
  "prot": 309,
  "proton": 30,
  "protozo": 12,
  "prud": 28,
  "prur": 12,
  "psal": 28,
  "mist</w>": 18,
  "psychi": 5,
  "psychotic</w>": 3,
  "psor": 27,
  "ptosis</w>": 6,
  "pud": 31,
  "puritan</w>": 5,
  "puritanism</w>": 3,
  "pus</w>": 17,
  "putref": 12,
  "putrescent</w>": 3,
  "put": 128,
  "q.</w>": 13,
  "antiqu": 27,
  "antiquar": 7,
[...]
