{
  "merges": [
    [
      ",",
      "</w>"
    ],
    [
      "0",
      "."
    ],
    [
      "-",
      "0."
    ],
    [
      "4",
      ",</w>"
    ],
    [
      "2",
      ",</w>"
    ],
    [
      "9",
      ",</w>"
    ],
    [
      "3",
      ",</w>"
    ],
    [
      "7",
      ",</w>"
    ],
    [
      "6",
      ",</w>"
    ],
    [
      "1",
      ",</w>"
    ],
    [
      "8",
      ",</w>"
    ],
    [
      "5",
      ",</w>"
    ],
    [
      "-0.",
      "1"
    ],
    [
      "0.",
      "1"
    ],
    [
      "-0.",
      "2"
    ],
    [
      "0.",
      "2"
    ],
    [
      "-0.",
      "0"
    ],
    [
      "0.",
      "0"
    ],
    [
      "-0.",
      "3"
    ],
    [
      "0.",
      "3"
    ],
    [
      "0.",
      "4"
    ],
    [
      "-0.",
      "4"
    ],
    [
      "0.",
      "5"
    ],
    [
      "-0.",
      "5"
    ],
    [
      "0.",
      "6"
    ],
    [
      "-0.",
      "6"
    ],
    [
      "1",
      "."
    ],
    [
      "7",
      "1"
    ],
    [
      "7",
      "0"
    ],
    [
      "7",
      "2"
    ],
    [
      "7",
      "3"
    ],
    [
      "7",
      "5"
    ],
    [
      "7",
      "4"
    ],
    [
      "7",
      "6"
    ],
    [
      "7",
      "8"
    ],
    [
      "7",
      "9"
    ],
    [
      "8",
      "0"
    ],
    [
      "8",
      "1"
    ],
    [
      "8",
      "2"
    ],
    [
      "8",
      "3"
    ],
    [
      "8",
      "4"
    ],
    [
      "8",
      "5"
    ],
    [
      "8",
      "6"
    ],
    [
      "8",
      "9"
    ],
    [
      "1",
      "0"
    ],
    [
      "1",
      "3"
    ],
    [
      "1",
      "2"
    ],
    [
      "1",
      "5"
    ],
    [
      "1",
      "4"
    ],
    [
      "1",
      "9"
    ],
    [
      "1",
      "6"
    ],
    [
      "2",
      "2"
    ],
    [
      "9",
      "0"
    ],
    [
      "3",
      "6"
    ],
    [
      "3",
      "4"
    ],
    [
      "9",
      "4"
    ],
    [
      "3",
      "0"
    ],
    [
      "3",
      "5"
    ],
    [
      "9",
      "5"
    ],
    [
      "9",
      "6"
    ],
    [
      "2",
      "0"
    ],
    [
      "2",
      "4"
    ],
    [
      "2",
      "5"
    ],
    [
      "2",
      "6"
    ],
    [
      "0",
      "0"
    ],
    [
      "4",
      "5"
    ],
    [
      "4",
      "6"
    ],
    [
      "0",
      "5"
    ],
    [
      "3",
      "9"
    ],
    [
      "0",
      "6"
    ],
    [
      "3",
      "3"
    ],
    [
      "2",
      "9"
    ],
    [
      "4",
      "4"
    ],
    [
      "5",
      "5"
    ],
    [
      "6",
      "6"
    ],
    [
      "1",
      "1"
    ],
    [
      "7",
      "3,</w>"
    ],
    [
      "7",
      "8,</w>"
    ],
    [
      "7",
      "7,</w>"
    ],
    [
      "7",
      "4,</w>"
    ],
    [
      "9",
      "9"
    ],
    [
      "7",
      "9,</w>"
    ],
    [
      "7",
      "2,</w>"
    ],
    [
      "8",
      "8"
    ],
    [
      "7",
      "1,</w>"
    ],
    [
      "7",
      "6,</w>"
    ],
    [
      "7",
      "5,</w>"
    ],
    [
      "2",
      "3"
    ],
    [
      "0",
      "4"
    ],
    [
      "5",
      "6"
    ],
    [
      "-",
      "1."
    ],
    [
      "8",
      "2,</w>"
    ],
    [
      "8",
      "8,</w>"
    ],
    [
      "8",
      "9,</w>"
    ],
    [
      "8",
      "3,</w>"
    ],
    [
      "8",
      "5,</w>"
    ],
    [
      "8",
      "1,</w>"
    ],
    [
      "8",
      "4,</w>"
    ],
    [
      "8",
      "7,</w>"
    ],
    [
      "8",
      "6,</w>"
    ],
    [
      "9",
      "3"
    ],
    [
      "4",
      "0"
    ],
    [
      "2",
      "1"
    ],
    [
      "-0.1",
      "6"
    ],
    [
      "0.1",
      "6"
    ],
    [
      "-0.1",
      "5"
    ],
    [
      "0.0",
      "6"
    ],
    [
      "-0.0",
      "6"
    ],
    [
      "0.1",
      "5"
    ],
    [
      "2",
      "4,</w>"
    ],
    [
      "1",
      "9,</w>"
    ],
    [
      "1",
      "7,</w>"
    ],
    [
      "1",
      "4,</w>"
    ],
    [
      "1",
      "6,</w>"
    ],
    [
      "1",
      "1,</w>"
    ],
    [
      "1",
      "8,</w>"
    ],
    [
      "1",
      "5,</w>"
    ],
    [
      "1",
      "2,</w>"
    ],
    [
      "2",
      "6,</w>"
    ],
    [
      "2",
      "2,</w>"
    ],
    [
      "2",
      "9,</w>"
    ],
    [
      "2",
      "8,</w>"
    ],
    [
      "2",
      "3,</w>"
    ],
    [
      "2",
      "1,</w>"
    ],
    [
      "-0.2",
      "6"
    ],
    [
      "0.2",
      "6"
    ],
    [
      "1",
      "3,</w>"
    ],
    [
      "2",
      "7,</w>"
    ],
    [
      "2",
      "5,</w>"
    ],
    [
      "0.0",
      "5"
    ],
    [
      "4",
      "3"
    ],
    [
      "0",
      "3"
    ],
    [
      "4",
      "9"
    ],
    [
      "-0.0",
      "5"
    ],
    [
      "0",
      "9"
    ],
    [
      "-0.2",
      "5"
    ],
    [
      "0.2",
      "5"
    ],
    [
      "0.3",
      "6"
    ],
    [
      "-0.3",
      "6"
    ],
    [
      "0.3",
      "5"
    ],
    [
      "-0.1",
      "4"
    ],
    [
      "-0.3",
      "5"
    ],
    [
      "0.1",
      "4"
    ],
    [
      "3",
      "3,</w>"
    ],
    [
      "3",
      "9,</w>"
    ],
    [
      "3",
      "4,</w>"
    ],
    [
      "3",
      "2,</w>"
    ],
    [
      "3",
      "7,</w>"
    ],
    [
      "0.1",
      "0"
    ],
    [
      "3",
      "1,</w>"
    ],
    [
      "3",
      "5,</w>"
    ],
    [
      "9",
      "5,</w>"
    ],
    [
      "-0.1",
      "0"
    ],
    [
      "9",
      "7,</w>"
    ],
    [
      "9",
      "9,</w>"
    ],
    [
      "3",
      "8,</w>"
    ],
    [
      "9",
      "4,</w>"
    ],
    [
      "3",
      "6,</w>"
    ],
    [
      "9",
      "3,</w>"
    ],
    [
      "9",
      "6,</w>"
    ],
    [
      "9",
      "8,</w>"
    ],
    [
      "9",
      "2,</w>"
    ],
    [
      "9",
      "1,</w>"
    ],
    [
      "0",
      "4,</w>"
    ],
    [
      "0",
      "5,</w>"
    ],
    [
      "0",
      "6,</w>"
    ],
    [
      "0",
      "8,</w>"
    ],
    [
      "0",
      "9,</w>"
    ],
    [
      "0",
      "1,</w>"
    ],
    [
      "0",
      "7,</w>"
    ],
    [
      "0.0",
      "4"
    ],
    [
      "0",
      "2,</w>"
    ],
    [
      "0",
      "3,</w>"
    ],
    [
      "4",
      "5,</w>"
    ],
    [
      "4",
      "1,</w>"
    ],
    [
      "4",
      "2,</w>"
    ],
    [
      "4",
      "4,</w>"
    ],
    [
      "-0.0",
      "4"
    ],
    [
      "4",
      "3,</w>"
    ],
    [
      "-0.2",
      "0"
    ],
    [
      "4",
      "6,</w>"
    ],
    [
      "0.2",
      "0"
    ],
    [
      "4",
      "8,</w>"
    ],
    [
      "4",
      "9,</w>"
    ],
    [
      "4",
      "7,</w>"
    ],
    [
      "-0.1",
      "3"
    ],
    [
      "-0.2",
      "4"
    ],
    [
      "0.4",
      "6"
    ],
    [
      "-0.4",
      "6"
    ],
    [
      "0.2",
      "4"
    ],
    [
      "0.1",
      "3"
    ],
    [
      "5",
      "8,</w>"
    ],
    [
      "5",
      "4,</w>"
    ],
    [
      "5",
      "2,</w>"
    ],
    [
      "5",
      "1,</w>"
    ],
    [
      "-0.1",
      "9"
    ],
    [
      "5",
      "7,</w>"
    ],
    [
      "0.1",
      "9"
    ],
    [
      "5",
      "5,</w>"
    ],
    [
      "5",
      "9,</w>"
    ],
    [
      "5",
      "3,</w>"
    ],
    [
      "5",
      "6,</w>"
    ],
    [
      "0.0",
      "3"
    ],
    [
      "0.4",
      "5"
    ],
    [
      "-0.4",
      "5"
    ],
    [
      "0.0",
      "9"
    ],
    [
      "6",
      "1,</w>"
    ],
    [
      "-0.0",
      "3"
    ],
    [
      "-0.0",
      "9"
    ],
    [
      "6",
      "2,</w>"
    ],
    [
      "-0.2",
      "3"
    ],
    [
      "6",
      "7,</w>"
    ],
    [
      "6",
      "4,</w>"
    ],
    [
      "6",
      "3,</w>"
    ],
    [
      "6",
      "9,</w>"
    ],
    [
      "6",
      "6,</w>"
    ],
    [
      "6",
      "5,</w>"
    ],
    [
      "6",
      "8,</w>"
    ],
    [
      "-0.3",
      "0"
    ],
    [
      "0.2",
      "3"
    ],
    [
      "0.3",
      "0"
    ],
    [
      "0.3",
      "4"
    ],
    [
      "-0.3",
      "4"
    ],
    [
      "0.2",
      "9"
    ],
    [
      "-0.2",
      "9"
    ],
    [
      "-0.1",
      "2"
    ],
    [
      "0.1",
      "2"
    ],
    [
      "-0.3",
      "3"
    ],
    [
      "0.3",
      "3"
    ],
    [
      "-0.5",
      "6"
    ],
    [
      "0.5",
      "6"
    ],
    [
      "0.4",
      "0"
    ],
    [
      "0.",
      "9"
    ],
    [
      "-0.4",
      "0"
    ],
    [
      "-0.0",
      "2"
    ],
    [
      "-0.2",
      "2"
    ],
    [
      "-0.5",
      "5"
    ],
    [
      "0.5",
      "5"
    ],
    [
      "0.2",
      "2"
    ],
    [
      "0.0",
      "2"
    ],
    [
      "0.4",
      "4"
    ],
    [
      "-0.3",
      "9"
    ],
    [
      "0.3",
      "9"
    ],
    [
      "-0.4",
      "4"
    ],
    [
      "1.",
      "0"
    ],
    [
      "-0.",
      "9"
    ],
    [
      "0.4",
      "3"
    ],
    [
      "-0.1",
      "1"
    ],
    [
      "-0.4",
      "3"
    ],
    [
      "-0.3",
      "2"
    ],
    [
      "0.3",
      "2"
    ],
    [
      "0.1",
      "1"
    ],
    [
      "0.5",
      "0"
    ],
    [
      "-0.5",
      "0"
    ],
    [
      "-0.0",
      "1"
    ],
    [
      "0.0",
      "1"
    ],
    [
      "-1.",
      "0"
    ],
    [
      "0.6",
      "6"
    ],
    [
      "0.4",
      "9"
    ],
    [
      "0.2",
      "1"
    ],
    [
      "-0.2",
      "1"
    ],
    [
      "0.",
      "70"
    ],
    [
      "-0.6",
      "6"
    ],
    [
      "-0.",
      "70"
    ],
    [
      "0.5",
      "4"
    ],
    [
      "0.6",
      "5"
    ],
    [
      "-0.4",
      "9"
    ],
    [
      "-0.6",
      "5"
    ],
    [
      "0.",
      "71"
    ],
    [
      "-0.5",
      "4"
    ],
    [
      "0.",
      "72"
    ],
    [
      "-0.",
      "71"
    ],
    [
      "0.4",
      "2"
    ],
    [
      "0.",
      "73"
    ],
    [
      "-0.5",
      "3"
    ],
    [
      "-0.4",
      "2"
    ],
    [
      "-0.",
      "72"
    ],
    [
      "0.5",
      "3"
    ],
    [
      "0.",
      "74"
    ],
    [
      "0.3",
      "1"
    ],
    [
      "-0.3",
      "1"
    ],
    [
      "0.",
      "8"
    ],
    [
      "0.",
      "75"
    ],
    [
      "-0.",
      "73"
    ],
    [
      "-0.",
      "74"
    ],
    [
      "0.",
      "76"
    ],
    [
      "0.6",
      "0"
    ],
    [
      "-0.6",
      "0"
    ],
    [
      "-0.",
      "75"
    ],
    [
      "-0.",
      "76"
    ],
    [
      "0.",
      "7"
    ],
    [
      "-0.5",
      "9"
    ],
    [
      "0.",
      "78"
    ],
    [
      "0.5",
      "9"
    ],
    [
      "-0.",
      "8"
    ],
    [
      "0.6",
      "4"
    ],
    [
      "-0.",
      "7"
    ],
    [
      "-0.",
      "78"
    ],
    [
      "-0.4",
      "1"
    ],
    [
      "0.4",
      "1"
    ],
    [
      "0.5",
      "2"
    ],
    [
      "-0.1",
      "8"
    ],
    [
      "-0.5",
      "2"
    ],
    [
      "-0.0",
      "8"
    ],
    [
      "0.0",
      "8"
    ],
    [
      "0.1",
      "8"
    ],
    [
      "-0.6",
      "4"
    ],
    [
      "0.",
      "79"
    ],
    [
      "0.",
      "80"
    ],
    [
      "0.6",
      "3"
    ],
    [
      "-0.",
      "79"
    ],
    [
      "-0.6",
      "3"
    ],
    [
      "-0.",
      "80"
    ],
    [
      "0.",
      "81"
    ],
    [
      "0.",
      "82"
    ],
    [
      "-0.",
      "81"
    ],
    [
      "0.2",
      "8"
    ],
    [
      "-0.2",
      "8"
    ],
    [
      "0.",
      "83"
    ],
    [
      "0.",
      "84"
    ],
    [
      "-0.",
      "82"
    ],
    [
      "-0.",
      "83"
    ],
    [
      "-0.5",
      "1"
    ],
    [
      "0.5",
      "1"
    ],
    [
      "0.6",
      "9"
    ],
    [
      "0.",
      "85"
    ],
    [
      "7",
      "71,</w>"
    ],
    [
      "78",
      "8,</w>"
    ],
    [
      "71",
      "4,</w>"
    ],
    [
      "0.3",
      "8"
    ],
    [
      "71",
      "5,</w>"
    ],
    [
      "71",
      "7,</w>"
    ],
    [
      "-0.",
      "84"
    ],
    [
      "74",
      "1,</w>"
    ],
    [
      "74",
      "8,</w>"
    ],
    [
      "72",
      "6,</w>"
    ],
    [
      "76",
      "7,</w>"
    ],
    [
      "7",
      "73,</w>"
    ],
    [
      "73",
      "7,</w>"
    ],
    [
      "76",
      "6,</w>"
    ],
    [
      "72",
      "5,</w>"
    ],
    [
      "75",
      "7,</w>"
    ],
    [
      "75",
      "8,</w>"
    ],
    [
      "72",
      "9,</w>"
    ],
    [
      "78",
      "4,</w>"
    ],
    [
      "75",
      "4,</w>"
    ],
    [
      "70",
      "4,</w>"
    ],
    [
      "74",
      "6,</w>"
    ],
    [
      "71",
      "9,</w>"
    ],
    [
      "70",
      "1,</w>"
    ],
    [
      "78",
      "9,</w>"
    ],
    [
      "78",
      "5,</w>"
    ],
    [
      "0.6",
      "2"
    ],
    [
      "75",
      "2,</w>"
    ],
    [
      "79",
      "6,</w>"
    ],
    [
      "79",
      "4,</w>"
    ],
    [
      "73",
      "1,</w>"
    ],
    [
      "73",
      "9,</w>"
    ],
    [
      "71",
      "6,</w>"
    ],
    [
      "73",
      "4,</w>"
    ],
    [
      "72",
      "2,</w>"
    ],
    [
      "76",
      "2,</w>"
    ],
    [
      "79",
      "5,</w>"
    ],
    [
      "75",
      "6,</w>"
    ],
    [
      "78",
      "1,</w>"
    ],
    [
      "71",
      "3,</w>"
    ],
    [
      "-0.6",
      "2"
    ],
    [
      "79",
      "7,</w>"
    ],
    [
      "-0.6",
      "9"
    ],
    [
      "78",
      "6,</w>"
    ],
    [
      "73",
      "3,</w>"
    ],
    [
      "7",
      "79,</w>"
    ],
    [
      "71",
      "1,</w>"
    ],
    [
      "70",
      "3,</w>"
    ],
    [
      "72",
      "4,</w>"
    ],
    [
      "75",
      "5,</w>"
    ],
    [
      "7",
      "78,</w>"
    ],
    [
      "74",
      "3,</w>"
    ],
    [
      "76",
      "8,</w>"
    ],
    [
      "71",
      "2,</w>"
    ],
    [
      "72",
      "7,</w>"
    ],
    [
      "7",
      "75,</w>"
    ],
    [
      "73",
      "5,</w>"
    ],
    [
      "79",
      "8,</w>"
    ],
    [
      "70",
      "5,</w>"
    ],
    [
      "74",
      "9,</w>"
    ],
    [
      "74",
      "2,</w>"
    ],
    [
      "73",
      "8,</w>"
    ],
    [
      "73",
      "2,</w>"
    ],
    [
      "72",
      "3,</w>"
    ],
    [
      "70",
      "9,</w>"
    ],
    [
      "75",
      "9,</w>"
    ],
    [
      "72",
      "1,</w>"
    ],
    [
      "-0.3",
      "8"
    ],
    [
      "7",
      "72,</w>"
    ],
    [
      "74",
      "7,</w>"
    ],
    [
      "75",
      "1,</w>"
    ],
    [
      "78",
      "3,</w>"
    ],
    [
      "70",
      "7,</w>"
    ],
    [
      "78",
      "2,</w>"
    ],
    [
      "71",
      "8,</w>"
    ],
    [
      "70",
      "6,</w>"
    ],
    [
      "76",
      "5,</w>"
    ],
    [
      "78",
      "7,</w>"
    ],
    [
      "76",
      "1,</w>"
    ],
    [
      "73",
      "6,</w>"
    ],
    [
      "79",
      "2,</w>"
    ],
    [
      "79",
      "9,</w>"
    ],
    [
      "7",
      "74,</w>"
    ],
    [
      "74",
      "4,</w>"
    ],
    [
      "7",
      "76,</w>"
    ],
    [
      "7",
      "77,</w>"
    ],
    [
      "75",
      "3,</w>"
    ],
    [
      "0.",
      "86"
    ],
    [
      "70",
      "2,</w>"
    ],
    [
      "76",
      "4,</w>"
    ],
    [
      "74",
      "5,</w>"
    ],
    [
      "79",
      "3,</w>"
    ],
    [
      "72",
      "8,</w>"
    ],
    [
      "70",
      "8,</w>"
    ],
    [
      "80",
      "6,</w>"
    ],
    [
      "-0.",
      "85"
    ],
    [
      "79",
      "1,</w>"
    ],
    [
      "86",
      "7,</w>"
    ],
    [
      "82",
      "6,</w>"
    ],
    [
      "76",
      "3,</w>"
    ],
    [
      "76",
      "9,</w>"
    ],
    [
      "-0.1",
      "05"
    ],
    [
      "85",
      "2,</w>"
    ],
    [
      "89",
      "2,</w>"
    ],
    [
      "83",
      "2,</w>"
    ],
    [
      "82",
      "8,</w>"
    ],
    [
      "0.1",
      "00"
    ],
    [
      "83",
      "5,</w>"
    ],
    [
      "80",
      "3,</w>"
    ],
    [
      "0.1",
      "36"
    ],
    [
      "81",
      "1,</w>"
    ],
    [
      "86",
      "2,</w>"
    ],
    [
      "86",
      "8,</w>"
    ],
    [
      "84",
      "9,</w>"
    ],
    [
      "83",
      "6,</w>"
    ],
    [
      "84",
      "2,</w>"
    ],
    [
      "83",
      "8,</w>"
    ],
    [
      "0.1",
      "06"
    ],
    [
      "81",
      "7,</w>"
    ],
    [
      "89",
      "1,</w>"
    ],
    [
      "0.1",
      "10"
    ],
    [
      "80",
      "8,</w>"
    ],
    [
      "-0.1",
      "00"
    ],
    [
      "0.0",
      "0"
    ],
    [
      "82",
      "1,</w>"
    ],
    [
      "81",
      "2,</w>"
    ],
    [
      "-0.1",
      "06"
    ],
    [
      "80",
      "7,</w>"
    ],
    [
      "0.1",
      "19"
    ],
    [
      "81",
      "9,</w>"
    ],
    [
      "81",
      "3,</w>"
    ],
    [
      "86",
      "4,</w>"
    ],
    [
      "89",
      "6,</w>"
    ],
    [
      "84",
      "3,</w>"
    ],
    [
      "82",
      "4,</w>"
    ],
    [
      "0.1",
      "34"
    ],
    [
      "-0.1",
      "34"
    ],
    [
      "84",
      "4,</w>"
    ],
    [
      "86",
      "9,</w>"
    ],
    [
      "85",
      "3,</w>"
    ],
    [
      "85",
      "7,</w>"
    ],
    [
      "83",
      "9,</w>"
    ],
    [
      "-0.1",
      "25"
    ],
    [
      "83",
      "4,</w>"
    ],
    [
      "84",
      "5,</w>"
    ],
    [
      "-0.1",
      "19"
    ],
    [
      "80",
      "2,</w>"
    ],
    [
      "84",
      "6,</w>"
    ],
    [
      "89",
      "4,</w>"
    ],
    [
      "82",
      "5,</w>"
    ],
    [
      "82",
      "3,</w>"
    ],
    [
      "89",
      "8,</w>"
    ],
    [
      "89",
      "3,</w>"
    ],
    [
      "0.1",
      "35"
    ],
    [
      "0.1",
      "22"
    ],
    [
      "-0.1",
      "22"
    ],
    [
      "-0.1",
      "16"
    ],
    [
      "-0.1",
      "24"
    ],
    [
      "83",
      "1,</w>"
    ],
    [
      "-0.1",
      "12"
    ],
    [
      "0.1",
      "15"
    ],
    [
      "86",
      "5,</w>"
    ],
    [
      "-0.1",
      "35"
    ],
    [
      "85",
      "5,</w>"
    ],
    [
      "83",
      "3,</w>"
    ],
    [
      "0.1",
      "20"
    ],
    [
      "0.1",
      "05"
    ],
    [
      "83",
      "7,</w>"
    ],
    [
      "-0.1",
      "46"
    ],
    [
      "81",
      "5,</w>"
    ],
    [
      "0.1",
      "14"
    ],
    [
      "85",
      "1,</w>"
    ],
    [
      "0.1",
      "26"
    ],
    [
      "0.1",
      "16"
    ],
    [
      "89",
      "5,</w>"
    ],
    [
      "0.1",
      "55"
    ],
    [
      "-0.1",
      "66"
    ],
    [
      "0.1",
      "24"
    ],
    [
      "85",
      "8,</w>"
    ],
    [
      "80",
      "5,</w>"
    ],
    [
      "84",
      "1,</w>"
    ],
    [
      "-0.1",
      "36"
    ],
    [
      "85",
      "9,</w>"
    ],
    [
      "85",
      "6,</w>"
    ],
    [
      "86",
      "3,</w>"
    ],
    [
      "0.",
      "89"
    ],
    [
      "-0.0",
      "19"
    ],
    [
      "0.1",
      "45"
    ],
    [
      "0.1",
      "30"
    ],
    [
      "89",
      "9,</w>"
    ],
    [
      "-0.1",
      "13"
    ],
    [
      "-0.1",
      "15"
    ],
    [
      "80",
      "1,</w>"
    ],
    [
      "82",
      "7,</w>"
    ],
    [
      "84",
      "8,</w>"
    ],
    [
      "-0.1",
      "45"
    ],
    [
      "0.1",
      "25"
    ],
    [
      "89",
      "7,</w>"
    ],
    [
      "0.1",
      "13"
    ],
    [
      "80",
      "4,</w>"
    ],
    [
      "12",
      "9,</w>"
    ],
    [
      "82",
      "2,</w>"
    ],
    [
      "81",
      "4,</w>"
    ],
    [
      "81",
      "6,</w>"
    ],
    [
      "10",
      "2,</w>"
    ],
    [
      "81",
      "8,</w>"
    ],
    [
      "84",
      "7,</w>"
    ],
    [
      "82",
      "9,</w>"
    ],
    [
      "-0.1",
      "20"
    ],
    [
      "-0.1",
      "14"
    ],
    [
      "12",
      "7,</w>"
    ],
    [
      "-0.1",
      "30"
    ],
    [
      "0.0",
      "12"
    ],
    [
      "16",
      "6,</w>"
    ],
    [
      "13",
      "6,</w>"
    ],
    [
      "80",
      "9,</w>"
    ],
    [
      "0.2",
      "06"
    ],
    [
      "86",
      "6,</w>"
    ],
    [
      "10",
      "6,</w>"
    ],
    [
      "0.0",
      "15"
    ],
    [
      "13",
      "3,</w>"
    ],
    [
      "12",
      "6,</w>"
    ],
    [
      "15",
      "8,</w>"
    ],
    [
      "86",
      "1,</w>"
    ],
    [
      "88",
      "8,</w>"
    ],
    [
      "13",
      "8,</w>"
    ],
    [
      "85",
      "4,</w>"
    ],
    [
      "12",
      "4,</w>"
    ],
    [
      "10",
      "8,</w>"
    ],
    [
      "13",
      "4,</w>"
    ],
    [
      "15",
      "7,</w>"
    ],
    [
      "15",
      "2,</w>"
    ],
    [
      "-0.0",
      "24"
    ],
    [
      "0.1",
      "66"
    ],
    [
      "19",
      "1,</w>"
    ],
    [
      "-0.0",
      "14"
    ],
    [
      "-0.1",
      "26"
    ],
    [
      "0.2",
      "14"
    ],
    [
      "10",
      "9,</w>"
    ],
    [
      "-0.1",
      "55"
    ],
    [
      "15",
      "1,</w>"
    ],
    [
      "-0.2",
      "05"
    ],
    [
      "16",
      "3,</w>"
    ],
    [
      "88",
      "7,</w>"
    ],
    [
      "19",
      "3,</w>"
    ],
    [
      "13",
      "5,</w>"
    ],
    [
      "14",
      "2,</w>"
    ],
    [
      "0.1",
      "46"
    ],
    [
      "10",
      "4,</w>"
    ],
    [
      "16",
      "7,</w>"
    ],
    [
      "0.1",
      "95"
    ],
    [
      "-0.",
      "86"
    ],
    [
      "-0.2",
      "00"
    ],
    [
      "15",
      "4,</w>"
    ],
    [
      "12",
      "3,</w>"
    ],
    [
      "-0.0",
      "0"
    ],
    [
      "19",
      "7,</w>"
    ],
    [
      "-0.1",
      "96"
    ],
    [
      "0.1",
      "90"
    ],
    [
      "16",
      "8,</w>"
    ],
    [
      "14",
      "8,</w>"
    ],
    [
      "-0.1",
      "95"
    ],
    [
      "12",
      "8,</w>"
    ],
    [
      "19",
      "5,</w>"
    ],
    [
      "15",
      "6,</w>"
    ],
    [
      "16",
      "5,</w>"
    ],
    [
      "10",
      "3,</w>"
    ],
    [
      "16",
      "1,</w>"
    ],
    [
      "0.2",
      "05"
    ],
    [
      "88",
      "1,</w>"
    ],
    [
      "10",
      "5,</w>"
    ],
    [
      "88",
      "5,</w>"
    ],
    [
      "16",
      "4,</w>"
    ],
    [
      "0.1",
      "94"
    ],
    [
      "15",
      "3,</w>"
    ],
    [
      "0.0",
      "10"
    ],
    [
      "14",
      "3,</w>"
    ],
    [
      "-0.1",
      "90"
    ],
    [
      "12",
      "2,</w>"
    ],
    [
      "10",
      "7,</w>"
    ],
    [
      "-0.0",
      "94"
    ],
    [
      "19",
      "9,</w>"
    ],
    [
      "14",
      "9,</w>"
    ],
    [
      "88",
      "3,</w>"
    ],
    [
      "0.1",
      "96"
    ],
    [
      "13",
      "9,</w>"
    ],
    [
      "16",
      "2,</w>"
    ],
    [
      "-0.0",
      "72"
    ],
    [
      "-0.1",
      "94"
    ],
    [
      "-0.0",
      "55"
    ],
    [
      "0.0",
      "45"
    ],
    [
      "16",
      "9,</w>"
    ],
    [
      "-0.0",
      "15"
    ],
    [
      "19",
      "6,</w>"
    ],
    [
      "-0.0",
      "34"
    ],
    [
      "13",
      "1,</w>"
    ],
    [
      "-0.0",
      "20"
    ],
    [
      "0.0",
      "19"
    ],
    [
      "12",
      "5,</w>"
    ],
    [
      "-0.1",
      "56"
    ],
    [
      "10",
      "1,</w>"
    ],
    [
      "88",
      "6,</w>"
    ],
    [
      "-0.0",
      "80"
    ],
    [
      "-0.0",
      "45"
    ],
    [
      "14",
      "1,</w>"
    ],
    [
      "-0.0",
      "66"
    ],
    [
      "0.0",
      "74"
    ],
    [
      "0.0",
      "76"
    ],
    [
      "8",
      "77,</w>"
    ],
    [
      "-0.0",
      "12"
    ],
    [
      "0.2",
      "00"
    ],
    [
      "15",
      "5,</w>"
    ],
    [
      "-0.0",
      "76"
    ],
    [
      "-0.2",
      "36"
    ],
    [
      "0.0",
      "96"
    ],
    [
      "0.0",
      "22"
    ],
    [
      "19",
      "4,</w>"
    ],
    [
      "-0.0",
      "13"
    ],
    [
      "0.2",
      "35"
    ],
    [
      "12",
      "1,</w>"
    ],
    [
      "0.2",
      "22"
    ],
    [
      "1.",
      "1"
    ],
    [
      "0.0",
      "26"
    ],
    [
      "0.0",
      "20"
    ],
    [
      "-0.2",
      "20"
    ],
    [
      "-0.0",
      "10"
    ],
    [
      "-0.2",
      "22"
    ],
    [
      "-0.2",
      "06"
    ],
    [
      "88",
      "9,</w>"
    ],
    [
      "-0.2",
      "25"
    ],
    [
      "-0.2",
      "30"
    ],
    [
      "14",
      "6,</w>"
    ],
    [
      "-0.0",
      "35"
    ],
    [
      "-0.0",
      "89"
    ],
    [
      "-0.0",
      "36"
    ],
    [
      "-0.0",
      "75"
    ],
    [
      "14",
      "4,</w>"
    ],
    [
      "-0.0",
      "83"
    ],
    [
      "0.1",
      "72"
    ],
    [
      "0.1",
      "86"
    ],
    [
      "8",
      "78,</w>"
    ],
    [
      "-0.0",
      "78"
    ],
    [
      "0.1",
      "56"
    ],
    [
      "-0.1",
      "80"
    ],
    [
      "-0.0",
      "30"
    ],
    [
      "-0.0",
      "84"
    ],
    [
      "13",
      "7,</w>"
    ],
    [
      "19",
      "2,</w>"
    ],
    [
      "13",
      "2,</w>"
    ],
    [
      "-0.0",
      "74"
    ],
    [
      "14",
      "7,</w>"
    ],
    [
      "-0.0",
      "7"
    ],
    [
      "0.0",
      "24"
    ],
    [
      "-0.0",
      "22"
    ],
    [
      "0.0",
      "25"
    ],
    [
      "39",
      "2,</w>"
    ],
    [
      "0.0",
      "80"
    ],
    [
      "0.2",
      "36"
    ],
    [
      "-0.2",
      "26"
    ],
    [
      "-0.2",
      "24"
    ],
    [
      "0.0",
      "66"
    ],
    [
      "8",
      "73,</w>"
    ],
    [
      "0.2",
      "24"
    ],
    [
      "0.0",
      "85"
    ],
    [
      "0.2",
      "20"
    ],
    [
      "0.0",
      "90"
    ],
    [
      "-0.0",
      "46"
    ],
    [
      "19",
      "8,</w>"
    ],
    [
      "88",
      "4,</w>"
    ],
    [
      "0.0",
      "46"
    ],
    [
      "0.1",
      "79"
    ],
    [
      "0.2",
      "25"
    ],
    [
      "0.0",
      "13"
    ],
    [
      "88",
      "2,</w>"
    ],
    [
      "0.2",
      "46"
    ],
    [
      "0.0",
      "36"
    ],
    [
      "39",
      "9,</w>"
    ],
    [
      "8",
      "76,</w>"
    ],
    [
      "15",
      "9,</w>"
    ],
    [
      "-0.1",
      "79"
    ],
    [
      "0.0",
      "75"
    ],
    [
      "-0.2",
      "55"
    ],
    [
      "0.0",
      "72"
    ],
    [
      "-0.0",
      "26"
    ],
    [
      "-0.2",
      "46"
    ],
    [
      "-0.1",
      "10"
    ],
    [
      "0.0",
      "70"
    ],
    [
      "0.1",
      "12"
    ],
    [
      "-0.1",
      "74"
    ],
    [
      "-0.6",
      "1"
    ],
    [
      "0.1",
      "74"
    ],
    [
      "14",
      "5,</w>"
    ],
    [
      "0.1",
      "71"
    ],
    [
      "0.0",
      "16"
    ],
    [
      "0.0",
      "73"
    ],
    [
      "0.1",
      "70"
    ],
    [
      "8",
      "75,</w>"
    ],
    [
      "-0.1",
      "70"
    ],
    [
      "0.0",
      "34"
    ],
    [
      "0.0",
      "78"
    ],
    [
      "-0.0",
      "25"
    ],
    [
      "-0.1",
      "71"
    ],
    [
      "0.2",
      "34"
    ],
    [
      "0.0",
      "84"
    ],
    [
      "0.0",
      "55"
    ],
    [
      "8",
      "71,</w>"
    ],
    [
      "8",
      "72,</w>"
    ],
    [
      "0.0",
      "86"
    ],
    [
      "0.0",
      "79"
    ],
    [
      "11",
      "4,</w>"
    ],
    [
      "0.1",
      "75"
    ],
    [
      "0.6",
      "1"
    ],
    [
      "-0.2",
      "35"
    ],
    [
      "11",
      "5,</w>"
    ],
    [
      "0.0",
      "82"
    ],
    [
      "-0.1",
      "75"
    ],
    [
      "0.",
      "90"
    ],
    [
      "-0.1",
      "73"
    ],
    [
      "-0.0",
      "81"
    ],
    [
      "0.2",
      "45"
    ],
    [
      "0.0",
      "95"
    ],
    [
      "-0.0",
      "96"
    ],
    [
      "0.0",
      "14"
    ],
    [
      "-0.1",
      "76"
    ],
    [
      "-0.0",
      "71"
    ],
    [
      "8",
      "79,</w>"
    ],
    [
      "-0.0",
      "82"
    ],
    [
      "-0.0",
      "90"
    ],
    [
      "0.2",
      "13"
    ],
    [
      "-0.1",
      "81"
    ],
    [
      "-0.0",
      "16"
    ],
    [
      "-0.2",
      "66"
    ],
    [
      "0.2",
      "26"
    ],
    [
      "-0.2",
      "34"
    ],
    [
      "0.0",
      "7"
    ],
    [
      "11",
      "1,</w>"
    ],
    [
      "0.0",
      "81"
    ],
    [
      "0.2",
      "30"
    ],
    [
      "0.0",
      "89"
    ],
    [
      "-0.0",
      "79"
    ],
    [
      "0.1",
      "7"
    ],
    [
      "11",
      "3,</w>"
    ],
    [
      "8",
      "74,</w>"
    ],
    [
      "-0.1",
      "85"
    ],
    [
      "39",
      "4,</w>"
    ],
    [
      "36",
      "6,</w>"
    ],
    [
      "0.1",
      "73"
    ],
    [
      "-0.1",
      "86"
    ],
    [
      "-0.0",
      "95"
    ],
    [
      "-0.0",
      "70"
    ],
    [
      "0.1",
      "84"
    ],
    [
      "36",
      "2,</w>"
    ],
    [
      "0.1",
      "78"
    ],
    [
      "-0.1",
      "72"
    ],
    [
      "11",
      "8,</w>"
    ],
    [
      "96",
      "6,</w>"
    ],
    [
      "39",
      "3,</w>"
    ],
    [
      "11",
      "9,</w>"
    ],
    [
      "0.1",
      "83"
    ],
    [
      "0.0",
      "30"
    ],
    [
      "39",
      "7,</w>"
    ],
    [
      "-0.2",
      "14"
    ],
    [
      "11",
      "7,</w>"
    ],
    [
      "34",
      "1,</w>"
    ],
    [
      "0.2",
      "55"
    ],
    [
      "-0.1",
      "89"
    ],
    [
      "0.0",
      "35"
    ],
    [
      "0.0",
      "71"
    ],
    [
      "0.2",
      "19"
    ],
    [
      "0.1",
      "89"
    ],
    [
      "-0.0",
      "86"
    ],
    [
      "0.1",
      "85"
    ],
    [
      "-0.0",
      "85"
    ],
    [
      "-0.1",
      "78"
    ],
    [
      "-0.1",
      "7"
    ],
    [
      "0.1",
      "76"
    ],
    [
      "0.0",
      "94"
    ],
    [
      "0.2",
      "94"
    ],
    [
      "0.2",
      "66"
    ],
    [
      "-0.2",
      "10"
    ],
    [
      "-0.2",
      "45"
    ],
    [
      "11",
      "6,</w>"
    ],
    [
      "0.1",
      "81"
    ],
    [
      "34",
      "6,</w>"
    ],
    [
      "11",
      "2,</w>"
    ],
    [
      "0.1",
      "80"
    ],
    [
      "34",
      "7,</w>"
    ],
    [
      "-0.2",
      "15"
    ],
    [
      "-0.1",
      "82"
    ],
    [
      "39",
      "8,</w>"
    ],
    [
      "0.1",
      "82"
    ],
    [
      "-0.2",
      "13"
    ],
    [
      "0.0",
      "83"
    ],
    [
      "36",
      "7,</w>"
    ],
    [
      "35",
      "6,</w>"
    ],
    [
      "39",
      "5,</w>"
    ],
    [
      "-0.1",
      "83"
    ],
    [
      "0.2",
      "15"
    ],
    [
      "39",
      "1,</w>"
    ],
    [
      "0.2",
      "16"
    ],
    [
      "0.2",
      "90"
    ],
    [
      "-0.0",
      "73"
    ],
    [
      "-0.2",
      "12"
    ],
    [
      "39",
      "6,</w>"
    ],
    [
      "-0.4",
      "8"
    ],
    [
      "0.2",
      "10"
    ],
    [
      "36",
      "8,</w>"
    ],
    [
      "30",
      "3,</w>"
    ],
    [
      "-0.1",
      "84"
    ],
    [
      "96",
      "1,</w>"
    ],
    [
      "0.4",
      "8"
    ],
    [
      "0.1",
      "44"
    ],
    [
      "30",
      "4,</w>"
    ],
    [
      "0.2",
      "12"
    ],
    [
      "94",
      "4,</w>"
    ],
    [
      "30",
      "2,</w>"
    ],
    [
      "1.",
      "2"
    ],
    [
      "30",
      "5,</w>"
    ],
    [
      "95",
      "5,</w>"
    ],
    [
      "-0.3",
      "05"
    ],
    [
      "-0.2",
      "16"
    ],
    [
      "95",
      "1,</w>"
    ],
    [
      "34",
      "2,</w>"
    ],
    [
      "35",
      "2,</w>"
    ],
    [
      "35",
      "9,</w>"
    ],
    [
      "95",
      "3,</w>"
    ],
    [
      "90",
      "9,</w>"
    ],
    [
      "96",
      "9,</w>"
    ],
    [
      "96",
      "3,</w>"
    ],
    [
      "36",
      "4,</w>"
    ],
    [
      "-0.2",
      "19"
    ],
    [
      "35",
      "4,</w>"
    ],
    [
      "0.3",
      "05"
    ],
    [
      "95",
      "2,</w>"
    ],
    [
      "94",
      "3,</w>"
    ],
    [
      "36",
      "1,</w>"
    ],
    [
      "94",
      "6,</w>"
    ],
    [
      "90",
      "2,</w>"
    ],
    [
      "-0.3",
      "00"
    ],
    [
      "30",
      "6,</w>"
    ],
    [
      "95",
      "4,</w>"
    ],
    [
      "-0.1",
      "44"
    ],
    [
      "34",
      "4,</w>"
    ],
    [
      "35",
      "3,</w>"
    ],
    [
      "0.3",
      "06"
    ],
    [
      "36",
      "5,</w>"
    ],
    [
      "90",
      "6,</w>"
    ],
    [
      "34",
      "8,</w>"
    ],
    [
      "35",
      "5,</w>"
    ],
    [
      "94",
      "7,</w>"
    ],
    [
      "35",
      "1,</w>"
    ],
    [
      "96",
      "4,</w>"
    ],
    [
      "-0.",
      "90"
    ],
    [
      "-0.3",
      "26"
    ],
    [
      "96",
      "2,</w>"
    ],
    [
      "-0.2",
      "70"
    ],
    [
      "95",
      "9,</w>"
    ],
    [
      "-0.2",
      "56"
    ],
    [
      "34",
      "9,</w>"
    ],
    [
      "34",
      "3,</w>"
    ],
    [
      "94",
      "1,</w>"
    ],
    [
      "90",
      "4,</w>"
    ],
    [
      "90",
      "7,</w>"
    ],
    [
      "36",
      "3,</w>"
    ],
    [
      "90",
      "3,</w>"
    ],
    [
      "94",
      "2,</w>"
    ],
    [
      "-0.0",
      "56"
    ],
    [
      "95",
      "8,</w>"
    ],
    [
      "0.0",
      "56"
    ],
    [
      "30",
      "7,</w>"
    ],
    [
      "94",
      "8,</w>"
    ],
    [
      "94",
      "9,</w>"
    ],
    [
      "34",
      "5,</w>"
    ],
    [
      "33",
      "1,</w>"
    ],
    [
      "-0.2",
      "73"
    ],
    [
      "36",
      "9,</w>"
    ],
    [
      "-0.",
      "89"
    ],
    [
      "33",
      "9,</w>"
    ],
    [
      "95",
      "6,</w>"
    ],
    [
      "35",
      "7,</w>"
    ],
    [
      "0.2",
      "56"
    ],
    [
      "23",
      "5,</w>"
    ],
    [
      "96",
      "7,</w>"
    ],
    [
      "96",
      "5,</w>"
    ],
    [
      "29",
      "5,</w>"
    ],
    [
      "30",
      "9,</w>"
    ],
    [
      "0.2",
      "78"
    ],
    [
      "30",
      "1,</w>"
    ],
    [
      "-0.3",
      "24"
    ],
    [
      "-0.2",
      "74"
    ],
    [
      "-0.2",
      "86"
    ],
    [
      "0.3",
      "00"
    ],
    [
      "21",
      "5,</w>"
    ],
    [
      "21",
      "2,</w>"
    ],
    [
      "21",
      "9,</w>"
    ],
    [
      "22",
      "5,</w>"
    ],
    [
      "33",
      "7,</w>"
    ],
    [
      "23",
      "2,</w>"
    ],
    [
      "0.2",
      "85"
    ],
    [
      "21",
      "3,</w>"
    ],
    [
      "35",
      "8,</w>"
    ],
    [
      "0.2",
      "74"
    ],
    [
      "23",
      "3,</w>"
    ],
    [
      "25",
      "4,</w>"
    ],
    [
      "29",
      "4,</w>"
    ],
    [
      "0.2",
      "75"
    ],
    [
      "90",
      "1,</w>"
    ],
    [
      "95",
      "7,</w>"
    ],
    [
      "29",
      "6,</w>"
    ],
    [
      "-0.3",
      "20"
    ],
    [
      "23",
      "6,</w>"
    ],
    [
      "23",
      "7,</w>"
    ],
    [
      "90",
      "8,</w>"
    ],
    [
      "23",
      "4,</w>"
    ],
    [
      "23",
      "1,</w>"
    ],
    [
      "-0.3",
      "06"
    ],
    [
      "29",
      "1,</w>"
    ],
    [
      "30",
      "8,</w>"
    ],
    [
      "33",
      "3,</w>"
    ],
    [
      "-0.2",
      "80"
    ],
    [
      "0.2",
      "81"
    ],
    [
      "-0.2",
      "82"
    ],
    [
      "21",
      "6,</w>"
    ],
    [
      "0.2",
      "73"
    ],
    [
      "0.2",
      "80"
    ],
    [
      "-0.1",
      "04"
    ],
    [
      "-0.2",
      "72"
    ],
    [
      "21",
      "4,</w>"
    ],
    [
      "-0.2",
      "75"
    ],
    [
      "21",
      "8,</w>"
    ],
    [
      "33",
      "4,</w>"
    ],
    [
      "21",
      "7,</w>"
    ],
    [
      "-0.2",
      "76"
    ],
    [
      "96",
      "8,</w>"
    ],
    [
      "0.3",
      "25"
    ],
    [
      "29",
      "2,</w>"
    ],
    [
      "-0.2",
      "7"
    ],
    [
      "33",
      "8,</w>"
    ],
    [
      "-0.2",
      "94"
    ],
    [
      "90",
      "5,</w>"
    ],
    [
      "33",
      "2,</w>"
    ],
    [
      "-0.3",
      "22"
    ],
    [
      "0.2",
      "71"
    ],
    [
      "21",
      "1,</w>"
    ],
    [
      "0.3",
      "24"
    ],
    [
      "0.1",
      "04"
    ],
    [
      "-0.3",
      "45"
    ],
    [
      "0.06",
      "5"
    ],
    [
      "0.3",
      "26"
    ],
    [
      "0.2",
      "72"
    ],
    [
      "33",
      "5,</w>"
    ],
    [
      "0.2",
      "76"
    ],
    [
      "0.2",
      "82"
    ],
    [
      "29",
      "8,</w>"
    ],
    [
      "20",
      "3,</w>"
    ],
    [
      "0.2",
      "79"
    ],
    [
      "0.3",
      "46"
    ],
    [
      "-0.2",
      "78"
    ],
    [
      "24",
      "9,</w>"
    ],
    [
      "94",
      "5,</w>"
    ],
    [
      "-0.2",
      "95"
    ],
    [
      "0.2",
      "7"
    ],
    [
      "20",
      "8,</w>"
    ],
    [
      "-0.2",
      "79"
    ],
    [
      "22",
      "8,</w>"
    ],
    [
      "22",
      "2,</w>"
    ],
    [
      "29",
      "3,</w>"
    ],
    [
      "0.2",
      "86"
    ],
    [
      "-0.2",
      "71"
    ],
    [
      "-0.3",
      "25"
    ],
    [
      "0.2",
      "70"
    ],
    [
      "-0.2",
      "81"
    ],
    [
      "0.2",
      "83"
    ],
    [
      "-0.2",
      "83"
    ],
    [
      "23",
      "8,</w>"
    ],
    [
      "24",
      "1,</w>"
    ],
    [
      "-0.2",
      "85"
    ],
    [
      "22",
      "4,</w>"
    ],
    [
      "29",
      "7,</w>"
    ],
    [
      "0.2",
      "84"
    ],
    [
      "0.2",
      "95"
    ],
    [
      "23",
      "9,</w>"
    ],
    [
      "-0.2",
      "90"
    ],
    [
      "24",
      "2,</w>"
    ],
    [
      "20",
      "5,</w>"
    ],
    [
      "1.",
      "3"
    ],
    [
      "29",
      "9,</w>"
    ],
    [
      "-0.2",
      "96"
    ],
    [
      "26",
      "3,</w>"
    ],
    [
      "-0.3",
      "19"
    ],
    [
      "-0.2",
      "84"
    ],
    [
      "25",
      "7,</w>"
    ],
    [
      "0.3",
      "12"
    ],
    [
      "25",
      "9,</w>"
    ],
    [
      "-0.0",
      "44"
    ],
    [
      "24",
      "5,</w>"
    ],
    [
      "-0.06",
      "5"
    ],
    [
      "-0.3",
      "13"
    ],
    [
      "-0.3",
      "46"
    ],
    [
      "0.2",
      "96"
    ],
    [
      "20",
      "2,</w>"
    ],
    [
      "20",
      "1,</w>"
    ],
    [
      "22",
      "9,</w>"
    ],
    [
      "20",
      "7,</w>"
    ],
    [
      "-0.2",
      "44"
    ],
    [
      "0.2",
      "89"
    ],
    [
      "1.",
      "00"
    ],
    [
      "-0.3",
      "66"
    ],
    [
      "-0.3",
      "16"
    ],
    [
      "-0.3",
      "10"
    ],
    [
      "33",
      "6,</w>"
    ],
    [
      "1",
      "74,</w>"
    ],
    [
      "0.16",
      "5"
    ],
    [
      "-0.16",
      "5"
    ],
    [
      "1",
      "85,</w>"
    ],
    [
      "-0.2",
      "89"
    ],
    [
      "1",
      "73,</w>"
    ],
    [
      "0.3",
      "45"
    ],
    [
      "26",
      "2,</w>"
    ],
    [
      "20",
      "4,</w>"
    ],
    [
      "26",
      "7,</w>"
    ],
    [
      "0.3",
      "55"
    ],
    [
      "0.0",
      "44"
    ],
    [
      "-0.3",
      "30"
    ],
    [
      "0.3",
      "14"
    ],
    [
      "0.",
      "94"
    ],
    [
      "0.3",
      "15"
    ],
    [
      "25",
      "5,</w>"
    ],
    [
      "26",
      "9,</w>"
    ],
    [
      "22",
      "6,</w>"
    ],
    [
      "22",
      "7,</w>"
    ],
    [
      "0.2",
      "04"
    ],
    [
      "26",
      "1,</w>"
    ],
    [
      "1",
      "82,</w>"
    ],
    [
      "2",
      "72,</w>"
    ],
    [
      "26",
      "5,</w>"
    ],
    [
      "2",
      "71,</w>"
    ],
    [
      "1",
      "86,</w>"
    ],
    [
      "25",
      "6,</w>"
    ],
    [
      "0.2",
      "44"
    ],
    [
      "1",
      "88,</w>"
    ],
    [
      "-0.2",
      "04"
    ],
    [
      "1",
      "75,</w>"
    ],
    [
      "25",
      "3,</w>"
    ],
    [
      "25",
      "2,</w>"
    ],
    [
      "20",
      "9,</w>"
    ],
    [
      "26",
      "8,</w>"
    ],
    [
      "-0.3",
      "55"
    ],
    [
      "1",
      "79,</w>"
    ],
    [
      "26",
      "4,</w>"
    ],
    [
      "0.3",
      "13"
    ],
    [
      "-0.3",
      "12"
    ],
    [
      "0.",
      "95"
    ],
    [
      "2",
      "75,</w>"
    ],
    [
      "2",
      "78,</w>"
    ],
    [
      "25",
      "1,</w>"
    ],
    [
      "0.3",
      "19"
    ],
    [
      "0.3",
      "22"
    ],
    [
      "0.3",
      "10"
    ],
    [
      "1",
      "78,</w>"
    ],
    [
      "2",
      "79,</w>"
    ],
    [
      "1",
      "72,</w>"
    ],
    [
      "-0.3",
      "15"
    ],
    [
      "0.3",
      "34"
    ],
    [
      "24",
      "4,</w>"
    ],
    [
      "2",
      "88,</w>"
    ],
    [
      "1",
      "71,</w>"
    ],
    [
      "24",
      "3,</w>"
    ],
    [
      "22",
      "3,</w>"
    ],
    [
      "1",
      "83,</w>"
    ],
    [
      "0.3",
      "16"
    ],
    [
      "20",
      "6,</w>"
    ],
    [
      "0.3",
      "35"
    ],
    [
      "2",
      "73,</w>"
    ],
    [
      "2",
      "77,</w>"
    ],
    [
      "-0.3",
      "34"
    ],
    [
      "0.3",
      "30"
    ],
    [
      "24",
      "6,</w>"
    ],
    [
      "-0.4",
      "06"
    ],
    [
      "2",
      "82,</w>"
    ],
    [
      "0.3",
      "66"
    ],
    [
      "1",
      "84,</w>"
    ],
    [
      "1",
      "76,</w>"
    ],
    [
      "2",
      "84,</w>"
    ],
    [
      "-0.3",
      "35"
    ],
    [
      "26",
      "6,</w>"
    ],
    [
      "1",
      "87,</w>"
    ],
    [
      "2",
      "86,</w>"
    ],
    [
      "-0.4",
      "00"
    ],
    [
      "1",
      "77,</w>"
    ],
    [
      "24",
      "8,</w>"
    ],
    [
      "24",
      "7,</w>"
    ],
    [
      "-0.1",
      "40"
    ],
    [
      "0.4",
      "05"
    ],
    [
      "22",
      "1,</w>"
    ],
    [
      "-0.3",
      "14"
    ],
    [
      "-0.3",
      "36"
    ],
    [
      "0.3",
      "36"
    ],
    [
      "0.3",
      "20"
    ],
    [
      "1",
      "89,</w>"
    ],
    [
      "25",
      "8,</w>"
    ],
    [
      "-0.3",
      "73"
    ],
    [
      "2",
      "87,</w>"
    ],
    [
      "0.3",
      "56"
    ],
    [
      "0.3",
      "79"
    ],
    [
      "-0.3",
      "81"
    ],
    [
      "2",
      "89,</w>"
    ],
    [
      "2",
      "74,</w>"
    ],
    [
      "2",
      "81,</w>"
    ],
    [
      "1",
      "81,</w>"
    ],
    [
      "0.",
      "96"
    ],
    [
      "0.3",
      "74"
    ],
    [
      "2",
      "85,</w>"
    ],
    [
      "0.4",
      "06"
    ],
    [
      "2",
      "83,</w>"
    ],
    [
      "0.4",
      "00"
    ],
    [
      "2",
      "76,</w>"
    ],
    [
      "-0.3",
      "86"
    ],
    [
      "-0.3",
      "71"
    ],
    [
      "0.1",
      "40"
    ],
    [
      "-0.3",
      "78"
    ],
    [
      "-0.3",
      "7"
    ],
    [
      "-0.3",
      "80"
    ],
    [
      "-0.3",
      "74"
    ],
    [
      "0.3",
      "96"
    ],
    [
      "0.3",
      "81"
    ],
    [
      "0.3",
      "86"
    ],
    [
      "-0.3",
      "75"
    ],
    [
      "-0.3",
      "56"
    ],
    [
      "0.3",
      "71"
    ],
    [
      "0.26",
      "5"
    ],
    [
      "-0.3",
      "85"
    ],
    [
      "0.3",
      "70"
    ],
    [
      "0.3",
      "75"
    ],
    [
      "-0.3",
      "76"
    ],
    [
      "0.3",
      "73"
    ],
    [
      "-0.3",
      "79"
    ],
    [
      "-0.3",
      "82"
    ],
    [
      "-0.3",
      "72"
    ],
    [
      "-0.26",
      "5"
    ],
    [
      "0.3",
      "82"
    ],
    [
      "0.3",
      "83"
    ],
    [
      "-0.3",
      "90"
    ],
    [
      "-0.4",
      "05"
    ],
    [
      "-0.",
      "94"
    ],
    [
      "-1.",
      "00"
    ],
    [
      "0.3",
      "72"
    ],
    [
      "-0.3",
      "70"
    ],
    [
      "0.0",
      "40"
    ],
    [
      "0.3",
      "80"
    ],
    [
      "-0.5",
      "8"
    ],
    [
      "0.3",
      "94"
    ],
    [
      "0.3",
      "76"
    ],
    [
      "0.3",
      "7"
    ],
    [
      "-0.4",
      "22"
    ],
    [
      "-0.3",
      "94"
    ],
    [
      "0.1",
      "99"
    ],
    [
      "-0.4",
      "10"
    ],
    [
      "-1.",
      "1"
    ],
    [
      "-0.3",
      "83"
    ],
    [
      "-0.3",
      "89"
    ],
    [
      "0.3",
      "95"
    ],
    [
      "-0.3",
      "84"
    ],
    [
      "0.3",
      "85"
    ],
    [
      "-0.3",
      "44"
    ],
    [
      "0.0",
      "39"
    ],
    [
      "-0.4",
      "14"
    ],
    [
      "-0.4",
      "12"
    ],
    [
      "-0.3",
      "04"
    ],
    [
      "0.3",
      "84"
    ],
    [
      "0.3",
      "90"
    ],
    [
      "-0.1",
      "99"
    ],
    [
      "0.5",
      "8"
    ],
    [
      "93",
      "1,</w>"
    ],
    [
      "0.3",
      "04"
    ],
    [
      "-0.0",
      "40"
    ],
    [
      "0.3",
      "78"
    ],
    [
      "-0.2",
      "40"
    ],
    [
      "93",
      "4,</w>"
    ],
    [
      "93",
      "7,</w>"
    ],
    [
      "0.4",
      "19"
    ],
    [
      "99",
      "3,</w>"
    ],
    [
      "-0.3",
      "95"
    ],
    [
      "-0.4",
      "16"
    ],
    [
      "0.4",
      "25"
    ],
    [
      "0.2",
      "40"
    ],
    [
      "-0.4",
      "45"
    ],
    [
      "93",
      "9,</w>"
    ],
    [
      "0.4",
      "13"
    ],
    [
      "0.4",
      "46"
    ],
    [
      "93",
      "6,</w>"
    ],
    [
      "99",
      "4,</w>"
    ],
    [
      "0.1",
      "39"
    ],
    [
      "-0.1",
      "29"
    ],
    [
      "-0.0",
      "39"
    ],
    [
      "99",
      "1,</w>"
    ],
    [
      "0.3",
      "89"
    ],
    [
      "99",
      "5,</w>"
    ],
    [
      "0.4",
      "16"
    ],
    [
      "-0.4",
      "13"
    ],
    [
      "0.1",
      "29"
    ],
    [
      "-0.3",
      "96"
    ],
    [
      "-0.4",
      "24"
    ],
    [
      "-0.4",
      "46"
    ],
    [
      "0.4",
      "20"
    ],
    [
      "0.4",
      "14"
    ],
    [
      "0.3",
      "44"
    ],
    [
      "0.4",
      "34"
    ],
    [
      "-0.4",
      "55"
    ],
    [
      "1.",
      "05"
    ],
    [
      "0.4",
      "66"
    ],
    [
      "0.4",
      "45"
    ],
    [
      "-0.4",
      "66"
    ],
    [
      "93",
      "2,</w>"
    ],
    [
      "0.4",
      "55"
    ],
    [
      "0.4",
      "22"
    ],
    [
      "-0.1",
      "39"
    ],
    [
      "99",
      "9,</w>"
    ],
    [
      "1.",
      "4"
    ],
    [
      "99",
      "7,</w>"
    ],
    [
      "0.4",
      "12"
    ],
    [
      "93",
      "5,</w>"
    ],
    [
      "93",
      "3,</w>"
    ],
    [
      "-0.4",
      "26"
    ],
    [
      "-0.4",
      "34"
    ],
    [
      "1.",
      "06"
    ],
    [
      "0.4",
      "24"
    ],
    [
      "0.4",
      "10"
    ],
    [
      "-0.4",
      "19"
    ],
    [
      "-0.",
      "95"
    ],
    [
      "99",
      "6,</w>"
    ],
    [
      "-0.4",
      "36"
    ],
    [
      "-0.4",
      "15"
    ],
    [
      "-0.4",
      "25"
    ],
    [
      "-0.0",
      "29"
    ],
    [
      "93",
      "8,</w>"
    ],
    [
      "0.4",
      "30"
    ],
    [
      "99",
      "8,</w>"
    ],
    [
      "-0.4",
      "20"
    ],
    [
      "0.4",
      "15"
    ],
    [
      "0.06",
      "4"
    ],
    [
      "45",
      "6,</w>"
    ],
    [
      "0.5",
      "00"
    ],
    [
      "0.0",
      "29"
    ],
    [
      "-0.",
      "96"
    ],
    [
      "45",
      "1,</w>"
    ],
    [
      "0.4",
      "26"
    ],
    [
      "0.0",
      "99"
    ],
    [
      "99",
      "2,</w>"
    ],
    [
      "0.4",
      "35"
    ],
    [
      "-0.05",
      "4"
    ],
    [
      "45",
      "8,</w>"
    ],
    [
      "0.4",
      "36"
    ],
    [
      "45",
      "3,</w>"
    ],
    [
      "46",
      "3,</w>"
    ],
    [
      "-0.0",
      "99"
    ],
    [
      "-0.4",
      "30"
    ],
    [
      "-0.06",
      "4"
    ],
    [
      "46",
      "8,</w>"
    ],
    [
      "-0.5",
      "00"
    ],
    [
      "46",
      "9,</w>"
    ],
    [
      "45",
      "5,</w>"
    ],
    [
      "0.05",
      "4"
    ],
    [
      "46",
      "7,</w>"
    ],
    [
      "-0.4",
      "56"
    ],
    [
      "-0.0",
      "33"
    ],
    [
      "0.36",
      "5"
    ],
    [
      "45",
      "9,</w>"
    ],
    [
      "46",
      "6,</w>"
    ],
    [
      "-0.4",
      "44"
    ],
    [
      "46",
      "4,</w>"
    ],
    [
      "-0.2",
      "29"
    ],
    [
      "46",
      "1,</w>"
    ],
    [
      "0.1",
      "09"
    ],
    [
      "-0.36",
      "5"
    ],
    [
      "0.4",
      "56"
    ],
    [
      "0.4",
      "78"
    ],
    [
      "0.4",
      "75"
    ],
    [
      "46",
      "2,</w>"
    ],
    [
      "0.05",
      "0"
    ],
    [
      "0.4",
      "81"
    ],
    [
      "45",
      "4,</w>"
    ],
    [
      "-0.4",
      "35"
    ],
    [
      "0.0",
      "33"
    ],
    [
      "-0.4",
      "70"
    ],
    [
      "-0.4",
      "73"
    ],
    [
      "46",
      "5,</w>"
    ],
    [
      "0.2",
      "29"
    ],
    [
      "0.4",
      "74"
    ],
    [
      "0.4",
      "71"
    ],
    [
      "0.4",
      "86"
    ],
    [
      "0.1",
      "03"
    ],
    [
      "0.06",
      "0"
    ],
    [
      "0.4",
      "82"
    ],
    [
      "1.",
      "5"
    ],
    [
      "0.4",
      "79"
    ],
    [
      "-0.4",
      "72"
    ],
    [
      "45",
      "2,</w>"
    ],
    [
      "0.0",
      "23"
    ],
    [
      "-0.4",
      "74"
    ],
    [
      "0.3",
      "40"
    ],
    [
      "0.4",
      "70"
    ],
    [
      "-0.0",
      "49"
    ],
    [
      "0.5",
      "06"
    ],
    [
      "-0.4",
      "76"
    ],
    [
      "-0.06",
      "0"
    ],
    [
      "0.5",
      "05"
    ],
    [
      "0.2",
      "39"
    ],
    [
      "-0.1",
      "03"
    ],
    [
      "-0.4",
      "75"
    ],
    [
      "-0.4",
      "94"
    ],
    [
      "0.4",
      "72"
    ],
    [
      "0.4",
      "90"
    ],
    [
      "0.4",
      "85"
    ],
    [
      "0.4",
      "84"
    ],
    [
      "-0.5",
      "05"
    ],
    [
      "-0.5",
      "06"
    ],
    [
      "0.4",
      "73"
    ],
    [
      "45",
      "7,</w>"
    ],
    [
      "-0.4",
      "79"
    ],
    [
      "-0.4",
      "81"
    ],
    [
      "-0.4",
      "86"
    ],
    [
      "0.4",
      "80"
    ],
    [
      "0.4",
      "7"
    ],
    [
      "-0.3",
      "40"
    ],
    [
      "04",
      "2,</w>"
    ],
    [
      "-0.1",
      "49"
    ],
    [
      "0.1",
      "33"
    ],
    [
      "0.4",
      "94"
    ],
    [
      "0.1",
      "49"
    ],
    [
      "-0.4",
      "95"
    ],
    [
      "-0.4",
      "71"
    ],
    [
      "-0.4",
      "78"
    ],
    [
      "-0.4",
      "89"
    ],
    [
      "-0.4",
      "80"
    ],
    [
      "0.4",
      "76"
    ],
    [
      "-0.1",
      "43"
    ],
    [
      "-0.0",
      "23"
    ],
    [
      "-0.4",
      "04"
    ],
    [
      "-0.4",
      "85"
    ],
    [
      "-0.4",
      "96"
    ],
    [
      "0.06",
      "9"
    ],
    [
      "-0.05",
      "3"
    ],
    [
      "-0.4",
      "7"
    ],
    [
      "0.0",
      "49"
    ],
    [
      "-0.1",
      "33"
    ],
    [
      "-0.1",
      "09"
    ],
    [
      "0.4",
      "83"
    ],
    [
      "-0.2",
      "39"
    ],
    [
      "-0.4",
      "84"
    ],
    [
      "0.4",
      "44"
    ],
    [
      "0.06",
      "3"
    ],
    [
      "0.4",
      "89"
    ],
    [
      "-0.05",
      "0"
    ],
    [
      "-0.4",
      "90"
    ],
    [
      "0.2",
      "09"
    ],
    [
      "0.1",
      "43"
    ],
    [
      "0.0",
      "43"
    ],
    [
      "0.5",
      "14"
    ],
    [
      "0.5",
      "12"
    ],
    [
      "-0.4",
      "83"
    ],
    [
      "-0.06",
      "3"
    ],
    [
      "44",
      "5,</w>"
    ],
    [
      "-0.2",
      "99"
    ],
    [
      "-1.",
      "2"
    ],
    [
      "00",
      "7,</w>"
    ],
    [
      "0.4",
      "96"
    ],
    [
      "-0.5",
      "20"
    ],
    [
      "-0.0",
      "93"
    ],
    [
      "04",
      "9,</w>"
    ],
    [
      "0.2",
      "99"
    ],
    [
      "0.4",
      "95"
    ],
    [
      "0.5",
      "13"
    ],
    [
      "44",
      "3,</w>"
    ],
    [
      "05",
      "3,</w>"
    ],
    [
      "04",
      "8,</w>"
    ],
    [
      "0.5",
      "10"
    ],
    [
      "44",
      "9,</w>"
    ],
    [
      "-1.",
      "05"
    ],
    [
      "00",
      "9,</w>"
    ],
    [
      "0.2",
      "03"
    ],
    [
      "0.5",
      "55"
    ],
    [
      "-0.06",
      "9"
    ],
    [
      "0.05",
      "9"
    ],
    [
      "-0.5",
      "26"
    ],
    [
      "-0.5",
      "15"
    ],
    [
      "0.2",
      "43"
    ],
    [
      "-0.2",
      "43"
    ],
    [
      "44",
      "6,</w>"
    ],
    [
      "1.",
      "04"
    ],
    [
      "-0.5",
      "10"
    ],
    [
      "-0.5",
      "19"
    ],
    [
      "-0.2",
      "33"
    ],
    [
      "44",
      "1,</w>"
    ],
    [
      "0.5",
      "16"
    ],
    [
      "-1.",
      "06"
    ],
    [
      "-0.4",
      "82"
    ],
    [
      "00",
      "2,</w>"
    ],
    [
      "0.5",
      "22"
    ],
    [
      "-0.0",
      "43"
    ],
    [
      "0.6",
      "8"
    ],
    [
      "-0.2",
      "03"
    ],
    [
      "05",
      "2,</w>"
    ],
    [
      "-0.2",
      "09"
    ],
    [
      "44",
      "7,</w>"
    ],
    [
      "04",
      "4,</w>"
    ],
    [
      "-0.3",
      "39"
    ],
    [
      "-0.05",
      "9"
    ],
    [
      "0.5",
      "30"
    ],
    [
      "0.5",
      "15"
    ],
    [
      "05",
      "8,</w>"
    ],
    [
      "0.3",
      "39"
    ],
    [
      "-0.5",
      "12"
    ],
    [
      "44",
      "2,</w>"
    ],
    [
      "05",
      "4,</w>"
    ],
    [
      "00",
      "3,</w>"
    ],
    [
      "0.5",
      "20"
    ],
    [
      "0.5",
      "46"
    ],
    [
      "04",
      "1,</w>"
    ],
    [
      "-0.5",
      "13"
    ],
    [
      "05",
      "9,</w>"
    ],
    [
      "04",
      "3,</w>"
    ],
    [
      "0.5",
      "26"
    ],
    [
      "44",
      "8,</w>"
    ],
    [
      "-0.5",
      "36"
    ],
    [
      "1.",
      "10"
    ],
    [
      "0.5",
      "19"
    ],
    [
      "04",
      "7,</w>"
    ],
    [
      "-0.5",
      "25"
    ],
    [
      "00",
      "4,</w>"
    ],
    [
      "0.5",
      "25"
    ],
    [
      "06",
      "4,</w>"
    ],
    [
      "00",
      "8,</w>"
    ],
    [
      "44",
      "4,</w>"
    ],
    [
      "06",
      "9,</w>"
    ],
    [
      "0.0",
      "93"
    ],
    [
      "0.5",
      "66"
    ],
    [
      "-0.5",
      "35"
    ],
    [
      "0.5",
      "36"
    ],
    [
      "0.3",
      "29"
    ],
    [
      "-0.5",
      "16"
    ],
    [
      "-0.5",
      "30"
    ],
    [
      "0.05",
      "3"
    ],
    [
      "00",
      "5,</w>"
    ],
    [
      "0.5",
      "24"
    ],
    [
      "-0.3",
      "29"
    ],
    [
      "05",
      "5,</w>"
    ],
    [
      "0.2",
      "33"
    ],
    [
      "-0.5",
      "55"
    ],
    [
      "0.2",
      "49"
    ],
    [
      "-0.46",
      "5"
    ],
    [
      "0.4",
      "40"
    ],
    [
      "04",
      "6,</w>"
    ],
    [
      "0.5",
      "35"
    ],
    [
      "06",
      "6,</w>"
    ],
    [
      "-0.5",
      "22"
    ],
    [
      "-0.5",
      "14"
    ],
    [
      "-0.1",
      "23"
    ],
    [
      "05",
      "6,</w>"
    ],
    [
      "0.5",
      "34"
    ],
    [
      "-0.5",
      "24"
    ],
    [
      "05",
      "7,</w>"
    ],
    [
      "0.46",
      "5"
    ],
    [
      "00",
      "6,</w>"
    ],
    [
      "03",
      "2,</w>"
    ],
    [
      "0.5",
      "45"
    ],
    [
      "06",
      "7,</w>"
    ],
    [
      "0.4",
      "04"
    ],
    [
      "06",
      "1,</w>"
    ],
    [
      "06",
      "2,</w>"
    ],
    [
      "-0.15",
      "0"
    ],
    [
      "0.15",
      "4"
    ],
    [
      "-0.5",
      "34"
    ],
    [
      "1.",
      "12"
    ],
    [
      "-0.2",
      "49"
    ],
    [
      "06",
      "5,</w>"
    ],
    [
      "2",
      "."
    ],
    [
      "-0.5",
      "66"
    ],
    [
      "03",
      "7,</w>"
    ],
    [
      "-0.6",
      "8"
    ],
    [
      "09",
      "6,</w>"
    ],
    [
      "06",
      "8,</w>"
    ],
    [
      "03",
      "3,</w>"
    ],
    [
      "0.",
      "93"
    ],
    [
      "04",
      "5,</w>"
    ],
    [
      "-0.5",
      "71"
    ],
    [
      "0.5",
      "82"
    ],
    [
      "06",
      "3,</w>"
    ],
    [
      "0.5",
      "56"
    ],
    [
      "05",
      "1,</w>"
    ],
    [
      "09",
      "3,</w>"
    ],
    [
      "0.16",
      "3"
    ],
    [
      "-0.16",
      "9"
    ],
    [
      "-0.5",
      "73"
    ],
    [
      "-0.1",
      "93"
    ],
    [
      "0.15",
      "9"
    ],
    [
      "09",
      "8,</w>"
    ],
    [
      "09",
      "7,</w>"
    ],
    [
      "-0.5",
      "56"
    ],
    [
      "03",
      "6,</w>"
    ],
    [
      "00",
      "1,</w>"
    ],
    [
      "0.16",
      "4"
    ],
    [
      "-0.5",
      "46"
    ],
    [
      "1.",
      "14"
    ],
    [
      "09",
      "5,</w>"
    ],
    [
      "0.15",
      "0"
    ],
    [
      "0.5",
      "7"
    ],
    [
      "-0.15",
      "9"
    ],
    [
      "49",
      "9,</w>"
    ],
    [
      "-0.3",
      "99"
    ],
    [
      "-0.16",
      "0"
    ],
    [
      "0.16",
      "9"
    ],
    [
      "-0.15",
      "4"
    ],
    [
      "-0.5",
      "45"
    ],
    [
      "09",
      "9,</w>"
    ],
    [
      "43",
      "2,</w>"
    ],
    [
      "0.5",
      "85"
    ],
    [
      "03",
      "8,</w>"
    ],
    [
      "49",
      "1,</w>"
    ],
    [
      "-0.4",
      "40"
    ],
    [
      "-0.15",
      "3"
    ],
    [
      "0.3",
      "99"
    ],
    [
      "09",
      "1,</w>"
    ],
    [
      "03",
      "9,</w>"
    ],
    [
      "-0.5",
      "72"
    ],
    [
      "0.1",
      "93"
    ],
    [
      "0.1",
      "23"
    ],
    [
      "1.",
      "13"
    ],
    [
      "0.5",
      "75"
    ],
    [
      "-0.5",
      "75"
    ],
    [
      "0.3",
      "33"
    ],
    [
      "-0.5",
      "80"
    ],
    [
      "43",
      "7,</w>"
    ],
    [
      "0.5",
      "74"
    ],
    [
      "-0.5",
      "82"
    ],
    [
      "1.",
      "6"
    ],
    [
      "03",
      "5,</w>"
    ],
    [
      "43",
      "8,</w>"
    ],
    [
      "0.15",
      "3"
    ],
    [
      "49",
      "3,</w>"
    ],
    [
      "43",
      "6,</w>"
    ],
    [
      "09",
      "2,</w>"
    ],
    [
      "0.5",
      "72"
    ],
    [
      "43",
      "1,</w>"
    ],
    [
      "-0.5",
      "70"
    ],
    [
      "0.5",
      "90"
    ],
    [
      "0.5",
      "71"
    ],
    [
      "-0.04",
      "2"
    ],
    [
      "43",
      "3,</w>"
    ],
    [
      "49",
      "5,</w>"
    ],
    [
      "0.5",
      "73"
    ],
    [
      "0.5",
      "80"
    ],
    [
      "-0.16",
      "3"
    ],
    [
      "49",
      "6,</w>"
    ],
    [
      "-0.3",
      "33"
    ],
    [
      "43",
      "9,</w>"
    ],
    [
      "-0.5",
      "78"
    ],
    [
      "0.16",
      "0"
    ],
    [
      "-0.5",
      "76"
    ],
    [
      "-0.5",
      "74"
    ],
    [
      "-0.06",
      "2"
    ],
    [
      "0.5",
      "78"
    ],
    [
      "0.5",
      "94"
    ],
    [
      "0.5",
      "76"
    ],
    [
      "0.5",
      "70"
    ],
    [
      "0.5",
      "81"
    ],
    [
      "-0.5",
      "83"
    ],
    [
      "-0.16",
      "4"
    ],
    [
      "40",
      "9,</w>"
    ],
    [
      "-0.",
      "93"
    ],
    [
      "1.",
      "15"
    ],
    [
      "0.4",
      "39"
    ],
    [
      "09",
      "4,</w>"
    ],
    [
      "0.25",
      "4"
    ],
    [
      "43",
      "4,</w>"
    ],
    [
      "40",
      "1,</w>"
    ],
    [
      "0.5",
      "86"
    ],
    [
      "0.6",
      "10"
    ],
    [
      "0.26",
      "9"
    ],
    [
      "-0.5",
      "85"
    ],
    [
      "0.5",
      "84"
    ],
    [
      "-0.26",
      "4"
    ],
    [
      "49",
      "4,</w>"
    ],
    [
      "0.04",
      "2"
    ],
    [
      "49",
      "2,</w>"
    ],
    [
      "-0.2",
      "23"
    ],
    [
      "0.25",
      "3"
    ],
    [
      "-0.4",
      "29"
    ],
    [
      "-0.25",
      "4"
    ],
    [
      "-0.5",
      "96"
    ],
    [
      "-0.5",
      "84"
    ],
    [
      "-0.6",
      "05"
    ],
    [
      "0.6",
      "05"
    ],
    [
      "-0.5",
      "81"
    ],
    [
      "40",
      "8,</w>"
    ],
    [
      "0.26",
      "3"
    ],
    [
      "0.6",
      "13"
    ],
    [
      "-0.09",
      "2"
    ],
    [
      "-1.",
      "10"
    ],
    [
      "0.5",
      "83"
    ],
    [
      "-0.5",
      "04"
    ],
    [
      "49",
      "8,</w>"
    ],
    [
      "0.5",
      "79"
    ],
    [
      "0.25",
      "9"
    ],
    [
      "40",
      "6,</w>"
    ],
    [
      "03",
      "4,</w>"
    ],
    [
      "-0.5",
      "95"
    ],
    [
      "0.5",
      "95"
    ],
    [
      "03",
      "1,</w>"
    ],
    [
      "-0.25",
      "9"
    ],
    [
      "49",
      "7,</w>"
    ],
    [
      "-0.5",
      "79"
    ],
    [
      "43",
      "5,</w>"
    ],
    [
      "-0.5",
      "86"
    ],
    [
      "-0.25",
      "0"
    ],
    [
      "-0.5",
      "7"
    ],
    [
      "0.6",
      "15"
    ],
    [
      "-0.6",
      "12"
    ],
    [
      "0.4",
      "29"
    ],
    [
      "-0.6",
      "00"
    ],
    [
      "0.05",
      "2"
    ],
    [
      "0.6",
      "30"
    ],
    [
      "0.6",
      "20"
    ],
    [
      "-0.26",
      "9"
    ],
    [
      "-0.4",
      "39"
    ],
    [
      "-0.2",
      "93"
    ],
    [
      "0.25",
      "0"
    ],
    [
      "40",
      "4,</w>"
    ],
    [
      "0.6",
      "12"
    ],
    [
      "-1.",
      "04"
    ],
    [
      "0.5",
      "89"
    ],
    [
      "-0.6",
      "10"
    ],
    [
      "0.2",
      "23"
    ],
    [
      "-0.25",
      "3"
    ],
    [
      "0.6",
      "00"
    ],
    [
      "40",
      "2,</w>"
    ],
    [
      "0.5",
      "96"
    ],
    [
      "-0.6",
      "15"
    ],
    [
      "0.06",
      "2"
    ],
    [
      "1.",
      "16"
    ],
    [
      "-0.05",
      "2"
    ],
    [
      "-0.6",
      "35"
    ],
    [
      "-0.6",
      "14"
    ],
    [
      "0.5",
      "04"
    ],
    [
      "40",
      "7,</w>"
    ],
    [
      "-0.6",
      "13"
    ],
    [
      "-0.6",
      "20"
    ],
    [
      "0.6",
      "06"
    ],
    [
      "0.6",
      "22"
    ],
    [
      "-0.5",
      "90"
    ],
    [
      "-0.26",
      "3"
    ],
    [
      "0.6",
      "55"
    ],
    [
      "0.03",
      "2"
    ],
    [
      "40",
      "5,</w>"
    ],
    [
      "-0.6",
      "22"
    ],
    [
      "-1.",
      "3"
    ],
    [
      "0.6",
      "35"
    ],
    [
      "-0.6",
      "25"
    ],
    [
      "0.3",
      "03"
    ],
    [
      "0.26",
      "0"
    ],
    [
      "0.6",
      "34"
    ],
    [
      "-0.5",
      "89"
    ],
    [
      "-0.6",
      "30"
    ],
    [
      "-0.0",
      "11"
    ],
    [
      "0.26",
      "4"
    ],
    [
      "40",
      "3,</w>"
    ],
    [
      "0.",
      "99"
    ],
    [
      "0.6",
      "19"
    ],
    [
      "-0.3",
      "09"
    ],
    [
      "0.6",
      "16"
    ],
    [
      "-1.",
      "12"
    ],
    [
      "0.5",
      "44"
    ],
    [
      "-0.5",
      "94"
    ],
    [
      "-0.6",
      "26"
    ],
    [
      "-0.03",
      "2"
    ],
    [
      "-0.6",
      "19"
    ],
    [
      "-0.26",
      "0"
    ],
    [
      "0.3",
      "23"
    ],
    [
      "-0.6",
      "06"
    ],
    [
      "0.6",
      "25"
    ],
    [
      "0.6",
      "24"
    ],
    [
      "0.6",
      "45"
    ],
    [
      "-0.5",
      "44"
    ],
    [
      "0.6",
      "36"
    ],
    [
      "-0.6",
      "55"
    ],
    [
      "]",
      ",</w>"
    ],
    [
      "0.6",
      "26"
    ],
    [
      "-0.6",
      "34"
    ],
    [
      "-0.3",
      "03"
    ],
    [
      "-0.6",
      "24"
    ],
    [
      "0.6",
      "56"
    ],
    [
      "0.4",
      "99"
    ],
    [
      "0.09",
      "2"
    ],
    [
      "0.3",
      "43"
    ],
    [
      "0.6",
      "46"
    ],
    [
      "-0.6",
      "56"
    ],
    [
      "-0.56",
      "5"
    ],
    [
      "0.6",
      "70"
    ],
    [
      "0.6",
      "14"
    ],
    [
      "1.",
      "19"
    ],
    [
      "-0.6",
      "66"
    ],
    [
      "-0.3",
      "23"
    ],
    [
      "0.6",
      "75"
    ],
    [
      "-0.4",
      "99"
    ],
    [
      "0.2",
      "93"
    ],
    [
      "0.35",
      "4"
    ],
    [
      "-0.1",
      "11"
    ],
    [
      "-0.35",
      "0"
    ],
    [
      "0.56",
      "5"
    ],
    [
      "1.",
      "22"
    ],
    [
      "-0.36",
      "3"
    ],
    [
      "0.4",
      "33"
    ],
    [
      "-0.6",
      "45"
    ],
    [
      "-0.6",
      "16"
    ],
    [
      "0.6",
      "71"
    ],
    [
      "0.3",
      "09"
    ],
    [
      "1.",
      "20"
    ],
    [
      "0.0",
      "11"
    ],
    [
      "0.36",
      "9"
    ],
    [
      "0.36",
      "3"
    ],
    [
      "0.36",
      "0"
    ],
    [
      "0.2",
      "11"
    ],
    [
      "0.1",
      "11"
    ],
    [
      "0.3",
      "49"
    ],
    [
      "-0.6",
      "36"
    ],
    [
      "0.6",
      "66"
    ],
    [
      "0.35",
      "9"
    ],
    [
      "-0.36",
      "0"
    ],
    [
      "0.6",
      "72"
    ],
    [
      "-0.2",
      "11"
    ],
    [
      "-0.9",
      "2"
    ],
    [
      "0.35",
      "3"
    ],
    [
      "0.6",
      "73"
    ],
    [
      "-0.3",
      "43"
    ],
    [
      "0.35",
      "0"
    ],
    [
      "-0.4",
      "33"
    ],
    [
      "-0.35",
      "3"
    ],
    [
      "0.6",
      "79"
    ],
    [
      "-0.6",
      "70"
    ],
    [
      "66",
      "4,</w>"
    ],
    [
      "0.9",
      "2"
    ],
    [
      "-1.",
      "13"
    ],
    [
      "-1.",
      "14"
    ],
    [
      "-0.35",
      "4"
    ],
    [
      "-0.6",
      "71"
    ],
    [
      "0.6",
      "86"
    ],
    [
      "0.6",
      "89"
    ],
    [
      "-0.3",
      "93"
    ],
    [
      "0.36",
      "4"
    ],
    [
      "0.6",
      "80"
    ],
    [
      "0.6",
      "78"
    ],
    [
      "0.6",
      "7"
    ],
    [
      "55",
      "9,</w>"
    ],
    [
      "-0.6",
      "46"
    ],
    [
      "-0.36",
      "9"
    ],
    [
      "-0.35",
      "9"
    ],
    [
      "-0.3",
      "49"
    ],
    [
      "56",
      "8,</w>"
    ],
    [
      "55",
      "3,</w>"
    ],
    [
      "-0.",
      "99"
    ],
    [
      "55",
      "6,</w>"
    ],
    [
      "-0.6",
      "78"
    ],
    [
      "-0.5",
      "40"
    ],
    [
      "-0.36",
      "4"
    ],
    [
      "3",
      "73,</w>"
    ],
    [
      "-0.0",
      "21"
    ],
    [
      "66",
      "5,</w>"
    ],
    [
      "-0.6",
      "74"
    ],
    [
      "0.6",
      "85"
    ],
    [
      "0.6",
      "74"
    ],
    [
      "-0.6",
      "75"
    ],
    [
      "56",
      "9,</w>"
    ],
    [
      "55",
      "5,</w>"
    ],
    [
      "1.",
      "24"
    ],
    [
      "-0.6",
      "80"
    ],
    [
      "-0.6",
      "84"
    ],
    [
      "-0.6",
      "90"
    ],
    [
      "0.6",
      "83"
    ],
    [
      "0.3",
      "93"
    ],
    [
      "0.6",
      "76"
    ],
    [
      "3",
      "77,</w>"
    ],
    [
      "-0.6",
      "7"
    ],
    [
      "56",
      "3,</w>"
    ],
    [
      "0.0",
      "21"
    ],
    [
      "-0.05",
      "1"
    ],
    [
      "0.03",
      "1"
    ],
    [
      "-0.6",
      "86"
    ],
    [
      "9",
      "24,</w>"
    ],
    [
      "-0.5",
      "39"
    ],
    [
      "-0.6",
      "95"
    ],
    [
      "0.6",
      "90"
    ],
    [
      "3",
      "79,</w>"
    ],
    [
      "-0.6",
      "79"
    ],
    [
      "0.6",
      "95"
    ],
    [
      "-0.6",
      "72"
    ],
    [
      "-0.4",
      "43"
    ],
    [
      "-0.04",
      "1"
    ],
    [
      "0.6",
      "84"
    ],
    [
      "66",
      "6,</w>"
    ],
    [
      "0.4",
      "23"
    ],
    [
      "-0.4",
      "03"
    ],
    [
      "0.6",
      "94"
    ],
    [
      "-0.6",
      "73"
    ],
    [
      "66",
      "1,</w>"
    ],
    [
      "-0.03",
      "1"
    ],
    [
      "0.6",
      "44"
    ],
    [
      "0.05",
      "1"
    ],
    [
      "-0.5",
      "29"
    ],
    [
      "0.09",
      "1"
    ],
    [
      "-0.4",
      "23"
    ],
    [
      "0.6",
      "04"
    ],
    [
      "3",
      "89,</w>"
    ],
    [
      "-0.6",
      "85"
    ],
    [
      "4",
      "82,</w>"
    ],
    [
      "-0.4",
      "09"
    ],
    [
      "56",
      "2,</w>"
    ],
    [
      "-0.6",
      "76"
    ],
    [
      "1.",
      "03"
    ],
    [
      "9",
      "82,</w>"
    ],
    [
      "0.6",
      "81"
    ],
    [
      "-0.6",
      "81"
    ],
    [
      "0.5",
      "39"
    ],
    [
      "3",
      "24,</w>"
    ],
    [
      "0.4",
      "09"
    ],
    [
      "55",
      "7,</w>"
    ],
    [
      "66",
      "2,</w>"
    ],
    [
      "-1.",
      "15"
    ],
    [
      "3",
      "72,</w>"
    ],
    [
      "56",
      "1,</w>"
    ],
    [
      "0.6",
      "82"
    ],
    [
      "9",
      "29,</w>"
    ],
    [
      "0.0",
      "05"
    ],
    [
      "-0.4",
      "49"
    ],
    [
      "3",
      "27,</w>"
    ],
    [
      "66",
      "3,</w>"
    ],
    [
      "3",
      "83,</w>"
    ],
    [
      "-0.6",
      "83"
    ],
    [
      "0.4",
      "03"
    ],
    [
      "3",
      "81,</w>"
    ],
    [
      "9",
      "89,</w>"
    ],
    [
      "9",
      "16,</w>"
    ],
    [
      "0",
      "17,</w>"
    ],
    [
      "9",
      "71,</w>"
    ],
    [
      "0.5",
      "29"
    ],
    [
      "0.9",
      "1"
    ],
    [
      "0",
      "18,</w>"
    ],
    [
      "0.5",
      "40"
    ],
    [
      "0",
      "89,</w>"
    ],
    [
      "-0.6",
      "04"
    ],
    [
      "0",
      "16,</w>"
    ],
    [
      "0",
      "82,</w>"
    ],
    [
      "3",
      "23,</w>"
    ],
    [
      "-0.6",
      "89"
    ],
    [
      "-0.6",
      "82"
    ],
    [
      "-0.6",
      "96"
    ],
    [
      "4",
      "25,</w>"
    ],
    [
      "9",
      "72,</w>"
    ],
    [
      "0.04",
      "1"
    ],
    [
      "3",
      "87,</w>"
    ],
    [
      "56",
      "7,</w>"
    ],
    [
      "3",
      "17,</w>"
    ],
    [
      "3",
      "13,</w>"
    ],
    [
      "-0.3",
      "11"
    ],
    [
      "0.06",
      "1"
    ],
    [
      "4",
      "89,</w>"
    ],
    [
      "0.4",
      "43"
    ],
    [
      "56",
      "4,</w>"
    ],
    [
      "-1.",
      "16"
    ],
    [
      "55",
      "8,</w>"
    ],
    [
      "66",
      "7,</w>"
    ],
    [
      "0",
      "77,</w>"
    ],
    [
      "9",
      "12,</w>"
    ],
    [
      "0",
      "87,</w>"
    ],
    [
      "3",
      "22,</w>"
    ],
    [
      "0.",
      "88"
    ],
    [
      "9",
      "86,</w>"
    ],
    [
      "66",
      "9,</w>"
    ],
    [
      "3",
      "74,</w>"
    ],
    [
      "9",
      "78,</w>"
    ],
    [
      "9",
      "14,</w>"
    ],
    [
      "-0.09",
      "1"
    ],
    [
      "55",
      "1,</w>"
    ],
    [
      "0",
      "88,</w>"
    ],
    [
      "4",
      "73,</w>"
    ],
    [
      "1.",
      "25"
    ],
    [
      "9",
      "21,</w>"
    ],
    [
      "-0.06",
      "1"
    ],
    [
      "55",
      "4,</w>"
    ],
    [
      "9",
      "73,</w>"
    ],
    [
      "3",
      "28,</w>"
    ],
    [
      "4",
      "19,</w>"
    ],
    [
      "3",
      "29,</w>"
    ],
    [
      "3",
      "82,</w>"
    ],
    [
      "0.6",
      "96"
    ],
    [
      "55",
      "2,</w>"
    ],
    [
      "9",
      "83,</w>"
    ],
    [
      "3",
      "21,</w>"
    ],
    [
      "0.5",
      "33"
    ],
    [
      "0.4",
      "49"
    ],
    [
      "3",
      "18,</w>"
    ],
    [
      "0.3",
      "11"
    ],
    [
      "9",
      "74,</w>"
    ],
    [
      "3",
      "84,</w>"
    ],
    [
      "4",
      "83,</w>"
    ],
    [
      "9",
      "27,</w>"
    ],
    [
      "9",
      "87,</w>"
    ],
    [
      "3",
      "14,</w>"
    ],
    [
      "-0.6",
      "94"
    ],
    [
      "9",
      "26,</w>"
    ],
    [
      "0.70",
      "6"
    ],
    [
      "9",
      "17,</w>"
    ],
    [
      "4",
      "74,</w>"
    ],
    [
      "-0.6",
      "44"
    ],
    [
      "4",
      "12,</w>"
    ],
    [
      "-0.0",
      "05"
    ],
    [
      "0",
      "15,</w>"
    ],
    [
      "0",
      "86,</w>"
    ],
    [
      "4",
      "75,</w>"
    ],
    [
      "9",
      "22,</w>"
    ],
    [
      "3",
      "11,</w>"
    ],
    [
      "0.71",
      "6"
    ],
    [
      "9",
      "18,</w>"
    ],
    [
      "9",
      "85,</w>"
    ],
    [
      "0",
      "26,</w>"
    ],
    [
      "0",
      "72,</w>"
    ],
    [
      "9",
      "75,</w>"
    ],
    [
      "4",
      "77,</w>"
    ],
    [
      "0",
      "24,</w>"
    ],
    [
      "9",
      "88,</w>"
    ],
    [
      "4",
      "23,</w>"
    ],
    [
      "9",
      "11,</w>"
    ],
    [
      "4",
      "78,</w>"
    ],
    [
      "0.66",
      "5"
    ],
    [
      "4",
      "79,</w>"
    ],
    [
      "0",
      "73,</w>"
    ],
    [
      "4",
      "26,</w>"
    ],
    [
      "66",
      "8,</w>"
    ],
    [
      "4",
      "86,</w>"
    ],
    [
      "3",
      "26,</w>"
    ],
    [
      "0",
      "85,</w>"
    ],
    [
      "-0.5",
      "33"
    ],
    [
      "4",
      "88,</w>"
    ],
    [
      "0",
      "76,</w>"
    ],
    [
      "3",
      "85,</w>"
    ],
    [
      "4",
      "28,</w>"
    ],
    [
      "3",
      "76,</w>"
    ],
    [
      "3",
      "71,</w>"
    ],
    [
      "3",
      "86,</w>"
    ],
    [
      "3",
      "12,</w>"
    ],
    [
      "0",
      "84,</w>"
    ],
    [
      "4",
      "18,</w>"
    ],
    [
      "0",
      "75,</w>"
    ],
    [
      "9",
      "28,</w>"
    ],
    [
      "9",
      "19,</w>"
    ],
    [
      "3",
      "78,</w>"
    ],
    [
      "4",
      "71,</w>"
    ],
    [
      "56",
      "5,</w>"
    ],
    [
      "4",
      "29,</w>"
    ],
    [
      "0",
      "78,</w>"
    ],
    [
      "0.1",
      "21"
    ],
    [
      "0",
      "14,</w>"
    ],
    [
      "4",
      "76,</w>"
    ],
    [
      "9",
      "77,</w>"
    ],
    [
      "4",
      "84,</w>"
    ],
    [
      "3",
      "25,</w>"
    ],
    [
      "4",
      "87,</w>"
    ],
    [
      "9",
      "25,</w>"
    ],
    [
      "0",
      "23,</w>"
    ],
    [
      "0",
      "83,</w>"
    ],
    [
      "56",
      "6,</w>"
    ],
    [
      "4",
      "85,</w>"
    ],
    [
      "9",
      "13,</w>"
    ],
    [
      "-0.1",
      "21"
    ],
    [
      "0",
      "81,</w>"
    ],
    [
      "3",
      "19,</w>"
    ],
    [
      "9",
      "15,</w>"
    ],
    [
      "4",
      "21,</w>"
    ],
    [
      "9",
      "23,</w>"
    ],
    [
      "4",
      "22,</w>"
    ],
    [
      "0",
      "12,</w>"
    ],
    [
      "0.1",
      "88"
    ],
    [
      "0",
      "28,</w>"
    ],
    [
      "4",
      "24,</w>"
    ],
    [
      "9",
      "81,</w>"
    ],
    [
      "-1.",
      "03"
    ],
    [
      "3",
      "16,</w>"
    ],
    [
      "4",
      "81,</w>"
    ],
    [
      "0",
      "11,</w>"
    ],
    [
      "9",
      "84,</w>"
    ],
    [
      "0",
      "13,</w>"
    ],
    [
      "3",
      "88,</w>"
    ],
    [
      "4",
      "17,</w>"
    ],
    [
      "0.5",
      "99"
    ],
    [
      "-0.66",
      "5"
    ],
    [
      "0",
      "79,</w>"
    ],
    [
      "4",
      "11,</w>"
    ],
    [
      "4",
      "14,</w>"
    ],
    [
      "9",
      "79,</w>"
    ],
    [
      "3",
      "75,</w>"
    ],
    [
      "-0.1",
      "88"
    ],
    [
      "0",
      "29,</w>"
    ],
    [
      "0",
      "71,</w>"
    ],
    [
      "3",
      "15,</w>"
    ],
    [
      "-0.70",
      "6"
    ],
    [
      "0.0",
      "06"
    ],
    [
      "-1.",
      "19"
    ],
    [
      "4",
      "15,</w>"
    ],
    [
      "-0.71",
      "6"
    ],
    [
      "4",
      "72,</w>"
    ],
    [
      "9",
      "76,</w>"
    ],
    [
      "0.73",
      "6"
    ],
    [
      "0.71",
      "5"
    ],
    [
      "0.72",
      "6"
    ],
    [
      "0",
      "27,</w>"
    ],
    [
      "-0.6",
      "39"
    ],
    [
      "0.0",
      "88"
    ],
    [
      "-0.4",
      "11"
    ],
    [
      "1.",
      "26"
    ],
    [
      "4",
      "16,</w>"
    ],
    [
      "0",
      "74,</w>"
    ],
    [
      "0.5",
      "23"
    ],
    [
      "0.75",
      "6"
    ],
    [
      "0",
      "25,</w>"
    ],
    [
      "0",
      "22,</w>"
    ],
    [
      "0.6",
      "29"
    ],
    [
      "-0.5",
      "99"
    ],
    [
      "0.7",
      "73"
    ],
    [
      "0.7",
      "75"
    ],
    [
      "4",
      "13,</w>"
    ],
    [
      "0",
      "19,</w>"
    ],
    [
      "0.6",
      "40"
    ],
    [
      "0.7",
      "74"
    ],
    [
      "1.",
      "30"
    ],
    [
      "-0.5",
      "03"
    ],
    [
      "1.",
      "09"
    ],
    [
      "0.4",
      "93"
    ],
    [
      "-0.0",
      "88"
    ],
    [
      "0.5",
      "03"
    ],
    [
      "-0.72",
      "6"
    ],
    [
      "-0.4",
      "93"
    ],
    [
      "-0.5",
      "23"
    ],
    [
      "-0.70",
      "5"
    ],
    [
      "-0.0",
      "06"
    ],
    [
      "-0.",
      "88"
    ],
    [
      "-0.7",
      "76"
    ],
    [
      "-0.7",
      "73"
    ],
    [
      "0.70",
      "5"
    ],
    [
      "-0.71",
      "5"
    ],
    [
      "-0.9",
      "1"
    ],
    [
      "0.7",
      "7"
    ],
    [
      "-0.2",
      "21"
    ],
    [
      "5",
      "89,</w>"
    ],
    [
      "0.76",
      "6"
    ],
    [
      "-0.5",
      "09"
    ],
    [
      "0",
      "21,</w>"
    ],
    [
      "0.09",
      "8"
    ],
    [
      "0.7",
      "72"
    ],
    [
      "4",
      "27,</w>"
    ],
    [
      "0.4",
      "11"
    ],
    [
      "0.5",
      "49"
    ],
    [
      "0.74",
      "5"
    ],
    [
      "0.2",
      "21"
    ],
    [
      "0.02",
      "8"
    ],
    [
      "-1.",
      "20"
    ],
    [
      "0.5",
      "43"
    ],
    [
      "0.06",
      "8"
    ],
    [
      "-0.5",
      "49"
    ],
    [
      "-0.0",
      "04"
    ],
    [
      "-0.73",
      "6"
    ],
    [
      "0.6",
      "39"
    ],
    [
      "-0.7",
      "71"
    ],
    [
      "-0.6",
      "29"
    ],
    [
      "5",
      "03,</w>"
    ],
    [
      "-0.6",
      "40"
    ],
    [
      "0.74",
      "6"
    ],
    [
      "0.5",
      "09"
    ],
    [
      "-0.04",
      "8"
    ],
    [
      "0.05",
      "8"
    ],
    [
      "0.7",
      "79"
    ],
    [
      "0.72",
      "5"
    ],
    [
      "-0.7",
      "70"
    ],
    [
      "-0.7",
      "7"
    ],
    [
      "1.",
      "34"
    ],
    [
      "-0.7",
      "78"
    ],
    [
      "-0.01",
      "8"
    ],
    [
      "0.7",
      "78"
    ],
    [
      "0.7",
      "76"
    ],
    [
      "-0.5",
      "43"
    ],
    [
      "0.7",
      "70"
    ],
    [
      "5",
      "35,</w>"
    ],
    [
      "-0.7",
      "72"
    ],
    [
      "6",
      "33,</w>"
    ],
    [
      "5",
      "87,</w>"
    ],
    [
      "1.",
      "35"
    ],
    [
      "0.7",
      "71"
    ],
    [
      "1.",
      "36"
    ],
    [
      "-1.",
      "22"
    ],
    [
      "-0.7",
      "75"
    ],
    [
      "-0.02",
      "8"
    ],
    [
      "-0.5",
      "11"
    ],
    [
      "-0.75",
      "6"
    ],
    [
      "-0.74",
      "6"
    ],
    [
      "-0.74",
      "5"
    ],
    [
      "-0.09",
      "8"
    ],
    [
      "-0.6",
      "33"
    ],
    [
      "-0.72",
      "5"
    ],
    [
      "0.2",
      "88"
    ],
    [
      "-0.7",
      "79"
    ],
    [
      "0.04",
      "8"
    ],
    [
      "0.78",
      "5"
    ],
    [
      "-0.2",
      "88"
    ],
    [
      "0.73",
      "5"
    ],
    [
      "-0.78",
      "6"
    ],
    [
      "0.79",
      "6"
    ],
    [
      "-0.05",
      "8"
    ],
    [
      "-0.06",
      "8"
    ],
    [
      "0.6",
      "99"
    ],
    [
      "0.76",
      "5"
    ],
    [
      "0.01",
      "8"
    ],
    [
      "-0.76",
      "6"
    ],
    [
      "0.78",
      "6"
    ],
    [
      "0.03",
      "8"
    ],
    [
      "-0.7",
      "74"
    ],
    [
      "1.",
      "11"
    ],
    [
      "-1.",
      "09"
    ],
    [
      "-0.03",
      "8"
    ],
    [
      "-0.6",
      "99"
    ],
    [
      "-0.5",
      "93"
    ],
    [
      "-1.",
      "25"
    ],
    [
      "-0.73",
      "5"
    ],
    [
      "-0.80",
      "6"
    ],
    [
      "0.6",
      "23"
    ],
    [
      "-0.6",
      "03"
    ],
    [
      "-1.",
      "4"
    ],
    [
      "0.82",
      "6"
    ],
    [
      "-1.",
      "24"
    ],
    [
      "0.6",
      "33"
    ],
    [
      "0.3",
      "21"
    ],
    [
      "5",
      "22,</w>"
    ],
    [
      "0.6",
      "03"
    ],
    [
      "-0.3",
      "21"
    ],
    [
      "0.5",
      "93"
    ],
    [
      "-0.6",
      "09"
    ],
    [
      "0.80",
      "6"
    ],
    [
      "5",
      "96,</w>"
    ],
    [
      "5",
      "21,</w>"
    ],
    [
      "0.5",
      "11"
    ],
    [
      "5",
      "29,</w>"
    ],
    [
      "5",
      "17,</w>"
    ],
    [
      "5",
      "92,</w>"
    ],
    [
      "5",
      "24,</w>"
    ],
    [
      "5",
      "09,</w>"
    ],
    [
      "5",
      "71,</w>"
    ],
    [
      "5",
      "33,</w>"
    ],
    [
      "5",
      "04,</w>"
    ],
    [
      "5",
      "88,</w>"
    ],
    [
      "5",
      "25,</w>"
    ],
    [
      "0.8",
      "70"
    ],
    [
      "0.3",
      "88"
    ],
    [
      "0.8",
      "73"
    ],
    [
      "5",
      "45,</w>"
    ],
    [
      "5",
      "41,</w>"
    ],
    [
      "5",
      "27,</w>"
    ],
    [
      "5",
      "79,</w>"
    ],
    [
      "5",
      "02,</w>"
    ],
    [
      "0.05",
      "45"
    ],
    [
      "-0.6",
      "43"
    ],
    [
      "5",
      "72,</w>"
    ],
    [
      "5",
      "28,</w>"
    ],
    [
      "-1.",
      "26"
    ],
    [
      "5",
      "99,</w>"
    ],
    [
      "0.0",
      "04"
    ],
    [
      "0.8",
      "75"
    ],
    [
      "5",
      "76,</w>"
    ],
    [
      "5",
      "42,</w>"
    ],
    [
      "5",
      "95,</w>"
    ],
    [
      "5",
      "01,</w>"
    ],
    [
      "5",
      "44,</w>"
    ],
    [
      "5",
      "39,</w>"
    ],
    [
      "5",
      "93,</w>"
    ],
    [
      "-0.79",
      "6"
    ],
    [
      "5",
      "05,</w>"
    ],
    [
      "5",
      "15,</w>"
    ],
    [
      "-0.82",
      "6"
    ],
    [
      "5",
      "98,</w>"
    ],
    [
      "5",
      "46,</w>"
    ],
    [
      "5",
      "94,</w>"
    ],
    [
      "-0.6",
      "23"
    ],
    [
      "5",
      "97,</w>"
    ],
    [
      "5",
      "49,</w>"
    ],
    [
      "5",
      "14,</w>"
    ],
    [
      "5",
      "12,</w>"
    ],
    [
      "5",
      "37,</w>"
    ],
    [
      "5",
      "31,</w>"
    ],
    [
      "5",
      "13,</w>"
    ],
    [
      "6",
      "76,</w>"
    ],
    [
      "5",
      "77,</w>"
    ],
    [
      "5",
      "08,</w>"
    ],
    [
      "5",
      "73,</w>"
    ],
    [
      "5",
      "19,</w>"
    ],
    [
      "0.06",
      "24"
    ],
    [
      "0.6",
      "09"
    ],
    [
      "5",
      "81,</w>"
    ],
    [
      "-0.6",
      "49"
    ],
    [
      "5",
      "85,</w>"
    ],
    [
      "5",
      "06,</w>"
    ],
    [
      "6",
      "74,</w>"
    ],
    [
      "6",
      "21,</w>"
    ],
    [
      "5",
      "11,</w>"
    ],
    [
      "6",
      "36,</w>"
    ],
    [
      "-0.4",
      "21"
    ],
    [
      "-0.06",
      "25"
    ],
    [
      "5",
      "78,</w>"
    ],
    [
      "0.8",
      "74"
    ],
    [
      "0.01",
      "83"
    ],
    [
      "6",
      "46,</w>"
    ],
    [
      "5",
      "43,</w>"
    ],
    [
      "6",
      "22,</w>"
    ],
    [
      "0.6",
      "43"
    ],
    [
      "6",
      "57,</w>"
    ],
    [
      "5",
      "16,</w>"
    ],
    [
      "0.06",
      "26"
    ],
    [
      "0.8",
      "7"
    ],
    [
      "6",
      "12,</w>"
    ],
    [
      "-0.3",
      "88"
    ],
    [
      "0.4",
      "21"
    ],
    [
      "5",
      "38,</w>"
    ],
    [
      "5",
      "32,</w>"
    ],
    [
      "6",
      "24,</w>"
    ],
    [
      "-0.09",
      "22"
    ],
    [
      "6",
      "05,</w>"
    ],
    [
      "0.8",
      "72"
    ],
    [
      "6",
      "28,</w>"
    ],
    [
      "-0.03",
      "86"
    ],
    [
      "-0.02",
      "72"
    ],
    [
      "5",
      "74,</w>"
    ],
    [
      "6",
      "14,</w>"
    ],
    [
      "6",
      "71,</w>"
    ],
    [
      "6",
      "88,</w>"
    ],
    [
      "6",
      "54,</w>"
    ],
    [
      "6",
      "19,</w>"
    ],
    [
      "-0.0",
      "03"
    ],
    [
      "5",
      "07,</w>"
    ],
    [
      "6",
      "84,</w>"
    ],
    [
      "5",
      "47,</w>"
    ],
    [
      "-0.05",
      "14"
    ],
    [
      "0.08",
      "82"
    ],
    [
      "6",
      "73,</w>"
    ],
    [
      "5",
      "75,</w>"
    ],
    [
      "5",
      "83,</w>"
    ],
    [
      "6",
      "16,</w>"
    ],
    [
      "6",
      "06,</w>"
    ],
    [
      "-0.04",
      "26"
    ],
    [
      "0.09",
      "81"
    ],
    [
      "0.03",
      "80"
    ],
    [
      "5",
      "36,</w>"
    ],
    [
      "0.8",
      "85"
    ],
    [
      "5",
      "18,</w>"
    ],
    [
      "6",
      "99,</w>"
    ],
    [
      "5",
      "84,</w>"
    ],
    [
      "5",
      "26,</w>"
    ],
    [
      "5",
      "82,</w>"
    ],
    [
      "0.06",
      "81"
    ],
    [
      "6",
      "82,</w>"
    ],
    [
      "6",
      "83,</w>"
    ],
    [
      "-0.01",
      "14"
    ],
    [
      "0.03",
      "90"
    ],
    [
      "-0.02",
      "90"
    ],
    [
      "6",
      "53,</w>"
    ],
    [
      "5",
      "91,</w>"
    ],
    [
      "5",
      "48,</w>"
    ],
    [
      "6",
      "41,</w>"
    ],
    [
      "6",
      "02,</w>"
    ],
    [
      "-0.03",
      "35"
    ],
    [
      "0.04",
      "13"
    ],
    [
      "0.08",
      "73"
    ],
    [
      "0.05",
      "85"
    ],
    [
      "6",
      "59,</w>"
    ],
    [
      "0.8",
      "78"
    ],
    [
      "6",
      "85,</w>"
    ],
    [
      "-0.8",
      "73"
    ],
    [
      "0.01",
      "19"
    ],
    [
      "6",
      "75,</w>"
    ],
    [
      "-0.6",
      "11"
    ],
    [
      "0.05",
      "13"
    ],
    [
      "-0.8",
      "76"
    ],
    [
      "-0.04",
      "20"
    ],
    [
      "0.05",
      "66"
    ],
    [
      "6",
      "44,</w>"
    ],
    [
      "6",
      "72,</w>"
    ],
    [
      "0.6",
      "93"
    ],
    [
      "0.03",
      "71"
    ],
    [
      "6",
      "47,</w>"
    ],
    [
      "6",
      "08,</w>"
    ],
    [
      "0.04",
      "15"
    ],
    [
      "0.02",
      "83"
    ],
    [
      "0.8",
      "71"
    ],
    [
      "-0.09",
      "24"
    ],
    [
      "0.09",
      "10"
    ],
    [
      "0.8",
      "86"
    ],
    [
      "-0.8",
      "70"
    ],
    [
      "0.4",
      "88"
    ],
    [
      "-0.02",
      "12"
    ],
    [
      "5",
      "34,</w>"
    ],
    [
      "6",
      "86,</w>"
    ],
    [
      "0.03",
      "20"
    ],
    [
      "-0.02",
      "36"
    ],
    [
      "-0.02",
      "84"
    ],
    [
      "0.9",
      "8"
    ],
    [
      "6",
      "39,</w>"
    ],
    [
      "6",
      "92,</w>"
    ],
    [
      "0.08",
      "75"
    ],
    [
      "0.0",
      "09"
    ],
    [
      "-0.07",
      "79"
    ],
    [
      "6",
      "77,</w>"
    ],
    [
      "0.8",
      "79"
    ],
    [
      "5",
      "86,</w>"
    ],
    [
      "6",
      "32,</w>"
    ],
    [
      "6",
      "87,</w>"
    ],
    [
      "-0.06",
      "00"
    ],
    [
      "1.",
      "23"
    ],
    [
      "6",
      "79,</w>"
    ],
    [
      "1.",
      "29"
    ],
    [
      "-0.09",
      "35"
    ],
    [
      "6",
      "34,</w>"
    ],
    [
      "0.0",
      "03"
    ],
    [
      "0.03",
      "10"
    ],
    [
      "0.05",
      "94"
    ],
    [
      "-0.06",
      "7"
    ],
    [
      "-0.04",
      "76"
    ],
    [
      "0.01",
      "73"
    ],
    [
      "-0.06",
      "96"
    ],
    [
      "-0.03",
      "34"
    ],
    [
      "6",
      "58,</w>"
    ],
    [
      "0.01",
      "12"
    ],
    [
      "0.8",
      "81"
    ],
    [
      "0.8",
      "84"
    ],
    [
      "6",
      "18,</w>"
    ],
    [
      "0.09",
      "78"
    ],
    [
      "6",
      "29,</w>"
    ],
    [
      "0.05",
      "25"
    ],
    [
      "0.04",
      "36"
    ],
    [
      "0.09",
      "22"
    ],
    [
      "0.04",
      "25"
    ],
    [
      "0.03",
      "19"
    ],
    [
      "-0.09",
      "19"
    ],
    [
      "0.07",
      "75"
    ],
    [
      "0.04",
      "72"
    ],
    [
      "0.06",
      "25"
    ],
    [
      "0.02",
      "71"
    ],
    [
      "6",
      "91,</w>"
    ],
    [
      "6",
      "45,</w>"
    ],
    [
      "-0.01",
      "79"
    ],
    [
      "-0.05",
      "82"
    ],
    [
      "-0.03",
      "20"
    ],
    [
      "-0.8",
      "82"
    ],
    [
      "6",
      "95,</w>"
    ],
    [
      "6",
      "98,</w>"
    ],
    [
      "-0.01",
      "80"
    ],
    [
      "0.03",
      "89"
    ],
    [
      "-0.06",
      "75"
    ],
    [
      "0.04",
      "24"
    ],
    [
      "0.8",
      "76"
    ],
    [
      "0.9",
      "34"
    ],
    [
      "0.04",
      "05"
    ],
    [
      "-0.03",
      "19"
    ],
    [
      "6",
      "78,</w>"
    ],
    [
      "0.04",
      "79"
    ],
    [
      "-0.06",
      "13"
    ],
    [
      "-0.06",
      "36"
    ],
    [
      "-0.02",
      "94"
    ],
    [
      "6",
      "94,</w>"
    ],
    [
      "0.05",
      "24"
    ],
    [
      "6",
      "03,</w>"
    ],
    [
      "0.03",
      "13"
    ],
    [
      "0.04",
      "30"
    ],
    [
      "6",
      "89,</w>"
    ],
    [
      "0.04",
      "84"
    ],
    [
      "-0.02",
      "14"
    ],
    [
      "6",
      "23,</w>"
    ],
    [
      "-0.02",
      "73"
    ],
    [
      "6",
      "09,</w>"
    ],
    [
      "-0.01",
      "13"
    ],
    [
      "-0.04",
      "75"
    ],
    [
      "6",
      "11,</w>"
    ],
    [
      "-0.09",
      "36"
    ],
    [
      "-0.01",
      "7"
    ],
    [
      "-0.04",
      "94"
    ],
    [
      "0.03",
      "82"
    ],
    [
      "-0.07",
      "75"
    ],
    [
      "6",
      "81,</w>"
    ],
    [
      "-0.4",
      "88"
    ],
    [
      "-0.01",
      "84"
    ],
    [
      "0.04",
      "26"
    ],
    [
      "-0.09",
      "95"
    ],
    [
      "0.02",
      "80"
    ],
    [
      "-0.03",
      "13"
    ],
    [
      "0.09",
      "89"
    ],
    [
      "-0.03",
      "71"
    ],
    [
      "0.6",
      "11"
    ],
    [
      "0.02",
      "94"
    ],
    [
      "0.05",
      "15"
    ],
    [
      "-0.04",
      "00"
    ],
    [
      "0.04",
      "80"
    ],
    [
      "-0.08",
      "72"
    ],
    [
      "0.02",
      "79"
    ],
    [
      "5",
      "23,</w>"
    ],
    [
      "-0.8",
      "78"
    ],
    [
      "-0.04",
      "06"
    ],
    [
      "-0.04",
      "78"
    ],
    [
      "0.09",
      "86"
    ],
    [
      "0.09",
      "26"
    ],
    [
      "6",
      "37,</w>"
    ],
    [
      "0.03",
      "7"
    ],
    [
      "0.06",
      "84"
    ],
    [
      "6",
      "96,</w>"
    ],
    [
      "0.05",
      "96"
    ],
    [
      "-0.8",
      "81"
    ],
    [
      "0.02",
      "96"
    ],
    [
      "0.05",
      "76"
    ],
    [
      "-0.02",
      "85"
    ],
    [
      "-0.01",
      "78"
    ],
    [
      "-0.05",
      "10"
    ],
    [
      "-0.04",
      "83"
    ],
    [
      "-0.07",
      "73"
    ],
    [
      "-0.03",
      "7"
    ],
    [
      "6",
      "93,</w>"
    ],
    [
      "-0.04",
      "22"
    ],
    [
      "-0.08",
      "85"
    ],
    [
      "-0.02",
      "95"
    ],
    [
      "0.03",
      "14"
    ],
    [
      "0.01",
      "85"
    ],
    [
      "6",
      "55,</w>"
    ],
    [
      "-0.8",
      "72"
    ],
    [
      "-0.02",
      "75"
    ],
    [
      "6",
      "01,</w>"
    ],
    [
      "0.05",
      "86"
    ],
    [
      "0.05",
      "14"
    ],
    [
      "-0.01",
      "85"
    ],
    [
      "-0.06",
      "79"
    ],
    [
      "-0.03",
      "15"
    ],
    [
      "0.8",
      "83"
    ],
    [
      "0.06",
      "35"
    ],
    [
      "-0.09",
      "20"
    ],
    [
      "-0.05",
      "24"
    ],
    [
      "0.05",
      "81"
    ],
    [
      "-0.05",
      "75"
    ],
    [
      "0.05",
      "35"
    ],
    [
      "-0.06",
      "74"
    ],
    [
      "0.03",
      "72"
    ],
    [
      "6",
      "27,</w>"
    ],
    [
      "-0.05",
      "85"
    ],
    [
      "0.03",
      "95"
    ],
    [
      "0.03",
      "73"
    ],
    [
      "0.01",
      "86"
    ],
    [
      "0.04",
      "90"
    ],
    [
      "-0.06",
      "30"
    ],
    [
      "0.02",
      "72"
    ],
    [
      "-0.09",
      "81"
    ],
    [
      "1.",
      "45"
    ],
    [
      "-0.04",
      "45"
    ],
    [
      "0.06",
      "94"
    ],
    [
      "-0.09",
      "30"
    ],
    [
      "6",
      "35,</w>"
    ],
    [
      "0.01",
      "79"
    ],
    [
      "0.08",
      "71"
    ],
    [
      "-0.07",
      "78"
    ],
    [
      "0.8",
      "80"
    ],
    [
      "6",
      "04,</w>"
    ],
    [
      "0.05",
      "79"
    ],
    [
      "0.05",
      "70"
    ],
    [
      "-1.",
      "30"
    ],
    [
      "-0.06",
      "70"
    ],
    [
      "-0.09",
      "90"
    ],
    [
      "-0.03",
      "14"
    ],
    [
      "0.06",
      "79"
    ],
    [
      "-0.04",
      "7"
    ],
    [
      "-0.04",
      "82"
    ],
    [
      "0.06",
      "19"
    ],
    [
      "0.03",
      "70"
    ],
    [
      "-0.8",
      "7"
    ],
    [
      "-0.06",
      "83"
    ],
    [
      "-0.04",
      "34"
    ],
    [
      "0.08",
      "76"
    ],
    [
      "0.05",
      "06"
    ],
    [
      "-0.08",
      "81"
    ],
    [
      "0.03",
      "30"
    ],
    [
      "0.05",
      "82"
    ],
    [
      "-0.8",
      "75"
    ],
    [
      "0.04",
      "76"
    ],
    [
      "-0.04",
      "24"
    ],
    [
      "6",
      "49,</w>"
    ],
    [
      "0.06",
      "45"
    ],
    [
      "0.8",
      "82"
    ],
    [
      "-0.05",
      "90"
    ],
    [
      "-0.05",
      "70"
    ],
    [
      "0.01",
      "13"
    ],
    [
      "-0.02",
      "10"
    ],
    [
      "0.01",
      "72"
    ],
    [
      "6",
      "07,</w>"
    ],
    [
      "0.09",
      "84"
    ],
    [
      "0.01",
      "7"
    ],
    [
      "-0.08",
      "73"
    ],
    [
      "-0.05",
      "84"
    ],
    [
      "-0.01",
      "19"
    ],
    [
      "0.06",
      "71"
    ],
    [
      "0.8",
      "89"
    ],
    [
      "0.6",
      "49"
    ],
    [
      "-0.04",
      "72"
    ],
    [
      "-0.06",
      "71"
    ],
    [
      "-0.02",
      "89"
    ],
    [
      "-0.8",
      "89"
    ],
    [
      "-0.08",
      "71"
    ],
    [
      "0.01",
      "84"
    ],
    [
      "-0.01",
      "15"
    ],
    [
      "-0.02",
      "78"
    ],
    [
      "0.01",
      "89"
    ],
    [
      "-0.01",
      "76"
    ],
    [
      "-0.03",
      "36"
    ],
    [
      "-0.06",
      "95"
    ],
    [
      "0.03",
      "36"
    ],
    [
      "0.04",
      "89"
    ],
    [
      "-0.09",
      "71"
    ],
    [
      "0.04",
      "70"
    ],
    [
      "-0.03",
      "30"
    ],
    [
      "0.02",
      "34"
    ],
    [
      "-0.05",
      "86"
    ],
    [
      "0.09",
      "15"
    ],
    [
      "0.04",
      "78"
    ],
    [
      "-0.01",
      "86"
    ],
    [
      "-0.01",
      "83"
    ],
    [
      "-0.02",
      "79"
    ],
    [
      "-0.03",
      "80"
    ],
    [
      "-0.06",
      "81"
    ],
    [
      "-0.02",
      "83"
    ],
    [
      "-0.01",
      "75"
    ],
    [
      "-0.6",
      "93"
    ],
    [
      "-0.8",
      "71"
    ],
    [
      "0.06",
      "14"
    ],
    [
      "-0.03",
      "12"
    ],
    [
      "-0.01",
      "71"
    ],
    [
      "0.06",
      "05"
    ],
    [
      "-0.03",
      "85"
    ],
    [
      "-0.02",
      "13"
    ],
    [
      "-0.02",
      "15"
    ],
    [
      "6",
      "13,</w>"
    ],
    [
      "-0.06",
      "76"
    ],
    [
      "-0.04",
      "90"
    ],
    [
      "0.03",
      "25"
    ],
    [
      "-0.02",
      "86"
    ],
    [
      "-0.08",
      "86"
    ],
    [
      "-0.03",
      "26"
    ],
    [
      "-0.03",
      "25"
    ],
    [
      "0.01",
      "14"
    ],
    [
      "6",
      "43,</w>"
    ],
    [
      "-0.03",
      "76"
    ],
    [
      "0.04",
      "75"
    ],
    [
      "0.01",
      "16"
    ],
    [
      "-0.07",
      "70"
    ],
    [
      "-0.02",
      "96"
    ],
    [
      "0.09",
      "14"
    ],
    [
      "6",
      "97,</w>"
    ],
    [
      "-0.06",
      "82"
    ],
    [
      "-0.02",
      "7"
    ],
    [
      "0.06",
      "46"
    ],
    [
      "0.06",
      "82"
    ],
    [
      "-0.08",
      "7"
    ],
    [
      "-0.09",
      "72"
    ],
    [
      "-0.06",
      "10"
    ],
    [
      "-0.04",
      "12"
    ],
    [
      "0.09",
      "83"
    ],
    [
      "-0.05",
      "78"
    ],
    [
      "-0.05",
      "7"
    ],
    [
      "-0.8",
      "84"
    ],
    [
      "-0.09",
      "13"
    ],
    [
      "-0.06",
      "78"
    ],
    [
      "-0.08",
      "82"
    ],
    [
      "-0.04",
      "73"
    ],
    [
      "0.06",
      "34"
    ],
    [
      "1.",
      "46"
    ],
    [
      "0.02",
      "19"
    ],
    [
      "0.03",
      "22"
    ],
    [
      "0.05",
      "19"
    ],
    [
      "-0.05",
      "89"
    ],
    [
      "-0.04",
      "74"
    ],
    [
      "0.04",
      "06"
    ],
    [
      "-0.09",
      "70"
    ],
    [
      "-0.09",
      "74"
    ],
    [
      "0.05",
      "34"
    ],
    [
      "6",
      "15,</w>"
    ],
    [
      "-0.06",
      "84"
    ],
    [
      "-0.03",
      "74"
    ],
    [
      "0.06",
      "85"
    ],
    [
      "0.9",
      "15"
    ],
    [
      "0.04",
      "16"
    ],
    [
      "0.9",
      "16"
    ],
    [
      "0.04",
      "96"
    ],
    [
      "-0.03",
      "10"
    ],
    [
      "-0.01",
      "81"
    ],
    [
      "0.04",
      "14"
    ],
    [
      "-0.09",
      "96"
    ],
    [
      "6",
      "26,</w>"
    ],
    [
      "-0.02",
      "82"
    ],
    [
      "-0.04",
      "84"
    ],
    [
      "0.09",
      "73"
    ],
    [
      "0.04",
      "22"
    ],
    [
      "0.03",
      "84"
    ],
    [
      "0.06",
      "7"
    ],
    [
      "-0.06",
      "94"
    ],
    [
      "-0.04",
      "25"
    ],
    [
      "0.01",
      "71"
    ],
    [
      "0.03",
      "34"
    ],
    [
      "0.02",
      "16"
    ],
    [
      "-0.01",
      "10"
    ],
    [
      "0.05",
      "12"
    ],
    [
      "0.09",
      "36"
    ],
    [
      "0.02",
      "74"
    ],
    [
      "-0.09",
      "86"
    ],
    [
      "0.09",
      "95"
    ],
    [
      "-0.04",
      "96"
    ],
    [
      "-0.01",
      "73"
    ],
    [
      "0.09",
      "71"
    ],
    [
      "0.05",
      "74"
    ],
    [
      "0.03",
      "94"
    ],
    [
      "-0.06",
      "14"
    ],
    [
      "0.06",
      "22"
    ],
    [
      "0.05",
      "30"
    ],
    [
      "0.06",
      "80"
    ],
    [
      "0.03",
      "85"
    ],
    [
      "-0.05",
      "19"
    ],
    [
      "-0.04",
      "80"
    ],
    [
      "-0.06",
      "86"
    ],
    [
      "6",
      "56,</w>"
    ],
    [
      "0.06",
      "16"
    ],
    [
      "-0.8",
      "80"
    ],
    [
      "0.09",
      "76"
    ],
    [
      "-0.01",
      "89"
    ],
    [
      "0.07",
      "76"
    ],
    [
      "0.04",
      "74"
    ],
    [
      "0.03",
      "83"
    ],
    [
      "0.01",
      "10"
    ],
    [
      "0.09",
      "75"
    ],
    [
      "0.01",
      "82"
    ],
    [
      "-0.04",
      "36"
    ],
    [
      "0.01",
      "76"
    ],
    [
      "-0.06",
      "22"
    ],
    [
      "-0.8",
      "86"
    ],
    [
      "6",
      "52,</w>"
    ],
    [
      "0.06",
      "00"
    ],
    [
      "0.9",
      "12"
    ],
    [
      "0.01",
      "75"
    ],
    [
      "-0.05",
      "13"
    ],
    [
      "0.09",
      "96"
    ],
    [
      "-0.06",
      "46"
    ],
    [
      "0.09",
      "35"
    ],
    [
      "0.09",
      "90"
    ],
    [
      "-0.04",
      "71"
    ],
    [
      "0.09",
      "7"
    ],
    [
      "-0.08",
      "84"
    ],
    [
      "-0.08",
      "83"
    ],
    [
      "-0.05",
      "83"
    ],
    [
      "-0.09",
      "84"
    ],
    [
      "-0.09",
      "89"
    ],
    [
      "0.9",
      "20"
    ],
    [
      "0.06",
      "90"
    ],
    [
      "0.04",
      "82"
    ],
    [
      "0.05",
      "46"
    ],
    [
      "0.04",
      "34"
    ],
    [
      "-0.05",
      "80"
    ],
    [
      "-0.8",
      "79"
    ],
    [
      "-0.05",
      "72"
    ],
    [
      "-0.05",
      "45"
    ],
    [
      "0.07",
      "71"
    ],
    [
      "-1.",
      "11"
    ],
    [
      "-0.07",
      "76"
    ],
    [
      "0.02",
      "7"
    ],
    [
      "0.06",
      "55"
    ],
    [
      "0.09",
      "13"
    ],
    [
      "0.02",
      "75"
    ],
    [
      "0.09",
      "16"
    ],
    [
      "0.02",
      "81"
    ],
    [
      "-0.05",
      "94"
    ],
    [
      "0.05",
      "22"
    ],
    [
      "0.05",
      "90"
    ],
    [
      "-0.09",
      "75"
    ],
    [
      "0.08",
      "74"
    ],
    [
      "-0.07",
      "72"
    ],
    [
      "-0.05",
      "00"
    ],
    [
      "-0.06",
      "15"
    ],
    [
      "0.05",
      "75"
    ],
    [
      "-0.05",
      "05"
    ],
    [
      "0.03",
      "16"
    ],
    [
      "0.04",
      "45"
    ],
    [
      "0.06",
      "76"
    ],
    [
      "-0.04",
      "85"
    ],
    [
      "0.01",
      "70"
    ],
    [
      "-0.05",
      "66"
    ],
    [
      "-0.08",
      "70"
    ],
    [
      "0.03",
      "78"
    ],
    [
      "-0.09",
      "16"
    ],
    [
      "-0.03",
      "75"
    ],
    [
      "0.07",
      "79"
    ],
    [
      "0.02",
      "95"
    ],
    [
      "0.5",
      "21"
    ],
    [
      "0.09",
      "24"
    ],
    [
      "1.",
      "33"
    ],
    [
      "-0.03",
      "90"
    ],
    [
      "0.06",
      "75"
    ],
    [
      "-0.01",
      "70"
    ],
    [
      "0.08",
      "72"
    ],
    [
      "0.04",
      "73"
    ],
    [
      "-0.09",
      "26"
    ],
    [
      "6",
      "17,</w>"
    ],
    [
      "0.08",
      "86"
    ],
    [
      "-0.04",
      "81"
    ],
    [
      "-0.04",
      "16"
    ],
    [
      "0.03",
      "15"
    ],
    [
      "0.02",
      "13"
    ],
    [
      "0.07",
      "73"
    ],
    [
      "-0.09",
      "73"
    ],
    [
      "0.08",
      "84"
    ],
    [
      "0.07",
      "72"
    ],
    [
      "-0.08",
      "78"
    ],
    [
      "0.06",
      "72"
    ],
    [
      "0.04",
      "00"
    ],
    [
      "0.05",
      "05"
    ],
    [
      "0.09",
      "19"
    ],
    [
      "6",
      "25,</w>"
    ],
    [
      "0.02",
      "90"
    ],
    [
      "0.04",
      "46"
    ],
    [
      "0.01",
      "78"
    ],
    [
      "6",
      "48,</w>"
    ],
    [
      "-0.02",
      "30"
    ],
    [
      "-0.04",
      "30"
    ],
    [
      "-0.0",
      "09"
    ],
    [
      "0.04",
      "10"
    ],
    [
      "-0.02",
      "19"
    ],
    [
      "0.09",
      "12"
    ],
    [
      "0.9",
      "36"
    ],
    [
      "-0.08",
      "89"
    ],
    [
      "0.08",
      "85"
    ],
    [
      "-0.09",
      "10"
    ],
    [
      "0.02",
      "85"
    ],
    [
      "0.07",
      "70"
    ],
    [
      "-0.09",
      "25"
    ],
    [
      "-0.08",
      "79"
    ],
    [
      "0.05",
      "36"
    ],
    [
      "-0.03",
      "83"
    ],
    [
      "0.08",
      "80"
    ],
    [
      "-0.03",
      "81"
    ],
    [
      "0.04",
      "94"
    ],
    [
      "-0.05",
      "25"
    ],
    [
      "0.05",
      "72"
    ],
    [
      "0.06",
      "74"
    ],
    [
      "-0.02",
      "81"
    ],
    [
      "0.04",
      "19"
    ],
    [
      "0.05",
      "10"
    ],
    [
      "-0.05",
      "35"
    ],
    [
      "-0.06",
      "73"
    ],
    [
      "0.02",
      "10"
    ],
    [
      "0.05",
      "7"
    ],
    [
      "0.02",
      "15"
    ],
    [
      "-0.05",
      "79"
    ],
    [
      "-0.06",
      "16"
    ],
    [
      "0.08",
      "81"
    ],
    [
      "-0.06",
      "35"
    ],
    [
      "-0.09",
      "14"
    ],
    [
      "-0.03",
      "89"
    ],
    [
      "0.08",
      "7"
    ],
    [
      "-0.9",
      "19"
    ],
    [
      "0.09",
      "25"
    ],
    [
      "0.03",
      "76"
    ],
    [
      "-0.06",
      "12"
    ],
    [
      "-0.04",
      "05"
    ],
    [
      "-0.09",
      "15"
    ],
    [
      "0.06",
      "86"
    ],
    [
      "0.09",
      "34"
    ],
    [
      "0.06",
      "13"
    ],
    [
      "0.9",
      "75"
    ],
    [
      "0.09",
      "80"
    ],
    [
      "0.05",
      "26"
    ],
    [
      "0.02",
      "84"
    ],
    [
      "0.04",
      "71"
    ],
    [
      "-0.03",
      "73"
    ],
    [
      "0.03",
      "35"
    ],
    [
      "-0.09",
      "78"
    ],
    [
      "-0.04",
      "35"
    ],
    [
      "0.08",
      "89"
    ],
    [
      "6",
      "38,</w>"
    ],
    [
      "-0.02",
      "76"
    ],
    [
      "-0.06",
      "06"
    ],
    [
      "0.03",
      "24"
    ],
    [
      "-0.08",
      "76"
    ],
    [
      "-0.04",
      "14"
    ],
    [
      "0.02",
      "30"
    ],
    [
      "-0.05",
      "71"
    ],
    [
      "-0.03",
      "24"
    ],
    [
      "-0.06",
      "56"
    ],
    [
      "0.03",
      "86"
    ],
    [
      "0.02",
      "14"
    ],
    [
      "0.02",
      "36"
    ],
    [
      "-0.5",
      "21"
    ],
    [
      "0.06",
      "06"
    ],
    [
      "-0.01",
      "72"
    ],
    [
      "0.02",
      "73"
    ],
    [
      "6",
      "51,</w>"
    ],
    [
      "0.9",
      "13"
    ],
    [
      "-0.04",
      "70"
    ],
    [
      "0.08",
      "70"
    ],
    [
      "0.06",
      "12"
    ],
    [
      "0.03",
      "81"
    ],
    [
      "-0.09",
      "94"
    ],
    [
      "0.06",
      "95"
    ],
    [
      "0.03",
      "74"
    ],
    [
      "0.08",
      "79"
    ],
    [
      "-0.05",
      "22"
    ],
    [
      "-0.05",
      "15"
    ],
    [
      "0.09",
      "74"
    ],
    [
      "6",
      "42,</w>"
    ],
    [
      "0.9",
      "19"
    ],
    [
      "0.09",
      "82"
    ],
    [
      "-0.04",
      "89"
    ],
    [
      "0.04",
      "20"
    ],
    [
      "-0.03",
      "70"
    ],
    [
      "-0.03",
      "78"
    ],
    [
      "-0.05",
      "46"
    ],
    [
      "0.02",
      "82"
    ],
    [
      "0.04",
      "85"
    ],
    [
      "0.04",
      "7"
    ],
    [
      "0.03",
      "12"
    ],
    [
      "0.09",
      "30"
    ],
    [
      "-0.03",
      "94"
    ],
    [
      "0.06",
      "15"
    ],
    [
      "0.05",
      "89"
    ],
    [
      "0.9",
      "10"
    ],
    [
      "0.04",
      "81"
    ],
    [
      "-0.01",
      "16"
    ],
    [
      "0.05",
      "73"
    ],
    [
      "0.06",
      "73"
    ],
    [
      "-0.05",
      "76"
    ],
    [
      "0.02",
      "89"
    ],
    [
      "-0.06",
      "19"
    ],
    [
      "0.09",
      "94"
    ],
    [
      "-0.08",
      "74"
    ],
    [
      "0.08",
      "83"
    ],
    [
      "-0.02",
      "70"
    ],
    [
      "-0.04",
      "13"
    ],
    [
      "6",
      "31,</w>"
    ],
    [
      "-0.05",
      "73"
    ],
    [
      "-0.03",
      "95"
    ],
    [
      "0.02",
      "12"
    ],
    [
      "-0.02",
      "16"
    ],
    [
      "-0.06",
      "80"
    ],
    [
      "-0.04",
      "86"
    ],
    [
      "-0.06",
      "20"
    ],
    [
      "0.06",
      "70"
    ],
    [
      "-0.03",
      "22"
    ],
    [
      "-0.03",
      "72"
    ],
    [
      "-0.07",
      "7"
    ],
    [
      "-0.09",
      "76"
    ],
    [
      "0.08",
      "78"
    ],
    [
      "0.05",
      "83"
    ],
    [
      "0.05",
      "00"
    ],
    [
      "0.09",
      "79"
    ],
    [
      "-0.9",
      "24"
    ],
    [
      "-0.04",
      "19"
    ],
    [
      "0.9",
      "35"
    ],
    [
      "0.04",
      "35"
    ],
    [
      "-0.08",
      "80"
    ],
    [
      "-0.06",
      "26"
    ],
    [
      "-0.8",
      "83"
    ],
    [
      "0.07",
      "74"
    ],
    [
      "-0.06",
      "34"
    ],
    [
      "0.02",
      "70"
    ],
    [
      "-0.06",
      "90"
    ],
    [
      "-0.03",
      "16"
    ],
    [
      "0.05",
      "80"
    ],
    [
      "0.09",
      "85"
    ],
    [
      "-0.06",
      "55"
    ],
    [
      "-0.03",
      "79"
    ],
    [
      "0.04",
      "86"
    ],
    [
      "0.9",
      "22"
    ],
    [
      "0.06",
      "20"
    ],
    [
      "0.01",
      "74"
    ],
    [
      "-0.05",
      "81"
    ],
    [
      "-0.09",
      "34"
    ],
    [
      "-0.05",
      "96"
    ],
    [
      "0.05",
      "16"
    ],
    [
      "0.03",
      "96"
    ],
    [
      "0.9",
      "24"
    ],
    [
      "0.05",
      "95"
    ],
    [
      "0.03",
      "75"
    ],
    [
      "-0.00",
      "2"
    ],
    [
      "-0.05",
      "95"
    ],
    [
      "0.9",
      "25"
    ],
    [
      "0.09",
      "70"
    ],
    [
      "0.05",
      "20"
    ],
    [
      "-0.05",
      "36"
    ],
    [
      "-0.01",
      "74"
    ],
    [
      "-0.04",
      "46"
    ],
    [
      "0.09",
      "20"
    ],
    [
      "0.06",
      "96"
    ],
    [
      "0.05",
      "84"
    ],
    [
      "-0.06",
      "24"
    ],
    [
      "-0.04",
      "15"
    ],
    [
      "0.06",
      "44"
    ],
    [
      "-0.06",
      "05"
    ],
    [
      "0.02",
      "78"
    ],
    [
      "0.05",
      "71"
    ],
    [
      "-0.05",
      "44"
    ],
    [
      "-0.09",
      "12"
    ],
    [
      "-0.03",
      "96"
    ],
    [
      "0.06",
      "56"
    ],
    [
      "1.",
      "40"
    ],
    [
      "0.07",
      "7"
    ],
    [
      "0.07",
      "78"
    ],
    [
      "-0.07",
      "74"
    ],
    [
      "0.9",
      "26"
    ],
    [
      "-0.9",
      "14"
    ],
    [
      "0.02",
      "86"
    ],
    [
      "-0.02",
      "35"
    ],
    [
      "-0.05",
      "34"
    ],
    [
      "-0.05",
      "16"
    ],
    [
      "-0.01",
      "82"
    ],
    [
      "-0.04",
      "95"
    ],
    [
      "-0.9",
      "10"
    ],
    [
      "-0.05",
      "30"
    ],
    [
      "0.02",
      "35"
    ],
    [
      "-0.01",
      "12"
    ],
    [
      "-0.09",
      "85"
    ],
    [
      "0.01",
      "81"
    ],
    [
      "-0.8",
      "85"
    ],
    [
      "0.06",
      "83"
    ],
    [
      "-0.02",
      "34"
    ],
    [
      "-0.05",
      "06"
    ],
    [
      "-0.9",
      "15"
    ],
    [
      "1.",
      "9"
    ],
    [
      "-0.06",
      "89"
    ],
    [
      "0.05",
      "78"
    ],
    [
      "0.02",
      "76"
    ],
    [
      "0.01",
      "80"
    ],
    [
      "-0.05",
      "12"
    ],
    [
      "0.03",
      "26"
    ],
    [
      "-0.07",
      "71"
    ],
    [
      "-0.09",
      "79"
    ],
    [
      "-0.02",
      "71"
    ],
    [
      "-1.",
      "29"
    ],
    [
      "-0.05",
      "04"
    ],
    [
      "-0.03",
      "84"
    ],
    [
      "-0.05",
      "26"
    ],
    [
      "0.03",
      "79"
    ],
    [
      "-0.8",
      "74"
    ],
    [
      "-0.02",
      "80"
    ],
    [
      "-0.06",
      "85"
    ],
    [
      "-0.08",
      "75"
    ],
    [
      "0.04",
      "12"
    ],
    [
      "0.05",
      "44"
    ],
    [
      "0.04",
      "95"
    ],
    [
      "0.00",
      "2"
    ],
    [
      "0.06",
      "89"
    ],
    [
      "0.06",
      "29"
    ],
    [
      "0.01",
      "15"
    ],
    [
      "-0.09",
      "82"
    ],
    [
      "-0.9",
      "22"
    ],
    [
      "1.",
      "39"
    ],
    [
      "-0.06",
      "72"
    ],
    [
      "0.04",
      "83"
    ],
    [
      "-0.05",
      "74"
    ],
    [
      "0.06",
      "78"
    ],
    [
      "-0.06",
      "44"
    ],
    [
      "-0.09",
      "7"
    ],
    [
      "0.09",
      "72"
    ],
    [
      "0.05",
      "04"
    ],
    [
      "-0.04",
      "79"
    ],
    [
      "-0.05",
      "20"
    ],
    [
      "1.",
      "44"
    ],
    [
      "0.06",
      "30"
    ],
    [
      "-0.06",
      "45"
    ],
    [
      "0.06",
      "10"
    ],
    [
      "-0.9",
      "12"
    ],
    [
      "-0.9",
      "30"
    ],
    [
      "0.9",
      "14"
    ],
    [
      "-0.02",
      "74"
    ],
    [
      "-0.9",
      "20"
    ],
    [
      "-1.",
      "5"
    ],
    [
      "-0.5",
      "88"
    ],
    [
      "-0.04",
      "10"
    ],
    [
      "-1.",
      "23"
    ],
    [
      "-0.05",
      "39"
    ],
    [
      "-0.9",
      "25"
    ],
    [
      "-0.03",
      "82"
    ],
    [
      "0.9",
      "71"
    ],
    [
      "0.6",
      "21"
    ],
    [
      "0.9",
      "30"
    ],
    [
      "0.5",
      "88"
    ],
    [
      "0.05",
      "29"
    ],
    [
      "0.9",
      "7"
    ],
    [
      "-0.9",
      "8"
    ],
    [
      "-0.9",
      "13"
    ],
    [
      "-0.09",
      "83"
    ],
    [
      "0.9",
      "81"
    ],
    [
      "0.06",
      "36"
    ],
    [
      "0.04",
      "04"
    ],
    [
      "-0.09",
      "80"
    ],
    [
      "0.06",
      "99"
    ],
    [
      "-1.",
      "35"
    ],
    [
      "0.9",
      "70"
    ],
    [
      "-0.9",
      "71"
    ],
    [
      "-0.05",
      "40"
    ],
    [
      "-0.9",
      "16"
    ],
    [
      "0.9",
      "72"
    ],
    [
      "-0.06",
      "04"
    ],
    [
      "-0.9",
      "36"
    ],
    [
      "-0.6",
      "21"
    ],
    [
      "0.02",
      "39"
    ],
    [
      "0.9",
      "76"
    ],
    [
      "-0.9",
      "26"
    ],
    [
      "1.",
      "55"
    ],
    [
      "0.06",
      "04"
    ],
    [
      "0.05",
      "39"
    ],
    [
      "0.04",
      "99"
    ],
    [
      "-0.06",
      "99"
    ],
    [
      "-0.9",
      "89"
    ],
    [
      "0.05",
      "99"
    ],
    [
      "0.9",
      "85"
    ],
    [
      "-0.9",
      "73"
    ],
    [
      "0.9",
      "79"
    ],
    [
      "-0.00",
      "1"
    ],
    [
      "0.9",
      "86"
    ],
    [
      "-1.",
      "34"
    ],
    [
      "0.6",
      "88"
    ],
    [
      "0.9",
      "90"
    ],
    [
      "0.00",
      "1"
    ],
    [
      "-0.06",
      "39"
    ],
    [
      "0.06",
      "39"
    ],
    [
      "0.9",
      "80"
    ],
    [
      "2.",
      "0"
    ],
    [
      "0.06",
      "33"
    ],
    [
      "0.9",
      "74"
    ],
    [
      "0.9",
      "89"
    ],
    [
      "-0.9",
      "34"
    ],
    [
      "0.9",
      "82"
    ],
    [
      "-0.9",
      "86"
    ],
    [
      "-0.04",
      "99"
    ],
    [
      "1.",
      "21"
    ],
    [
      "0.9",
      "84"
    ],
    [
      "-0.9",
      "78"
    ],
    [
      "0.9",
      "73"
    ],
    [
      "-0.09",
      "39"
    ],
    [
      "-0.02",
      "39"
    ],
    [
      "-1.",
      "36"
    ],
    [
      "-0.9",
      "35"
    ],
    [
      "0.9",
      "83"
    ],
    [
      "0.09",
      "33"
    ],
    [
      "0.04",
      "29"
    ],
    [
      "-0.06",
      "33"
    ],
    [
      "0.9",
      "78"
    ],
    [
      "0.09",
      "39"
    ],
    [
      "-0.9",
      "39"
    ],
    [
      "0.9",
      "95"
    ],
    [
      "0.05",
      "33"
    ],
    [
      "0.9",
      "94"
    ],
    [
      "-0.9",
      "83"
    ],
    [
      "-0.04",
      "39"
    ],
    [
      "-0.9",
      "7"
    ],
    [
      "0.06",
      "40"
    ],
    [
      "0.00",
      "8"
    ],
    [
      "-0.9",
      "80"
    ],
    [
      "-0.9",
      "70"
    ],
    [
      "-0.9",
      "79"
    ],
    [
      "-0.06",
      "40"
    ],
    [
      "0.9",
      "29"
    ],
    [
      "0.02",
      "33"
    ],
    [
      "-0.9",
      "72"
    ],
    [
      "-0.03",
      "39"
    ],
    [
      "-0.06",
      "29"
    ],
    [
      "-0.03",
      "29"
    ],
    [
      "0.03",
      "29"
    ],
    [
      "0.09",
      "29"
    ],
    [
      "0.04",
      "39"
    ],
    [
      "-0.04",
      "04"
    ],
    [
      "0.03",
      "39"
    ],
    [
      "-0.9",
      "75"
    ],
    [
      "-0.6",
      "88"
    ],
    [
      "-0.09",
      "29"
    ],
    [
      "-0.9",
      "90"
    ],
    [
      "0.05",
      "40"
    ],
    [
      "-0.05",
      "99"
    ],
    [
      "-0.9",
      "85"
    ],
    [
      "0.9",
      "96"
    ],
    [
      "1.",
      "66"
    ],
    [
      "-0.02",
      "33"
    ],
    [
      "0.04",
      "23"
    ],
    [
      "-0.05",
      "29"
    ],
    [
      "-0.9",
      "84"
    ],
    [
      "0.05",
      "03"
    ],
    [
      "-0.9",
      "74"
    ],
    [
      "0.06",
      "43"
    ],
    [
      "-0.9",
      "81"
    ],
    [
      "0.9",
      "39"
    ],
    [
      "0.05",
      "09"
    ],
    [
      "-0.09",
      "33"
    ],
    [
      "-0.04",
      "33"
    ],
    [
      "0.05",
      "93"
    ],
    [
      "-0.04",
      "29"
    ],
    [
      "1.",
      "56"
    ],
    [
      "0.06",
      "03"
    ],
    [
      "-0.09",
      "23"
    ],
    [
      "-0.06",
      "09"
    ],
    [
      "-0.05",
      "49"
    ],
    [
      "0.04",
      "33"
    ],
    [
      "-0.06",
      "43"
    ],
    [
      "-0.9",
      "82"
    ],
    [
      "-0.05",
      "33"
    ],
    [
      "-0.03",
      "11"
    ],
    [
      "0.06",
      "93"
    ],
    [
      "-0.9",
      "23"
    ],
    [
      "0.05",
      "23"
    ],
    [
      "-0.9",
      "76"
    ],
    [
      "0.03",
      "23"
    ],
    [
      "-0.05",
      "43"
    ],
    [
      "-0.04",
      "93"
    ],
    [
      "-0.00",
      "35"
    ],
    [
      "-0.04",
      "23"
    ],
    [
      "0.00",
      "26"
    ],
    [
      "0.06",
      "49"
    ],
    [
      "-0.06",
      "23"
    ],
    [
      "0.9",
      "33"
    ],
    [
      "-0.05",
      "93"
    ],
    [
      "-0.00",
      "8"
    ],
    [
      "7",
      "],</w>"
    ],
    [
      "-0.05",
      "03"
    ],
    [
      "1.",
      "49"
    ],
    [
      "0.9",
      "11"
    ],
    [
      "0.06",
      "11"
    ],
    [
      "1",
      "],</w>"
    ],
    [
      "1.",
      "70"
    ],
    [
      "-0.9",
      "29"
    ],
    [
      "-0.06",
      "93"
    ],
    [
      "-0.9",
      "96"
    ],
    [
      "0.00",
      "24"
    ],
    [
      "0.04",
      "93"
    ],
    [
      "-1.",
      "33"
    ],
    [
      "-0.06",
      "11"
    ],
    [
      "1.",
      "73"
    ],
    [
      "0.06",
      "09"
    ],
    [
      "0.05",
      "49"
    ],
    [
      "-0.9",
      "95"
    ],
    [
      "1.",
      "43"
    ],
    [
      "0.09",
      "23"
    ],
    [
      "0.05",
      "43"
    ],
    [
      "-1.",
      "21"
    ],
    [
      "0.02",
      "11"
    ],
    [
      "-0.05",
      "23"
    ],
    [
      "-0.9",
      "33"
    ],
    [
      "-0.9",
      "94"
    ],
    [
      "0.00",
      "13"
    ],
    [
      "0.9",
      "23"
    ],
    [
      "1.",
      "78"
    ],
    [
      "0.00",
      "72"
    ],
    [
      "-0.06",
      "49"
    ],
    [
      "1.",
      "76"
    ],
    [
      "0.00",
      "78"
    ],
    [
      "-0.00",
      "90"
    ],
    [
      "-0.03",
      "23"
    ],
    [
      "0.00",
      "19"
    ],
    [
      "0.06",
      "23"
    ],
    [
      "-0.05",
      "09"
    ],
    [
      "-0.00",
      "24"
    ],
    [
      "0.03",
      "11"
    ],
    [
      "0.00",
      "20"
    ],
    [
      "2.",
      "4"
    ],
    [
      "1.",
      "75"
    ],
    [
      "0.00",
      "89"
    ],
    [
      "-0.00",
      "46"
    ],
    [
      "-0.00",
      "15"
    ],
    [
      "-0.09",
      "11"
    ],
    [
      "1.",
      "82"
    ],
    [
      "-1.",
      "40"
    ],
    [
      "-1.",
      "6"
    ],
    [
      "0.09",
      "11"
    ],
    [
      "-0.05",
      "21"
    ],
    [
      "-0.005",
      "6"
    ],
    [
      "0.00",
      "74"
    ],
    [
      "0.04",
      "11"
    ],
    [
      "-0.0",
      "00"
    ],
    [
      "-0.00",
      "44"
    ],
    [
      "-0.05",
      "11"
    ],
    [
      "1.",
      "8"
    ],
    [
      "-0.04",
      "11"
    ],
    [
      "-0.00",
      "85"
    ],
    [
      "0.00",
      "22"
    ],
    [
      "0.00",
      "30"
    ],
    [
      "-0.00",
      "94"
    ],
    [
      "0.00",
      "90"
    ],
    [
      "-0.06",
      "03"
    ],
    [
      "1.",
      "7"
    ],
    [
      "-1.",
      "45"
    ],
    [
      "-1.",
      "44"
    ],
    [
      "2.",
      "2"
    ],
    [
      "-0.00",
      "96"
    ],
    [
      "2.",
      "5"
    ],
    [
      "1.",
      "80"
    ],
    [
      "-1.",
      "46"
    ],
    [
      "0.00",
      "45"
    ],
    [
      "1.",
      "85"
    ],
    [
      "-0.00",
      "83"
    ],
    [
      "0.156",
      "35,</w>"
    ],
    [
      "0.04",
      "21"
    ],
    [
      "0.00",
      "7"
    ],
    [
      "0.00",
      "73"
    ],
    [
      "-0.03",
      "88"
    ],
    [
      "0.0",
      "00"
    ],
    [
      "4",
      "],</w>"
    ],
    [
      "0.02",
      "88"
    ],
    [
      "0.214",
      "47,</w>"
    ],
    [
      "-0.00",
      "89"
    ],
    [
      "0.206",
      "25,</w>"
    ],
    [
      "0.00",
      "76"
    ],
    [
      "0.00",
      "94"
    ],
    [
      "-0.00",
      "99"
    ],
    [
      "0.06",
      "88"
    ],
    [
      "0.130",
      "63,</w>"
    ],
    [
      "-0.05",
      "88"
    ],
    [
      "0.00",
      "15"
    ],
    [
      "-0.14",
      "158,</w>"
    ],
    [
      "-0.112",
      "21,</w>"
    ],
    [
      "0.00",
      "46"
    ],
    [
      "-0.04",
      "21"
    ],
    [
      "-0.12",
      "943,</w>"
    ],
    [
      "-0.005",
      "5"
    ],
    [
      "-0.20",
      "845,</w>"
    ],
    [
      "-0.09",
      "88"
    ],
    [
      "0.00",
      "10"
    ],
    [
      "-0.00",
      "45"
    ],
    [
      "-0.00",
      "80"
    ],
    [
      "0.05",
      "11"
    ],
    [
      "-0.125",
      "99,</w>"
    ],
    [
      "1.",
      "81"
    ],
    [
      "0.20",
      "364,</w>"
    ],
    [
      "0.306",
      "58,</w>"
    ],
    [
      "-0.105",
      "37,</w>"
    ],
    [
      "0.105",
      "22,</w>"
    ],
    [
      "0.1",
      "735,</w>"
    ],
    [
      "0.136",
      "63,</w>"
    ],
    [
      "0.15",
      "362,</w>"
    ],
    [
      "0.00",
      "71"
    ],
    [
      "-0.16",
      "22,</w>"
    ],
    [
      "0.15",
      "906,</w>"
    ],
    [
      "0.14",
      "304,</w>"
    ],
    [
      "0.00",
      "82"
    ],
    [
      "-0.16",
      "304,</w>"
    ],
    [
      "-0.02",
      "88"
    ],
    [
      "0.133",
      "19,</w>"
    ],
    [
      "1.",
      "71"
    ],
    [
      "1.",
      "74"
    ],
    [
      "-0.14",
      "287,</w>"
    ],
    [
      "-1.",
      "39"
    ],
    [
      "0.130",
      "93,</w>"
    ],
    [
      "-0.176",
      "65,</w>"
    ],
    [
      "-0.116",
      "66,</w>"
    ],
    [
      "2",
      "],</w>"
    ],
    [
      "-0.105",
      "97,</w>"
    ],
    [
      "-0.165",
      "33,</w>"
    ],
    [
      "-0.00",
      "13"
    ],
    [
      "0.139",
      "82,</w>"
    ],
    [
      "0.16",
      "195,</w>"
    ],
    [
      "0.15",
      "176,</w>"
    ],
    [
      "-0.15",
      "175,</w>"
    ],
    [
      "0.00",
      "44"
    ],
    [
      "0.15",
      "806,</w>"
    ],
    [
      "-0.125",
      "95,</w>"
    ],
    [
      "1.",
      "94"
    ],
    [
      "-0.120",
      "32,</w>"
    ],
    [
      "-0.00",
      "71"
    ],
    [
      "-0.02",
      "11"
    ],
    [
      "-0.00",
      "70"
    ],
    [
      "-0.116",
      "92,</w>"
    ],
    [
      "8",
      "],</w>"
    ],
    [
      "-0.15",
      "114,</w>"
    ],
    [
      "-0.10",
      "394,</w>"
    ],
    [
      "-0.00",
      "16"
    ],
    [
      "-0.106",
      "42,</w>"
    ],
    [
      "-0.15",
      "216,</w>"
    ],
    [
      "-0.123",
      "76,</w>"
    ],
    [
      "0.12",
      "781,</w>"
    ],
    [
      "-0.104",
      "28,</w>"
    ],
    [
      "-0.213",
      "65,</w>"
    ],
    [
      "3",
      "],</w>"
    ],
    [
      "-0.124",
      "89,</w>"
    ],
    [
      "-0.25",
      "166,</w>"
    ],
    [
      "-0.112",
      "6,</w>"
    ],
    [
      "0.140",
      "25,</w>"
    ],
    [
      "-0.15",
      "155,</w>"
    ],
    [
      "-0.11",
      "867,</w>"
    ],
    [
      "0.15",
      "839,</w>"
    ],
    [
      "0.159",
      "87,</w>"
    ],
    [
      "-0.23",
      "103,</w>"
    ],
    [
      "-0.00",
      "26"
    ],
    [
      "-0.00",
      "12"
    ],
    [
      "-0.15",
      "201,</w>"
    ],
    [
      "0.213",
      "85,</w>"
    ],
    [
      "0.13",
      "186,</w>"
    ],
    [
      "0.129",
      "15,</w>"
    ],
    [
      "0.106",
      "55,</w>"
    ],
    [
      "-0.100",
      "95,</w>"
    ],
    [
      "-0.134",
      "89,</w>"
    ],
    [
      "-0.179",
      "17,</w>"
    ],
    [
      "0.21",
      "717,</w>"
    ],
    [
      "-0.116",
      "33,</w>"
    ],
    [
      "-0.16",
      "346,</w>"
    ],
    [
      "0.106",
      "92,</w>"
    ],
    [
      "0.124",
      "62,</w>"
    ],
    [
      "-0.254",
      "26,</w>"
    ],
    [
      "0.18",
      "733,</w>"
    ],
    [
      "-0.00",
      "19"
    ],
    [
      "0.145",
      "6,</w>"
    ],
    [
      "0.22",
      "961,</w>"
    ],
    [
      "0.100",
      "41,</w>"
    ],
    [
      "2.",
      "3"
    ],
    [
      "0.20",
      "465,</w>"
    ],
    [
      "0.00",
      "75"
    ],
    [
      "0.00",
      "12"
    ],
    [
      "0.16",
      "445,</w>"
    ],
    [
      "0.155",
      "48,</w>"
    ],
    [
      "0.16",
      "936,</w>"
    ],
    [
      "0.214",
      "78,</w>"
    ],
    [
      "0.006",
      "0"
    ],
    [
      "0.213",
      "86,</w>"
    ],
    [
      "0.129",
      "82,</w>"
    ],
    [
      "-0.20",
      "346,</w>"
    ],
    [
      "0.103",
      "11,</w>"
    ],
    [
      "-0.180",
      "67,</w>"
    ],
    [
      "0.11",
      "745,</w>"
    ],
    [
      "0.00",
      "25"
    ],
    [
      "0.136",
      "31,</w>"
    ],
    [
      "0.103",
      "23,</w>"
    ],
    [
      "0.159",
      "29,</w>"
    ],
    [
      "-0.124",
      "76,</w>"
    ],
    [
      "0.155",
      "79,</w>"
    ],
    [
      "-0.14",
      "251,</w>"
    ],
    [
      "-0.10",
      "208,</w>"
    ],
    [
      "-0.15",
      "735,</w>"
    ],
    [
      "-0.116",
      "46,</w>"
    ],
    [
      "0.180",
      "75,</w>"
    ],
    [
      "0.139",
      "74,</w>"
    ],
    [
      "0.115",
      "46,</w>"
    ],
    [
      "-0.13",
      "851,</w>"
    ],
    [
      "0.00",
      "80"
    ],
    [
      "0.129",
      "83,</w>"
    ],
    [
      "-0.122",
      "26,</w>"
    ],
    [
      "-0.178",
      "42,</w>"
    ],
    [
      "-0.10",
      "843,</w>"
    ],
    [
      "-0.24",
      "245,</w>"
    ],
    [
      "0.16",
      "226,</w>"
    ],
    [
      "0.16",
      "778,</w>"
    ],
    [
      "0.005",
      "6"
    ],
    [
      "0.00",
      "85"
    ],
    [
      "-0.134",
      "63,</w>"
    ],
    [
      "-0.172",
      "12,</w>"
    ],
    [
      "0.166",
      "01,</w>"
    ],
    [
      "-0.13",
      "892,</w>"
    ],
    [
      "0.1",
      "124,</w>"
    ],
    [
      "-0.13",
      "72,</w>"
    ],
    [
      "-0.00",
      "36"
    ],
    [
      "0.23",
      "135,</w>"
    ],
    [
      "1.",
      "72"
    ],
    [
      "0.10",
      "288,</w>"
    ],
    [
      "-0.126",
      "12,</w>"
    ],
    [
      "-0.16",
      "555,</w>"
    ],
    [
      "-0.169",
      "18,</w>"
    ],
    [
      "-0.212",
      "25,</w>"
    ],
    [
      "0.14",
      "825,</w>"
    ],
    [
      "-0.13",
      "873,</w>"
    ],
    [
      "0.104",
      "28,</w>"
    ],
    [
      "0.00",
      "16"
    ],
    [
      "0.1",
      "396,</w>"
    ],
    [
      "0.20",
      "305,</w>"
    ],
    [
      "-0.212",
      "41,</w>"
    ],
    [
      "0.110",
      "1,</w>"
    ],
    [
      "0.12",
      "898,</w>"
    ],
    [
      "0.14",
      "795,</w>"
    ],
    [
      "-0.10",
      "765,</w>"
    ],
    [
      "-0.100",
      "15,</w>"
    ],
    [
      "-0.159",
      "71,</w>"
    ],
    [
      "-0.171",
      "76,</w>"
    ],
    [
      "-0.10",
      "4,</w>"
    ],
    [
      "-0.20",
      "192,</w>"
    ],
    [
      "0.219",
      "55,</w>"
    ],
    [
      "-0.00",
      "7"
    ],
    [
      "0.100",
      "31,</w>"
    ],
    [
      "-0.114",
      "73,</w>"
    ],
    [
      "0.213",
      "18,</w>"
    ],
    [
      "-0.11",
      "147,</w>"
    ],
    [
      "-0.145",
      "97,</w>"
    ],
    [
      "0.166",
      "71,</w>"
    ],
    [
      "0.13",
      "236,</w>"
    ],
    [
      "-0.105",
      "65,</w>"
    ],
    [
      "0.179",
      "58,</w>"
    ],
    [
      "1.",
      "90"
    ],
    [
      "0.114",
      "58,</w>"
    ],
    [
      "0.15",
      "829,</w>"
    ],
    [
      "0.125",
      "78,</w>"
    ],
    [
      "0.10",
      "135,</w>"
    ],
    [
      "-0.24",
      "804,</w>"
    ],
    [
      "0.12",
      "715,</w>"
    ],
    [
      "0.12",
      "136,</w>"
    ],
    [
      "-0.170",
      "53,</w>"
    ],
    [
      "-0.154",
      "22,</w>"
    ],
    [
      "0.213",
      "33,</w>"
    ],
    [
      "-0.15",
      "217,</w>"
    ],
    [
      "-0.182",
      "86,</w>"
    ],
    [
      "0.1",
      "748,</w>"
    ],
    [
      "-0.16",
      "203,</w>"
    ],
    [
      "0.115",
      "97,</w>"
    ],
    [
      "-0.115",
      "14,</w>"
    ],
    [
      "0.234",
      "22,</w>"
    ],
    [
      "-0.20",
      "958,</w>"
    ],
    [
      "-0.11",
      "73,</w>"
    ],
    [
      "-0.12",
      "949,</w>"
    ],
    [
      "0.106",
      "62,</w>"
    ],
    [
      "0.175",
      "39,</w>"
    ],
    [
      "0.170",
      "33,</w>"
    ],
    [
      "0.139",
      "22,</w>"
    ],
    [
      "0.10",
      "892,</w>"
    ],
    [
      "0.203",
      "82,</w>"
    ],
    [
      "0.190",
      "41,</w>"
    ],
    [
      "0.17",
      "781,</w>"
    ],
    [
      "0.220",
      "07,</w>"
    ],
    [
      "0.10",
      "966,</w>"
    ],
    [
      "0.271",
      "88,</w>"
    ],
    [
      "0.145",
      "5,</w>"
    ],
    [
      "0.12",
      "801,</w>"
    ],
    [
      "0.22",
      "196,</w>"
    ],
    [
      "0.171",
      "05,</w>"
    ],
    [
      "0.13",
      "391,</w>"
    ],
    [
      "0.25",
      "438,</w>"
    ],
    [
      "0.10",
      "953,</w>"
    ],
    [
      "-0.15",
      "442,</w>"
    ],
    [
      "0.135",
      "01,</w>"
    ],
    [
      "-0.19",
      "235,</w>"
    ],
    [
      "0.14",
      "135,</w>"
    ],
    [
      "0.00",
      "36"
    ],
    [
      "-0.223",
      "22,</w>"
    ],
    [
      "-0.172",
      "67,</w>"
    ],
    [
      "0.176",
      "76,</w>"
    ],
    [
      "0.20",
      "819,</w>"
    ],
    [
      "-0.13",
      "909,</w>"
    ],
    [
      "-0.209",
      "17,</w>"
    ],
    [
      "-0.200",
      "34,</w>"
    ],
    [
      "0.14",
      "233,</w>"
    ],
    [
      "-0.225",
      "2,</w>"
    ],
    [
      "-0.123",
      "89,</w>"
    ],
    [
      "0.259",
      "86,</w>"
    ],
    [
      "-0.14",
      "766,</w>"
    ],
    [
      "0.179",
      "17,</w>"
    ],
    [
      "-0.00",
      "20"
    ],
    [
      "0.103",
      "21,</w>"
    ],
    [
      "-0.13",
      "717,</w>"
    ],
    [
      "-0.32",
      "303,</w>"
    ],
    [
      "-0.113",
      "85,</w>"
    ],
    [
      "0.33",
      "272,</w>"
    ],
    [
      "0.113",
      "27,</w>"
    ],
    [
      "0.14",
      "203,</w>"
    ],
    [
      "0.25",
      "756,</w>"
    ],
    [
      "0.144",
      "77,</w>"
    ],
    [
      "0.120",
      "3,</w>"
    ],
    [
      "0.12",
      "707,</w>"
    ],
    [
      "0.16",
      "307,</w>"
    ],
    [
      "0.243",
      "22,</w>"
    ],
    [
      "0.211",
      "19,</w>"
    ],
    [
      "0.09",
      "21"
    ],
    [
      "-0.170",
      "96,</w>"
    ],
    [
      "0.145",
      "88,</w>"
    ],
    [
      "-0.120",
      "53,</w>"
    ],
    [
      "0.00",
      "86"
    ],
    [
      "0.195",
      "16,</w>"
    ],
    [
      "-0.13",
      "172,</w>"
    ],
    [
      "-0.100",
      "74,</w>"
    ],
    [
      "-0.125",
      "14,</w>"
    ],
    [
      "-0.25",
      "821,</w>"
    ],
    [
      "0.23",
      "139,</w>"
    ],
    [
      "-0.19",
      "193,</w>"
    ],
    [
      "-0.200",
      "47,</w>"
    ],
    [
      "-0.155",
      "09,</w>"
    ],
    [
      "0.126",
      "08,</w>"
    ],
    [
      "0.24",
      "201,</w>"
    ],
    [
      "-0.110",
      "43,</w>"
    ],
    [
      "-0.178",
      "17,</w>"
    ],
    [
      "-0.305",
      "1,</w>"
    ],
    [
      "-0.13",
      "105,</w>"
    ],
    [
      "0.144",
      "82,</w>"
    ],
    [
      "0.234",
      "52,</w>"
    ],
    [
      "-0.00",
      "22"
    ],
    [
      "-0.16",
      "242,</w>"
    ],
    [
      "0.188",
      "87,</w>"
    ],
    [
      "0.190",
      "49,</w>"
    ],
    [
      "0.119",
      "71,</w>"
    ],
    [
      "0.119",
      "72,</w>"
    ],
    [
      "-0.14",
      "152,</w>"
    ],
    [
      "-0.30",
      "289,</w>"
    ],
    [
      "-0.194",
      "61,</w>"
    ],
    [
      "-0.13",
      "282,</w>"
    ],
    [
      "-0.212",
      "28,</w>"
    ],
    [
      "-0.146",
      "23,</w>"
    ],
    [
      "0.15",
      "254,</w>"
    ],
    [
      "0.189",
      "94,</w>"
    ],
    [
      "0.12",
      "124,</w>"
    ],
    [
      "0.1",
      "738,</w>"
    ],
    [
      "-0.124",
      "1,</w>"
    ],
    [
      "-0.24",
      "959,</w>"
    ],
    [
      "0.219",
      "07,</w>"
    ],
    [
      "0.203",
      "85,</w>"
    ],
    [
      "0.165",
      "18,</w>"
    ],
    [
      "0.181",
      "84,</w>"
    ],
    [
      "-0.006",
      "5"
    ],
    [
      "-0.10",
      "235,</w>"
    ],
    [
      "0.175",
      "05,</w>"
    ],
    [
      "-0.10",
      "723,</w>"
    ],
    [
      "0.126",
      "24,</w>"
    ],
    [
      "-0.156",
      "49,</w>"
    ],
    [
      "-0.166",
      "39,</w>"
    ],
    [
      "-0.13",
      "349,</w>"
    ],
    [
      "0.235",
      "41,</w>"
    ],
    [
      "0.15",
      "299,</w>"
    ],
    [
      "-0.206",
      "71,</w>"
    ],
    [
      "-0.233",
      "87,</w>"
    ],
    [
      "-0.109",
      "2,</w>"
    ],
    [
      "0.100",
      "51,</w>"
    ],
    [
      "-0.14",
      "354,</w>"
    ],
    [
      "-0.03",
      "21"
    ],
    [
      "0.130",
      "81,</w>"
    ],
    [
      "-0.164",
      "79,</w>"
    ],
    [
      "-0.104",
      "04,</w>"
    ],
    [
      "-0.194",
      "07,</w>"
    ],
    [
      "0.1",
      "232,</w>"
    ],
    [
      "-0.20",
      "724,</w>"
    ],
    [
      "0.16",
      "041,</w>"
    ],
    [
      "-0.139",
      "85,</w>"
    ],
    [
      "0.100",
      "74,</w>"
    ],
    [
      "0.170",
      "37,</w>"
    ],
    [
      "-0.189",
      "44,</w>"
    ],
    [
      "-0.180",
      "05,</w>"
    ],
    [
      "0.120",
      "17,</w>"
    ],
    [
      "-0.04",
      "88"
    ],
    [
      "-0.16",
      "107,</w>"
    ],
    [
      "0.15",
      "096,</w>"
    ],
    [
      "0.116",
      "98,</w>"
    ],
    [
      "-0.15",
      "773,</w>"
    ],
    [
      "0.183",
      "55,</w>"
    ],
    [
      "-0.10",
      "991,</w>"
    ],
    [
      "-0.16",
      "458,</w>"
    ],
    [
      "0.16",
      "563,</w>"
    ],
    [
      "-0.100",
      "25,</w>"
    ],
    [
      "0.14",
      "244,</w>"
    ],
    [
      "-0.136",
      "91,</w>"
    ],
    [
      "-0.15",
      "774,</w>"
    ],
    [
      "0.121",
      "82,</w>"
    ],
    [
      "-0.12",
      "85,</w>"
    ],
    [
      "0.16",
      "16,</w>"
    ],
    [
      "0.170",
      "39,</w>"
    ],
    [
      "0.12",
      "884,</w>"
    ],
    [
      "0.135",
      "87,</w>"
    ],
    [
      "-0.225",
      "79,</w>"
    ],
    [
      "-0.14",
      "454,</w>"
    ],
    [
      "-0.16",
      "74,</w>"
    ],
    [
      "-0.13",
      "782,</w>"
    ],
    [
      "0.15",
      "499,</w>"
    ],
    [
      "-0.155",
      "31,</w>"
    ],
    [
      "0.211",
      "76,</w>"
    ],
    [
      "0.103",
      "25,</w>"
    ],
    [
      "0.179",
      "52,</w>"
    ],
    [
      "-0.110",
      "62,</w>"
    ],
    [
      "0.200",
      "91,</w>"
    ],
    [
      "-0.13",
      "772,</w>"
    ],
    [
      "-0.09",
      "21"
    ],
    [
      "0.145",
      "23,</w>"
    ],
    [
      "0.10",
      "114,</w>"
    ],
    [
      "-0.16",
      "739,</w>"
    ],
    [
      "-0.16",
      "166,</w>"
    ],
    [
      "-0.111",
      "85,</w>"
    ],
    [
      "-0.16",
      "16,</w>"
    ],
    [
      "-0.134",
      "62,</w>"
    ],
    [
      "0.15",
      "5,</w>"
    ],
    [
      "0.172",
      "55,</w>"
    ],
    [
      "0.15",
      "834,</w>"
    ],
    [
      "0.12",
      "887,</w>"
    ],
    [
      "-0.14",
      "053,</w>"
    ],
    [
      "0.134",
      "34,</w>"
    ],
    [
      "-0.146",
      "12,</w>"
    ],
    [
      "0.115",
      "28,</w>"
    ],
    [
      "0.13",
      "72,</w>"
    ],
    [
      "0.175",
      "08,</w>"
    ],
    [
      "-0.15",
      "182,</w>"
    ],
    [
      "-0.12",
      "355,</w>"
    ],
    [
      "0.100",
      "56,</w>"
    ],
    [
      "0.16",
      "169,</w>"
    ],
    [
      "-0.126",
      "79,</w>"
    ],
    [
      "-0.13",
      "875,</w>"
    ],
    [
      "0.16",
      "739,</w>"
    ],
    [
      "0.294",
      "23,</w>"
    ],
    [
      "0.169",
      "79,</w>"
    ],
    [
      "0.10",
      "235,</w>"
    ],
    [
      "0.119",
      "04,</w>"
    ],
    [
      "0.144",
      "5,</w>"
    ],
    [
      "-0.172",
      "62,</w>"
    ],
    [
      "0.11",
      "129,</w>"
    ],
    [
      "0.134",
      "2,</w>"
    ],
    [
      "-0.279",
      "36,</w>"
    ],
    [
      "0.12",
      "864,</w>"
    ],
    [
      "0.174",
      "98,</w>"
    ],
    [
      "-0.23",
      "717,</w>"
    ],
    [
      "0.16",
      "997,</w>"
    ],
    [
      "0.315",
      "39,</w>"
    ],
    [
      "0.185",
      "48,</w>"
    ],
    [
      "-0.26",
      "51,</w>"
    ],
    [
      "0.205",
      "32,</w>"
    ],
    [
      "0.11",
      "135,</w>"
    ],
    [
      "-0.135",
      "82,</w>"
    ],
    [
      "-0.103",
      "24,</w>"
    ],
    [
      "0.305",
      "54,</w>"
    ],
    [
      "0.145",
      "81,</w>"
    ],
    [
      "-0.00",
      "75"
    ],
    [
      "-0.18",
      "803,</w>"
    ],
    [
      "-0.23",
      "829,</w>"
    ],
    [
      "-0.190",
      "51,</w>"
    ],
    [
      "0.10",
      "88,</w>"
    ],
    [
      "-0.10",
      "775,</w>"
    ],
    [
      "0.104",
      "7,</w>"
    ],
    [
      "-0.134",
      "61,</w>"
    ],
    [
      "-0.15",
      "465,</w>"
    ],
    [
      "0.1",
      "211,</w>"
    ],
    [
      "-0.11",
      "711,</w>"
    ],
    [
      "0.11",
      "744,</w>"
    ],
    [
      "0.11",
      "722,</w>"
    ],
    [
      "0.15",
      "453,</w>"
    ],
    [
      "-0.23",
      "906,</w>"
    ],
    [
      "0.100",
      "25,</w>"
    ],
    [
      "0.203",
      "14,</w>"
    ],
    [
      "0.122",
      "86,</w>"
    ],
    [
      "-0.171",
      "74,</w>"
    ],
    [
      "-0.196",
      "53,</w>"
    ],
    [
      "-0.10",
      "172,</w>"
    ],
    [
      "0.14",
      "861,</w>"
    ],
    [
      "0.005",
      "4"
    ],
    [
      "-0.10",
      "141,</w>"
    ],
    [
      "0.156",
      "18,</w>"
    ],
    [
      "-0.11",
      "773,</w>"
    ],
    [
      "-0.10",
      "965,</w>"
    ],
    [
      "0.133",
      "88,</w>"
    ],
    [
      "0.135",
      "54,</w>"
    ],
    [
      "0.146",
      "09,</w>"
    ],
    [
      "0.110",
      "85,</w>"
    ],
    [
      "0.110",
      "84,</w>"
    ],
    [
      "-0.16",
      "791,</w>"
    ],
    [
      "-0.14",
      "11,</w>"
    ],
    [
      "-0.119",
      "31,</w>"
    ],
    [
      "0.13",
      "362,</w>"
    ],
    [
      "0.29",
      "395,</w>"
    ],
    [
      "0.00",
      "81"
    ],
    [
      "0.13",
      "301,</w>"
    ],
    [
      "0.145",
      "13,</w>"
    ],
    [
      "-0.125",
      "29,</w>"
    ],
    [
      "0.15",
      "955,</w>"
    ],
    [
      "0.271",
      "72,</w>"
    ],
    [
      "0.11",
      "768,</w>"
    ],
    [
      "0.134",
      "16,</w>"
    ],
    [
      "-0.10",
      "904,</w>"
    ],
    [
      "-0.184",
      "35,</w>"
    ],
    [
      "-0.11",
      "766,</w>"
    ],
    [
      "0.10",
      "296,</w>"
    ],
    [
      "1.",
      "79"
    ],
    [
      "-0.200",
      "42,</w>"
    ],
    [
      "0.145",
      "44,</w>"
    ],
    [
      "0.234",
      "61,</w>"
    ],
    [
      "0.210",
      "05,</w>"
    ],
    [
      "0.10",
      "872,</w>"
    ],
    [
      "0.19",
      "748,</w>"
    ],
    [
      "0.100",
      "83,</w>"
    ],
    [
      "-0.17",
      "777,</w>"
    ],
    [
      "0.275",
      "53,</w>"
    ],
    [
      "-0.11",
      "778,</w>"
    ],
    [
      "-0.166",
      "34,</w>"
    ],
    [
      "-0.15",
      "174,</w>"
    ],
    [
      "0.219",
      "81,</w>"
    ],
    [
      "-0.1",
      "333,</w>"
    ],
    [
      "0.15",
      "394,</w>"
    ],
    [
      "0.12",
      "148,</w>"
    ],
    [
      "-0.06",
      "88"
    ],
    [
      "0.20",
      "144,</w>"
    ],
    [
      "0.135",
      "97,</w>"
    ],
    [
      "0.21",
      "845,</w>"
    ],
    [
      "0.199",
      "81,</w>"
    ],
    [
      "0.14",
      "294,</w>"
    ],
    [
      "-0.1",
      "76,</w>"
    ],
    [
      "-0.14",
      "104,</w>"
    ],
    [
      "-0.14",
      "271,</w>"
    ],
    [
      "-0.00",
      "95"
    ],
    [
      "0.143",
      "9,</w>"
    ],
    [
      "0.226",
      "58,</w>"
    ],
    [
      "0.153",
      "81,</w>"
    ],
    [
      "0.16",
      "065,</w>"
    ],
    [
      "0.181",
      "37,</w>"
    ],
    [
      "-0.16",
      "874,</w>"
    ],
    [
      "0.14",
      "872,</w>"
    ],
    [
      "0.172",
      "54,</w>"
    ],
    [
      "0.116",
      "59,</w>"
    ],
    [
      "-0.10",
      "23,</w>"
    ],
    [
      "-0.14",
      "897,</w>"
    ],
    [
      "-0.19",
      "83,</w>"
    ],
    [
      "0.196",
      "61,</w>"
    ],
    [
      "0.2",
      "04,</w>"
    ],
    [
      "0.130",
      "52,</w>"
    ],
    [
      "-0.14",
      "781,</w>"
    ],
    [
      "-0.103",
      "11,</w>"
    ],
    [
      "0.114",
      "85,</w>"
    ],
    [
      "-0.125",
      "37,</w>"
    ],
    [
      "-0.13",
      "272,</w>"
    ],
    [
      "-0.290",
      "15,</w>"
    ],
    [
      "0.103",
      "17,</w>"
    ],
    [
      "0.155",
      "71,</w>"
    ],
    [
      "-0.24",
      "775,</w>"
    ],
    [
      "-0.15",
      "463,</w>"
    ],
    [
      "0.178",
      "06,</w>"
    ],
    [
      "0.16",
      "167,</w>"
    ],
    [
      "-0.19",
      "253,</w>"
    ],
    [
      "-0.115",
      "28,</w>"
    ],
    [
      "-0.379",
      "06,</w>"
    ],
    [
      "0.14",
      "303,</w>"
    ],
    [
      "-0.104",
      "15,</w>"
    ],
    [
      "0.1",
      "126,</w>"
    ],
    [
      "-0.212",
      "16,</w>"
    ],
    [
      "0.109",
      "85,</w>"
    ],
    [
      "0.20",
      "843,</w>"
    ],
    [
      "0.34",
      "139,</w>"
    ],
    [
      "0.156",
      "95,</w>"
    ],
    [
      "-0.123",
      "77,</w>"
    ],
    [
      "-0.136",
      "55,</w>"
    ],
    [
      "-0.282",
      "93,</w>"
    ],
    [
      "-0.24",
      "235,</w>"
    ],
    [
      "-0.136",
      "46,</w>"
    ],
    [
      "-0.10",
      "284,</w>"
    ],
    [
      "-0.156",
      "41,</w>"
    ],
    [
      "-0.145",
      "81,</w>"
    ],
    [
      "0.124",
      "41,</w>"
    ],
    [
      "-0.14",
      "958,</w>"
    ],
    [
      "0.11",
      "128,</w>"
    ],
    [
      "0.145",
      "67,</w>"
    ],
    [
      "-0.172",
      "14,</w>"
    ],
    [
      "0.105",
      "37,</w>"
    ],
    [
      "0.23",
      "785,</w>"
    ],
    [
      "0.14",
      "991,</w>"
    ],
    [
      "-0.13",
      "704,</w>"
    ],
    [
      "0.110",
      "95,</w>"
    ],
    [
      "0.10",
      "758,</w>"
    ],
    [
      "-0.146",
      "67,</w>"
    ],
    [
      "0.14",
      "268,</w>"
    ],
    [
      "0.12",
      "727,</w>"
    ],
    [
      "-0.100",
      "71,</w>"
    ],
    [
      "-0.25",
      "827,</w>"
    ],
    [
      "-0.119",
      "45,</w>"
    ],
    [
      "0.16",
      "185,</w>"
    ],
    [
      "0.185",
      "86,</w>"
    ],
    [
      "-0.19",
      "738,</w>"
    ],
    [
      "-0.175",
      "62,</w>"
    ],
    [
      "-0.32",
      "138,</w>"
    ],
    [
      "-0.19",
      "955,</w>"
    ],
    [
      "0.112",
      "55,</w>"
    ],
    [
      "0.206",
      "83,</w>"
    ],
    [
      "-0.166",
      "7,</w>"
    ],
    [
      "-0.169",
      "28,</w>"
    ],
    [
      "-0.140",
      "34,</w>"
    ],
    [
      "0.112",
      "16,</w>"
    ],
    [
      "-0.105",
      "5,</w>"
    ],
    [
      "0.163",
      "75,</w>"
    ],
    [
      "-0.175",
      "08,</w>"
    ],
    [
      "-0.100",
      "24,</w>"
    ],
    [
      "0.1",
      "931,</w>"
    ],
    [
      "-0.10",
      "887,</w>"
    ],
    [
      "-0.1",
      "795,</w>"
    ],
    [
      "0.14",
      "186,</w>"
    ],
    [
      "-0.179",
      "49,</w>"
    ],
    [
      "0.15",
      "794,</w>"
    ],
    [
      "-0.14",
      "213,</w>"
    ],
    [
      "-0.112",
      "29,</w>"
    ],
    [
      "-0.316",
      "34,</w>"
    ],
    [
      "-0.1",
      "744,</w>"
    ],
    [
      "-0.215",
      "04,</w>"
    ],
    [
      "0.115",
      "79,</w>"
    ],
    [
      "-0.10",
      "142,</w>"
    ],
    [
      "0.196",
      "88,</w>"
    ],
    [
      "-0.24",
      "864,</w>"
    ],
    [
      "-0.239",
      "76,</w>"
    ],
    [
      "-0.16",
      "761,</w>"
    ],
    [
      "-0.10",
      "348,</w>"
    ],
    [
      "0.143",
      "16,</w>"
    ],
    [
      "-0.135",
      "56,</w>"
    ],
    [
      "-0.166",
      "81,</w>"
    ],
    [
      "-0.183",
      "55,</w>"
    ],
    [
      "0.216",
      "23,</w>"
    ],
    [
      "-0.113",
      "64,</w>"
    ],
    [
      "0.200",
      "23,</w>"
    ],
    [
      "0.121",
      "73,</w>"
    ],
    [
      "0.39",
      "331,</w>"
    ],
    [
      "-0.19",
      "854,</w>"
    ],
    [
      "0.15",
      "894,</w>"
    ],
    [
      "0.130",
      "32,</w>"
    ],
    [
      "-0.110",
      "74,</w>"
    ],
    [
      "0.104",
      "26,</w>"
    ],
    [
      "-0.22",
      "749,</w>"
    ],
    [
      "0.155",
      "75,</w>"
    ],
    [
      "0.14",
      "285,</w>"
    ],
    [
      "-0.134",
      "35,</w>"
    ],
    [
      "0.18",
      "837,</w>"
    ],
    [
      "0.176",
      "95,</w>"
    ],
    [
      "-0.23",
      "398,</w>"
    ],
    [
      "-0.13",
      "195,</w>"
    ],
    [
      "0.17",
      "722,</w>"
    ],
    [
      "0.189",
      "35,</w>"
    ],
    [
      "-0.14",
      "73,</w>"
    ],
    [
      "0.165",
      "45,</w>"
    ],
    [
      "-0.21",
      "843,</w>"
    ],
    [
      "-0.13",
      "204,</w>"
    ],
    [
      "0.199",
      "2,</w>"
    ],
    [
      "-0.13",
      "192,</w>"
    ],
    [
      "-0.14",
      "79,</w>"
    ],
    [
      "0.30",
      "185,</w>"
    ],
    [
      "-0.178",
      "18,</w>"
    ],
    [
      "-0.10",
      "946,</w>"
    ],
    [
      "-0.120",
      "8,</w>"
    ],
    [
      "-0.159",
      "86,</w>"
    ],
    [
      "-0.236",
      "45,</w>"
    ],
    [
      "0.114",
      "16,</w>"
    ],
    [
      "0.333",
      "16,</w>"
    ],
    [
      "-0.26",
      "783,</w>"
    ],
    [
      "-0.180",
      "09,</w>"
    ],
    [
      "-0.10",
      "396,</w>"
    ],
    [
      "-0.121",
      "71,</w>"
    ],
    [
      "0.16",
      "39,</w>"
    ],
    [
      "0.20",
      "109,</w>"
    ],
    [
      "0.286",
      "54,</w>"
    ],
    [
      "-0.160",
      "73,</w>"
    ],
    [
      "0.23",
      "838,</w>"
    ],
    [
      "-0.105",
      "42,</w>"
    ],
    [
      "-0.36",
      "009,</w>"
    ],
    [
      "-0.123",
      "14,</w>"
    ],
    [
      "0.114",
      "84,</w>"
    ],
    [
      "0.134",
      "08,</w>"
    ],
    [
      "0.16",
      "726,</w>"
    ],
    [
      "-0.129",
      "86,</w>"
    ],
    [
      "-0.210",
      "99,</w>"
    ],
    [
      "-0.222",
      "51,</w>"
    ],
    [
      "0.166",
      "12,</w>"
    ],
    [
      "0.23",
      "148,</w>"
    ],
    [
      "-0.244",
      "11,</w>"
    ],
    [
      "0.225",
      "1,</w>"
    ],
    [
      "0.154",
      "15,</w>"
    ],
    [
      "0.12",
      "788,</w>"
    ],
    [
      "-0.176",
      "63,</w>"
    ],
    [
      "-0.219",
      "27,</w>"
    ],
    [
      "0.172",
      "06,</w>"
    ],
    [
      "0.15",
      "81,</w>"
    ],
    [
      "0.10",
      "82,</w>"
    ],
    [
      "-0.113",
      "45,</w>"
    ],
    [
      "0.149",
      "24,</w>"
    ],
    [
      "-0.15",
      "714,</w>"
    ],
    [
      "0.16",
      "241,</w>"
    ],
    [
      "0.136",
      "42,</w>"
    ],
    [
      "0.174",
      "37,</w>"
    ],
    [
      "-0.125",
      "31,</w>"
    ],
    [
      "-0.116",
      "05,</w>"
    ],
    [
      "0.14",
      "961,</w>"
    ],
    [
      "0.179",
      "86,</w>"
    ],
    [
      "0.10",
      "109,</w>"
    ],
    [
      "0.34",
      "069,</w>"
    ],
    [
      "0.22",
      "138,</w>"
    ],
    [
      "-0.122",
      "64,</w>"
    ],
    [
      "0.14",
      "122,</w>"
    ],
    [
      "-0.214",
      "26,</w>"
    ],
    [
      "0.13",
      "769,</w>"
    ],
    [
      "0.10",
      "217,</w>"
    ],
    [
      "0.229",
      "28,</w>"
    ],
    [
      "-0.119",
      "01,</w>"
    ],
    [
      "0.10",
      "451,</w>"
    ],
    [
      "-0.16",
      "102,</w>"
    ],
    [
      "0.135",
      "69,</w>"
    ],
    [
      "-0.16",
      "932,</w>"
    ],
    [
      "-0.12",
      "81,</w>"
    ],
    [
      "-0.186",
      "49,</w>"
    ],
    [
      "0.14",
      "219,</w>"
    ],
    [
      "-0.15",
      "84,</w>"
    ],
    [
      "0.222",
      "73,</w>"
    ],
    [
      "0.10",
      "255,</w>"
    ],
    [
      "0.124",
      "48,</w>"
    ],
    [
      "-0.14",
      "805,</w>"
    ],
    [
      "0.16",
      "457,</w>"
    ],
    [
      "0.1",
      "934,</w>"
    ],
    [
      "-0.112",
      "57,</w>"
    ],
    [
      "0.224",
      "93,</w>"
    ],
    [
      "-0.120",
      "92,</w>"
    ],
    [
      "-0.13",
      "71,</w>"
    ],
    [
      "0.254",
      "74,</w>"
    ],
    [
      "-0.171",
      "92,</w>"
    ],
    [
      "-0.166",
      "56,</w>"
    ],
    [
      "-0.19",
      "337,</w>"
    ],
    [
      "0.186",
      "46,</w>"
    ],
    [
      "0.10",
      "191,</w>"
    ],
    [
      "-0.26",
      "768,</w>"
    ],
    [
      "-0.23",
      "801,</w>"
    ],
    [
      "0.00",
      "99"
    ],
    [
      "0.10",
      "932,</w>"
    ],
    [
      "-0.10",
      "74,</w>"
    ],
    [
      "0.20",
      "117,</w>"
    ],
    [
      "0.183",
      "81,</w>"
    ],
    [
      "-0.220",
      "61,</w>"
    ],
    [
      "0.125",
      "65,</w>"
    ],
    [
      "0.11",
      "102,</w>"
    ],
    [
      "-0.160",
      "74,</w>"
    ],
    [
      "0.26",
      "269,</w>"
    ],
    [
      "0.05",
      "88"
    ],
    [
      "-0.13",
      "104,</w>"
    ],
    [
      "-0.15",
      "441,</w>"
    ],
    [
      "-0.113",
      "51,</w>"
    ],
    [
      "0.271",
      "79,</w>"
    ],
    [
      "0.180",
      "84,</w>"
    ],
    [
      "0.203",
      "3,</w>"
    ],
    [
      "0.14",
      "842,</w>"
    ],
    [
      "0.113",
      "69,</w>"
    ],
    [
      "0.120",
      "69,</w>"
    ],
    [
      "-0.10",
      "188,</w>"
    ],
    [
      "0.16",
      "444,</w>"
    ],
    [
      "-0.146",
      "17,</w>"
    ],
    [
      "-0.345",
      "2,</w>"
    ],
    [
      "0.26",
      "352,</w>"
    ],
    [
      "-0.175",
      "36,</w>"
    ],
    [
      "0.13",
      "179,</w>"
    ],
    [
      "-0.109",
      "11,</w>"
    ],
    [
      "0.213",
      "93,</w>"
    ],
    [
      "0.1",
      "701,</w>"
    ],
    [
      "-0.15",
      "752,</w>"
    ],
    [
      "0.211",
      "78,</w>"
    ],
    [
      "0.00",
      "70"
    ],
    [
      "-0.19",
      "369,</w>"
    ],
    [
      "-0.183",
      "18,</w>"
    ],
    [
      "-0.19",
      "298,</w>"
    ],
    [
      "-0.19",
      "234,</w>"
    ],
    [
      "0.116",
      "64,</w>"
    ],
    [
      "0.10",
      "263,</w>"
    ],
    [
      "0.136",
      "25,</w>"
    ],
    [
      "-0.113",
      "17,</w>"
    ],
    [
      "-0.134",
      "44,</w>"
    ],
    [
      "0.16",
      "851,</w>"
    ],
    [
      "-0.326",
      "42,</w>"
    ],
    [
      "-0.10",
      "763,</w>"
    ],
    [
      "0.165",
      "16,</w>"
    ],
    [
      "-0.134",
      "77,</w>"
    ],
    [
      "0.15",
      "233,</w>"
    ],
    [
      "0.14",
      "261,</w>"
    ],
    [
      "0.165",
      "08,</w>"
    ],
    [
      "0.12",
      "144,</w>"
    ],
    [
      "-0.122",
      "46,</w>"
    ],
    [
      "0.156",
      "43,</w>"
    ],
    [
      "0.106",
      "4,</w>"
    ],
    [
      "-0.15",
      "838,</w>"
    ],
    [
      "-0.100",
      "69,</w>"
    ],
    [
      "0.11",
      "777,</w>"
    ],
    [
      "-0.104",
      "08,</w>"
    ],
    [
      "0.185",
      "33,</w>"
    ],
    [
      "-0.222",
      "46,</w>"
    ],
    [
      "0.174",
      "82,</w>"
    ],
    [
      "0.12",
      "757,</w>"
    ],
    [
      "-0.14",
      "946,</w>"
    ],
    [
      "0.25",
      "964,</w>"
    ],
    [
      "-0.255",
      "8,</w>"
    ],
    [
      "-0.22",
      "968,</w>"
    ],
    [
      "0.14",
      "847,</w>"
    ],
    [
      "0.224",
      "89,</w>"
    ],
    [
      "-0.16",
      "741,</w>"
    ],
    [
      "-0.13",
      "756,</w>"
    ],
    [
      "0.144",
      "45,</w>"
    ],
    [
      "0.006",
      "5"
    ],
    [
      "-0.11",
      "734,</w>"
    ],
    [
      "0.115",
      "44,</w>"
    ],
    [
      "0.26",
      "032,</w>"
    ],
    [
      "0.1",
      "732,</w>"
    ],
    [
      "-0.13",
      "898,</w>"
    ],
    [
      "1.",
      "86"
    ],
    [
      "-0.11",
      "806,</w>"
    ],
    [
      "0.136",
      "35,</w>"
    ],
    [
      "-0.105",
      "55,</w>"
    ],
    [
      "0.115",
      "21,</w>"
    ],
    [
      "-0.165",
      "24,</w>"
    ],
    [
      "0.13",
      "943,</w>"
    ],
    [
      "-0.14",
      "999,</w>"
    ],
    [
      "-0.166",
      "85,</w>"
    ],
    [
      "0.14",
      "756,</w>"
    ],
    [
      "0.14",
      "146,</w>"
    ],
    [
      "-0.120",
      "49,</w>"
    ],
    [
      "-0.19",
      "81,</w>"
    ],
    [
      "0.11",
      "864,</w>"
    ],
    [
      "0.124",
      "54,</w>"
    ],
    [
      "-0.19",
      "338,</w>"
    ],
    [
      "0.15",
      "336,</w>"
    ],
    [
      "0.14",
      "824,</w>"
    ],
    [
      "0.206",
      "97,</w>"
    ],
    [
      "0.16",
      "248,</w>"
    ],
    [
      "-0.10",
      "838,</w>"
    ],
    [
      "0.10",
      "127,</w>"
    ],
    [
      "-0.149",
      "73,</w>"
    ],
    [
      "0.00",
      "35"
    ],
    [
      "-0.121",
      "77,</w>"
    ],
    [
      "0.214",
      "46,</w>"
    ],
    [
      "-0.13",
      "752,</w>"
    ],
    [
      "0.149",
      "14,</w>"
    ],
    [
      "0.23",
      "298,</w>"
    ],
    [
      "-0.15",
      "754,</w>"
    ],
    [
      "-0.226",
      "91,</w>"
    ],
    [
      "0.14",
      "451,</w>"
    ],
    [
      "-0.106",
      "38,</w>"
    ],
    [
      "-0.156",
      "08,</w>"
    ],
    [
      "0.12",
      "842,</w>"
    ],
    [
      "-0.124",
      "65,</w>"
    ],
    [
      "0.14",
      "858,</w>"
    ],
    [
      "-0.16",
      "033,</w>"
    ],
    [
      "0.154",
      "74,</w>"
    ],
    [
      "0.155",
      "1,</w>"
    ],
    [
      "-0.10",
      "796,</w>"
    ],
    [
      "0.28",
      "834,</w>"
    ],
    [
      "-0.26",
      "555,</w>"
    ],
    [
      "0.224",
      "34,</w>"
    ],
    [
      "-0.146",
      "41,</w>"
    ],
    [
      "0.114",
      "18,</w>"
    ],
    [
      "0.124",
      "55,</w>"
    ],
    [
      "-0.273",
      "28,</w>"
    ],
    [
      "-0.136",
      "93,</w>"
    ],
    [
      "-0.15",
      "446,</w>"
    ],
    [
      "-0.116",
      "68,</w>"
    ],
    [
      "0.269",
      "78,</w>"
    ],
    [
      "-0.100",
      "34,</w>"
    ],
    [
      "-0.11",
      "869,</w>"
    ],
    [
      "-0.11",
      "878,</w>"
    ],
    [
      "0.10",
      "265,</w>"
    ],
    [
      "-0.106",
      "41,</w>"
    ],
    [
      "-0.11",
      "716,</w>"
    ],
    [
      "-0.156",
      "79,</w>"
    ],
    [
      "-0.16",
      "746,</w>"
    ],
    [
      "0.119",
      "18,</w>"
    ],
    [
      "0.105",
      "53,</w>"
    ],
    [
      "0.195",
      "91,</w>"
    ],
    [
      "-0.12",
      "343,</w>"
    ],
    [
      "-0.16",
      "794,</w>"
    ],
    [
      "0.122",
      "3,</w>"
    ],
    [
      "-0.112",
      "32,</w>"
    ],
    [
      "-0.104",
      "31,</w>"
    ],
    [
      "-0.294",
      "05,</w>"
    ],
    [
      "0.112",
      "44,</w>"
    ],
    [
      "-0.23",
      "244,</w>"
    ],
    [
      "0.109",
      "5,</w>"
    ],
    [
      "-0.115",
      "96,</w>"
    ],
    [
      "-0.112",
      "48,</w>"
    ],
    [
      "-0.174",
      "77,</w>"
    ],
    [
      "0.222",
      "24,</w>"
    ],
    [
      "-0.160",
      "21,</w>"
    ],
    [
      "0.182",
      "82,</w>"
    ],
    [
      "-0.155",
      "18,</w>"
    ],
    [
      "0.164",
      "89,</w>"
    ],
    [
      "0.29",
      "834,</w>"
    ],
    [
      "-0.136",
      "78,</w>"
    ],
    [
      "-0.156",
      "73,</w>"
    ],
    [
      "-0.12",
      "813,</w>"
    ],
    [
      "-0.116",
      "41,</w>"
    ],
    [
      "-0.196",
      "48,</w>"
    ],
    [
      "-0.11",
      "701,</w>"
    ],
    [
      "0.134",
      "72,</w>"
    ],
    [
      "0.256",
      "38,</w>"
    ],
    [
      "0.15",
      "752,</w>"
    ],
    [
      "0.19",
      "118,</w>"
    ],
    [
      "-0.179",
      "47,</w>"
    ],
    [
      "-0.200",
      "36,</w>"
    ],
    [
      "-0.30",
      "773,</w>"
    ],
    [
      "-0.144",
      "21,</w>"
    ],
    [
      "0.126",
      "42,</w>"
    ],
    [
      "-0.195",
      "55,</w>"
    ],
    [
      "0.136",
      "18,</w>"
    ],
    [
      "-0.116",
      "07,</w>"
    ],
    [
      "0.146",
      "33,</w>"
    ],
    [
      "0.1",
      "795,</w>"
    ],
    [
      "-0.25",
      "25,</w>"
    ],
    [
      "0.2",
      "125,</w>"
    ],
    [
      "0.16",
      "254,</w>"
    ],
    [
      "0.13",
      "713,</w>"
    ],
    [
      "0.125",
      "2,</w>"
    ],
    [
      "0.13",
      "776,</w>"
    ],
    [
      "0.140",
      "5,</w>"
    ],
    [
      "0.10",
      "219,</w>"
    ],
    [
      "-0.19",
      "138,</w>"
    ],
    [
      "0.120",
      "4,</w>"
    ],
    [
      "0.25",
      "995,</w>"
    ],
    [
      "-0.195",
      "16,</w>"
    ],
    [
      "-0.12",
      "837,</w>"
    ],
    [
      "0.14",
      "903,</w>"
    ],
    [
      "-0.116",
      "8,</w>"
    ],
    [
      "-0.22",
      "786,</w>"
    ],
    [
      "-0.113",
      "72,</w>"
    ],
    [
      "-0.113",
      "05,</w>"
    ],
    [
      "-0.126",
      "34,</w>"
    ],
    [
      "-0.21",
      "753,</w>"
    ],
    [
      "0.28",
      "813,</w>"
    ],
    [
      "0.16",
      "821,</w>"
    ],
    [
      "0.10",
      "106,</w>"
    ],
    [
      "0.17",
      "733,</w>"
    ],
    [
      "0.114",
      "38,</w>"
    ],
    [
      "0.136",
      "62,</w>"
    ],
    [
      "0.16",
      "441,</w>"
    ],
    [
      "0.14",
      "808,</w>"
    ],
    [
      "-0.263",
      "22,</w>"
    ],
    [
      "0.16",
      "703,</w>"
    ],
    [
      "-0.23",
      "349,</w>"
    ],
    [
      "0.116",
      "26,</w>"
    ],
    [
      "0.136",
      "9,</w>"
    ],
    [
      "-0.189",
      "58,</w>"
    ],
    [
      "0.15",
      "781,</w>"
    ],
    [
      "-0.193",
      "19,</w>"
    ],
    [
      "0.166",
      "55,</w>"
    ],
    [
      "-0.145",
      "64,</w>"
    ],
    [
      "0.155",
      "41,</w>"
    ],
    [
      "-0.214",
      "51,</w>"
    ],
    [
      "0.04",
      "88"
    ],
    [
      "0.10",
      "6,</w>"
    ],
    [
      "-0.236",
      "6,</w>"
    ],
    [
      "0.113",
      "08,</w>"
    ],
    [
      "0.13",
      "229,</w>"
    ],
    [
      "0.30",
      "183,</w>"
    ],
    [
      "0.28",
      "819,</w>"
    ],
    [
      "0.154",
      "11,</w>"
    ],
    [
      "0.11",
      "158,</w>"
    ],
    [
      "-0.136",
      "63,</w>"
    ],
    [
      "-0.273",
      "73,</w>"
    ],
    [
      "0.186",
      "98,</w>"
    ],
    [
      "-0.245",
      "01,</w>"
    ],
    [
      "-0.28",
      "748,</w>"
    ],
    [
      "-0.14",
      "944,</w>"
    ],
    [
      "-0.196",
      "09,</w>"
    ],
    [
      "0.200",
      "81,</w>"
    ],
    [
      "0.296",
      "29,</w>"
    ],
    [
      "-0.1",
      "781,</w>"
    ],
    [
      "-0.175",
      "19,</w>"
    ],
    [
      "0.119",
      "53,</w>"
    ],
    [
      "-0.129",
      "93,</w>"
    ],
    [
      "-0.00",
      "73"
    ],
    [
      "0.13",
      "272,</w>"
    ],
    [
      "0.15",
      "34,</w>"
    ],
    [
      "0.10",
      "798,</w>"
    ],
    [
      "0.19",
      "121,</w>"
    ],
    [
      "0.15",
      "039,</w>"
    ],
    [
      "0.134",
      "47,</w>"
    ],
    [
      "-0.13",
      "773,</w>"
    ],
    [
      "0.189",
      "28,</w>"
    ],
    [
      "-0.00",
      "76"
    ],
    [
      "0.00",
      "96"
    ],
    [
      "0.18",
      "758,</w>"
    ],
    [
      "0.135",
      "13,</w>"
    ],
    [
      "-0.19",
      "118,</w>"
    ],
    [
      "0.3",
      "094,</w>"
    ],
    [
      "-0.15",
      "839,</w>"
    ],
    [
      "0.195",
      "06,</w>"
    ],
    [
      "0.236",
      "65,</w>"
    ],
    [
      "0.140",
      "32,</w>"
    ],
    [
      "-0.25",
      "394,</w>"
    ],
    [
      "0.22",
      "943,</w>"
    ],
    [
      "0.20",
      "758,</w>"
    ],
    [
      "0.304",
      "35,</w>"
    ],
    [
      "-0.12",
      "955,</w>"
    ],
    [
      "-0.11",
      "845,</w>"
    ],
    [
      "-0.25",
      "158,</w>"
    ],
    [
      "-0.183",
      "27,</w>"
    ],
    [
      "-0.19",
      "742,</w>"
    ],
    [
      "-0.144",
      "23,</w>"
    ],
    [
      "-0.246",
      "89,</w>"
    ],
    [
      "-0.12",
      "793,</w>"
    ],
    [
      "-0.13",
      "249,</w>"
    ],
    [
      "-0.176",
      "04,</w>"
    ],
    [
      "0.256",
      "6,</w>"
    ],
    [
      "-0.22",
      "861,</w>"
    ],
    [
      "0.134",
      "06,</w>"
    ],
    [
      "0.174",
      "19,</w>"
    ],
    [
      "0.13",
      "81,</w>"
    ],
    [
      "0.05",
      "21"
    ],
    [
      "-0.146",
      "99,</w>"
    ],
    [
      "0.14",
      "7,</w>"
    ],
    [
      "0.1",
      "867,</w>"
    ],
    [
      "0.1",
      "779,</w>"
    ],
    [
      "0.174",
      "79,</w>"
    ],
    [
      "0.166",
      "78,</w>"
    ],
    [
      "-0.26",
      "725,</w>"
    ],
    [
      "0.181",
      "66,</w>"
    ],
    [
      "0.170",
      "79,</w>"
    ],
    [
      "0.200",
      "4,</w>"
    ],
    [
      "-0.149",
      "2,</w>"
    ],
    [
      "-0.11",
      "145,</w>"
    ],
    [
      "0.172",
      "77,</w>"
    ],
    [
      "-0.110",
      "92,</w>"
    ],
    [
      "0.139",
      "86,</w>"
    ],
    [
      "-0.123",
      "71,</w>"
    ],
    [
      "0.12",
      "812,</w>"
    ],
    [
      "0.15",
      "174,</w>"
    ],
    [
      "0.100",
      "89,</w>"
    ],
    [
      "-0.143",
      "17,</w>"
    ],
    [
      "-0.12",
      "154,</w>"
    ],
    [
      "-0.164",
      "78,</w>"
    ],
    [
      "0.150",
      "83,</w>"
    ],
    [
      "0.13",
      "731,</w>"
    ],
    [
      "0.18",
      "856,</w>"
    ],
    [
      "0.109",
      "83,</w>"
    ],
    [
      "0.265",
      "23,</w>"
    ],
    [
      "-0.145",
      "63,</w>"
    ],
    [
      "0.15",
      "121,</w>"
    ],
    [
      "0.120",
      "97,</w>"
    ],
    [
      "-0.273",
      "49,</w>"
    ],
    [
      "-0.366",
      "38,</w>"
    ],
    [
      "0.209",
      "18,</w>"
    ],
    [
      "0.100",
      "07,</w>"
    ],
    [
      "0.116",
      "5,</w>"
    ],
    [
      "0.114",
      "67,</w>"
    ],
    [
      "-0.00",
      "34"
    ],
    [
      "0.160",
      "29,</w>"
    ],
    [
      "-0.156",
      "93,</w>"
    ],
    [
      "-0.105",
      "3,</w>"
    ],
    [
      "0.11",
      "787,</w>"
    ],
    [
      "0.134",
      "53,</w>"
    ],
    [
      "-0.166",
      "52,</w>"
    ],
    [
      "0.00",
      "34"
    ],
    [
      "0.16",
      "942,</w>"
    ],
    [
      "-0.106",
      "17,</w>"
    ],
    [
      "-0.12",
      "902,</w>"
    ],
    [
      "0.10",
      "896,</w>"
    ],
    [
      "-0.171",
      "89,</w>"
    ],
    [
      "0.14",
      "8,</w>"
    ],
    [
      "0.236",
      "15,</w>"
    ],
    [
      "-0.126",
      "47,</w>"
    ],
    [
      "0.135",
      "93,</w>"
    ],
    [
      "0.30",
      "716,</w>"
    ],
    [
      "0.189",
      "13,</w>"
    ],
    [
      "-0.10",
      "462,</w>"
    ],
    [
      "-0.381",
      "02,</w>"
    ],
    [
      "0.200",
      "89,</w>"
    ],
    [
      "-0.33",
      "341,</w>"
    ],
    [
      "0.12",
      "72,</w>"
    ],
    [
      "0.144",
      "76,</w>"
    ],
    [
      "-0.18",
      "737,</w>"
    ],
    [
      "-0.15",
      "805,</w>"
    ],
    [
      "0.15",
      "88,</w>"
    ],
    [
      "-0.12",
      "761,</w>"
    ],
    [
      "0.23",
      "867,</w>"
    ],
    [
      "-0.19",
      "74,</w>"
    ],
    [
      "-0.146",
      "48,</w>"
    ],
    [
      "0.100",
      "62,</w>"
    ],
    [
      "-0.206",
      "32,</w>"
    ],
    [
      "-0.1",
      "298,</w>"
    ],
    [
      "-0.12",
      "336,</w>"
    ],
    [
      "0.126",
      "25,</w>"
    ],
    [
      "-0.15",
      "335,</w>"
    ],
    [
      "-0.15",
      "394,</w>"
    ],
    [
      "-0.14",
      "249,</w>"
    ],
    [
      "-0.199",
      "98,</w>"
    ],
    [
      "0.140",
      "9,</w>"
    ],
    [
      "-0.20",
      "25,</w>"
    ],
    [
      "0.144",
      "2,</w>"
    ],
    [
      "-0.206",
      "3,</w>"
    ],
    [
      "-0.178",
      "08,</w>"
    ],
    [
      "0.166",
      "62,</w>"
    ],
    [
      "0.179",
      "18,</w>"
    ],
    [
      "0.194",
      "88,</w>"
    ],
    [
      "-0.32",
      "861,</w>"
    ],
    [
      "-0.226",
      "33,</w>"
    ],
    [
      "-0.156",
      "6,</w>"
    ],
    [
      "-0.16",
      "461,</w>"
    ],
    [
      "-0.33",
      "199,</w>"
    ],
    [
      "-0.13",
      "252,</w>"
    ],
    [
      "0.119",
      "75,</w>"
    ],
    [
      "-0.175",
      "83,</w>"
    ],
    [
      "-0.179",
      "78,</w>"
    ],
    [
      "0.103",
      "83,</w>"
    ],
    [
      "0.173",
      "72,</w>"
    ],
    [
      "-0.14",
      "117,</w>"
    ],
    [
      "0.26",
      "174,</w>"
    ],
    [
      "0.146",
      "42,</w>"
    ],
    [
      "-0.11",
      "873,</w>"
    ],
    [
      "0.16",
      "762,</w>"
    ],
    [
      "-0.120",
      "74,</w>"
    ],
    [
      "-0.145",
      "58,</w>"
    ],
    [
      "0.123",
      "87,</w>"
    ],
    [
      "0.163",
      "17,</w>"
    ],
    [
      "-0.14",
      "992,</w>"
    ],
    [
      "0.106",
      "11,</w>"
    ],
    [
      "0.116",
      "56,</w>"
    ],
    [
      "-0.105",
      "1,</w>"
    ],
    [
      "-0.23",
      "128,</w>"
    ],
    [
      "-0.176",
      "16,</w>"
    ],
    [
      "-0.15",
      "903,</w>"
    ],
    [
      "-0.16",
      "55,</w>"
    ],
    [
      "0.216",
      "02,</w>"
    ],
    [
      "0.14",
      "822,</w>"
    ],
    [
      "0.180",
      "59,</w>"
    ],
    [
      "-0.195",
      "24,</w>"
    ],
    [
      "-0.10",
      "397,</w>"
    ],
    [
      "0.224",
      "24,</w>"
    ],
    [
      "-0.12",
      "746,</w>"
    ],
    [
      "-0.146",
      "59,</w>"
    ],
    [
      "-0.199",
      "11,</w>"
    ],
    [
      "-0.185",
      "12,</w>"
    ],
    [
      "-0.14",
      "12,</w>"
    ],
    [
      "-0.16",
      "309,</w>"
    ],
    [
      "0.21",
      "756,</w>"
    ],
    [
      "-0.14",
      "208,</w>"
    ],
    [
      "-0.100",
      "61,</w>"
    ],
    [
      "-0.11",
      "714,</w>"
    ],
    [
      "0.24",
      "798,</w>"
    ],
    [
      "-0.14",
      "166,</w>"
    ],
    [
      "0.270",
      "19,</w>"
    ],
    [
      "0.20",
      "205,</w>"
    ],
    [
      "0.19",
      "302,</w>"
    ],
    [
      "0.205",
      "95,</w>"
    ],
    [
      "0.156",
      "54,</w>"
    ],
    [
      "0.109",
      "15,</w>"
    ],
    [
      "-0.00",
      "25"
    ],
    [
      "-0.256",
      "25,</w>"
    ],
    [
      "-0.145",
      "72,</w>"
    ],
    [
      "0.174",
      "92,</w>"
    ],
    [
      "-0.200",
      "22,</w>"
    ],
    [
      "0.110",
      "89,</w>"
    ],
    [
      "0.10",
      "843,</w>"
    ],
    [
      "0.215",
      "83,</w>"
    ],
    [
      "0.144",
      "25,</w>"
    ],
    [
      "0.15",
      "76,</w>"
    ],
    [
      "0.164",
      "17,</w>"
    ],
    [
      "0.116",
      "7,</w>"
    ],
    [
      "0.149",
      "82,</w>"
    ],
    [
      "-0.125",
      "01,</w>"
    ],
    [
      "-0.166",
      "05,</w>"
    ],
    [
      "-0.186",
      "51,</w>"
    ],
    [
      "-0.17",
      "726,</w>"
    ],
    [
      "0.1",
      "36,</w>"
    ],
    [
      "-0.166",
      "04,</w>"
    ],
    [
      "-0.169",
      "87,</w>"
    ],
    [
      "0.125",
      "4,</w>"
    ],
    [
      "0.219",
      "08,</w>"
    ],
    [
      "-0.14",
      "397,</w>"
    ],
    [
      "-0.222",
      "63,</w>"
    ],
    [
      "-0.12",
      "734,</w>"
    ],
    [
      "-0.153",
      "14,</w>"
    ],
    [
      "-0.119",
      "27,</w>"
    ],
    [
      "-0.116",
      "47,</w>"
    ],
    [
      "0.195",
      "79,</w>"
    ],
    [
      "-0.16",
      "991,</w>"
    ],
    [
      "-0.176",
      "93,</w>"
    ],
    [
      "0.11",
      "766,</w>"
    ],
    [
      "0.119",
      "22,</w>"
    ],
    [
      "-0.13",
      "85,</w>"
    ],
    [
      "-0.006",
      "6"
    ],
    [
      "-0.16",
      "815,</w>"
    ],
    [
      "0.154",
      "14,</w>"
    ],
    [
      "-0.16",
      "905,</w>"
    ],
    [
      "-0.196",
      "46,</w>"
    ],
    [
      "0.18",
      "817,</w>"
    ],
    [
      "0.12",
      "944,</w>"
    ],
    [
      "-0.286",
      "49,</w>"
    ],
    [
      "0.135",
      "21,</w>"
    ],
    [
      "-0.20",
      "155,</w>"
    ],
    [
      "0.11",
      "704,</w>"
    ],
    [
      "0.2",
      "16,</w>"
    ],
    [
      "-0.22",
      "709,</w>"
    ],
    [
      "-0.10",
      "114,</w>"
    ],
    [
      "-0.124",
      "27,</w>"
    ],
    [
      "0.110",
      "57,</w>"
    ],
    [
      "0.135",
      "58,</w>"
    ],
    [
      "0.10",
      "79,</w>"
    ],
    [
      "-0.225",
      "38,</w>"
    ],
    [
      "-0.195",
      "65,</w>"
    ],
    [
      "0.110",
      "27,</w>"
    ],
    [
      "0.15",
      "338,</w>"
    ],
    [
      "-0.125",
      "94,</w>"
    ],
    [
      "-0.25",
      "406,</w>"
    ],
    [
      "0.440",
      "5,</w>"
    ],
    [
      "0.250",
      "71,</w>"
    ],
    [
      "-0.16",
      "037,</w>"
    ],
    [
      "-0.199",
      "18,</w>"
    ],
    [
      "-0.270",
      "95,</w>"
    ],
    [
      "0.200",
      "82,</w>"
    ],
    [
      "-0.19",
      "257,</w>"
    ],
    [
      "-0.343",
      "76,</w>"
    ],
    [
      "0.110",
      "97,</w>"
    ],
    [
      "-0.110",
      "09,</w>"
    ],
    [
      "-0.173",
      "79,</w>"
    ],
    [
      "0.15",
      "171,</w>"
    ],
    [
      "0.10",
      "25,</w>"
    ],
    [
      "0.19",
      "909,</w>"
    ],
    [
      "-0.200",
      "82,</w>"
    ],
    [
      "-0.11",
      "729,</w>"
    ],
    [
      "0.169",
      "15,</w>"
    ],
    [
      "-0.16",
      "758,</w>"
    ],
    [
      "-0.153",
      "26,</w>"
    ],
    [
      "-0.189",
      "28,</w>"
    ],
    [
      "0.220",
      "68,</w>"
    ],
    [
      "0.12",
      "832,</w>"
    ],
    [
      "0.20",
      "163,</w>"
    ],
    [
      "-0.23",
      "702,</w>"
    ],
    [
      "-0.10",
      "278,</w>"
    ],
    [
      "0.119",
      "84,</w>"
    ],
    [
      "-0.11",
      "752,</w>"
    ],
    [
      "0.19",
      "216,</w>"
    ],
    [
      "0.12",
      "835,</w>"
    ],
    [
      "0.29",
      "356,</w>"
    ],
    [
      "-0.16",
      "857,</w>"
    ],
    [
      "-0.13",
      "743,</w>"
    ],
    [
      "-0.15",
      "038,</w>"
    ],
    [
      "-0.16",
      "098,</w>"
    ],
    [
      "0.14",
      "906,</w>"
    ],
    [
      "-0.16",
      "724,</w>"
    ],
    [
      "0.10",
      "796,</w>"
    ],
    [
      "-0.21",
      "752,</w>"
    ],
    [
      "0.214",
      "31,</w>"
    ],
    [
      "0.280",
      "47,</w>"
    ],
    [
      "-0.14",
      "203,</w>"
    ],
    [
      "-0.10",
      "945,</w>"
    ],
    [
      "-0.11",
      "858,</w>"
    ],
    [
      "0.15",
      "222,</w>"
    ],
    [
      "-0.16",
      "955,</w>"
    ],
    [
      "-0.24",
      "952,</w>"
    ],
    [
      "0.06",
      "21"
    ],
    [
      "0.116",
      "94,</w>"
    ],
    [
      "-0.15",
      "164,</w>"
    ],
    [
      "-0.130",
      "91,</w>"
    ],
    [
      "-0.105",
      "13,</w>"
    ],
    [
      "-0.11",
      "792,</w>"
    ],
    [
      "-0.174",
      "62,</w>"
    ],
    [
      "0.122",
      "23,</w>"
    ],
    [
      "0.186",
      "86,</w>"
    ],
    [
      "-0.135",
      "71,</w>"
    ],
    [
      "-0.10",
      "782,</w>"
    ],
    [
      "-0.10",
      "721,</w>"
    ],
    [
      "-0.195",
      "1,</w>"
    ],
    [
      "0.125",
      "15,</w>"
    ],
    [
      "-0.10",
      "827,</w>"
    ],
    [
      "0.18",
      "849,</w>"
    ],
    [
      "0.219",
      "33,</w>"
    ],
    [
      "0.18",
      "836,</w>"
    ],
    [
      "0.243",
      "88,</w>"
    ],
    [
      "-0.12",
      "961,</w>"
    ],
    [
      "0.15",
      "835,</w>"
    ],
    [
      "0.16",
      "29,</w>"
    ],
    [
      "0.1",
      "127,</w>"
    ],
    [
      "-0.235",
      "49,</w>"
    ],
    [
      "-0.1",
      "855,</w>"
    ],
    [
      "-0.24",
      "159,</w>"
    ],
    [
      "0.115",
      "61,</w>"
    ],
    [
      "-0.16",
      "175,</w>"
    ],
    [
      "-0.15",
      "734,</w>"
    ],
    [
      "-0.12",
      "116,</w>"
    ],
    [
      "-0.25",
      "853,</w>"
    ],
    [
      "-0.24",
      "83,</w>"
    ],
    [
      "-0.136",
      "12,</w>"
    ],
    [
      "-0.13",
      "301,</w>"
    ],
    [
      "-0.15",
      "664,</w>"
    ],
    [
      "0.20",
      "157,</w>"
    ],
    [
      "0.210",
      "78,</w>"
    ],
    [
      "0.10",
      "806,</w>"
    ],
    [
      "-0.11",
      "864,</w>"
    ],
    [
      "-0.129",
      "18,</w>"
    ],
    [
      "-0.11",
      "717,</w>"
    ],
    [
      "-0.139",
      "18,</w>"
    ],
    [
      "-0.00",
      "84"
    ],
    [
      "-0.126",
      "06,</w>"
    ],
    [
      "-0.304",
      "9,</w>"
    ],
    [
      "-0.170",
      "98,</w>"
    ],
    [
      "-0.10",
      "201,</w>"
    ],
    [
      "0.156",
      "45,</w>"
    ],
    [
      "0.19",
      "852,</w>"
    ],
    [
      "-0.20",
      "729,</w>"
    ],
    [
      "0.14",
      "056,</w>"
    ],
    [
      "0.21",
      "887,</w>"
    ],
    [
      "0.3",
      "191,</w>"
    ],
    [
      "0.106",
      "18,</w>"
    ],
    [
      "0.145",
      "27,</w>"
    ],
    [
      "0.211",
      "83,</w>"
    ],
    [
      "0.26",
      "103,</w>"
    ],
    [
      "0.133",
      "79,</w>"
    ],
    [
      "0.269",
      "79,</w>"
    ],
    [
      "-0.22",
      "125,</w>"
    ],
    [
      "-0.186",
      "44,</w>"
    ],
    [
      "0.16",
      "811,</w>"
    ],
    [
      "-0.113",
      "25,</w>"
    ],
    [
      "0.10",
      "174,</w>"
    ],
    [
      "0.124",
      "1,</w>"
    ],
    [
      "0.145",
      "86,</w>"
    ],
    [
      "-0.15",
      "431,</w>"
    ],
    [
      "0.130",
      "25,</w>"
    ],
    [
      "-0.144",
      "19,</w>"
    ],
    [
      "-0.13",
      "715,</w>"
    ],
    [
      "-0.225",
      "7,</w>"
    ],
    [
      "-0.156",
      "72,</w>"
    ],
    [
      "0.19",
      "231,</w>"
    ],
    [
      "0.1",
      "709,</w>"
    ],
    [
      "0.106",
      "26,</w>"
    ],
    [
      "0.110",
      "81,</w>"
    ],
    [
      "0.116",
      "58,</w>"
    ],
    [
      "0.10",
      "805,</w>"
    ],
    [
      "-0.16",
      "567,</w>"
    ],
    [
      "-0.274",
      "77,</w>"
    ],
    [
      "-0.124",
      "04,</w>"
    ],
    [
      "-0.115",
      "08,</w>"
    ],
    [
      "0.130",
      "02,</w>"
    ],
    [
      "0.184",
      "47,</w>"
    ],
    [
      "0.12",
      "759,</w>"
    ],
    [
      "-0.303",
      "88,</w>"
    ],
    [
      "0.10",
      "266,</w>"
    ],
    [
      "0.163",
      "13,</w>"
    ],
    [
      "-0.109",
      "17,</w>"
    ],
    [
      "0.156",
      "2,</w>"
    ],
    [
      "-0.16",
      "882,</w>"
    ],
    [
      "0.155",
      "39,</w>"
    ],
    [
      "-0.16",
      "454,</w>"
    ],
    [
      "-0.135",
      "61,</w>"
    ],
    [
      "0.12",
      "852,</w>"
    ],
    [
      "0.14",
      "883,</w>"
    ],
    [
      "0.20",
      "175,</w>"
    ],
    [
      "0.19",
      "368,</w>"
    ],
    [
      "-0.14",
      "291,</w>"
    ],
    [
      "-0.11",
      "875,</w>"
    ],
    [
      "-0.172",
      "49,</w>"
    ],
    [
      "0.26",
      "039,</w>"
    ],
    [
      "-0.183",
      "11,</w>"
    ],
    [
      "-0.15",
      "49,</w>"
    ],
    [
      "-0.181",
      "48,</w>"
    ],
    [
      "0.182",
      "17,</w>"
    ],
    [
      "-0.10",
      "104,</w>"
    ],
    [
      "-0.253",
      "26,</w>"
    ],
    [
      "0.179",
      "72,</w>"
    ],
    [
      "0.21",
      "809,</w>"
    ],
    [
      "-0.10",
      "28,</w>"
    ],
    [
      "-0.14",
      "719,</w>"
    ],
    [
      "0.196",
      "79,</w>"
    ],
    [
      "-0.182",
      "19,</w>"
    ],
    [
      "0.1",
      "836,</w>"
    ],
    [
      "-0.25",
      "845,</w>"
    ],
    [
      "0.15",
      "282,</w>"
    ],
    [
      "-0.100",
      "98,</w>"
    ],
    [
      "-0.1",
      "103,</w>"
    ],
    [
      "-0.214",
      "47,</w>"
    ],
    [
      "0.20",
      "75,</w>"
    ],
    [
      "-0.11",
      "125,</w>"
    ],
    [
      "0.273",
      "67,</w>"
    ],
    [
      "-0.135",
      "5,</w>"
    ],
    [
      "-0.163",
      "75,</w>"
    ],
    [
      "2.",
      "6"
    ],
    [
      "0.181",
      "22,</w>"
    ],
    [
      "0.10",
      "228,</w>"
    ],
    [
      "0.194",
      "96,</w>"
    ],
    [
      "0.104",
      "03,</w>"
    ],
    [
      "-0.15",
      "711,</w>"
    ],
    [
      "0.109",
      "74,</w>"
    ],
    [
      "0.15",
      "903,</w>"
    ],
    [
      "-0.155",
      "69,</w>"
    ],
    [
      "-0.11",
      "836,</w>"
    ],
    [
      "0.110",
      "62,</w>"
    ],
    [
      "-0.235",
      "35,</w>"
    ],
    [
      "-0.143",
      "22,</w>"
    ],
    [
      "0.16",
      "235,</w>"
    ],
    [
      "-0.21",
      "838,</w>"
    ],
    [
      "-0.143",
      "1,</w>"
    ],
    [
      "0.11",
      "878,</w>"
    ],
    [
      "-0.16",
      "122,</w>"
    ],
    [
      "0.115",
      "58,</w>"
    ],
    [
      "0.24",
      "899,</w>"
    ],
    [
      "0.243",
      "1,</w>"
    ],
    [
      "0.19",
      "394,</w>"
    ],
    [
      "-0.166",
      "5,</w>"
    ],
    [
      "0.20",
      "74,</w>"
    ],
    [
      "-0.23",
      "29,</w>"
    ],
    [
      "-0.15",
      "27,</w>"
    ],
    [
      "-0.230",
      "7,</w>"
    ],
    [
      "0.278",
      "91,</w>"
    ],
    [
      "0.25",
      "393,</w>"
    ],
    [
      "0.195",
      "44,</w>"
    ],
    [
      "-0.269",
      "19,</w>"
    ],
    [
      "0.13",
      "83,</w>"
    ],
    [
      "-0.136",
      "34,</w>"
    ],
    [
      "0.180",
      "97,</w>"
    ],
    [
      "-0.105",
      "76,</w>"
    ],
    [
      "0.200",
      "94,</w>"
    ],
    [
      "-0.15",
      "209,</w>"
    ],
    [
      "0.15",
      "437,</w>"
    ],
    [
      "-0.24",
      "718,</w>"
    ],
    [
      "-0.26",
      "288,</w>"
    ],
    [
      "-0.114",
      "22,</w>"
    ],
    [
      "-0.14",
      "875,</w>"
    ],
    [
      "-0.14",
      "721,</w>"
    ],
    [
      "0.19",
      "129,</w>"
    ],
    [
      "0.172",
      "33,</w>"
    ],
    [
      "0.226",
      "34,</w>"
    ],
    [
      "-0.320",
      "26,</w>"
    ],
    [
      "0.2",
      "165,</w>"
    ],
    [
      "-0.100",
      "35,</w>"
    ],
    [
      "-0.156",
      "15,</w>"
    ],
    [
      "-0.22",
      "166,</w>"
    ],
    [
      "0.119",
      "43,</w>"
    ],
    [
      "-0.215",
      "24,</w>"
    ],
    [
      "0.11",
      "829,</w>"
    ],
    [
      "-0.16",
      "233,</w>"
    ],
    [
      "-0.14",
      "753,</w>"
    ],
    [
      "-0.15",
      "708,</w>"
    ],
    [
      "0.19",
      "726,</w>"
    ],
    [
      "0.210",
      "99,</w>"
    ],
    [
      "0.216",
      "41,</w>"
    ],
    [
      "0.2",
      "211,</w>"
    ],
    [
      "0.10",
      "205,</w>"
    ],
    [
      "-0.12",
      "756,</w>"
    ],
    [
      "0.256",
      "42,</w>"
    ],
    [
      "-0.176",
      "31,</w>"
    ],
    [
      "-0.144",
      "01,</w>"
    ],
    [
      "0.246",
      "31,</w>"
    ],
    [
      "0.274",
      "31,</w>"
    ],
    [
      "0.10",
      "234,</w>"
    ],
    [
      "-0.25",
      "932,</w>"
    ],
    [
      "-0.220",
      "33,</w>"
    ],
    [
      "0.173",
      "25,</w>"
    ],
    [
      "-0.15",
      "403,</w>"
    ],
    [
      "0.114",
      "79,</w>"
    ],
    [
      "0.19",
      "201,</w>"
    ],
    [
      "0.13",
      "736,</w>"
    ],
    [
      "-0.155",
      "29,</w>"
    ],
    [
      "-0.125",
      "74,</w>"
    ],
    [
      "-0.119",
      "78,</w>"
    ],
    [
      "0.16",
      "236,</w>"
    ],
    [
      "-0.111",
      "18,</w>"
    ],
    [
      "-0.29",
      "195,</w>"
    ],
    [
      "0.220",
      "83,</w>"
    ],
    [
      "-0.100",
      "22,</w>"
    ],
    [
      "0.11",
      "758,</w>"
    ],
    [
      "-0.21",
      "768,</w>"
    ],
    [
      "-0.236",
      "76,</w>"
    ],
    [
      "0.12",
      "843,</w>"
    ],
    [
      "-0.39",
      "142,</w>"
    ],
    [
      "-0.181",
      "84,</w>"
    ],
    [
      "0.204",
      "2,</w>"
    ],
    [
      "0.1",
      "854,</w>"
    ],
    [
      "-0.189",
      "37,</w>"
    ],
    [
      "-0.193",
      "71,</w>"
    ],
    [
      "0.14",
      "741,</w>"
    ],
    [
      "-0.114",
      "57,</w>"
    ],
    [
      "-0.140",
      "25,</w>"
    ],
    [
      "0.109",
      "77,</w>"
    ],
    [
      "0.190",
      "17,</w>"
    ],
    [
      "0.19",
      "111,</w>"
    ],
    [
      "0.120",
      "95,</w>"
    ],
    [
      "-0.18",
      "896,</w>"
    ],
    [
      "-0.11",
      "866,</w>"
    ],
    [
      "-0.10",
      "771,</w>"
    ],
    [
      "-0.10",
      "115,</w>"
    ],
    [
      "-0.163",
      "25,</w>"
    ],
    [
      "-0.190",
      "76,</w>"
    ],
    [
      "-0.106",
      "5,</w>"
    ],
    [
      "0.18",
      "892,</w>"
    ],
    [
      "0.165",
      "75,</w>"
    ],
    [
      "0.154",
      "22,</w>"
    ],
    [
      "-0.210",
      "67,</w>"
    ],
    [
      "0.220",
      "76,</w>"
    ],
    [
      "-0.166",
      "37,</w>"
    ],
    [
      "-0.210",
      "35,</w>"
    ],
    [
      "0.155",
      "86,</w>"
    ],
    [
      "-0.225",
      "09,</w>"
    ],
    [
      "-0.13",
      "877,</w>"
    ],
    [
      "0.156",
      "05,</w>"
    ],
    [
      "0.16",
      "106,</w>"
    ],
    [
      "0.20",
      "227,</w>"
    ],
    [
      "-0.22",
      "965,</w>"
    ],
    [
      "-0.140",
      "9,</w>"
    ],
    [
      "-0.19",
      "224,</w>"
    ],
    [
      "-0.149",
      "81,</w>"
    ],
    [
      "0.120",
      "56,</w>"
    ],
    [
      "-0.2",
      "712,</w>"
    ],
    [
      "-0.174",
      "74,</w>"
    ],
    [
      "-0.30",
      "187,</w>"
    ],
    [
      "-0.200",
      "23,</w>"
    ],
    [
      "-0.34",
      "841,</w>"
    ],
    [
      "-0.122",
      "41,</w>"
    ],
    [
      "0.155",
      "62,</w>"
    ],
    [
      "-0.150",
      "84,</w>"
    ],
    [
      "-0.113",
      "91,</w>"
    ],
    [
      "0.119",
      "09,</w>"
    ],
    [
      "-0.209",
      "4,</w>"
    ],
    [
      "0.134",
      "5,</w>"
    ],
    [
      "0.12",
      "875,</w>"
    ],
    [
      "0.10",
      "167,</w>"
    ],
    [
      "-0.172",
      "61,</w>"
    ],
    [
      "0.185",
      "61,</w>"
    ],
    [
      "0.23",
      "306,</w>"
    ],
    [
      "0.266",
      "2,</w>"
    ],
    [
      "-0.123",
      "26,</w>"
    ],
    [
      "-0.205",
      "01,</w>"
    ],
    [
      "-0.144",
      "73,</w>"
    ],
    [
      "0.144",
      "96,</w>"
    ],
    [
      "-0.16",
      "296,</w>"
    ],
    [
      "-0.166",
      "71,</w>"
    ],
    [
      "0.112",
      "33,</w>"
    ],
    [
      "-0.143",
      "87,</w>"
    ],
    [
      "-0.15",
      "907,</w>"
    ],
    [
      "-0.179",
      "04,</w>"
    ],
    [
      "-0.130",
      "95,</w>"
    ],
    [
      "-0.14",
      "293,</w>"
    ],
    [
      "0.16",
      "792,</w>"
    ],
    [
      "0.305",
      "93,</w>"
    ],
    [
      "0.15",
      "816,</w>"
    ],
    [
      "0.1",
      "113,</w>"
    ],
    [
      "-0.310",
      "31,</w>"
    ],
    [
      "0.159",
      "88,</w>"
    ],
    [
      "0.14",
      "743,</w>"
    ],
    [
      "-0.323",
      "74,</w>"
    ],
    [
      "-0.11",
      "809,</w>"
    ],
    [
      "-0.13",
      "906,</w>"
    ],
    [
      "0.215",
      "27,</w>"
    ],
    [
      "-0.20",
      "714,</w>"
    ],
    [
      "0.256",
      "44,</w>"
    ],
    [
      "-0.185",
      "61,</w>"
    ],
    [
      "-0.12",
      "125,</w>"
    ],
    [
      "0.2",
      "156,</w>"
    ],
    [
      "0.106",
      "88,</w>"
    ],
    [
      "0.22",
      "339,</w>"
    ],
    [
      "0.100",
      "04,</w>"
    ],
    [
      "0.205",
      "57,</w>"
    ],
    [
      "-0.222",
      "54,</w>"
    ],
    [
      "0.129",
      "33,</w>"
    ],
    [
      "0.14",
      "264,</w>"
    ],
    [
      "0.116",
      "74,</w>"
    ],
    [
      "-0.19",
      "221,</w>"
    ],
    [
      "0.10",
      "705,</w>"
    ],
    [
      "-0.12",
      "392,</w>"
    ],
    [
      "0.136",
      "51,</w>"
    ],
    [
      "-0.179",
      "21,</w>"
    ],
    [
      "-0.119",
      "77,</w>"
    ],
    [
      "0.16",
      "556,</w>"
    ],
    [
      "-0.179",
      "23,</w>"
    ],
    [
      "0.163",
      "27,</w>"
    ],
    [
      "0.26",
      "397,</w>"
    ],
    [
      "-0.14",
      "391,</w>"
    ],
    [
      "0.175",
      "18,</w>"
    ],
    [
      "-0.14",
      "356,</w>"
    ],
    [
      "-0.134",
      "76,</w>"
    ],
    [
      "0.16",
      "099,</w>"
    ],
    [
      "0.114",
      "93,</w>"
    ],
    [
      "-0.200",
      "48,</w>"
    ],
    [
      "-0.330",
      "21,</w>"
    ],
    [
      "0.136",
      "41,</w>"
    ],
    [
      "-0.15",
      "129,</w>"
    ],
    [
      "0.15",
      "735,</w>"
    ],
    [
      "-0.15",
      "334,</w>"
    ],
    [
      "-0.14",
      "008,</w>"
    ],
    [
      "0.20",
      "131,</w>"
    ],
    [
      "-0.15",
      "197,</w>"
    ],
    [
      "-0.1",
      "814,</w>"
    ],
    [
      "0.11",
      "805,</w>"
    ],
    [
      "0.24",
      "791,</w>"
    ],
    [
      "0.25",
      "004,</w>"
    ],
    [
      "-0.256",
      "11,</w>"
    ],
    [
      "-0.195",
      "07,</w>"
    ],
    [
      "-0.106",
      "79,</w>"
    ],
    [
      "-0.26",
      "17,</w>"
    ],
    [
      "-0.11",
      "767,</w>"
    ],
    [
      "0.26",
      "821,</w>"
    ],
    [
      "-0.11",
      "194,</w>"
    ],
    [
      "-0.114",
      "94,</w>"
    ],
    [
      "0.180",
      "67,</w>"
    ],
    [
      "-0.115",
      "4,</w>"
    ],
    [
      "-0.22",
      "803,</w>"
    ],
    [
      "0.10",
      "748,</w>"
    ],
    [
      "0.15",
      "04,</w>"
    ],
    [
      "0.16",
      "98,</w>"
    ],
    [
      "0.136",
      "08,</w>"
    ],
    [
      "0.305",
      "68,</w>"
    ],
    [
      "0.16",
      "128,</w>"
    ],
    [
      "0.126",
      "12,</w>"
    ],
    [
      "-0.125",
      "91,</w>"
    ],
    [
      "0.149",
      "78,</w>"
    ],
    [
      "0.113",
      "98,</w>"
    ],
    [
      "0.246",
      "45,</w>"
    ],
    [
      "-0.18",
      "729,</w>"
    ],
    [
      "-0.2",
      "117,</w>"
    ],
    [
      "-0.222",
      "78,</w>"
    ],
    [
      "-0.15",
      "05,</w>"
    ],
    [
      "-0.185",
      "41,</w>"
    ],
    [
      "-0.12",
      "843,</w>"
    ],
    [
      "-0.15",
      "932,</w>"
    ],
    [
      "-0.243",
      "23,</w>"
    ],
    [
      "-0.112",
      "77,</w>"
    ],
    [
      "-0.143",
      "81,</w>"
    ],
    [
      "-0.120",
      "09,</w>"
    ],
    [
      "0.235",
      "98,</w>"
    ],
    [
      "-0.25",
      "053,</w>"
    ],
    [
      "0.181",
      "54,</w>"
    ],
    [
      "0.23",
      "796,</w>"
    ],
    [
      "-0.19",
      "252,</w>"
    ],
    [
      "0.206",
      "14,</w>"
    ],
    [
      "-0.19",
      "76,</w>"
    ],
    [
      "-0.171",
      "05,</w>"
    ],
    [
      "0.110",
      "58,</w>"
    ],
    [
      "0.130",
      "95,</w>"
    ],
    [
      "0.224",
      "72,</w>"
    ],
    [
      "0.171",
      "49,</w>"
    ],
    [
      "-0.136",
      "06,</w>"
    ],
    [
      "-0.136",
      "11,</w>"
    ],
    [
      "0.112",
      "02,</w>"
    ],
    [
      "-0.10",
      "963,</w>"
    ],
    [
      "-0.171",
      "68,</w>"
    ],
    [
      "-0.122",
      "82,</w>"
    ],
    [
      "-0.13",
      "742,</w>"
    ],
    [
      "-0.13",
      "187,</w>"
    ],
    [
      "0.184",
      "39,</w>"
    ],
    [
      "0.11",
      "788,</w>"
    ],
    [
      "-0.1",
      "87,</w>"
    ],
    [
      "0.206",
      "09,</w>"
    ],
    [
      "-0.1",
      "77,</w>"
    ],
    [
      "0.24",
      "843,</w>"
    ],
    [
      "-0.16",
      "222,</w>"
    ],
    [
      "-0.19",
      "766,</w>"
    ],
    [
      "-0.146",
      "54,</w>"
    ],
    [
      "-0.14",
      "704,</w>"
    ],
    [
      "-0.135",
      "24,</w>"
    ],
    [
      "-0.200",
      "69,</w>"
    ],
    [
      "0.24",
      "759,</w>"
    ],
    [
      "0.15",
      "818,</w>"
    ],
    [
      "0.18",
      "731,</w>"
    ],
    [
      "1.",
      "96"
    ],
    [
      "-0.180",
      "17,</w>"
    ],
    [
      "0.235",
      "67,</w>"
    ],
    [
      "-0.189",
      "04,</w>"
    ],
    [
      "0.205",
      "4,</w>"
    ],
    [
      "-0.256",
      "23,</w>"
    ],
    [
      "-0.136",
      "6,</w>"
    ],
    [
      "-0.115",
      "15,</w>"
    ],
    [
      "0.10",
      "707,</w>"
    ],
    [
      "0.189",
      "01,</w>"
    ],
    [
      "-0.305",
      "77,</w>"
    ],
    [
      "0.215",
      "58,</w>"
    ],
    [
      "-0.10",
      "251,</w>"
    ],
    [
      "0.14",
      "897,</w>"
    ],
    [
      "0.156",
      "25,</w>"
    ],
    [
      "0.106",
      "95,</w>"
    ],
    [
      "-0.32",
      "767,</w>"
    ],
    [
      "0.105",
      "29,</w>"
    ],
    [
      "-0.13",
      "941,</w>"
    ],
    [
      "-0.10",
      "896,</w>"
    ],
    [
      "-0.12",
      "102,</w>"
    ],
    [
      "-0.195",
      "11,</w>"
    ],
    [
      "-0.111",
      "89,</w>"
    ],
    [
      "0.215",
      "34,</w>"
    ],
    [
      "0.22",
      "366,</w>"
    ],
    [
      "-0.24",
      "288,</w>"
    ],
    [
      "-0.134",
      "36,</w>"
    ],
    [
      "0.235",
      "01,</w>"
    ],
    [
      "-0.125",
      "71,</w>"
    ],
    [
      "-0.195",
      "83,</w>"
    ],
    [
      "-0.16",
      "729,</w>"
    ],
    [
      "0.19",
      "815,</w>"
    ],
    [
      "-0.3",
      "42,</w>"
    ],
    [
      "-0.14",
      "997,</w>"
    ],
    [
      "-0.18",
      "749,</w>"
    ],
    [
      "-0.12",
      "769,</w>"
    ],
    [
      "0.100",
      "5,</w>"
    ],
    [
      "-0.264",
      "76,</w>"
    ],
    [
      "0.130",
      "54,</w>"
    ],
    [
      "0.14",
      "302,</w>"
    ],
    [
      "0.12",
      "361,</w>"
    ],
    [
      "0.206",
      "02,</w>"
    ],
    [
      "-0.334",
      "39,</w>"
    ],
    [
      "0.175",
      "49,</w>"
    ],
    [
      "-0.12",
      "747,</w>"
    ],
    [
      "-0.169",
      "12,</w>"
    ],
    [
      "0.122",
      "24,</w>"
    ],
    [
      "-0.2",
      "963,</w>"
    ],
    [
      "-0.15",
      "043,</w>"
    ],
    [
      "0.116",
      "07,</w>"
    ],
    [
      "0.122",
      "8,</w>"
    ],
    [
      "0.245",
      "32,</w>"
    ],
    [
      "-0.10",
      "357,</w>"
    ],
    [
      "-0.155",
      "46,</w>"
    ],
    [
      "-0.325",
      "84,</w>"
    ],
    [
      "-0.112",
      "58,</w>"
    ],
    [
      "0.21",
      "867,</w>"
    ],
    [
      "0.184",
      "09,</w>"
    ],
    [
      "0.129",
      "86,</w>"
    ],
    [
      "-0.113",
      "94,</w>"
    ],
    [
      "0.15",
      "192,</w>"
    ],
    [
      "-0.15",
      "253,</w>"
    ],
    [
      "0.10",
      "878,</w>"
    ],
    [
      "-0.106",
      "99,</w>"
    ],
    [
      "0.178",
      "54,</w>"
    ],
    [
      "0.220",
      "39,</w>"
    ],
    [
      "-0.1",
      "746,</w>"
    ],
    [
      "-0.130",
      "09,</w>"
    ],
    [
      "0.18",
      "808,</w>"
    ],
    [
      "0.184",
      "84,</w>"
    ],
    [
      "-0.122",
      "7,</w>"
    ],
    [
      "-0.13",
      "83,</w>"
    ],
    [
      "-0.10",
      "714,</w>"
    ],
    [
      "0.25",
      "199,</w>"
    ],
    [
      "0.170",
      "72,</w>"
    ],
    [
      "0.21",
      "851,</w>"
    ],
    [
      "-0.10",
      "864,</w>"
    ],
    [
      "0.119",
      "69,</w>"
    ],
    [
      "-0.23",
      "153,</w>"
    ],
    [
      "-0.19",
      "247,</w>"
    ],
    [
      "-0.122",
      "01,</w>"
    ],
    [
      "-0.119",
      "89,</w>"
    ],
    [
      "0.25",
      "743,</w>"
    ],
    [
      "0.114",
      "75,</w>"
    ],
    [
      "0.114",
      "05,</w>"
    ],
    [
      "0.224",
      "8,</w>"
    ],
    [
      "-0.125",
      "06,</w>"
    ],
    [
      "-0.166",
      "17,</w>"
    ],
    [
      "0.14",
      "262,</w>"
    ],
    [
      "-0.122",
      "11,</w>"
    ],
    [
      "-0.114",
      "62,</w>"
    ],
    [
      "0.10",
      "734,</w>"
    ],
    [
      "0.14",
      "868,</w>"
    ],
    [
      "-0.124",
      "44,</w>"
    ],
    [
      "-0.166",
      "3,</w>"
    ],
    [
      "0.10",
      "824,</w>"
    ],
    [
      "0.12",
      "358,</w>"
    ],
    [
      "-0.10",
      "253,</w>"
    ],
    [
      "-0.16",
      "732,</w>"
    ],
    [
      "0.26",
      "833,</w>"
    ],
    [
      "0.145",
      "25,</w>"
    ],
    [
      "0.10",
      "819,</w>"
    ],
    [
      "-0.184",
      "59,</w>"
    ],
    [
      "0.236",
      "89,</w>"
    ],
    [
      "-0.133",
      "24,</w>"
    ],
    [
      "-0.24",
      "903,</w>"
    ],
    [
      "-0.136",
[...]
