{
  "0.0934": 137,
  "59,</w>": 4270,
  "0.023": 854,
  "738,</w>": 1139,
  "-0.090": 1570,
  "339,</w>": 845,
  "0.056": 1420,
  "123,</w>": 875,
  "0.325": 518,
  "47,</w>": 4716,
  "-0.39": 3186,
  "796,</w>": 1266,
  "-0.092": 576,
  "139,</w>": 1016,
  "0.0611": 55,
  "81,</w>": 6481,
  "-0.1895,</w>": 17,
  "0.13061,</w>": 22,
  "0.14349,</w>": 16,
  "0.0114": 151,
  "79,</w>": 6401,
  "0.381": 519,
  "58,</w>": 4529,
  "0.5": 4338,
  "403,</w>": 401,
  "-0.14088,</w>": 24,
  "0.24315,</w>": 14,
  "0.23036,</w>": 18,
  "-0.55": 5627,
  "0.0481": 132,
  "54,</w>": 4417,
  "0.45": 5911,
  "662,</w>": 311,
  "0.020": 1655,
  "199,</w>": 854,
  "0.0490": 158,
  "19,</w>": 6196,
  "-0.014": 1744,
  "132,</w>": 913,
  "0.076": 1670,
  "017,</w>": 354,
  "-0.11527,</w>": 18,
  "0.200": 181,
  "6,</w>": 1000,
  "-0.0776": 144,
  "57,</w>": 4231,
  "0.24328,</w>": 18,
  "0.16368,</w>": 21,
  "-0.34": 3033,
  "118,</w>": 875,
  "0.10152,</w>": 18,
  "0.0382": 164,
  "32,</w>": 5162,
  "-0.17668,</w>": 18,
  "-0.881": 161,
  "53,</w>": 4564,
  "-0.33": 2353,
  "895,</w>": 1029,
  "-0.035": 1648,
  "481,</w>": 291,
  "095,</w>": 475,
  "-0.016": 1568,
  "899,</w>": 1084,
  "-0.439": 434,
  "82,</w>": 6398,
  "0.0390": 179,
  "04,</w>": 4829,
  "0.40447,</w>": 13,
  "-0.2588,</w>": 17,
  "0.645": 514,
  "94,</w>": 4970,
  "0.26641,</w>": 13,
  "0.28009,</w>": 13,
  "-0.024": 1748,
  "625,</w>": 140,
  "0.63": 2698,
  "302,</w>": 848,
  "-0.317,</w>": 18,
  "0.10271,</w>": 17,
  "0.30886,</w>": 15,
  "0.097": 145,
  "792,</w>": 1082,
  "-0.382": 513,
  "27,</w>": 6078,
  "0.086": 1584,
  "552,</w>": 285,
  "0.0470": 153,
  "75,</w>": 6372,
  "0.23511,</w>": 14,
  "-0.32127,</w>": 15,
  "-0.28538,</w>": 16,
  "0.1667,</w>": 17,
  "-0.62": 2043,
  "714,</w>": 1151,
  "-0.24904,</w>": 21,
  "0.29713,</w>": 16,
  "0.14379,</w>": 24,
  "-0.12325,</w>": 17,
  "-0.0581": 129,
  "78,</w>": 6611,
  "-0.082": 1571,
  "126,</w>": 1030,
  "0.36": 3951,
  "935,</w>": 603,
  "0.34": 2816,
  "286,</w>": 698,
  "0.284": 336,
  "26,</w>": 5962,
  "-0.0685": 120,
  "99,</w>": 5258,
  "0.65": 4178,
  "747,</w>": 1077,
  "-0.0290": 179,
  "87,</w>": 6747,
  "0.16184,</w>": 21,
  "0.073": 1596,
  "672,</w>": 175,
  "-0.30343,</w>": 16,
  "0.095": 1574,
  "733,</w>": 1143,
  "-0.52": 2638,
  "86,</w>": 6678,
  "-0.22898,</w>": 19,
  "0.0640": 82,
  "0.015": 1763,
  "218,</w>": 781,
  "0.34921,</w>": 15,
  "-0.4396,</w>": 16,
  "-0.43983,</w>": 13,
  "0.775": 313,
  "15,</w>": 6005,
  "-0.0875": 120,
  "0.39598,</w>": 13,
  "0.62": 2078,
  "362,</w>": 796,
  "-0.26211,</w>": 16,
  "-0.30539,</w>": 17,
  "-0.022": 1633,
  "964,</w>": 915,
  "0.30567,</w>": 19,
  "0.06": 1081,
  "766,</w>": 1205,
  "0.15383,</w>": 23,
  "-0.11211,</w>": 21,
  "-0.09": 764,
  "154,</w>": 945,
  "0.082": 1579,
  "562,</w>": 314,
  "0.16897,</w>": 15,
  "-0.032": 519,
  "952,</w>": 812,
  "-0.28775,</w>": 15,
  "-0.2232,</w>": 13,
  "426,</w>": 352,
  "1.24": 413,
  "07,</w>": 4842,
  "-0.18244,</w>": 16,
  "-0.0110": 148,
  "83,</w>": 6355,
  "0.078": 1593,
  "186,</w>": 744,
  "0.385": 650,
  "11,</w>": 6254,
  "0.23334,</w>": 15,
  "0.14414,</w>": 19,
  "-0.26388,</w>": 15,
  "-0.204": 105,
  "0.10099,</w>": 16,
  "0.14076,</w>": 20,
  "0.28834,</w>": 26,
  "-0.045": 1674,
  "429,</w>": 333,
  "0.37247,</w>": 13,
  "0.13645,</w>": 22,
  "-0.674": 418,
  "0.22": 900,
  "786,</w>": 1029,
  "0.12599,</w>": 22,
  "0.0290": 140,
  "91,</w>": 4943,
  "-0.13028,</w>": 17,
  "0.19408,</w>": 15,
  "0.490": 673,
  "14,</w>": 6178,
  "121,</w>": 874,
  "-0.075": 1646,
  "0.074": 1672,
  "731,</w>": 1177,
  "0.18902,</w>": 16,
  "-0.16922,</w>": 24,
  "-0.26019,</w>": 15,
  "-0.039": 1009,
  "771,</w>": 1195,
  "-0.24": 1545,
  "153,</w>": 1002,
  "0.10875,</w>": 23,
  "0.30434,</w>": 14,
  "0.036": 1613,
  "009,</w>": 446,
  "1.4": 981,
  "264,</w>": 745,
  "0.12759,</w>": 25,
  "-0.073": 1499,
  "811,</w>": 1090,
  "-0.20418,</w>": 16,
  "0.15381,</w>": 27,
  "0.20223,</w>": 19,
  "0.28274,</w>": 16,
  "0.096": 1663,
  "206,</w>": 800,
  "-0.33634,</w>": 16,
  "0.509": 262,
  "0.32625,</w>": 16,
  "-0.26535,</w>": 20,
  "0.374,</w>": 16,
  "-0.30388,</w>": 25,
  "-0.40033,</w>": 14,
  "-0.0678": 150,
  "97,</w>": 5106,
  "-0.29332,</w>": 13,
  "0.10978,</w>": 21,
  "0.23222,</w>": 19,
  "-0.31134,</w>": 19,
  "-0.28983,</w>": 17,
  "-0.666": 495,
  "0.530": 675,
  "0.19461,</w>": 16,
  "0.366": 561,
  "7,</w>": 1153,
  "0.26185,</w>": 19,
  "-0.65": 4146,
  "187,</w>": 685,
  "0.10266,</w>": 25,
  "0.11363,</w>": 23,
  "-0.12953,</w>": 18,
  "-0.682": 379,
  "46,</w>": 4743,
  "-0.18751,</w>": 22,
  "0.1476,</w>": 16,
  "1.0": 3938,
  "765,</w>": 1165,
  "-0.22908,</w>": 13,
  "-0.20651,</w>": 17,
  "-0.35225,</w>": 19,
  "-0.26": 2048,
  "72,</w>": 6542,
  "0.25": 1982,
  "906,</w>": 827,
  "0.21759,</w>": 16,
  "0.66": 4052,
  "158,</w>": 912,
  "0.1218,</w>": 14,
  "0.19957,</w>": 18,
  "-0.20303,</w>": 16,
  "0.344": 476,
  "74,</w>": 6625,
  "-0.24328,</w>": 19,
  "0.13139,</w>": 23,
  "0.336": 494,
  "17,</w>": 6204,
  "0.29208,</w>": 18,
  "-0.375": 596,
  "23,</w>": 6345,
  "0.23979,</w>": 23,
  "-0.28893,</w>": 13,
  "643,</w>": 151,
  "-0.10993,</w>": 13,
  "0.15592,</w>": 22,
  "0.206": 159,
  "0.476": 711,
  "-0.14058,</w>": 18,
  "0.21114,</w>": 18,
  "0.12126,</w>": 15,
  "-0.31831,</w>": 16,
  "-0.089": 1648,
  "433,</w>": 480,
  "553,</w>": 323,
  "-0.31962,</w>": 19,
  "0.21319,</w>": 24,
  "-0.0775": 164,
  "21,</w>": 5920,
  "-0.084": 1638,
  "279,</w>": 697,
  "0.20186,</w>": 21,
  "0.260": 124,
  "84,</w>": 6491,
  "-0.40411,</w>": 18,
  "-0.19127,</w>": 19,
  "0.24715,</w>": 24,
  "0.22394,</w>": 13,
  "-0.0634": 130,
  "37,</w>": 5310,
  "0.20379,</w>": 15,
  "-0.18463,</w>": 22,
  "-0.0884": 145,
  "13,</w>": 6284,
  "0.024": 1635,
  "169,</w>": 910,
  "-0.28769,</w>": 15,
  "-0.612": 536,
  "-0.12683,</w>": 20,
  "-0.0882": 150,
  "73,</w>": 6189,
  "0.18331,</w>": 24,
  "-0.53": 3548,
  "161,</w>": 922,
  "-0.1997,</w>": 20,
  "703,</w>": 1291,
  "0.15312,</w>": 19,
  "0.478": 647,
  "56,</w>": 4550,
  "-0.29612,</w>": 16,
  "0.11168,</w>": 18,
  "-0.0116": 132,
  "0.19923,</w>": 15,
  "-0.14267,</w>": 21,
  "25,</w>": 5987,
  "-0.051": 408,
  "739,</w>": 1080,
  "-0.16": 1026,
  "938,</w>": 600,
  "-0.15635,</w>": 15,
  "0.092": 503,
  "806,</w>": 1143,
  "48,</w>": 4606,
  "0.11724,</w>": 15,
  "0.28788,</w>": 15,
  "-0.0606": 136,
  "51,</w>": 4348,
  "-0.14153,</w>": 23,
  "0.16668,</w>": 16,
  "0.26861,</w>": 14,
  "-0.0310": 149,
  "01,</w>": 4774,
  "-0.39665,</w>": 13,
  "0.35304,</w>": 17,
  "0.2385,</w>": 14,
  "0.12388,</w>": 13,
  "0.45698,</w>": 13,
  "-0.125": 131,
  "-0.12804,</w>": 19,
  "0.374": 506,
  "49,</w>": 4776,
  "0.2446,</w>": 20,
  "0.23073,</w>": 17,
  "0.20808,</w>": 14,
  "0.0512": 148,
  "-0.21816,</w>": 18,
  "-0.036": 1647,
  "409,</w>": 435,
  "-0.03": 813,
  "88,</w>": 6605,
  "-0.0424": 155,
  "-0.30779,</w>": 20,
  "-0.025": 1590,
  "449,</w>": 527,
  "0.22532,</w>": 13,
  "0.045": 1685,
  "538,</w>": 188,
  "-0.48934,</w>": 13,
  "-0.13988,</w>": 19,
  "0.17394,</w>": 19,
  "-0.46137,</w>": 13,
  "-0.26555,</w>": 26,
  "0.15473,</w>": 17,
  "0.063": 803,
  "816,</w>": 988,
  "-0.17022,</w>": 23,
  "-0.15762,</w>": 20,
  "0.075": 1603,
  "0.12151,</w>": 16,
  "-0.4": 4126,
  "934,</w>": 649,
  "-0.10": 573,
  "909,</w>": 880,
  "0.034": 1594,
  "487,</w>": 328,
  "0.29947,</w>": 19,
  "0.01": 423,
  "869,</w>": 1021,
  "-0.16534,</w>": 24,
  "0.016": 1597,
  "679,</w>": 171,
  "0.16341,</w>": 20,
  "-0.27418,</w>": 15,
  "1.40": 126,
  "0.025": 1632,
  "275,</w>": 674,
  "0.094": 1523,
  "725,</w>": 1151,
  "-0.040": 1031,
  "735,</w>": 1236,
  "-0.10642,</w>": 31,
  "364,</w>": 822,
  "0.079": 1584,
  "143,</w>": 902,
  "-0.16615,</w>": 23,
  "-0.23013,</w>": 22,
  "-0.14071,</w>": 17,
  "0.40159,</w>": 15,
  "-0.34951,</w>": 15,
  "0.0185": 160,
  "45,</w>": 5013,
  "0.22434,</w>": 26,
  "0.76": 2842,
  "922,</w>": 358,
  "0.24722,</w>": 15,
  "0.14936,</w>": 16,
  "0.42368,</w>": 18,
  "-0.72": 3229,
  "059,</w>": 503,
  "0.15522,</w>": 17,
  "0.335": 409,
  "96,</w>": 5299,
  "-0.43077,</w>": 13,
  "-0.026": 1601,
  "925,</w>": 313,
  "-0.37": 495,
  "0.24271,</w>": 23,
  "-0.46": 6364,
  "495,</w>": 463,
  "0.45783,</w>": 13,
  "0.236": 262,
  "93,</w>": 5033,
  "361,</w>": 859,
  "-0.32244,</w>": 13,
  "-0.42434,</w>": 13,
  "-0.11138,</w>": 23,
  "0.55": 5648,
  "0.085": 1626,
  "-0.020": 1680,
  "581,</w>": 196,
  "-0.046": 1623,
  "386,</w>": 349,
  "67,</w>": 4225,
  "0.13177,</w>": 14,
  "0.0670": 131,
  "92,</w>": 4999,
  "-0.5": 4149,
  "778,</w>": 1156,
  "0.013": 1615,
  "586,</w>": 172,
  "-0.071": 1572,
  "274,</w>": 740,
  "0.0173": 170,
  "0.19857,</w>": 17,
  "-0.0322": 131,
  "05,</w>": 4752,
  "0.64": 3033,
  "843,</w>": 1064,
  "-0.23797,</w>": 16,
  "-0.196": 198,
  "76,</w>": 6457,
  "0.20203,</w>": 16,
  "0.21074,</w>": 19,
  "-0.50": 4014,
  "347,</w>": 844,
  "0.026": 1656,
  "823,</w>": 1075,
  "444,</w>": 467,
  "-0.22642,</w>": 16,
  "-0.19977,</w>": 14,
  "-0.12138,</w>": 22,
  "0.16941,</w>": 20,
  "0.0619": 156,
  "98,</w>": 4916,
  "0.426": 656,
  "31,</w>": 5144,
  "-0.0883": 145,
  "0.45756,</w>": 15,
  "0.077": 126,
  "774,</w>": 1101,
  "0.0613": 137,
  "42,</w>": 4681,
  "71,</w>": 6647,
  "-0.17787,</w>": 16,
  "-0.14597,</w>": 29,
  "0.32654,</w>": 16,
  "-0.11886,</w>": 17,
  "0.10081,</w>": 18,
  "011,</w>": 321,
  "366,</w>": 876,
  "814,</w>": 1029,
  "-0.6": 3334,
  "818,</w>": 1057,
  "0.23685,</w>": 23,
  "-0.20396,</w>": 17,
  "-0.31385,</w>": 15,
  "0.14834,</w>": 15,
  "-0.0521": 42,
  "-0.32582,</w>": 16,
  "0.19153,</w>": 15,
  "-0.15469,</w>": 20,
  "-0.14679,</w>": 20,
  "0.046": 1621,
  "971,</w>": 382,
  "0.0323": 61,
  "-0.22006,</w>": 21,
  "-0.20774,</w>": 20,
  "-0.23189,</w>": 20,
  "0.580": 612,
  "-0.0696": 170,
  "35,</w>": 5045,
  "288,</w>": 687,
  "0.10503,</w>": 20,
  "0.39945,</w>": 13,
  "-0.38635,</w>": 14,
  "0.12219,</w>": 19,
  "0.080": 1630,
  "312,</w>": 349,
  "0.32": 1644,
  "337,</w>": 826,
  "0.475": 700,
  "-0.0383": 139,
  "0.415": 649,
  "24,</w>": 5957,
  "-0.21185,</w>": 17,
  "0.36144,</w>": 17,
  "-0.055": 1687,
  "623,</w>": 165,
  "0.42": 2724,
  "854,</w>": 1069,
  "-0.14623,</w>": 28,
  "-0.17557,</w>": 17,
  "0.31": 1199,
  "197,</w>": 933,
  "-0.13118,</w>": 24,
  "0.033": 871,
  "298,</w>": 690,
  "0.13093,</w>": 32,
  "0.089": 1558,
  "889,</w>": 928,
  "-0.12417,</w>": 14,
  "-0.0689": 122,
  "-0.10754,</w>": 21,
  "-0.11551,</w>": 17,
  "-0.31052,</w>": 17,
  "-0.12097,</w>": 20,
  "-0.46691,</w>": 13,
  "-0.0": 539,
  "836,</w>": 1049,
  "-0.0376": 151,
  "64,</w>": 4130,
  "779,</w>": 1141,
  "-0.11899,</w>": 15,
  "-0.20381,</w>": 21,
  "-0.12424,</w>": 19,
  "0.46": 6381,
  "-0.19828,</w>": 19,
  "0.53718,</w>": 13,
  "0.031": 408,
  "0.34331,</w>": 16,
  "0.030": 1537,
  "592,</w>": 220,
  "-0.17615,</w>": 19,
  "0.82": 2291,
  "342,</w>": 841,
  "-0.13793,</w>": 20,
  "-0.10075,</w>": 18,
  "-0.12686,</w>": 19,
  "-0.088": 306,
  "719,</w>": 1188,
  "263,</w>": 781,
  "0.0644": 127,
  "-0.0319": 166,
  "0.15254,</w>": 28,
  "-0.10384,</w>": 16,
  "604,</w>": 157,
  "0.340": 323,
  "0.24331,</w>": 19,
  "-0.10452,</w>": 17,
  "0.40": 3575,
  "-0.1826,</w>": 23,
  "-0.0406": 162,
  "0.50": 4100,
  "878,</w>": 851,
  "0.22759,</w>": 16,
  "-0.18171,</w>": 18,
  "-0.095": 1550,
  "025,</w>": 315,
  "334,</w>": 772,
  "0.0882": 183,
  "02,</w>": 4749,
  "0.15724,</w>": 18,
  "0.33167,</w>": 21,
  "0.084": 1587,
  "-0.25919,</w>": 18,
  "-0.413": 662,
  "0.2": 1197,
  "992,</w>": 646,
  "-0.54": 3820,
  "255,</w>": 790,
  "0.032": 537,
  "129,</w>": 911,
  "0.1003,</w>": 24,
  "0.44": 4059,
  "202,</w>": 790,
  "0.0446": 140,
  "681,</w>": 164,
  "-0.10481,</w>": 15,
  "-0.1186,</w>": 13,
  "-0.319": 359,
  "-0.2079,</w>": 18,
  "988,</w>": 342,
  "0.22824,</w>": 13,
  "0.12568,</w>": 13,
  "-0.1464,</w>": 24,
  "-0.14904,</w>": 17,
  "-0.11561,</w>": 18,
  "1.05": 725,
  "-0.194": 188,
  "0.083": 1508,
  "958,</w>": 833,
  "0.044": 1264,
  "812,</w>": 1126,
  "-0.12965,</w>": 15,
  "-0.0934": 129,
  "68,</w>": 4184,
  "0.21237,</w>": 16,
  "-0.1868,</w>": 15,
  "0.26521,</w>": 19,
  "0.13097,</w>": 19,
  "-0.0481": 141,
  "-0.22467,</w>": 17,
  "0.28412,</w>": 13,
  "0.34907,</w>": 13,
  "0.34833,</w>": 16,
  "0.0178": 140,
  "77,</w>": 6419,
  "0.30504,</w>": 22,
  "0.048": 248,
  "856,</w>": 1152,
  "-0.1933,</w>": 22,
  "0.20": 1060,
  "764,</w>": 1137,
  "-0.49": 3752,
  "701,</w>": 1161,
  "-0.18747,</w>": 22,
  "-0.076": 1665,
  "801,</w>": 990,
  "0.15558,</w>": 14,
  "844,</w>": 936,
  "0.40944,</w>": 13,
  "0.21386,</w>": 30,
  "392,</w>": 874,
  "-0.26491,</w>": 13,
  "-0.21224,</w>": 19,
  "-0.13293,</w>": 23,
  "0.14738,</w>": 21,
  "-0.14192,</w>": 22,
  "0.18994,</w>": 28,
  "-0.15587,</w>": 16,
  "789,</w>": 1128,
  "-0.27452,</w>": 16,
  "-0.18431,</w>": 21,
  "0.19672,</w>": 23,
  "0.40918,</w>": 15,
  "-0.35462,</w>": 14,
  "-0.063": 792,
  "0.4492,</w>": 16,
  "-0.0605": 127,
  "-0.0416": 141,
  "36,</w>": 5294,
  "0.20531,</w>": 17,
  "0.0170": 142,
  "-0.584": 581,
  "441,</w>": 536,
  "116,</w>": 844,
  "008,</w>": 498,
  "0.14177,</w>": 20,
  "192,</w>": 1008,
  "0.34505,</w>": 15,
  "136,</w>": 951,
  "0.573": 559,
  "0.0119": 177,
  "196,</w>": 1037,
  "0.29672,</w>": 23,
  "-0.27899,</w>": 16,
  "0.19979,</w>": 18,
  "0.25666,</w>": 18,
  "079,</w>": 330,
  "-0.078": 1641,
  "436,</w>": 454,
  "0.24202,</w>": 16,
  "1.34": 270,
  "95,</w>": 4960,
  "-0.30434,</w>": 21,
  "-0.30936,</w>": 15,
  "0.420": 627,
  "-0.079": 1557,
  "068,</w>": 505,
  "-0.14819,</w>": 17,
  "404,</w>": 435,
  "0.066": 1629,
  "8,</w>": 900,
  "0.22405,</w>": 18,
  "0.27226,</w>": 16,
  "236,</w>": 784,
  "0.17688,</w>": 22,
  "-0.05": 1088,
  "-0.0330": 153,
  "06,</w>": 4745,
  "-0.080": 1676,
  "021,</w>": 276,
  "-0.24451,</w>": 16,
  "-0.16236,</w>": 18,
  "0.25427,</w>": 13,
  "0.313": 393,
  "-0.356": 532,
  "0.0296": 161,
  "29,</w>": 5989,
  "0.510": 730,
  "34,</w>": 5141,
  "-0.10716,</w>": 19,
  "0.15195,</w>": 16,
  "0.0576": 161,
  "149,</w>": 889,
  "0.39911,</w>": 13,
  "0.31978,</w>": 18,
  "0.43": 3547,
  "257,</w>": 713,
  "-0.14708,</w>": 18,
  "0.054": 904,
  "842,</w>": 1098,
  "0.27079,</w>": 17,
  "-0.14051,</w>": 20,
  "-0.30101,</w>": 21,
  "0.16313,</w>": 25,
  "0.22231,</w>": 15,
  "-0.14279,</w>": 14,
  "866,</w>": 960,
  "706,</w>": 1143,
  "661,</w>": 343,
  "0.27311,</w>": 23,
  "0.314": 369,
  "0.0605": 152,
  "-0.0426": 182,
  "0.24": 1680,
  "178,</w>": 711,
  "-0.29187,</w>": 15,
  "0.22575,</w>": 15,
  "-0.14641,</w>": 26,
  "-0.22429,</w>": 20,
  "-0.0566": 142,
  "-0.17776,</w>": 17,
  "-0.64": 2862,
  "269,</w>": 783,
  "0.516": 643,
  "305,</w>": 852,
  "0.12124,</w>": 28,
  "0.480": 711,
  "0.41": 1746,
  "743,</w>": 1210,
  "0.54": 4004,
  "805,</w>": 1107,
  "0.40955,</w>": 13,
  "0.42407,</w>": 15,
  "0.049": 808,
  "-0.32574,</w>": 18,
  "0.19245,</w>": 18,
  "0.28143,</w>": 14,
  "0.2966,</w>": 19,
  "0.0635": 159,
  "-0.11906,</w>": 13,
  "-0.15016,</w>": 16,
  "-0.049": 852,
  "0.40675,</w>": 13,
  "0.010": 1705,
  "675,</w>": 177,
  "-0.69": 2053,
  "127,</w>": 1057,
  "729,</w>": 1207,
  "0.26391,</w>": 19,
  "0.30961,</w>": 21,
  "-0.11921,</w>": 20,
  "0.25548,</w>": 17,
  "-0.28219,</w>": 23,
  "0.36461,</w>": 15,
  "0.0271": 168,
  "0.20786,</w>": 20,
  "0.533": 306,
  "148,</w>": 918,
  "0.72": 3522,
  "381,</w>": 369,
  "0.065": 1337,
  "292,</w>": 832,
  "716,</w>": 1136,
  "-0.10537,</w>": 33,
  "-0.2096,</w>": 21,
  "0.040": 1083,
  "902,</w>": 884,
  "0.16146,</w>": 15,
  "0.10361,</w>": 21,
  "0.19705,</w>": 19,
  "-0.27365,</w>": 21,
  "0.89": 1815,
  "-0.29981,</w>": 16,
  "165,</w>": 1014,
  "0.0412": 120,
  "38,</w>": 5084,
  "0.60": 3251,
  "105,</w>": 1033,
  "-0.18911,</w>": 17,
  "-0.43": 3602,
  "887,</w>": 1012,
  "-0.14097,</w>": 20,
  "0.440": 454,
  "-0.199": 128,
  "-0.25458,</w>": 16,
  "-0.10985,</w>": 16,
  "-0.002": 128,
  "73": 78,
  "0.091": 399,
  "0.17021,</w>": 20,
  "-0.16305,</w>": 13,
  "-0.574": 595,
  "39,</w>": 5336,
  "0.37063,</w>": 14,
  "-0.246": 229,
  "-0.15355,</w>": 15,
  "-0.15553,</w>": 16,
  "0.019": 1680,
  "783,</w>": 1200,
  "0.1803,</w>": 18,
  "0.38178,</w>": 15,
  "443,</w>": 515,
  "-0.55158,</w>": 14,
  "-0.20242,</w>": 20,
  "-0.4386,</w>": 14,
  "-0.42": 2596,
  "108,</w>": 946,
  "0.27525,</w>": 14,
  "0.589": 541,
  "655,</w>": 160,
  "0.16401,</w>": 17,
  "0.13893,</w>": 17,
  "-0.686": 408,
  "0.29278,</w>": 14,
  "0.022": 1663,
  "041,</w>": 462,
  "-0.18156,</w>": 16,
  "905,</w>": 789,
  "0.16923,</w>": 16,
  "-0.010": 1655,
  "0.21785,</w>": 14,
  "-0.272": 280,
  "0.27967,</w>": 22,
  "0.1395,</w>": 16,
  "-0.70": 3567,
  "559,</w>": 347,
  "034,</w>": 461,
  "-0.44017,</w>": 14,
  "0.15303,</w>": 15,
  "0.19693,</w>": 13,
  "-0.096": 1574,
  "838,</w>": 966,
  "0.14827,</w>": 19,
  "1.12": 639,
  "-0.31267,</w>": 21,
  "-0.486": 654,
  "584,</w>": 180,
  "0.356": 478,
  "08,</w>": 4578,
  "-0.19925,</w>": 18,
  "0.19306,</w>": 22,
  "-0.2004,</w>": 21,
  "-0.44194,</w>": 13,
  "0.75": 3238,
  "0.24487,</w>": 19,
  "-0.18903,</w>": 19,
  "0.26653,</w>": 13,
  "-0.21339,</w>": 21,
  "-0.540": 378,
  "0.405": 625,
  "-0.02": 577,
  "-0.13": 544,
  "398,</w>": 905,
  "-0.11086,</w>": 17,
  "0.24052,</w>": 21,
  "-0.59": 3047,
  "-0.0024": 45,
  "069,</w>": 443,
  "-0.18593,</w>": 16,
  "1.042,</w>": 18,
  "-0.12969,</w>": 15,
  "0.20813,</w>": 20,
  "0.33305,</w>": 14,
  "-0.1278,</w>": 19,
  "422,</w>": 340,
  "-0.23": 1246,
  "784,</w>": 1185,
  "-0.054": 928,
  "0.84": 2410,
  "5,</w>": 884,
  "-0.34165,</w>": 16,
  "445,</w>": 476,
  "-0.27777,</w>": 16,
  "-0.44": 4233,
  "226,</w>": 795,
  "-0.0630": 158,
  "0.372": 617,
  "468,</w>": 591,
  "0.24197,</w>": 18,
  "886,</w>": 931,
  "0.3": 2661,
  "894,</w>": 1085,
  "-0.10509,</w>": 21,
  "0.23372,</w>": 16,
  "027,</w>": 319,
  "-0.30324,</w>": 20,
  "0.244": 216,
  "-0.086": 1530,
  "254,</w>": 654,
  "-0.41917,</w>": 14,
  "-0.234": 253,
  "-0.3624,</w>": 16,
  "0.4": 4094,
  "037,</w>": 477,
  "0.11386,</w>": 23,
  "933,</w>": 602,
  "-0.30991,</w>": 17,
  "0.584": 575,
  "956,</w>": 828,
  "0.49": 3639,
  "393,</w>": 852,
  "-0.0372": 131,
  "09,</w>": 4872,
  "-0.284": 367,
  "28,</w>": 6006,
  "0.0976": 147,
  "-0.48907,</w>": 13,
  "0.376": 580,
  "0.057": 138,
  "788,</w>": 1146,
  "-0.46807,</w>": 15,
  "0.081": 1561,
  "369,</w>": 861,
  "0.379": 524,
  "0.0936": 148,
  "-0.12855,</w>": 15,
  "0.1738,</w>": 28,
  "0.10522,</w>": 33,
  "0.28648,</w>": 17,
  "0.21089,</w>": 14,
  "-0.470": 731,
  "0.027": 144,
  "-0.19803,</w>": 16,
  "328,</w>": 338,
  "-0.84": 2121,
  "629,</w>": 169,
  "-0.79": 2482,
  "708,</w>": 1136,
  "-0.38": 1066,
  "-0.030": 1639,
  "-0.26849,</w>": 16,
  "0.485": 660,
  "85,</w>": 6266,
  "0.12895,</w>": 20,
  "0.38354,</w>": 18,
  "0.38722,</w>": 19,
  "-0.38524,</w>": 17,
  "0.19075,</w>": 19,
  "0.489": 660,
  "0.13278,</w>": 14,
  "0.2677,</w>": 19,
  "0.17812,</w>": 19,
  "-0.11433,</w>": 21,
  "-0.33494,</w>": 17,
  "0.873": 215,
  "875,</w>": 950,
  "-0.30378,</w>": 18,
  "-0.15626,</w>": 19,
  "0.23322,</w>": 14,
  "0.27953,</w>": 16,
  "-0.18494,</w>": 20,
  "-0.14146,</w>": 18,
  "-0.18969,</w>": 18,
  "0.35874,</w>": 23,
  "0.0655": 144,
  "65,</w>": 4254,
  "-0.083": 1646,
  "252,</w>": 816,
  "0.51": 1901,
  "761,</w>": 1131,
  "0.16171,</w>": 22,
  "0.16388,</w>": 23,
  "-0.12399,</w>": 17,
  "0.31122,</w>": 13,
  "-0.15412,</w>": 23,
  "-0.10917,</w>": 25,
  "-0.42551,</w>": 17,
  "0.11418,</w>": 26,
  "137,</w>": 1043,
  "-0.056": 1422,
  "-0.25927,</w>": 19,
  "0.28163,</w>": 18,
  "-0.0180": 167,
  "0.16065,</w>": 27,
  "-0.485": 694,
  "-0.989": 97,
  "03,</w>": 4776,
  "0.25022,</w>": 22,
  "-0.16736,</w>": 14,
  "0.41474,</w>": 13,
  "0.17701,</w>": 22,
  "0.11088,</w>": 22,
  "-0.1836,</w>": 21,
  "-0.1241,</w>": 28,
  "-0.3478,</w>": 18,
  "-0.22381,</w>": 24,
  "-0.11245,</w>": 23,
  "-0.21156,</w>": 16,
  "-0.23607,</w>": 16,
  "0.0272": 158,
  "61,</w>": 4418,
  "0.3643,</w>": 16,
  "0.039": 1047,
  "-0.18369,</w>": 16,
  "1.22": 480,
  "66,</w>": 4246,
  "-0.7": 270,
  "-0.66": 3959,
  "225,</w>": 743,
  "724,</w>": 1118,
  "-0.14969,</w>": 19,
  "649,</w>": 155,
  "0.26814,</w>": 19,
  "-0.16765,</w>": 14,
  "-0.31942,</w>": 15,
  "0.28494,</w>": 19,
  "-0.12219,</w>": 15,
  "0.56": 5480,
  "-0.32,</w>": 21,
  "109,</w>": 968,
  "-0.10209,</w>": 21,
  "0.46575,</w>": 13,
  "-0.715": 295,
  "0.17293,</w>": 19,
  "0.582": 635,
  "384,</w>": 363,
  "-0.033": 898,
  "-0.25129,</w>": 23,
  "0.365": 441,
  "0.0315": 141,
  "0.871": 174,
  "89,</w>": 6595,
  "0.12455,</w>": 26,
  "-0.45877,</w>": 15,
  "965,</w>": 921,
  "-0.46779,</w>": 15,
  "0.1781,</w>": 16,
  "969,</w>": 846,
  "0.13995,</w>": 20,
  "0.975": 137,
  "0.11836,</w>": 19,
  "-0.63": 2603,
  "904,</w>": 873,
  "-0.15416,</w>": 18,
  "262,</w>": 763,
  "0.24329,</w>": 15,
  "476,</w>": 345,
  "0.25069,</w>": 13,
  "-0.10252,</w>": 24,
  "-0.32839,</w>": 19,
  "-0.085": 1528,
  "-0.012": 1668,
  "-0.19431,</w>": 15,
  "-0.35733,</w>": 18,
  "-0.20344,</w>": 19,
  "-0.12413,</w>": 21,
  "-0.34431,</w>": 13,
  "-0.23296,</w>": 22,
  "-0.21187,</w>": 18,
  "387,</w>": 364,
  "0.070": 1601,
  "063,</w>": 444,
  "023,</w>": 327,
  "-0.39037,</w>": 13,
  "0.80": 2516,
  "002,</w>": 486,
  "0.40577,</w>": 17,
  "863,</w>": 1022,
  "0.35263,</w>": 13,
  "043,</w>": 487,
  "0.39676,</w>": 13,
  "0.22862,</w>": 14,
  "-0.35028,</w>": 17,
  "-0.473": 665,
  "44,</w>": 4668,
  "0.59": 2988,
  "742,</w>": 1114,
  "-0.11657,</w>": 13,
  "52,</w>": 4538,
  "157,</w>": 955,
  "571,</w>": 217,
  "-0.16622,</w>": 22,
  "0.19274,</w>": 15,
  "175,</w>": 722,
  "-0.20781,</w>": 16,
  "0.1562,</w>": 25,
  "0.050": 876,
  "231,</w>": 787,
  "-0.27915,</w>": 21,
  "-0.31237,</w>": 15,
  "0.13194,</w>": 15,
  "-0.33278,</w>": 13,
  "0.188": 35,
  "22,</w>": 5856,
  "0.544": 491,
  "18,</w>": 6083,
  "-0.23069,</w>": 20,
  "0.473": 721,
  "877,</w>": 953,
  "0.33066,</w>": 14,
  "0.0215": 138,
  "-0.536": 654,
  "0.21312,</w>": 18,
  "0.199": 92,
  "0.514": 705,
  "641,</w>": 178,
  "0.068": 281,
  "0.27424,</w>": 17,
  "-0.20493,</w>": 21,
  "0.23268,</w>": 17,
  "0.324": 485,
  "9,</w>": 911,
  "-0.19444,</w>": 23,
  "0.646": 499,
  "2.": 332,
  "83": 48,
  "0.14004,</w>": 24,
  "868,</w>": 1042,
  "0.273": 329,
  "-0.27975,</w>": 14,
  "-0.264": 98,
  "0.14183,</w>": 15,
  "0.113": 130,
  "0.25039,</w>": 18,
  "-0.24972,</w>": 17,
  "-0.16882,</w>": 25,
  "-0.31039,</w>": 19,
  "-0.44458,</w>": 16,
  "-0.20181,</w>": 13,
  "-0.013": 1661,
  "405,</w>": 438,
  "0.23635,</w>": 16,
  "0.17741,</w>": 23,
  "-0.10535,</w>": 21,
  "-0.20716,</w>": 14,
  "0.378": 642,
  "0.10507,</w>": 16,
  "-0.3097,</w>": 16,
  "782,</w>": 1259,
  "-0.500": 647,
  "0.26643,</w>": 22,
  "0.515": 639,
  "247,</w>": 789,
  "0.50546,</w>": 14,
  "-0.24959,</w>": 28,
  "0.540": 346,
  "0.17268,</w>": 15,
  "865,</w>": 1007,
  "0.24111,</w>": 15,
  "0.1721,</w>": 23,
  "734,</w>": 1232,
  "0.31275,</w>": 19,
  "0.187,</w>": 21,
  "-0.45": 6124,
  "853,</w>": 1051,
  "0.22511,</w>": 15,
  "0.16761,</w>": 18,
  "918,</w>": 357,
  "065,</w>": 515,
  "0.38718,</w>": 18,
  "-0.21586,</w>": 18,
  "-0.10332,</w>": 18,
  "0.24157,</w>": 17,
  "-0.1844,</w>": 16,
  "0.31295,</w>": 18,
  "-0.16315,</w>": 19,
  "-0.21771,</w>": 18,
  "0.18137,</w>": 27,
  "089,</w>": 347,
  "0.0683": 123,
  "-0.17317,</w>": 16,
  "-0.796": 206,
  "0.24492,</w>": 20,
  "0.12389,</w>": 21,
  "0.11703,</w>": 20,
  "-0.370": 556,
  "759,</w>": 1176,
  "-0.47564,</w>": 15,
  "-0.15975,</w>": 20,
  "0.1838,</w>": 19,
  "0.25664,</w>": 14,
  "-0.412": 594,
  "0.0475": 151,
  "0.16437,</w>": 20,
  "-0.26353,</w>": 16,
  "-0.27328,</w>": 26,
  "0.31598,</w>": 15,
  "-0.11246,</w>": 13,
  "-0.18703,</w>": 22,
  "0.20422,</w>": 14,
  "0.0116": 151,
  "0.13657,</w>": 18,
  "1.15": 594,
  "-0.11591,</w>": 19,
  "-0.18142,</w>": 14,
  "-0.36441,</w>": 13,
  "051,</w>": 469,
  "0.19956,</w>": 16,
  "0.2685,</w>": 17,
  "357,</w>": 816,
  "0.323": 154,
  "-0.195": 218,
  "-0.368,</w>": 18,
  "0.24194,</w>": 14,
  "0.312": 361,
  "0.24128,</w>": 16,
  "-0.76": 2945,
  "12,</w>": 6246,
  "0.42396,</w>": 14,
  "0.26369,</w>": 17,
  "-0.13438,</w>": 16,
  "-0.17673,</w>": 18,
  "168,</w>": 987,
  "0.17744,</w>": 19,
  "0.38957,</w>": 14,
  "-0.12586,</w>": 18,
  "-0.14862,</w>": 15,
  "-0.29635,</w>": 19,
  "0.40572,</w>": 16,
  "653,</w>": 179,
  "-0.11642,</w>": 13,
  "-0.16958,</w>": 24,
  "1.09": 292,
  "0.39618,</w>": 19,
  "-0.16874,</w>": 27,
  "036,</w>": 438,
  "0.413": 598,
  "0.28977,</w>": 14,
  "0.11419,</w>": 16,
  "-0.0473": 150,
  "-0.003": 184,
  "35": 46,
  "-0.424": 694,
  "0.61": 1539,
  "-0.28841,</w>": 13,
  "991,</w>": 582,
  "-0.380": 522,
  "0.18044,</w>": 18,
  "-0.11781,</w>": 14,
  "0.35162,</w>": 13,
  "0.1622,</w>": 20,
  "0.55483,</w>": 13,
  "0.14,</w>": 23,
  "0.2321,</w>": 20,
  "-0.20205,</w>": 13,
  "227,</w>": 715,
  "-0.15379,</w>": 18,
  "0.21907,</w>": 28,
  "0.10622,</w>": 23,
  "0.506": 721,
  "201,</w>": 705,
  "-0.40887,</w>": 13,
  "-0.17819,</w>": 21,
  "0.22042,</w>": 19,
  "775,</w>": 1122,
  "-0.393": 247,
  "-0.35828,</w>": 15,
  "0.14872,</w>": 27,
  "0.035": 1533,
  "555,</w>": 321,
  "-0.11273,</w>": 22,
  "0.0233": 80,
  "0.15904,</w>": 22,
  "-0.14389,</w>": 24,
  "-0.11754,</w>": 16,
  "-0.636": 468,
  "55,</w>": 4373,
  "-0.12197,</w>": 15,
  "0.043": 795,
  "809,</w>": 1024,
  "0.14716,</w>": 23,
  "-0.21358,</w>": 22,
  "-0.622": 536,
  "0.3041,</w>": 16,
  "-0.13577,</w>": 15,
  "-0.27979,</w>": 18,
  "-0.409": 250,
  "-0.26553,</w>": 15,
  "0.10492,</w>": 13,
  "-0.044": 1292,
  "101,</w>": 943,
  "0.062": 550,
  "0.35588,</w>": 13,
  "757,</w>": 1165,
  "-0.14295,</w>": 22,
  "534,</w>": 173,
  "0.42512,</w>": 13,
  "0.014": 1574,
  "0.2915,</w>": 13,
  "-0.20416,</w>": 21,
  "-0.10039,</w>": 23,
  "0.30767,</w>": 18,
  "614,</w>": 185,
  "457,</w>": 557,
  "0.25545,</w>": 19,
  "0.27528,</w>": 17,
  "-0.29939,</w>": 14,
  "0.446": 766,
  "012,</w>": 322,
  "-0.10785,</w>": 23,
  "-0.389": 620,
  "-0.20562,</w>": 22,
  "0.26306,</w>": 19,
  "-0.0181": 149,
  "63,</w>": 4134,
  "-0.14244,</w>": 18,
  "-0.566": 666,
  "1,</w>": 1009,
  "-0.12168,</w>": 18,
  "0.28": 727,
  "749,</w>": 1211,
  "-0.30581,</w>": 17,
  "-0.4482,</w>": 13,
  "-0.15317,</w>": 21,
  "-0.19445,</w>": 15,
  "0.35335,</w>": 17,
  "-0.015": 1684,
  "209,</w>": 795,
  "0.23061,</w>": 13,
  "0.13566,</w>": 20,
  "-0.26385,</w>": 23,
  "084,</w>": 318,
  "0.160": 44,
  "0.12168,</w>": 18,
  "758,</w>": 1069,
  "0.32453,</w>": 18,
  "-0.13693,</w>": 26,
  "-0.2006,</w>": 19,
  "-0.0979": 121,
  "-0.15446,</w>": 26,
  "-0.38003,</w>": 13,
  "0.15699,</w>": 18,
  "0.0414": 149,
  "-0.22766,</w>": 18,
  "0.25514,</w>": 21,
  "0.130": 103,
  "0.24261,</w>": 18,
  "-0.27622,</w>": 17,
  "-0.21293,</w>": 22,
  "-0.11668,</w>": 26,
  "0.21658,</w>": 18,
  "0.19006,</w>": 17,
  "0.484": 705,
  "0.20366,</w>": 22,
  "563,</w>": 333,
  "0.19522,</w>": 17,
  "-0.16715,</w>": 16,
  "-0.31923,</w>": 15,
  "-0.35499,</w>": 13,
  "0.599": 318,
  "-0.27371,</w>": 17,
  "-0.36558,</w>": 13,
  "0.693": 175,
  "-0.2407,</w>": 14,
  "0.22596,</w>": 14,
  "0.21897,</w>": 14,
  "-0.23484,</w>": 17,
  "-0.36": 4002,
  "304,</w>": 909,
  "0.1029,</w>": 19,
  "0.28864,</w>": 16,
  "-0.436": 644,
  "785,</w>": 1220,
  "0.1183,</w>": 23,
  "0.20385,</w>": 28,
  "0.40474,</w>": 14,
  "155,</w>": 952,
  "-0.12931,</w>": 17,
  "1.2": 1480,
  "303,</w>": 877,
  "-0.555": 655,
  "-0.466": 728,
  "173,</w>": 815,
  "0.526": 660,
  "-0.236": 147,
  "833,</w>": 1012,
  "0.10002,</w>": 21,
  "0.090": 1624,
  "947,</w>": 847,
  "-0.253": 177,
  "795,</w>": 1215,
  "0.0634": 150,
  "0.74": 3113,
  "0.2902,</w>": 15,
  "0.22642,</w>": 13,
  "0.33915,</w>": 21,
  "-0.80": 2374,
  "488,</w>": 299,
  "0.21889,</w>": 17,
  "0.19193,</w>": 18,
  "0.055": 1587,
  "-0.399": 337,
  "0.26978,</w>": 26,
  "166,</w>": 974,
  "0.20485,</w>": 13,
  "0.33116,</w>": 15,
  "0.11562,</w>": 18,
  "-0.45671,</w>": 14,
  "-0.480": 692,
  "0.46172,</w>": 15,
  "0.27319,</w>": 19,
  "0.243,</w>": 17,
  "0.12328,</w>": 16,
  "0.2307,</w>": 21,
  "0.0370": 156,
  "0.23077,</w>": 17,
  "-0.31092,</w>": 20,
  "-0.0996": 149,
  "0.41876,</w>": 13,
  "-0.093": 780,
  "834,</w>": 978,
  "-0.24741,</w>": 16,
  "-0.745": 255,
  "0.16518,</w>": 28,
  "0.069": 810,
  "691,</w>": 168,
  "-0.0920": 159,
  "0.21124,</w>": 18,
  "-0.28236,</w>": 15,
  "0.20825,</w>": 20,
  "-0.17163,</w>": 20,
  "-0.320": 479,
  "-0.275": 279,
  "-0.30774,</w>": 13,
  "0.18184,</w>": 28,
  "-0.062": 608,
  "0.579": 575,
  "-0.32": 1594,
  "348,</w>": 897,
  "-0.13457,</w>": 19,
  "0.38565,</w>": 19,
  "-0.30198,</w>": 17,
  "0.26197,</w>": 19,
  "-0.10034,</w>": 26,
  "-0.146,</w>": 15,
  "-0.3417,</w>": 15,
  "0.16671,</w>": 29,
  "-0.23599,</w>": 19,
  "-0.56": 5485,
  "967,</w>": 786,
  "-0.21024,</w>": 19,
  "-0.29": 1782,
  "861,</w>": 1065,
  "-0.293,</w>": 14,
  "0.15889,</w>": 17,
  "0.17254,</w>": 27,
  "0.071": 1533,
  "0.053": 719,
  "-0.23429,</w>": 24,
  "927,</w>": 363,
  "0.15539,</w>": 25,
  "0.4182,</w>": 15,
  "-0.15216,</w>": 31,
  "0.36951,</w>": 17,
  "0.19039,</w>": 17,
  "-0.34534,</w>": 14,
  "-0.22307,</w>": 18,
  "-1.2": 787,
  "907,</w>": 875,
  "0.25285,</w>": 16,
  "128,</w>": 935,
  "336,</w>": 716,
  "0.31136,</w>": 15,
  "0.24661,</w>": 14,
  "0.78": 2639,
  "048,</w>": 483,
  "0.31125,</w>": 19,
  "-0.17743,</w>": 19,
  "-0.419": 682,
  "-0.37815,</w>": 15,
  "0.6": 3323,
  "723,</w>": 1205,
  "0.0324": 136,
  "612,</w>": 189,
  "0.18052,</w>": 15,
  "0.28572,</w>": 16,
  "0.21437,</w>": 14,
  "0.1872,</w>": 20,
  "0.11914,</w>": 24,
  "0.0274": 148,
  "-0.806": 232,
  "-0.30835,</w>": 17,
  "-0.89": 1408,
  "737,</w>": 1224,
  "-0.19772,</w>": 23,
  "741,</w>": 1103,
  "0.11659,</w>": 27,
  "-0.2011,</w>": 15,
  "0.20101,</w>": 19,
  "133,</w>": 906,
  "-0.050": 798,
  "954,</w>": 744,
  "0.3347,</w>": 13,
  "-0.21118,</w>": 16,
  "042,</w>": 466,
  "-0.28141,</w>": 22,
  "-0.0596": 129,
  "-0.35296,</w>": 17,
  "748,</w>": 1139,
  "908,</w>": 858,
  "-0.31376,</w>": 21,
  "-0.36622,</w>": 15,
  "-0.27755,</w>": 13,
  "676,</w>": 199,
  "0.14312,</w>": 22,
  "-0.1858,</w>": 14,
  "119,</w>": 904,
  "0.186": 62,
  "16,</w>": 6216,
  "0.18854,</w>": 21,
  "0.27521,</w>": 19,
  "-0.17835,</w>": 13,
  "-0.37438,</w>": 17,
  "0.12109,</w>": 16,
  "0.10186,</w>": 21,
  "0.0980": 137,
  "-0.372": 504,
  "415,</w>": 326,
  "0.0573": 132,
  "-0.43845,</w>": 14,
  "-0.40525,</w>": 17,
  "959,</w>": 887,
  "-0.11343,</w>": 18,
  "-0.549": 267,
  "-0.26321,</w>": 14,
  "-0.28471,</w>": 15,
  "0.14411,</w>": 16,
  "0.103": 55,
  "-0.32198,</w>": 16,
  "-0.2153,</w>": 17,
  "0.986": 96,
  "0.3119,</w>": 19,
  "0.3338,</w>": 15,
  "0.16018,</w>": 16,
  "0.33": 2362,
  "494,</w>": 400,
  "-0.12048,</w>": 18,
  "-0.12175,</w>": 22,
  "0.26158,</w>": 19,
  "0.029": 939,
  "931,</w>": 671,
  "-0.29625,</w>": 18,
  "0.434": 613,
  "536,</w>": 181,
  "-0.42852,</w>": 15,
  "-0.396": 645,
  "-0.24973,</w>": 14,
  "1.10": 690,
  "-0.22812,</w>": 19,
  "0.24324,</w>": 23,
  "857,</w>": 956,
  "-0.488": 151,
  "-0.21316,</w>": 19,
  "249,</w>": 694,
  "-0.40516,</w>": 13,
  "-0.12411,</w>": 18,
  "-0.19728,</w>": 23,
  "-0.736": 278,
  "-0.445": 761,
  "707,</w>": 1226,
  "-0.16454,</w>": 25,
  "0.16011,</w>": 13,
  "0.414": 592,
  "-0.572": 605,
  "0.513": 645,
  "0.35309,</w>": 17,
  "-0.10803,</w>": 20,
  "0.13702,</w>": 21,
  "0.38": 1042,
  "828,</w>": 1093,
  "-0.28813,</w>": 20,
  "0.682": 385,
  "0.17412,</w>": 17,
  "-0.08": 285,
  "-0.29785,</w>": 14,
  "-0.28455,</w>": 16,
  "0.1357,</w>": 15,
  "0.15232,</w>": 14,
  "0.22037,</w>": 22,
  "0.68": 754,
  "-0.131,</w>": 20,
  "0.395": 587,
  "-0.60": 3217,
  "817,</w>": 959,
  "0.1109,</w>": 18,
  "-0.28476,</w>": 15,
  "0.30": 2246,
  "461,</w>": 549,
  "-0.21606,</w>": 16,
  "0.44172,</w>": 14,
  "-0.24231,</w>": 13,
  "-0.12758,</w>": 15,
  "-0.048": 275,
  "793,</w>": 1175,
  "-0.15495,</w>": 18,
  "-0.85": 1948,
  "491,</w>": 442,
  "0.0929": 77,
  "-0.060": 851,
  "-0.38735,</w>": 19,
  "-0.070": 1546,
  "975,</w>": 356,
  "-0.38157,</w>": 13,
  "0.41521,</w>": 13,
  "0.213": 182,
  "-0.33779,</w>": 18,
  "0.424": 635,
  "-0.12": 400,
  "626,</w>": 149,
  "0.12745,</w>": 18,
  "-0.13561,</w>": 25,
  "0.234": 284,
  "0.3511,</w>": 14,
  "841,</w>": 1086,
  "0.12982,</w>": 30,
  "0.21357,</w>": 13,
  "0.32857,</w>": 13,
  "0.16567,</w>": 13,
  "-0.21458,</w>": 19,
  "0.3285,</w>": 14,
  "0.18001,</w>": 18,
  "0.064": 946,
  "-0.3588,</w>": 15,
  "-0.22049,</w>": 15,
  "829,</w>": 936,
  "0.38525,</w>": 15,
  "-0.10512,</w>": 14,
  "0.27801,</w>": 17,
  "-0.10171,</w>": 15,
  "0.31201,</w>": 15,
  "768,</w>": 1213,
  "-0.12583,</w>": 17,
  "-0.27524,</w>": 16,
  "0.29": 1803,
  "145,</w>": 1018,
  "-0.30431,</w>": 17,
  "0.0371": 175,
  "0.94": 1261,
  "0.0880": 139,
  "273,</w>": 700,
  "0.37": 602,
  "-0.30819,</w>": 13,
  "-0.27478,</w>": 18,
  "0.81": 2550,
  "0.536": 678,
  "0.08": 250,
  "0.35": 3466,
  "8": 95,
  "-0.12505,</w>": 23,
  "968,</w>": 884,
  "0.1355,</w>": 15,
  "-0.29932,</w>": 15,
  "-0.594": 521,
  "0.685": 418,
  "-0.11537,</w>": 13,
  "0.088": 318,
  "-0.29829,</w>": 16,
  "-0.20": 958,
  "0.69": 2164,
  "-0.97": 83,
  "722,</w>": 1170,
  "053,</w>": 509,
  "-0.16178,</w>": 19,
  "-0.716": 326,
  "0.31939,</w>": 21,
  "291,</w>": 840,
  "0.32565,</w>": 21,
  "0.555": 754,
  "-0.42967,</w>": 14,
  "0.30304,</w>": 13,
  "0.445": 756,
  "987,</w>": 363,
  "-0.35": 3988,
  "762,</w>": 1164,
  "-0.13736,</w>": 13,
  "-0.16066,</w>": 18,
  "-0.28606,</w>": 17,
  "702,</w>": 1092,
  "0.40895,</w>": 15,
  "-0.40": 3814,
  "467,</w>": 558,
  "-0.516": 691,
  "0.28044,</w>": 17,
  "-0.27625,</w>": 18,
  "-0.20352,</w>": 15,
  "837,</w>": 1014,
  "0.32895,</w>": 13,
  "0.20482,</w>": 20,
  "0.17551,</w>": 23,
  "-0.2309,</w>": 17,
  "-0.066": 1673,
  "-0.23018,</w>": 19,
  "-0.0981": 158,
  "-0.12376,</w>": 31,
  "-0.0285": 161,
  "0.71": 3472,
  "-0.27804,</w>": 16,
  "0.10137,</w>": 16,
  "0.511": 209,
  "-0.426": 643,
  "-0.12535,</w>": 18,
  "0.29972,</w>": 20,
  "0.1868,</w>": 15,
  "-0.581": 548,
  "0.38192,</w>": 15,
  "0.1654,</w>": 13,
  "0.33566,</w>": 20,
  "-0.476": 630,
  "-0.24135,</w>": 13,
  "-0.33114,</w>": 15,
  "815,</w>": 1128,
  "-0.0870": 142,
  "-0.16406,</w>": 24,
  "-0.1023,</w>": 27,
  "0.53": 3370,
  "301,</w>": 847,
  "0.456": 650,
  "0.33281,</w>": 20,
  "-0.33851,</w>": 16,
  "248,</w>": 720,
  "-0.15048,</w>": 19,
  "-0.33033,</w>": 16,
  "0.666": 468,
  "-0.28609,</w>": 15,
  "1.03": 235,
  "268,</w>": 843,
  "125,</w>": 990,
  "0.19906,</w>": 17,
  "0.519": 667,
  "-0.255": 220,
  "-0.32363,</w>": 21,
  "0.13236,</w>": 29,
  "006,</w>": 477,
  "0.12268,</w>": 23,
  "-0.534": 664,
  "41,</w>": 4603,
  "0.25609,</w>": 15,
  "0.39963,</w>": 13,
  "527,</w>": 213,
  "-0.41176,</w>": 17,
  "0.18955,</w>": 18,
  "526,</w>": 180,
  "-0.20222,</w>": 16,
  "0.33781,</w>": 14,
  "-0.644": 360,
  "-0.5309,</w>": 14,
  "0.0278": 127,
  "0.29687,</w>": 14,
  "-0.0381": 139,
  "0.779": 272,
  "-0.069": 768,
  "213,</w>": 751,
  "-0.583": 587,
  "1.1": 1627,
  "791,</w>": 1234,
  "-0.32223,</w>": 14,
  "283,</w>": 694,
  "-0.15308,</w>": 24,
  "712,</w>": 1277,
  "0.73": 3274,
  "921,</w>": 353,
  "-0.12487,</w>": 17,
  "-0.38275,</w>": 15,
  "-0.39598,</w>": 14,
  "0.12852,</w>": 25,
  "951,</w>": 868,
  "0.19752,</w>": 20,
  "-0.25": 1952,
  "0.16616,</w>": 18,
  "-0.18135,</w>": 16,
  "0.16374,</w>": 16,
  "-0.16194,</w>": 24,
  "-0.32013,</w>": 23,
  "111,</w>": 897,
  "62,</w>": 4302,
  "-0.32166,</w>": 19,
  "1.0576,</w>": 15,
  "-0.18019,</w>": 24,
  "-0.40932,</w>": 13,
  "-0.16084,</w>": 19,
  "-1.0094,</w>": 19,
  "0.22972,</w>": 14,
  "431,</w>": 439,
  "0.05": 1071,
  "891,</w>": 996,
  "1.75": 44,
  "-0.19753,</w>": 24,
  "401,</w>": 413,
  "083,</w>": 327,
  "-0.20231,</w>": 20,
  "-0.32613,</w>": 21,
  "-0.38783,</w>": 15,
  "0.614": 496,
  "-0.11216,</w>": 24,
  "0.423": 288,
  "-0.326": 383,
  "-0.126": 149,
  "-0.28858,</w>": 20,
  "0.14493,</w>": 18,
  "0.0525": 169,
  "727,</w>": 1102,
  "0.494": 722,
  "-0.35369,</w>": 22,
  "0.0578": 122,
  "-0.2045,</w>": 19,
  "-0.3064,</w>": 19,
  "0.37904,</w>": 14,
  "0.26388,</w>": 15,
  "0.36036,</w>": 15,
  "715,</w>": 1258,
  "0.11629,</w>": 18,
  "-0.570": 574,
  "-0.671": 443,
  "0.21706,</w>": 21,
  "0.600": 541,
  "0.21839,</w>": 24,
  "0.1883,</w>": 22,
  "0.70": 3651,
  "-0.576": 596,
  "-0.50561,</w>": 16,
  "0.13275,</w>": 24,
  "-0.37349,</w>": 15,
  "-0.22315,</w>": 13,
  "0.18934,</w>": 20,
  "835,</w>": 1036,
  "-0.44616,</w>": 15,
  "0.250": 108,
  "-0.24067,</w>": 16,
  "-0.273": 281,
  "-0.635": 549,
  "-0.30948,</w>": 17,
  "413,</w>": 313,
  "-0.28402,</w>": 15,
  "-0.22619,</w>": 19,
  "0.10845,</w>": 20,
  "489,</w>": 362,
  "-0.30989,</w>": 18,
  "-0.021": 420,
  "-0.11869,</w>": 26,
  "0.17083,</w>": 16,
  "-0.099": 916,
  "277,</w>": 706,
  "0.30043,</w>": 15,
  "0.18093,</w>": 19,
  "-0.25603,</w>": 22,
  "124,</w>": 951,
  "0.0523": 62,
  "726,</w>": 1147,
  "0.214,</w>": 16,
  "-0.22772,</w>": 15,
  "-0.87": 156,
  "-0.14982,</w>": 22,
  "-0.23043,</w>": 21,
  "-0.32101,</w>": 16,
  "0.21575,</w>": 14,
  "0.36466,</w>": 13,
  "246,</w>": 788,
  "-0.12043,</w>": 23,
  "141,</w>": 937,
  "0.912": 146,
  "0.18761,</w>": 16,
  "0.930": 109,
  "69,</w>": 4038,
  "-0.35316,</w>": 14,
  "-0.17359,</w>": 15,
  "-0.29801,</w>": 24,
  "-0.47032,</w>": 14,
  "-0.30814,</w>": 13,
  "579,</w>": 212,
  "0.0010": 34,
  "451,</w>": 597,
  "234,</w>": 758,
  "0.10384,</w>": 19,
  "-0.48836,</w>": 16,
  "-0.0524": 159,
  "0.40014,</w>": 14,
  "-0.74": 2914,
  "-0.13414,</w>": 22,
  "-0.29949,</w>": 18,
  "0.09": 808,
  "787,</w>": 1134,
  "0.20784,</w>": 21,
  "-0.0184": 164,
  "-0.081": 1576,
  "-0.12922,</w>": 19,
  "0.26656,</w>": 13,
  "-0.0065": 28,
  "0.16835,</w>": 17,
  "1.46": 150,
  "953,</w>": 898,
  "955,</w>": 845,
  "-0.14897,</w>": 27,
  "-0.315": 387,
  "419,</w>": 368,
  "832,</w>": 1098,
  "0.17431,</w>": 16,
  "-0.17892,</w>": 24,
  "0.19392,</w>": 16,
  "-0.18366,</w>": 23,
  "0.26547,</w>": 18,
  "295,</w>": 853,
  "0.382": 549,
  "-0.0876": 136,
  "418,</w>": 349,
  "-0.48": 1304,
  "-0.2459,</w>": 21,
  "0.13949,</w>": 17,
  "0.12917,</w>": 23,
  "-0.29052,</w>": 17,
  "-0.12584,</w>": 21,
  "134,</w>": 919,
  "0.14745,</w>": 16,
  "824,</w>": 1118,
  "-0.17371,</w>": 16,
  "-0.10235,</w>": 28,
  "-0.384": 598,
  "0.85": 2145,
  "243,</w>": 752,
  "1.29": 171,
  "984,</w>": 334,
  "-0.13995,</w>": 16,
  "-0.776": 297,
  "0.330": 447,
  "2,</w>": 915,
  "717,</w>": 1146,
  "0.11727,</w>": 16,
  "142,</w>": 976,
  "882,</w>": 967,
  "-0.18584,</w>": 16,
  "-0.33183,</w>": 20,
  "0.0526": 137,
  "911,</w>": 354,
  "0.20812,</w>": 20,
  "0.29366,</w>": 15,
  "-0.21909,</w>": 17,
  "-0.27987,</w>": 16,
  "0.11026,</w>": 19,
  "567,</w>": 279,
  "0.19419,</w>": 16,
  "-0.13688,</w>": 22,
  "327,</w>": 370,
  "253,</w>": 793,
  "0.605": 565,
  "0.86": 1971,
  "543,</w>": 191,
  "0.47559,</w>": 13,
  "-0.12317,</w>": 18,
  "-0.30361,</w>": 14,
  "0.17132,</w>": 19,
  "0.2679,</w>": 17,
  "0.334": 488,
  "0.35521,</w>": 18,
  "0.37289,</w>": 17,
  "358,</w>": 863,
  "0.39947,</w>": 13,
  "0.296": 445,
  "093,</w>": 463,
  "-0.13595,</w>": 20,
  "0.0571": 127,
  "-0.0414": 136,
  "-0.1934,</w>": 21,
  "-0.1983,</w>": 27,
  "0.37853,</w>": 14,
  "0.31329,</w>": 18,
  "0.18066,</w>": 18,
  "0.24203,</w>": 14,
  "115,</w>": 902,
  "0.12255,</w>": 22,
  "0.0329": 78,
  "0.36946,</w>": 22,
  "0.0504": 116,
  "-0.15927,</w>": 23,
  "-0.25448,</w>": 17,
  "962,</w>": 843,
  "-0.14028,</w>": 22,
  "0.31055,</w>": 14,
  "0.43488,</w>": 14,
  "0.14837,</w>": 15,
  "-0.094": 1694,
  "0.0933": 86,
  "0.0378": 142,
  "711,</w>": 1161,
  "-0.28365,</w>": 15,
  "-0.429": 389,
  "-0.48537,</w>": 19,
  "0.26096,</w>": 18,
  "-0.029": 958,
  "-0.26486,</w>": 20,
  "022,</w>": 299,
  "0.17783,</w>": 23,
  "0.37788,</w>": 14,
  "0.28682,</w>": 13,
  "0.11652,</w>": 23,
  "-0.28041,</w>": 18,
  "-0.1779,</w>": 24,
  "1.0684,</w>": 13,
  "-0.25152,</w>": 14,
  "-0.14532,</w>": 20,
  "0.1425,</w>": 15,
  "-0.034": 1682,
  "477,</w>": 328,
  "0.0230": 136,
  "-0.34823,</w>": 13,
  "-0.725": 253,
  "43,</w>": 4577,
  "0.13475,</w>": 20,
  "0.38666,</w>": 19,
  "354,</w>": 846,
  "0.24929,</w>": 15,
  "0.17877,</w>": 23,
  "0.38102,</w>": 14,
  "-0.0323": 47,
  "0.41566,</w>": 20,
  "924,</w>": 391,
  "0.10488,</w>": 17,
  "0.79": 2615,
  "847,</w>": 1089,
  "-0.22442,</w>": 18,
  "-0.42577,</w>": 15,
  "0.26706,</w>": 15,
  "-0.33512,</w>": 16,
  "-0.25252,</w>": 20,
  "349,</w>": 809,
  "0.13295,</w>": 17,
  "0.24894,</w>": 14,
  "-0.2511,</w>": 14,
  "003,</w>": 494,
  "0.13744,</w>": 24,
  "-0.34552,</w>": 21,
  "0.23247,</w>": 18,
  "-0.10948,</w>": 21,
  "-0.26473,</w>": 13,
  "0.1713,</w>": 20,
  "-0.11878,</w>": 26,
  "-0.29592,</w>": 14,
  "0.36057,</w>": 18,
  "674,</w>": 195,
  "-0.21369,</w>": 20,
  "0.0286": 125,
  "0.386": 534,
  "-0.2356,</w>": 14,
  "287,</w>": 756,
  "0.31011,</w>": 14,
  "1.3": 1306,
  "284,</w>": 801,
  "-0.26647,</w>": 18,
  "752,</w>": 1187,
  "-0.0871": 154,
  "794,</w>": 1246,
  "0.15345,</w>": 18,
  "-0.595": 560,
  "-0.0683": 156,
  "0.28695,</w>": 16,
  "-0.513": 674,
  "0.529": 382,
  "0.571": 601,
  "-0.696": 379,
  "-0.1245,</w>": 20,
  "-0.17993,</w>": 13,
  "0.0234": 153,
  "-0.11261,</w>": 17,
  "-0.42252,</w>": 13,
  "0.3205,</w>": 13,
  "0.26627,</w>": 16,
  "-0.27574,</w>": 15,
  "-0.0916": 142,
  "0.14883,</w>": 25,
  "-0.34668,</w>": 13,
  "0.12508,</w>": 22,
  "311,</w>": 345,
  "0.15681,</w>": 23,
  "-0.214,</w>": 15,
  "0.11468,</w>": 15,
  "819,</w>": 991,
  "997,</w>": 648,
  "-0.23112,</w>": 17,
  "-0.20346,</w>": 30,
  "0.622": 542,
  "-0.32509,</w>": 15,
  "0.21298,</w>": 20,
  "-0.25255,</w>": 14,
  "0.32627,</w>": 17,
  "363,</w>": 843,
  "0.10246,</w>": 16,
  "-0.17472,</w>": 16,
  "-0.16649,</w>": 19,
  "-0.26687,</w>": 17,
  "884,</w>": 999,
  "0.03": 778,
  "966,</w>": 917,
  "086,</w>": 359,
  "781,</w>": 1181,
  "-0.571": 653,
  "-0.21585,</w>": 13,
  "0.309": 194,
  "1.0213,</w>": 15,
  "-0.0595": 128,
  "-0.2802,</w>": 18,
  "-0.256": 306,
  "446,</w>": 498,
  "-0.359": 225,
  "0.10253,</w>": 21,
  "-0.2064,</w>": 22,
  "-0.0064": 22,
  "343,</w>": 841,
  "-0.0375": 142,
  "306,</w>": 861,
  "-0.17545,</w>": 16,
  "0.34726,</w>": 21,
  "0.393": 253,
  "-0.15266,</w>": 17,
  "208,</w>": 779,
  "-0.072": 1689,
  "0.11047,</w>": 24,
  "-0.31963,</w>": 16,
  "-0.11898,</w>": 22,
  "-0.626": 507,
  "0.0436": 169,
  "176,</w>": 652,
  "566,</w>": 279,
  "-0.29516,</w>": 22,
  "-0.12069,</w>": 21,
  "046,</w>": 493,
  "0.17881,</w>": 20,
  "0.613": 564,
  "822,</w>": 1175,
  "-0.90": 1441,
  "056,</w>": 447,
  "-0.506": 756,
  "-0.29048,</w>": 18,
  "0.31487,</w>": 15,
  "0.298,</w>": 22,
  "0.30849,</w>": 14,
  "-0.596": 555,
  "485,</w>": 314,
  "0.634": 534,
  "0.11428,</w>": 16,
  "949,</w>": 882,
  "331,</w>": 698,
  "-0.2009,</w>": 24,
  "0.40097,</w>": 19,
  "0.0184": 154,
  "-0.32795,</w>": 13,
  "0.17345,</w>": 24,
  "-0.20786,</w>": 20,
  "0.19661,</w>": 27,
  "0.33308,</w>": 14,
  "713,</w>": 1103,
  "299,</w>": 779,
  "237,</w>": 785,
  "-0.43826,</w>": 17,
  "0.13732,</w>": 14,
  "0.20826,</w>": 16,
  "075,</w>": 349,
  "0.36866,</w>": 16,
  "-0.10027,</w>": 21,
  "-0.5015,</w>": 13,
  "859,</w>": 966,
  "0.493": 258,
  "0.17505,</w>": 28,
  "238,</w>": 792,
  "745,</w>": 1150,
  "-0.604": 366,
  "797,</w>": 1144,
  "-0.94": 1092,
  "929,</w>": 352,
  "1.0498,</w>": 18,
  "472,</w>": 324,
  "0.14697,</w>": 20,
  "0.0981": 182,
  "33,</w>": 5081,
  "0.46113,</w>": 15,
  "423,</w>": 355,
  "-1.0": 3980,
  "-1.": 1189,
  "102,</w>": 925,
  "0.19509,</w>": 20,
  "-0.0772": 143,
  "0.629": 302,
  "-1.13": 446,
  "-0.36886,</w>": 15,
  "-0.872": 160,
  "0.005": 235,
  "532,</w>": 188,
  "174,</w>": 686,
  "0.96": 1166,
  "0.1061,</w>": 19,
  "135,</w>": 935,
  "-1.3": 536,
  "-0.20846,</w>": 23,
  "0.4186,</w>": 17,
  "0.099": 934,
  "999,</w>": 681,
  "0.28933,</w>": 22,
  "0.0374": 134,
  "-0.39863,</w>": 19,
  "0.24835,</w>": 19,
  "-0.21226,</w>": 24,
  "0.773": 314,
  "872,</w>": 937,
  "1.66": 71,
  "259,</w>": 715,
  "0.10265,</w>": 26,
  "-0.24384,</w>": 21,
  "-0.33026,</w>": 17,
  "-0.47305,</w>": 15,
  "-0.004": 219,
  "15": 52,
  "0.29857,</w>": 17,
  "0.0213": 141,
  "-0.78": 2720,
  "507,</w>": 184,
  "0.47464,</w>": 14,
  "598,</w>": 204,
  "0.726": 320,
  "-0.93": 596,
  "103,</w>": 992,
  "0.28582,</w>": 18,
  "-0.51": 1925,
  "885,</w>": 970,
  "647,</w>": 175,
  "-0.10641,</w>": 26,
  "-0.27125,</w>": 21,
  "0.23": 1484,
  "144,</w>": 917,
  "-0.37855,</w>": 14,
  "0.1695,</w>": 23,
  "-0.13784,</w>": 22,
  "0.36443,</w>": 13,
  "0.16657,</w>": 18,
  "0.10345,</w>": 18,
  "1.": 1505,
  "-0.83": 2303,
  "535,</w>": 265,
  "-0.0385": 152,
  "-0.01": 430,
  "167,</w>": 892,
  "0.348,</w>": 17,
  "266,</w>": 785,
  "-0.24702,</w>": 18,
  "-0.14607,</w>": 20,
  "-0.42316,</w>": 15,
  "0.0494": 139,
  "-0.17431,</w>": 20,
  "-0.43356,</w>": 16,
  "-0.655": 512,
  "-0.31301,</w>": 13,
  "0.1172,</w>": 23,
  "-0.29881,</w>": 23,
  "0.20175,</w>": 25,
  "763,</w>": 1163,
  "0.52113,</w>": 14,
  "-0.10565,</w>": 29,
  "0.11865,</w>": 21,
  "0.25795,</w>": 13,
  "-0.27689,</w>": 21,
  "-0.0770": 151,
  "-0.16738,</w>": 21,
  "-0.71": 3345,
  "185,</w>": 731,
  "961,</w>": 800,
  "-0.11177,</w>": 15,
  "0.88": 373,
  "-0.13181,</w>": 24,
  "-1.5": 112,
  "1.14": 633,
  "0.806": 225,
  "188,</w>": 749,
  "0.41509,</w>": 14,
  "0.31474,</w>": 17,
  "-0.23211,</w>": 23,
  "0.4655,</w>": 13,
  "0.34637,</w>": 18,
  "424,</w>": 336,
  "0.58": 1007,
  "278,</w>": 755,
  "-0.15386,</w>": 14,
  "0.37181,</w>": 20,
  "0.24551,</w>": 24,
  "599,</w>": 209,
  "0.16286,</w>": 20,
  "0.0779": 142,
  "-0.31525,</w>": 15,
  "081,</w>": 327,
  "-0.255,</w>": 13,
  "0.48959,</w>": 14,
  "-0.379": 596,
  "827,</w>": 903,
  "-0.11716,</w>": 26,
  "-0.3341,</w>": 16,
  "-0.10723,</w>": 28,
  "-0.23873,</w>": 17,
  "502,</w>": 210,
  "0.14723,</w>": 18,
  "-0.13546,</w>": 15,
  "-0.95": 968,
  "-0.620": 532,
  "-0.11763,</w>": 18,
  "0.21322,</w>": 17,
  "-0.25967,</w>": 17,
  "-0.0935": 171,
  "0.52106,</w>": 14,
  "-0.11793,</w>": 15,
  "0.21224,</w>": 17,
  "-0.21954,</w>": 24,
  "-0.0275": 160,
  "874,</w>": 919,
  "-0.35228,</w>": 15,
  "-0.23418,</w>": 17,
  "0.17759,</w>": 13,
  "0.19368,</w>": 25,
  "-0.11582,</w>": 15,
  "-0.19091,</w>": 20,
  "0.11507,</w>": 17,
  "0.13767,</w>": 23,
  "718,</w>": 1068,
  "0.17958,</w>": 29,
  "-0.22568,</w>": 24,
  "0.15113,</w>": 19,
  "-0.17524,</w>": 15,
  "0.21519,</w>": 18,
  "0.30629,</w>": 20,
  "0.41841,</w>": 14,
  "-0.04": 833,
  "346,</w>": 905,
  "0.204,</w>": 27,
  "-0.14291,</w>": 25,
  "-0.17308,</w>": 21,
  "-0.2886,</w>": 13,
  "-0.028": 258,
  "-0.11252,</w>": 20,
  "0.31002,</w>": 17,
  "0.17208,</w>": 17,
  "0.11718,</w>": 17,
  "813,</w>": 1123,
  "-0.27098,</w>": 14,
  "0.35079,</w>": 16,
  "-1.10": 576,
  "0.30775,</w>": 15,
  "219,</w>": 782,
  "0.0629": 119,
  "-0.50855,</w>": 15,
  "0.0433": 65,
  "0.14399,</w>": 14,
  "0.2765,</w>": 16,
  "0.0773": 141,
  "1.1641,</w>": 13,
  "-0.283": 355,
  "0.26062,</w>": 19,
  "-0.130": 139,
  "0.42519,</w>": 14,
  "0.15305,</w>": 17,
  "-0.26543,</w>": 14,
  "-0.25001,</w>": 13,
  "-0.34873,</w>": 18,
  "0.13545,</w>": 20,
  "0.28868,</w>": 16,
  "0.23826,</w>": 16,
  "0.29515,</w>": 16,
  "0.11743,</w>": 17,
  "-0.41": 1664,
  "0.35357,</w>": 13,
  "0.059": 763,
  "-0.181": 172,
  "0.19874,</w>": 21,
  "0.20747,</w>": 16,
  "-0.24454,</w>": 18,
  "0.31293,</w>": 24,
  "0.28901,</w>": 16,
  "-0.28556,</w>": 16,
  "-0.031": 401,
  "-0.0434": 156,
  "0.0219": 150,
  "0.25087,</w>": 15,
  "0.181": 225,
  "-0.31774,</w>": 15,
  "0.345": 529,
  "-0.019": 1812,
  "671,</w>": 185,
  "-0.624": 505,
  "0.17909,</w>": 23,
  "0.1502,</w>": 14,
  "0.27507,</w>": 15,
  "0.38623,</w>": 21,
  "0.23872,</w>": 21,
  "215,</w>": 854,
  "-0.239": 202,
  "0.338,</w>": 14,
  "0.19547,</w>": 18,
  "-0.1736,</w>": 23,
  "-0.22177,</w>": 21,
  "0.12624,</w>": 28,
  "0.13052,</w>": 27,
  "-0.16421,</w>": 20,
  "0.19": 1004,
  "0.1565,</w>": 19,
  "-0.28712,</w>": 13,
  "0.45624,</w>": 13,
  "0.400": 642,
  "0.14608,</w>": 19,
  "-0.13729,</w>": 24,
  "-0.15897,</w>": 20,
  "-0.39163,</w>": 13,
  "353,</w>": 756,
  "0.13397,</w>": 13,
  "591,</w>": 179,
  "-0.263,</w>": 18,
  "-0.15679,</w>": 26,
  "-0.11161,</w>": 17,
  "0.11686,</w>": 14,
  "-0.32476,</w>": 18,
  "0.21426,</w>": 17,
  "216,</w>": 734,
  "0.364": 235,
  "0.10703,</w>": 14,
  "0.23798,</w>": 17,
  "-0.14344,</w>": 18,
  "0.27233,</w>": 14,
  "0.17654,</w>": 16,
  "-0.17613,</w>": 16,
  "013,</w>": 333,
  "-0.21": 693,
  "79": 85,
  "1],</w>": 55,
  "0.556": 638,
  "-0.35848,</w>": 16,
  "-0.670": 449,
  "665,</w>": 308,
  "0.12643,</w>": 18,
  "077,</w>": 374,
  "-0.2528,</w>": 13,
  "0.0879": 134,
  "-0.20308,</w>": 15,
  "0.43673,</w>": 14,
  "0.18453,</w>": 19,
  "-0.0273": 165,
  "0.18987,</w>": 17,
  "0.23822,</w>": 20,
  "736,</w>": 1194,
  "0.15368,</w>": 16,
  "0.144": 106,
  "0.371": 535,
  "0.13773,</w>": 20,
  "0.14195,</w>": 20,
  "0.40222,</w>": 20,
  "0.17663,</w>": 19,
  "-0.3706,</w>": 18,
  "0.19401,</w>": 18,
  "044,</w>": 534,
  "-0.19639,</w>": 21,
  "0.10651,</w>": 22,
  "-0.82": 2188,
  "-0.590": 528,
  "-0.0074": 24,
  "686,</w>": 173,
  "896,</w>": 1052,
  "0.26595,</w>": 14,
  "0.289": 345,
  "0.17435,</w>": 17,
  "0.655": 540,
  "0.20286,</w>": 19,
  "0.449": 241,
  "-0.544": 473,
  "0.10789,</w>": 15,
  "0.60116,</w>": 14,
  "-0.14781,</w>": 27,
  "-0.21917,</w>": 14,
  "0.16495,</w>": 19,
  "0.40391,</w>": 17,
  "313,</w>": 345,
  "-0.19928,</w>": 21,
  "-0.40278,</w>": 14,
  "-0.15649,</w>": 28,
  "548,</w>": 179,
  "-0.27677,</w>": 13,
  "898,</w>": 987,
  "-0.16746,</w>": 26,
  "0.1288,</w>": 16,
  "-0.11875,</w>": 25,
  "0.13574,</w>": 23,
  "-0.13967,</w>": 18,
  "-0.1601,</w>": 18,
  "0.20059,</w>": 21,
  "0.0429": 86,
  "0.343,</w>": 13,
  "0.0270": 130,
  "-0.26838,</w>": 14,
  "-0.20767,</w>": 18,
  "867,</w>": 1078,
  "-0.32011,</w>": 14,
  "352,</w>": 831,
  "0.21718,</w>": 14,
  "0.44339,</w>": 13,
  "-0.27825,</w>": 18,
  "-0.51584,</w>": 13,
  "233,</w>": 825,
  "0.12781,</w>": 31,
  "0.10471,</w>": 20,
  "0.41378,</w>": 13,
  "-0.1176,</w>": 19,
  "-0.20697,</w>": 18,
  "0.26689,</w>": 18,
  "-0.726": 304,
  "0.19996,</w>": 16,
  "-0.81": 2495,
  "-0.10311,</w>": 27,
  "-0.23001,</w>": 22,
  "0.10628,</w>": 19,
  "858,</w>": 1059,
  "709,</w>": 1234,
  "0.0645": 155,
  "-0.1824,</w>": 21,
  "-0.32465,</w>": 19,
  "668,</w>": 298,
  "582,</w>": 180,
  "0.10335,</w>": 18,
  "-0.19905,</w>": 17,
  "396,</w>": 863,
  "-0.19203,</w>": 15,
  "-0.11619,</w>": 20,
  "0.34837,</w>": 15,
  "0.13945,</w>": 21,
  "0.11599,</w>": 19,
  "-0.286": 251,
  "-0.335": 462,
  "-0.0339": 79,
  "028,</w>": 319,
  "-0.53672,</w>": 15,
  "-0.074": 1636,
  "195,</w>": 1007,
  "0.36023,</w>": 13,
  "0.18919,</w>": 13,
  "0.15201,</w>": 13,
  "-0.10314,</w>": 19,
  "-0.14523,</w>": 18,
  "-0.0189": 147,
  "0.35201,</w>": 19,
  "265,</w>": 764,
  "-0.38351,</w>": 19,
  "-0.23719,</w>": 15,
  "0.10311,</w>": 30,
  "0.656": 505,
  "-0.0525": 139,
  "0.26787,</w>": 18,
  "0.21899,</w>": 20,
  "-0.17744,</w>": 13,
  "0.16229,</w>": 17,
  "0.27534,</w>": 15,
  "-0.15967,</w>": 21,
  "-1.00": 723,
  "0.36849,</w>": 15,
  "0.23651,</w>": 17,
  "-0.21634,</w>": 15,
  "-0.29897,</w>": 16,
  "803,</w>": 1083,
  "0.20617,</w>": 24,
  "-0.23085,</w>": 17,
  "998,</w>": 520,
  "0.604": 385,
  "-0.493": 257,
  "-0.22373,</w>": 14,
  "333,</w>": 795,
  "-0.318,</w>": 13,
  "0.27995,</w>": 13,
  "-0.24469,</w>": 18,
  "-0.19595,</w>": 14,
  "-0.13711,</w>": 19,
  "-0.17249,</w>": 25,
  "0.22193,</w>": 16,
  "0.0681": 180,
  "0.25302,</w>": 18,
  "0.31222,</w>": 14,
  "0.455": 713,
  "0.26039,</w>": 25,
  "0.17156,</w>": 16,
  "-0.33932,</w>": 15,
  "0.0322": 150,
  "9],</w>": 18,
  "0.25526,</w>": 13,
  "0.26": 2224,
  "753,</w>": 1191,
  "-0.15475,</w>": 20,
  "0.17": 159,
  "0.32328,</w>": 13,
  "-0.92": 464,
  "0.15194,</w>": 16,
  "0.16324,</w>": 15,
  "-0.10428,</w>": 31,
  "464,</w>": 604,
  "0.14782,</w>": 20,
  "0.25169,</w>": 18,
  "0.1261,</w>": 24,
  "138,</w>": 907,
  "0.280": 207,
  "-0.17565,</w>": 15,
  "0.643": 190,
  "-0.39697,</w>": 18,
  "0.18975,</w>": 17,
  "0.0572": 139,
  "-0.423": 250,
  "-0.0973": 141,
  "-0.475": 726,
  "-0.75": 2978,
  "595,</w>": 207,
  "-0.44828,</w>": 14,
  "-0.520": 668,
  "-0.1823,</w>": 20,
  "0.18582,</w>": 22,
  "-0.0178": 161,
  "0.16742,</w>": 16,
  "459,</w>": 566,
  "-0.1258,</w>": 18,
  "0.32418,</w>": 21,
  "-0.31263,</w>": 18,
  "0.0519": 150,
  "0.27242,</w>": 16,
  "-0.18285,</w>": 15,
  "-0.364": 224,
  "-0.21685,</w>": 15,
  "0.12485,</w>": 19,
  "-0.16976,</w>": 16,
  "146,</w>": 986,
  "-0.16412,</w>": 19,
  "-0.10728,</w>": 19,
  "0.1175,</w>": 13,
  "-0.15533,</w>": 22,
  "062,</w>": 489,
  "848,</w>": 1036,
  "0.38992,</w>": 15,
  "-0.54839,</w>": 14,
  "728,</w>": 1233,
  "0.15482,</w>": 14,
  "-0.37191,</w>": 13,
  "-0.27631,</w>": 15,
  "224,</w>": 808,
  "732,</w>": 1105,
  "-0.23904,</w>": 13,
  "-0.18311,</w>": 25,
  "0.15492,</w>": 19,
  "-0.16317,</w>": 15,
  "-0.26499,</w>": 18,
  "831,</w>": 1080,
  "0.882": 155,
  "0.25131,</w>": 13,
  "0.343": 161,
  "-0.35863,</w>": 19,
  "-0.22855,</w>": 21,
  "0.11918,</w>": 26,
  "0.29661,</w>": 20,
  "-0.2536,</w>": 15,
  "-0.21234,</w>": 14,
  "0.16237,</w>": 19,
  "871,</w>": 968,
  "344,</w>": 882,
  "0.39293,</w>": 18,
  "-0.29673,</w>": 15,
  "556,</w>": 317,
  "-0.274": 212,
  "-0.19218,</w>": 16,
  "0.505": 672,
  "0.0284": 137,
  "-0.32206,</w>": 20,
  "107,</w>": 947,
  "-0.32444,</w>": 17,
  "-0.10163,</w>": 17,
  "755,</w>": 1111,
  "-0.21541,</w>": 17,
  "609,</w>": 165,
  "0.31259,</w>": 17,
  "0.23988,</w>": 15,
  "-0.19056,</w>": 18,
  "-0.13086,</w>": 20,
  "-0.12644,</w>": 21,
  "0.48": 1170,
  "-0.13492,</w>": 20,
  "-0.27921,</w>": 13,
  "-0.0172": 135,
  "0.2937,</w>": 19,
  "0.0674": 139,
  "052,</w>": 450,
  "394,</w>": 831,
  "985,</w>": 357,
  "0.11167,</w>": 20,
  "0.19749,</w>": 16,
  "0.2523,</w>": 15,
  "0.32205,</w>": 13,
  "0.42778,</w>": 13,
  "0.26769,</w>": 20,
  "0.1": 502,
  "0.10111,</w>": 19,
  "-0.311": 143,
  "458,</w>": 568,
  "-0.37363,</w>": 17,
  "0.995": 84,
  "-0.15827,</w>": 15,
  "-0.26202,</w>": 17,
  "0.17324,</w>": 19,
  "0.060": 859,
  "104,</w>": 874,
  "0.23841,</w>": 13,
  "-0.21495,</w>": 14,
  "0.0776": 147,
  "078,</w>": 332,
  "0.12985,</w>": 13,
  "-0.174,</w>": 19,
  "-0.0571": 136,
  "0.482": 740,
  "-0.14668,</w>": 16,
  "-0.33366,</w>": 16,
  "0.32552,</w>": 15,
  "-0.30": 2108,
  "-0.17204,</w>": 22,
  "0.28246,</w>": 14,
  "0.16007,</w>": 20,
  "0.30031,</w>": 20,
  "061,</w>": 484,
  "-0.32169,</w>": 14,
  "222,</w>": 739,
  "-0.27671,</w>": 22,
  "0.0516": 129,
  "-0.23223,</w>": 14,
  "-0.10529,</w>": 21,
  "-0.40318,</w>": 16,
  "-0.22161,</w>": 18,
  "0.0913": 144,
  "-0.21363,</w>": 24,
  "634,</w>": 171,
  "-0.21331,</w>": 23,
  "0.012": 1779,
  "001,</w>": 455,
  "-0.27529,</w>": 15,
  "-0.21257,</w>": 19,
  "-0.1549,</w>": 25,
  "294,</w>": 797,
  "117,</w>": 834,
  "0.46876,</w>": 13,
  "0.22078,</w>": 21,
  "0.30798,</w>": 16,
  "0.35898,</w>": 15,
  "944,</w>": 894,
  "-0.512": 682,
  "0.30317,</w>": 16,
  "-0.053": 810,
  "131,</w>": 897,
  "-0.35735,</w>": 15,
  "0.13234,</w>": 24,
  "0.12815,</w>": 17,
  "-0.1523,</w>": 13,
  "0.24723,</w>": 19,
  "-0.10854,</w>": 20,
  "-0.23738,</w>": 18,
  "-0.21942,</w>": 17,
  "251,</w>": 682,
  "-0.15707,</w>": 16,
  "-0.11346,</w>": 16,
  "851,</w>": 1009,
  "0.16661,</w>": 14,
  "-0.19537,</w>": 20,
  "106,</w>": 934,
  "0.16111,</w>": 18,
  "0.14569,</w>": 22,
  "-0.22031,</w>": 21,
  "0.18292,</w>": 15,
  "0.14894,</w>": 24,
  "0.37657,</w>": 15,
  "-0.17916,</w>": 21,
  "-0.316": 433,
  "751,</w>": 1179,
  "-0.33057,</w>": 13,
  "-0.16639,</w>": 28,
  "0.10553,</w>": 26,
  "-0.31165,</w>": 15,
  "-0.17927,</w>": 13,
  "0.21399,</w>": 18,
  "032,</w>": 455,
  "0.24999,</w>": 21,
  "0.40902,</w>": 14,
  "-0.34321,</w>": 13,
  "-0.28075,</w>": 14,
  "-0.25232,</w>": 22,
  "-0.20593,</w>": 23,
  "0.40777,</w>": 16,
  "-0.18148,</w>": 25,
  "0.30047,</w>": 18,
  "0.28422,</w>": 16,
  "0.310": 404,
  "-0.23554,</w>": 18,
  "307,</w>": 844,
  "0.19999,</w>": 19,
  "-0.20385,</w>": 18,
  "657,</w>": 190,
  "804,</w>": 988,
  "-0.20228,</w>": 23,
  "-0.29501,</w>": 19,
  "-0.0113": 165,
  "-0.17056,</w>": 15,
  "978,</w>": 372,
  "0.315": 415,
  "0.10943,</w>": 23,
  "-0.21365,</w>": 31,
  "-0.611": 177,
  "293,</w>": 840,
  "-0.37207,</w>": 16,
  "-0.065": 1290,
  "-0.383": 621,
  "0.27676,</w>": 13,
  "-0.45756,</w>": 17,
  "-0.30758,</w>": 14,
  "-0.12329,</w>": 13,
  "-0.40815,</w>": 19,
  "112,</w>": 956,
  "0.49177,</w>": 19,
  "-0.0579": 138,
  "0.53833,</w>": 13,
  "0.12221,</w>": 20,
  "-0.214": 153,
  "182,</w>": 720,
  "0.19591,</w>": 26,
  "-0.40197,</w>": 14,
  "-0.24733,</w>": 15,
  "0.572": 574,
  "0.616": 496,
  "-0.322": 399,
  "0.3253,</w>": 20,
  "-0.25128,</w>": 16,
  "0.0396": 129,
  "1.6": 622,
  "799,</w>": 1199,
  "-0.0590": 155,
  "0.44834,</w>": 14,
  "-0.14268,</w>": 13,
  "0.22482,</w>": 17,
  "-0.0924": 174,
  "-0.16819,</w>": 22,
  "0.10019,</w>": 23,
  "576,</w>": 208,
  "-0.31935,</w>": 15,
  "191,</w>": 999,
  "-0.0115": 154,
  "0.11485,</w>": 27,
  "0.31311,</w>": 21,
  "-0.381": 436,
  "0.22494,</w>": 15,
  "0.13168,</w>": 17,
  "0.30068,</w>": 15,
  "0.22652,</w>": 19,
  "0.630": 551,
  "0.32318,</w>": 18,
  "-0.13474,</w>": 22,
  "-0.059": 745,
  "211,</w>": 751,
  "-0.17087,</w>": 23,
  "0.18217,</w>": 25,
  "0.34507,</w>": 14,
  "-0.21769,</w>": 14,
  "-0.775": 259,
  "-0.31078,</w>": 16,
  "0.13432,</w>": 17,
  "0.23961,</w>": 13,
  "0.21488,</w>": 17,
  "0.12674,</w>": 23,
  "-0.12343,</w>": 26,
  "-0.0570": 155,
  "0.39": 3171,
  "0.36176,</w>": 14,
  "-0.39222,</w>": 19,
  "-0.26509,</w>": 16,
  "-0.14119,</w>": 22,
  "[": 515,
  "-0.13569,</w>": 23,
  "0.14029,</w>": 16,
  "0.004": 195,
  "19": 71,
  "0.925": 128,
  "267,</w>": 781,
  "0.26053,</w>": 14,
  "0.57": 584,
  "754,</w>": 1198,
  "0.0970": 128,
  "-0.21678,</w>": 19,
  "-0.27131,</w>": 20,
  "-0.3179,</w>": 13,
  "0.28998,</w>": 19,
  "0.11234,</w>": 19,
  "0.19019,</w>": 13,
  "-0.49873,</w>": 13,
  "0.11857,</w>": 24,
  "-0.22241,</w>": 17,
  "-0.526": 701,
  "-0.0690": 130,
  "-0.606": 502,
  "-0.22444,</w>": 17,
  "-0.41533,</w>": 17,
  "-0.23924,</w>": 19,
  "0.16413,</w>": 18,
  "-0.41185,</w>": 14,
  "-0.15507,</w>": 22,
  "0.52085,</w>": 13,
  "067,</w>": 484,
  "414,</w>": 328,
  "0.17124,</w>": 21,
  "0.18186,</w>": 21,
  "-0.21882,</w>": 17,
  "-0.3": 2696,
  "-0.10613,</w>": 21,
  "0.52": 2604,
  "873,</w>": 892,
  "-0.12537,</w>": 27,
  "0.16512,</w>": 19,
  "-0.12301,</w>": 17,
  "452,</w>": 598,
  "-0.0213": 152,
  "-0.4185,</w>": 14,
  "0.32132,</w>": 14,
  "0.588": 109,
  "-0.1671,</w>": 15,
  "0.42898,</w>": 22,
  "0.15248,</w>": 21,
  "0.1817,</w>": 14,
  "289,</w>": 748,
  "0.33899,</w>": 18,
  "0.0884": 141,
  "-0.16614,</w>": 24,
  "0.14403,</w>": 20,
  "-0.22256,</w>": 19,
  "0.383": 552,
  "-0.14929,</w>": 19,
  "-0.16867,</w>": 21,
  "-0.73": 3028,
  "194,</w>": 1007,
  "0.26804,</w>": 17,
  "-0.33896,</w>": 15,
  "-0.17303,</w>": 23,
  "0.3866,</w>": 18,
  "335,</w>": 726,
  "0.0910": 174,
  "0.13165,</w>": 22,
  "1.90": 29,
  "-0.773": 297,
  "455,</w>": 557,
  "0.17805,</w>": 16,
  "256,</w>": 676,
  "0.0113": 155,
  "0.12147,</w>": 13,
  "0.2453,</w>": 23,
  "-0.1733,</w>": 20,
  "181,</w>": 710,
  "0.30238,</w>": 15,
  "-0.29991,</w>": 17,
  "-0.25161,</w>": 24,
  "-0.25035,</w>": 15,
  "-0.16549,</w>": 19,
  "0.620": 564,
  "033,</w>": 452,
  "-0.22726,</w>": 13,
  "223,</w>": 727,
  "0.34668,</w>": 20,
  "-0.25167,</w>": 18,
  "542,</w>": 208,
  "-0.32485,</w>": 22,
  "0.13762,</w>": 23,
  "-0.22326,</w>": 17,
  "0.23899,</w>": 24,
  "-0.0500": 143,
  "0.1487,</w>": 13,
  "402,</w>": 382,
  "-0.41163,</w>": 14,
  "-0.33454,</w>": 14,
  "0.36476,</w>": 14,
  "-0.23411,</w>": 15,
  "-0.13272,</w>": 27,
  "-0.0503": 56,
  "0.19593,</w>": 23,
  "0.16193,</w>": 18,
  "0.13478,</w>": 20,
  "0.14": 694,
  "221,</w>": 709,
  "0.0471": 137,
  "-0.408,</w>": 14,
  "-0.684": 412,
  "-0.25236,</w>": 14,
  "0.16233,</w>": 21,
  "0.690": 407,
  "-0.36958,</w>": 16,
  "338,</w>": 780,
  "-0.546": 619,
  "0.40052,</w>": 16,
  "0.11458,</w>": 29,
  "0.45688,</w>": 14,
  "0.28415,</w>": 23,
  "0.43329,</w>": 16,
  "0.11012,</w>": 20,
  "016,</w>": 361,
  "0.20695,</w>": 16,
  "0.23759,</w>": 16,
  "-0.13017,</w>": 19,
  "0.072": 1602,
  "-0.4468,</w>": 13,
  "-0.4655,</w>": 13,
  "-0.061": 369,
  "365,</w>": 818,
  "0.19548,</w>": 19,
  "-0.10335,</w>": 19,
  "-0.45352,</w>": 15,
  "0.26304,</w>": 15,
  "0.16434,</w>": 19,
  "0.28028,</w>": 15,
  "0.31036,</w>": 13,
  "0.679": 455,
  "0.38964,</w>": 16,
  "499,</w>": 442,
  "0.21797,</w>": 18,
  "164,</w>": 1032,
  "-0.16794,</w>": 26,
  "0.0772": 141,
  "0.12053,</w>": 24,
  "0.1313,</w>": 17,
  "-0.0933": 68,
  "-0.35301,</w>": 15,
  "-0.503": 280,
  "-0.36138,</w>": 17,
  "-0.29966,</w>": 18,
  "-0.0672": 118,
  "601,</w>": 160,
  "-0.16302,</w>": 16,
  "0.30066,</w>": 16,
  "0.14383,</w>": 21,
  "0.10395,</w>": 19,
  "-0.40702,</w>": 20,
  "0.886": 174,
  "0.26735,</w>": 16,
  "-0.12383,</w>": 23,
  "0.0273": 135,
  "0.28064,</w>": 17,
  "0.14132,</w>": 21,
  "0.24643,</w>": 15,
  "876,</w>": 972,
  "0.196": 213,
  "-0.494": 691,
  "0.2691,</w>": 14,
  "0.25341,</w>": 16,
  "0.098": 289,
  "0.17792,</w>": 16,
  "-0.10593,</w>": 19,
  "0.18952,</w>": 20,
  "-0.24556,</w>": 18,
  "-0.13654,</w>": 16,
  "-0.10817,</w>": 20,
  "122,</w>": 947,
  "-0.16164,</w>": 22,
  "-0.3412,</w>": 21,
  "-0.14739,</w>": 21,
  "-0.21641,</w>": 18,
  "0.715": 322,
  "057,</w>": 506,
  "0.26404,</w>": 17,
  "0.21506,</w>": 24,
  "0.18385,</w>": 15,
  "0.33261,</w>": 14,
  "-0.22245,</w>": 15,
  "198,</w>": 992,
  "228,</w>": 735,
  "0.1977,</w>": 20,
  "-0.35548,</w>": 14,
  "-0.299": 164,
  "0.12939,</w>": 20,
  "-0.1377,</w>": 16,
  "0.23843,</w>": 18,
  "1.45": 158,
  "-0.11371,</w>": 15,
  "-0.37979,</w>": 19,
  "482,</w>": 384,
  "-0.19276,</w>": 17,
  "0.27009,</w>": 19,
  "-0.17085,</w>": 24,
  "-0.20322,</w>": 21,
  "-0.32744,</w>": 16,
  "0.180": 218,
  "0.30533,</w>": 13,
  "0.2407,</w>": 15,
  "0.466": 740,
  "0.596": 552,
  "0.21331,</w>": 18,
  "864,</w>": 1094,
  "0.38019,</w>": 15,
  "0.13826,</w>": 16,
  "0.226": 294,
  "-0.455": 839,
  "0.34732,</w>": 17,
  "-0.13608,</w>": 14,
  "982,</w>": 378,
  "-0.27943,</w>": 14,
  "0.04": 944,
  "0.28645,</w>": 15,
  "0.14126,</w>": 19,
  "995,</w>": 643,
  "285,</w>": 671,
  "-0.355": 612,
  "936,</w>": 657,
  "076,</w>": 350,
  "0.0520": 128,
  "0.34033,</w>": 13,
  "-0.4174,</w>": 17,
  "-0.38219,</w>": 19,
  "0.22205,</w>": 19,
  "0.10952,</w>": 21,
  "0.12061,</w>": 21,
  "0.16092,</w>": 14,
  "-0.32746,</w>": 15,
  "0.2458,</w>": 16,
  "0.27411,</w>": 19,
  "-0.0210": 155,
  "0.39146,</w>": 18,
  "0.695": 405,
  "0.671": 464,
  "0.481": 697,
  "-0.0278": 154,
  "0.50549,</w>": 15,
  "-0.35237,</w>": 16,
  "-0.31201,</w>": 16,
  "0.95": 1240,
  "0.439": 432,
  "0.47181,</w>": 13,
  "258,</w>": 797,
  "0.0189": 154,
  "382,</w>": 367,
  "-0.29015,</w>": 27,
  "-0.12208,</w>": 21,
  "0.0276": 122,
  "-0.26625,</w>": 20,
  "0.23102,</w>": 22,
  "0.0876": 156,
  "005,</w>": 438,
  "-0.44212,</w>": 13,
  "-0.34679,</w>": 18,
  "-0.20236,</w>": 18,
  "-0.10104,</w>": 25,
  "-0.18122,</w>": 13,
  "239,</w>": 767,
  "-0.0176": 154,
  "0.29064,</w>": 19,
  "232,</w>": 866,
  "-0.18253,</w>": 18,
  "0.0320": 173,
  "0.10706,</w>": 16,
  "0.28863,</w>": 15,
  "465,</w>": 510,
  "0.26307,</w>": 14,
  "245,</w>": 722,
  "0.13932,</w>": 18,
  "-0.1764,</w>": 16,
  "0.31297,</w>": 19,
  "-0.35545,</w>": 13,
  "663,</w>": 311,
  "0.19614,</w>": 17,
  "-0.36436,</w>": 18,
  "0.14678,</w>": 16,
  "-0.3716,</w>": 14,
  "-0.60569,</w>": 16,
  "-1.06": 729,
  "-0.24823,</w>": 16,
  "0.44917,</w>": 13,
  "-0.279": 307,
  "-0.32838,</w>": 14,
  "463,</w>": 588,
  "-0.22879,</w>": 19,
  "0.18263,</w>": 14,
  "0.27651,</w>": 18,
  "-0.0479": 116,
  "-0.20127,</w>": 14,
  "-0.3754,</w>": 16,
  "0.0211": 50,
  "-0.13349,</w>": 28,
  "-0.37299,</w>": 18,
  "-0.27203,</w>": 18,
  "235,</w>": 838,
  "0.32202,</w>": 18,
  "0.33787,</w>": 16,
  "177,</w>": 707,
  "0.319": 443,
  "0.3274,</w>": 15,
  "-0.479": 689,
  "-0.0589": 150,
  "-0.13548,</w>": 19,
  "-0.27461,</w>": 16,
  "-0.31293,</w>": 20,
  "-0.17042,</w>": 24,
  "-0.20509,</w>": 16,
  "0.23494,</w>": 21,
  "0.16507,</w>": 20,
  "0.15267,</w>": 16,
  "546,</w>": 204,
  "-0.3771,</w>": 21,
  "0.30854,</w>": 17,
  "-0.16621,</w>": 19,
  "-0.13708,</w>": 18,
  "-0.484": 728,
  "-0.2303,</w>": 17,
  "-0.1302,</w>": 16,
  "-0.06": 1145,
  "0.14626,</w>": 20,
  "0.38807,</w>": 14,
  "-0.2693,</w>": 17,
  "0.14757,</w>": 17,
  "-0.18": 275,
  "-0.37668,</w>": 17,
  "0.24258,</w>": 16,
  "-0.17912,</w>": 19,
  "0.15185,</w>": 20,
  "-0.16,</w>": 20,
  "678,</w>": 166,
  "0.295": 390,
  "-0.36161,</w>": 20,
  "-0.25959,</w>": 14,
  "0.15685,</w>": 20,
  "0.495": 595,
  "0.16396,</w>": 22,
  "-0.36334,</w>": 20,
  "0.13761,</w>": 21,
  "-0.0475": 165,
  "767,</w>": 1103,
  "-0.605": 565,
  "744,</w>": 1205,
  "-0.27895,</w>": 15,
  "0.30921,</w>": 13,
  "0.23541,</w>": 28,
  "-0.19318,</w>": 15,
  "-0.33792,</w>": 14,
  "0.43456,</w>": 13,
  "-0.332,</w>": 16,
  "-0.16313,</w>": 16,
  "0.30325,</w>": 23,
  "-0.15": 790,
  "0.35589,</w>": 20,
  "-0.043": 755,
  "-0.3299,</w>": 15,
  "0.14328,</w>": 19,
  "-0.20706,</w>": 16,
  "-0.588": 112,
  "-0.0878": 141,
  "-0.1563,</w>": 23,
  "0.13603,</w>": 21,
  "-0.26251,</w>": 18,
  "0.30142,</w>": 14,
  "-0.0296": 151,
  "453,</w>": 562,
  "-0.24357,</w>": 15,
  "0.15829,</w>": 29,
  "0.19095,</w>": 24,
  "-0.509": 219,
  "0.0579": 157,
  "-0.20903,</w>": 16,
  "0.47": 673,
  "-0.11511,</w>": 17,
  "-0.0616": 138,
  "-0.1869,</w>": 17,
  "-0.18946,</w>": 14,
  "0.18354,</w>": 18,
  "802,</w>": 1095,
  "0.15261,</w>": 15,
  "0.410": 762,
  "-0.0586": 153,
  "-0.22928,</w>": 18,
  "0.10317,</w>": 27,
  "0.425": 623,
  "-0.25326,</w>": 25,
  "0.34194,</w>": 17,
  "0.23397,</w>": 19,
  "0.31464,</w>": 18,
  "-0.40387,</w>": 18,
  "-0.12262,</w>": 24,
  "-0.18495,</w>": 15,
  "-0.11065,</w>": 18,
  "0.47943,</w>": 13,
  "019,</w>": 313,
  "0.36826,</w>": 16,
  "0.11738,</w>": 16,
  "-0.3069,</w>": 16,
  "0.4719,</w>": 13,
  "0.17972,</w>": 25,
  "-0.482": 671,
  "091,</w>": 455,
  "-0.31441,</w>": 17,
  "0.12578,</w>": 29,
  "-0.10673,</w>": 19,
  "-0.0693": 53,
  "0.21809,</w>": 25,
  "0.0922": 169,
  "-0.42643,</w>": 13,
  "0.14871,</w>": 20,
  "937,</w>": 648,
  "0.0881": 138,
  "-0.0411": 41,
  "-0.10368,</w>": 19,
  "-0.20342,</w>": 19,
  "0.0172": 155,
  "-0.098": 255,
  "597,</w>": 203,
  "0.35067,</w>": 19,
  "0.1432,</w>": 19,
  "0.35168,</w>": 13,
  "0.20076,</w>": 14,
  "554,</w>": 293,
  "0.586": 578,
  "0.10436,</w>": 17,
  "-0.1236,</w>": 15,
  "-0.33216,</w>": 16,
  "0.18431,</w>": 22,
  "-0.0371": 163,
  "-0.21601,</w>": 21,
  "-0.23836,</w>": 15,
  "0.15189,</w>": 19,
  "0.0914": 151,
  "183,</w>": 704,
  "0.373": 555,
  "0.21825,</w>": 15,
  "0.10126,</w>": 17,
  "064,</w>": 516,
  "0.23072,</w>": 16,
  "-0.24994,</w>": 17,
  "-0.12134,</w>": 18,
  "-0.28922,</w>": 20,
  "0.31747,</w>": 18,
  "-0.12831,</w>": 24,
  "0.1223,</w>": 26,
  "0.31455,</w>": 16,
  "-0.12275,</w>": 20,
  "-0.2929,</w>": 14,
  "-0.19756,</w>": 19,
  "0.1648,</w>": 23,
  "-0.27075,</w>": 19,
  "-0.17946,</w>": 14,
  "-0.1979,</w>": 14,
  "0.32122,</w>": 14,
  "622,</w>": 191,
  "0.11672,</w>": 23,
  "0.38072,</w>": 17,
  "-0.22517,</w>": 19,
  "-0.23703,</w>": 18,
  "-0.26167,</w>": 22,
  "0.13342,</w>": 15,
  "0.16977,</w>": 16,
  "-0.42944,</w>": 13,
  "-0.0615": 143,
  "297,</w>": 703,
  "-0.13385,</w>": 17,
  "0.25242,</w>": 22,
  "-0.43245,</w>": 13,
  "-0.2538,</w>": 16,
  "0.12047,</w>": 18,
  "0.1441,</w>": 16,
  "0.776": 269,
  "0.43784,</w>": 13,
  "705,</w>": 1149,
  "0.29254,</w>": 16,
  "-0.40205,</w>": 16,
  "-0.13346,</w>": 16,
  "888,</w>": 956,
  "893,</w>": 1053,
  "-0.39554,</w>": 17,
  "0.26085,</w>": 15,
  "-0.0316": 130,
  "-0.110": 70,
  "746,</w>": 1136,
  "0.0636": 107,
  "0.37212,</w>": 16,
  "-0.1028,</w>": 25,
  "0.038": 236,
  "-0.2271,</w>": 23,
  "0.28157,</w>": 19,
  "-0.14313,</w>": 14,
  "0.0673": 132,
  "-0.10865,</w>": 21,
  "-0.19487,</w>": 23,
  "976,</w>": 323,
  "-0.10856,</w>": 19,
  "0.26826,</w>": 14,
  "0.10279,</w>": 20,
  "0.245": 323,
  "0.1208,</w>": 23,
  "469,</w>": 587,
  "0.13261,</w>": 18,
  "-0.10488,</w>": 24,
  "0.0580": 130,
  "-0.25841,</w>": 20,
  "497,</w>": 428,
  "0.1071,</w>": 21,
  "-0.30615,</w>": 21,
  "0.003": 156,
  "74": 67,
  "0.18964,</w>": 17,
  "-0.32884,</w>": 19,
  "-0.3742,</w>": 13,
  "156,</w>": 877,
  "-0.35766,</w>": 13,
  "-0.14719,</w>": 25,
  "602,</w>": 178,
  "-0.13511,</w>": 16,
  "-0.30223,</w>": 18,
  "0.17729,</w>": 15,
  "-0.23586,</w>": 19,
  "-0.2089,</w>": 16,
  "-0.32392,</w>": 18,
  "0.1988,</w>": 20,
  "798,</w>": 1134,
  "-0.22": 797,
  "862,</w>": 1084,
  "0.21896,</w>": 20,
  "0.12569,</w>": 21,
  "-0.17436,</w>": 14,
  "0.17336,</w>": 16,
  "-0.37857,</w>": 13,
  "-0.14673,</w>": 23,
  "0.17779,</w>": 16,
  "0.19679,</w>": 25,
  "-0.10004,</w>": 20,
  "557,</w>": 321,
  "587,</w>": 262,
  "0.0180": 122,
  "0.45869,</w>": 15,
  "0.3916,</w>": 13,
  "-0.20053,</w>": 23,
  "0.288,</w>": 17,
  "-0.24255,</w>": 14,
  "0.39615,</w>": 19,
  "-0.44213,</w>": 15,
  "-0.18451,</w>": 18,
  "-0.36414,</w>": 14,
  "84": 61,
  "-0.300": 396,
  "-1.15": 388,
  "-0.0445": 158,
  "-0.0543": 61,
  "-0.420": 638,
  "-0.2609,</w>": 18,
  "-0.1": 353,
  "0.16186,</w>": 13,
  "0.14301,</w>": 16,
  "0.0633": 91,
  "0.13493,</w>": 17,
  "047,</w>": 514,
  "0.22028,</w>": 18,
  "-0.10288,</w>": 16,
  "-0.10804,</w>": 23,
  "-0.29386,</w>": 17,
  "0.17034,</w>": 17,
  "0.17886,</w>": 16,
  "0.16451,</w>": 22,
  "-0.17836,</w>": 18,
  "0.16759,</w>": 22,
  "0.3838,</w>": 16,
  "-0.646": 436,
  "0.3634,</w>": 16,
  "-0.17243,</w>": 22,
  "-0.11025,</w>": 15,
  "0.12671,</w>": 19,
  "-0.19604,</w>": 23,
  "0.24839,</w>": 18,
  "0.19266,</w>": 15,
  "0.22559,</w>": 15,
  "-0.37689,</w>": 13,
  "0.39652,</w>": 15,
  "-0.9": 518,
  "0.384": 602,
  "0.15571,</w>": 27,
  "0.771": 261,
  "-0.15432,</w>": 21,
  "-0.0510": 161,
  "-0.12003,</w>": 19,
  "-0.20142,</w>": 18,
  "0.15,</w>": 16,
  "0.290": 313,
  "-0.0336": 154,
  "901,</w>": 830,
  "1.26": 318,
  "-0.510": 672,
  "0.27948,</w>": 14,
  "-0.16585,</w>": 21,
  "-0.18219,</w>": 25,
  "-0.2": 1356,
  "-0.216": 230,
  "-0.11378,</w>": 18,
  "0.26168,</w>": 16,
  "0.37362,</w>": 14,
  "0.30048,</w>": 20,
  "-0.28303,</w>": 14,
  "-0.0281": 139,
  "-0.37524,</w>": 14,
  "0.02": 556,
  "0.15299,</w>": 28,
  "839,</w>": 1057,
  "0.19303,</w>": 19,
  "0.300": 445,
  "-0.543": 239,
  "0.30662,</w>": 18,
  "0.42139,</w>": 13,
  "0.14094,</w>": 20,
  "-0.12844,</w>": 21,
  "0.16161,</w>": 15,
  "0.23926,</w>": 15,
  "879,</w>": 995,
  "-0.052": 550,
  "0.1836,</w>": 25,
  "903,</w>": 838,
  "159,</w>": 937,
  "0.26208,</w>": 18,
  "-0.435": 623,
  "-0.51035,</w>": 14,
  "0.19077,</w>": 19,
  "0.13147,</w>": 13,
  "-0.25845,</w>": 25,
  "0.15282,</w>": 25,
  "-0.23367,</w>": 21,
  "0.11783,</w>": 23,
  "0.27": 324,
  "-0.425": 685,
  "0.26544,</w>": 16,
  "-0.29222,</w>": 20,
  "0.1574,</w>": 16,
  "0.0404": 107,
  "0.28956,</w>": 14,
  "-0.35001,</w>": 14,
  "-0.31789,</w>": 19,
  "0.32883,</w>": 19,
  "-0.11232,</w>": 26,
  "071,</w>": 327,
  "-0.023": 815,
  "0.0778": 126,
  "-0.10016,</w>": 13,
  "-0.0215": 152,
  "-0.378": 550,
  "-0.0583": 145,
  "0.19228,</w>": 19,
  "-0.16743,</w>": 16,
  "-0.15524,</w>": 20,
  "024,</w>": 356,
  "-0.289": 419,
  "-0.25122,</w>": 16,
  "-0.2085,</w>": 20,
  "0.13136,</w>": 22,
  "-0.495": 706,
  "-0.21534,</w>": 21,
  "0.12439,</w>": 23,
  "0.2277,</w>": 15,
  "0.31425,</w>": 17,
  "0.0474": 147,
  "-0.19251,</w>": 23,
  "0.30497,</w>": 15,
  "0.22793,</w>": 17,
  "0.23193,</w>": 15,
  "-0.077": 131,
  "0.23149,</w>": 19,
  "0.19438,</w>": 17,
  "-0.21407,</w>": 22,
  "-0.0378": 133,
  "-0.478": 693,
  "0.1602,</w>": 20,
  "-0.24775,</w>": 27,
  "-0.556": 624,
  "4,</w>": 926,
  "0.583": 563,
  "-0.50548,</w>": 14,
  "993,</w>": 646,
  "-0.27751,</w>": 16,
  "0.23215,</w>": 16,
  "0.17907,</w>": 14,
  "0.0383": 147,
  "397,</w>": 857,
  "-0.35713,</w>": 14,
  "-0.24509,</w>": 16,
  "0.14478,</w>": 21,
  "0.21815,</w>": 15,
  "-0.14783,</w>": 16,
  "385,</w>": 321,
  "-0.10121,</w>": 16,
  "-0.31703,</w>": 15,
  "0.0275": 144,
  "-0.374": 509,
  "-0.42587,</w>": 14,
  "351,</w>": 864,
  "-0.12781,</w>": 21,
  "-0.0522": 134,
  "0.294": 292,
  "-0.36101,</w>": 16,
  "203,</w>": 766,
  "-0.33804,</w>": 15,
  "-0.28788,</w>": 14,
  "-0.0635": 138,
  "0.21739,</w>": 22,
  "0.635": 536,
  "-0.30842,</w>": 23,
  "-0.10431,</w>": 26,
  "-0.0282": 149,
  "0.988": 19,
  "-0.15196,</w>": 15,
  "058,</w>": 501,
  "0.10989,</w>": 24,
  "-0.14665,</w>": 17,
  "-0.23621,</w>": 14,
  "204,</w>": 824,
  "-0.33421,</w>": 18,
  "-0.19901,</w>": 15,
  "-0.19668,</w>": 17,
  "-0.0386": 186,
  "0.270": 424,
  "0.11101,</w>": 21,
  "0.20846,</w>": 18,
  "-0.312": 486,
  "-0.29405,</w>": 26,
  "0.33848,</w>": 15,
  "114,</w>": 869,
  "0.25996,</w>": 18,
  "0.30444,</w>": 20,
  "-0.3338,</w>": 18,
  "-0.38957,</w>": 15,
  "697,</w>": 151,
  "0.786": 239,
  "0.5211,</w>": 13,
  "-0.16962,</w>": 21,
  "-0.103": 47,
  "-0.324": 436,
  "-0.43331,</w>": 17,
  "-0.24064,</w>": 13,
  "-0.11076,</w>": 15,
  "-0.645": 478,
  "-0.29631,</w>": 20,
  "0.11511,</w>": 17,
  "0.1549,</w>": 18,
  "0.19219,</w>": 24,
  "-0.649": 196,
  "0.766": 291,
  "-0.1408,</w>": 24,
  "957,</w>": 834,
  "0.625": 515,
  "0.21464,</w>": 21,
  "-0.32243,</w>": 21,
  "0.2931,</w>": 16,
  "0.12": 374,
  "113,</w>": 943,
  "0.389": 619,
  "-0.1439,</w>": 20,
  "0.22804,</w>": 20,
  "-0.45898,</w>": 16,
  "0.0540": 72,
  "-0.31156,</w>": 13,
  "0.10394,</w>": 23,
  "941,</w>": 878,
  "0.19628,</w>": 13,
  "821,</w>": 1015,
  "0.33783,</w>": 13,
  "0.16475,</w>": 19,
  "0.21914,</w>": 18,
  "0.12896,</w>": 23,
  "0.25956,</w>": 18,
  "0.10577,</w>": 20,
  "0.302,</w>": 16,
  "29": 33,
  "3],</w>": 31,
  "-0.24701,</w>": 19,
  "435,</w>": 394,
  "0.26975,</w>": 22,
  "0.32203,</w>": 14,
  "0.0389": 167,
  "0.45385,</w>": 13,
  "-0.15287,</w>": 21,
  "0.11244,</w>": 26,
  "0.23742,</w>": 20,
  "-0.23244,</w>": 26,
  "0.19917,</w>": 20,
  "0.500": 705,
  "-0.23519,</w>": 17,
  "942,</w>": 898,
  "-0.32362,</w>": 13,
  "0.1368,</w>": 21,
  "0.22834,</w>": 21,
  "0.0175": 146,
  "-0.11235,</w>": 16,
  "-0.61333,</w>": 13,
  "-0.21298,</w>": 20,
  "-0.22977,</w>": 15,
  "0.2193,</w>": 14,
  "-0.174": 140,
  "914,</w>": 330,
  "0.534": 668,
  "0.27287,</w>": 14,
  "0.19961,</w>": 21,
  "-0.24238,</w>": 17,
  "0.20792,</w>": 22,
  "-0.0633": 86,
  "0.29088,</w>": 15,
  "-0.14476,</w>": 23,
  "0.594": 592,
  "0.17349,</w>": 17,
  "098,</w>": 462,
  "0.32602,</w>": 15,
  "0.4298,</w>": 15,
  "-0.37136,</w>": 13,
  "0.19754,</w>": 17,
  "-0.10092,</w>": 18,
  "0.42362,</w>": 15,
  "0.576": 604,
  "648,</w>": 140,
  "0.38366,</w>": 14,
  "513,</w>": 201,
  "0.2324,</w>": 20,
  "-0.28042,</w>": 18,
  "-0.16817,</w>": 18,
  "0.33678,</w>": 19,
  "439,</w>": 482,
  "-0.11818,</w>": 23,
  "-0.11622,</w>": 20,
  "0.11231,</w>": 22,
  "0.20279,</w>": 19,
  "486,</w>": 352,
  "0.0624": 197,
  "-0.15463,</w>": 27,
  "0.38182,</w>": 16,
  "0.93": 669,
  "769,</w>": 1200,
  "-0.36573,</w>": 14,
  "0.44684,</w>": 15,
  "-0.340": 378,
  "359,</w>": 768,
  "0.32114,</w>": 21,
  "912,</w>": 360,
  "-0.16644,</w>": 14,
  "0.15328,</w>": 16,
  "-0.10836,</w>": 17,
  "0.35854,</w>": 13,
  "0.11835,</w>": 17,
  "004,</w>": 487,
  "-0.406": 568,
  "-0.0512": 122,
  "-0.334": 505,
  "-0.36255,</w>": 13,
  "-0.19761,</w>": 17,
  "0.0610": 114,
  "0.17806,</w>": 27,
  "-0.21512,</w>": 15,
  "-0.31876,</w>": 17,
  "-0.539": 381,
  "-0.0546": 133,
  "0.33786,</w>": 20,
  "-0.2506,</w>": 15,
  "-0.22975,</w>": 18,
  "0.19082,</w>": 19,
  "-0.32597,</w>": 20,
  "845,</w>": 982,
  "-0.978": 87,
  "963,</w>": 780,
  "0.412": 639,
  "0.2824,</w>": 15,
  "-0.10098,</w>": 25,
  "-0.1103,</w>": 25,
  "0.676": 411,
  "-0.23844,</w>": 21,
  "-0.28335,</w>": 14,
  "0.1328,</w>": 21,
  "-0.629": 277,
  "-0.416": 685,
  "0.31639,</w>": 17,
  "-0.31538,</w>": 14,
  "0.40203,</w>": 14,
  "0.17426,</w>": 23,
  "0.11115,</w>": 15,
  "383,</w>": 369,
  "0.13274,</w>": 19,
  "-0.386": 542,
  "0.17552,</w>": 15,
  "0.539": 366,
  "0.286": 324,
  "0.16891,</w>": 13,
  "0.486": 658,
  "241,</w>": 764,
  "-0.11872,</w>": 22,
  "-0.0986": 148,
  "0.22438,</w>": 13,
  "-0.26938,</w>": 15,
  "-0.18527,</w>": 24,
  "-0.12708,</w>": 22,
  "-0.44384,</w>": 13,
  "0.43437,</w>": 18,
  "-0.440": 516,
  "0.681": 394,
  "0.41268,</w>": 16,
  "0.21723,</w>": 17,
  "087,</w>": 359,
  "2.5": 39,
  "319,</w>": 342,
  "-0.525": 701,
  "0.1095,</w>": 26,
  "-0.18728,</w>": 16,
  "-0.20177,</w>": 16,
  "162,</w>": 1030,
  "-0.778": 270,
  "-0.10485,</w>": 15,
  "-0.15291,</w>": 20,
  "-0.12142,</w>": 14,
  "0.644": 401,
  "-0.24036,</w>": 20,
  "-0.15419,</w>": 18,
  "0.496": 672,
  "399,</w>": 876,
  "-0.0914": 138,
  "-0.11069,</w>": 20,
  "0.48993,</w>": 14,
  "-0.35808,</w>": 19,
  "-0.13998,</w>": 18,
  "-0.32903,</w>": 20,
  "-0.46218,</w>": 15,
  "0.20433,</w>": 19,
  "-0.13033,</w>": 15,
  "0.32272,</w>": 19,
  "-0.179": 139,
  "807,</w>": 1030,
  "0.104": 82,
  "-0.32326,</w>": 17,
  "0.11612,</w>": 19,
  "-0.30118,</w>": 14,
  "-0.18137,</w>": 20,
  "607,</w>": 155,
  "0.14175,</w>": 14,
  "427,</w>": 270,
  "0.546": 667,
  "-0.57413,</w>": 13,
  "-0.29717,</w>": 16,
  "-0.27383,</w>": 21,
  "0.37917,</w>": 15,
  "0.8": 339,
  "-0.23802,</w>": 17,
  "0.21998,</w>": 22,
  "0.23257,</w>": 16,
  "0.0570": 157,
  "-0.55805,</w>": 14,
  "0.46166,</w>": 15,
  "0.33262,</w>": 13,
  "-0.29171,</w>": 20,
  "-0.394": 593,
  "0.32338,</w>": 13,
  "-0.11596,</w>": 26,
  "-0.0085": 41,
  "0.921": 13,
  "524,</w>": 220,
  "-0.14312,</w>": 20,
  "-0.330": 362,
  "0.11993,</w>": 16,
  "585,</w>": 196,
  "-0.586": 555,
  "-0.16383,</w>": 14,
  "0.472": 718,
  "0.14329,</w>": 19,
  "0.0022": 41,
  "-0.33304,</w>": 17,
  "-0.22728,</w>": 14,
  "-0.0324": 136,
  "-0.15987,</w>": 19,
  "-0.186": 176,
  "-0.21447,</w>": 25,
  "-0.13076,</w>": 18,
  "0.416": 624,
  "-0.091": 372,
  "0.24889,</w>": 15,
  "0.14179,</w>": 21,
  "0.20805,</w>": 21,
  "0.25496,</w>": 15,
  "-0.44798,</w>": 13,
  "0.0479": 166,
  "-0.25826,</w>": 20,
  "0.39088,</w>": 17,
  "0.45524,</w>": 21,
  "-0.18544,</w>": 21,
  "408,</w>": 427,
  "-0.12519,</w>": 18,
  "0.41823,</w>": 13,
  "986,</w>": 360,
  "-0.32683,</w>": 19,
  "0.120": 120,
  "-0.346": 509,
  "-0.17439,</w>": 24,
  "0.1851,</w>": 18,
  "0.37812,</w>": 13,
  "189,</w>": 710,
  "945,</w>": 885,
  "-0.1939,</w>": 17,
  "-1.30": 157,
  "-0.28126,</w>": 17,
  "-0.25087,</w>": 18,
  "0.26981,</w>": 16,
  "549,</w>": 203,
  "0.37104,</w>": 15,
  "-0.12224,</w>": 18,
  "-0.220": 210,
  "0.16724,</w>": 13,
  "0.12704,</w>": 16,
  "578,</w>": 193,
  "0.18252,</w>": 14,
  "-0.0478": 162,
  "-0.0513": 146,
  "0.2075,</w>": 25,
  "-0.28372,</w>": 15,
  "-0.11125,</w>": 25,
  "-0.266": 269,
  "-0.0639": 94,
  "-0.15941,</w>": 16,
  "-0.37085,</w>": 15,
  "0.31514,</w>": 13,
  "0.612": 556,
  "-0.535": 696,
  "-0.15736,</w>": 13,
  "-0.21555,</w>": 22,
  "-0.12659,</w>": 22,
  "0.30604,</w>": 16,
  "0.443": 255,
  "0.21618,</w>": 17,
  "-0.980": 81,
  "-0.31045,</w>": 17,
  "-0.615": 552,
  "434,</w>": 419,
  "-0.38904,</w>": 20,
  "-0.610": 555,
  "-0.1626,</w>": 19,
  "-0.28597,</w>": 15,
  "-0.21266,</w>": 13,
  "049,</w>": 543,
  "332,</w>": 814,
  "-0.16509,</w>": 17,
  "0.11052,</w>": 20,
  "0.772": 288,
  "0.40923,</w>": 13,
  "-0.31906,</w>": 15,
  "0.25337,</w>": 16,
  "-0.26502,</w>": 18,
  "-0.27258,</w>": 15,
  "-0.43233,</w>": 19,
  "0.2781,</w>": 16,
  "-0.0373": 137,
  "0.38288,</w>": 15,
  "-0.281": 340,
  "0.45947,</w>": 16,
  "-0.683": 384,
  "066,</w>": 471,
  "-0.31524,</w>": 14,
  "0.27007,</w>": 17,
  "0.18332,</w>": 23,
  "-0.15581,</w>": 21,
  "-0.52765,</w>": 13,
  "0.21633,</w>": 15,
  "0.23007,</w>": 13,
  "0.17967,</w>": 14,
  "-0.579": 557,
  "-0.19347,</w>": 18,
  "0.65842,</w>": 13,
  "-0.575": 599,
  "-0.19006,</w>": 14,
  "-0.21672,</w>": 16,
  "0.20864,</w>": 20,
  "-0.30259,</w>": 16,
  "-0.522": 653,
  "0.3102,</w>": 14,
  "326,</w>": 352,
  "416,</w>": 318,
  "892,</w>": 1068,
  "0.2302,</w>": 14,
  "-0.206": 175,
  "0.27367,</w>": 25,
  "-0.29941,</w>": 16,
  "-0.112": 101,
  "0.14624,</w>": 17,
  "-0.23397,</w>": 19,
  "-0.344": 443,
  "-0.481": 710,
  "0.21248,</w>": 17,
  "0.36558,</w>": 17,
  "0.20717,</w>": 14,
  "-0.16688,</w>": 17,
  "-0.38464,</w>": 13,
  "-0.12655,</w>": 23,
  "-0.23131,</w>": 16,
  "0.3736,</w>": 16,
  "-0.1355,</w>": 25,
  "-0.15214,</w>": 24,
  "-0.28681,</w>": 14,
  "-0.17627,</w>": 14,
  "-0.17093,</w>": 17,
  "-0.12755,</w>": 16,
  "0.1569,</w>": 20,
  "0.26184,</w>": 18,
  "0.13441,</w>": 21,
  "0.1799,</w>": 24,
  "0.774": 312,
  "-0.33275,</w>": 13,
  "0.40241,</w>": 15,
  "-0.15849,</w>": 16,
  "-0.25584,</w>": 23,
  "082,</w>": 352,
  "-0.0533": 64,
  "-0.306": 504,
  "0.18193,</w>": 16,
  "-0.11651,</w>": 24,
  "0.16122,</w>": 24,
  "913,</w>": 343,
  "0.42234,</w>": 15,
  "-0.456": 649,
  "1.16": 522,
  "981,</w>": 322,
  "-0.20062,</w>": 17,
  "-0.20262,</w>": 21,
  "-0.25828,</w>": 24,
  "0.25105,</w>": 17,
  "0.29832,</w>": 15,
  "0.32793,</w>": 13,
  "-0.18681,</w>": 19,
  "-0.14676,</w>": 18,
  "0.21045,</w>": 24,
  "0.10211,</w>": 23,
  "425,</w>": 349,
  "-0.25714,</w>": 22,
  "0.23063,</w>": 18,
  "-0.483": 721,
  "0.15": 810,
  "0.26501,</w>": 20,
  "0.444": 609,
  "0.28427,</w>": 19,
  "-0.32765,</w>": 17,
  "0.433": 325,
  "0.29092,</w>": 17,
  "0.566": 657,
  "-0.10414,</w>": 15,
  "-0.17349,</w>": 13,
  "0.20598,</w>": 14,
  "979,</w>": 328,
  "0.13355,</w>": 18,
  "-0.20671,</w>": 28,
  "-0.18895,</w>": 15,
  "-0.11436,</w>": 24,
  "-0.20248,</w>": 15,
  "0.23106,</w>": 24,
  "0.2688,</w>": 18,
  "-0.24025,</w>": 14,
  "355,</w>": 830,
  "-0.29321,</w>": 15,
  "0.40752,</w>": 15,
  "0.49195,</w>": 13,
  "-0.30595,</w>": 14,
  "0.28914,</w>": 13,
  "0.31045,</w>": 20,
  "-0.38406,</w>": 17,
  "-0.3964,</w>": 13,
  "-0.28502,</w>": 21,
  "-0.25249,</w>": 19,
  "-0.21557,</w>": 18,
  "-0.17065,</w>": 17,
  "-0.11941,</w>": 15,
  "-0.0389": 138,
  "0.15462,</w>": 21,
  "-0.11447,</w>": 21,
  "0.18756,</w>": 15,
  "0.512": 648,
  "0.23374,</w>": 15,
  "-0.415": 609,
  "-0.3722,</w>": 17,
  "0.639": 278,
  "-0.11108,</w>": 19,
  "0.42527,</w>": 17,
  "-0.403": 258,
  "372,</w>": 375,
  "-0.1348,</w>": 22,
  "0.16273,</w>": 17,
  "0.178": 174,
  "-0.54739,</w>": 13,
  "0.39909,</w>": 14,
  "-0.24892,</w>": 20,
  "-0.20674,</w>": 19,
  "-0.2161,</w>": 18,
  "-0.24712,</w>": 17,
  "0.28043,</w>": 14,
  "212,</w>": 788,
  "0.31803,</w>": 15,
  "0.20318,</w>": 17,
  "-0.3037,</w>": 16,
  "0.35637,</w>": 14,
  "-0.35303,</w>": 19,
  "0.680": 438,
  "0.12767,</w>": 17,
  "946,</w>": 856,
  "0.3122,</w>": 20,
  "0.1568,</w>": 18,
  "-0.18326,</w>": 21,
  "0.11604,</w>": 14,
  "0.27535,</w>": 14,
  "-0.17602,</w>": 14,
  "-0.34745,</w>": 24,
  "0.27571,</w>": 20,
  "-0.38192,</w>": 15,
  "0.13018,</w>": 17,
  "0.21995,</w>": 13,
  "-0.14856,</w>": 22,
  "0.15114,</w>": 13,
  "-0.0234": 123,
  "0.13143,</w>": 21,
  "-0.13879,</w>": 18,
  "-0.18039,</w>": 15,
  "0.17749,</w>": 16,
  "448,</w>": 424,
  "-0.24248,</w>": 17,
  "-0.10581,</w>": 15,
  "-0.11824,</w>": 14,
  "-0.333": 180,
  "-0.10257,</w>": 22,
  "-0.15447,</w>": 22,
  "-0.34765,</w>": 15,
  "-0.18628,</w>": 23,
  "-0.18178,</w>": 21,
  "0.10668,</w>": 16,
  "492,</w>": 404,
  "0.316": 380,
  "-0.465": 562,
  "-0.25823,</w>": 19,
  "0.1499,</w>": 24,
  "-0.38756,</w>": 15,
  "-0.25097,</w>": 18,
  "0.28398,</w>": 14,
  "0.1735,</w>": 33,
  "-0.14405,</w>": 22,
  "0.28026,</w>": 19,
  "932,</w>": 566,
  "-0.48149,</w>": 15,
  "0.22052,</w>": 17,
  "-0.16067,</w>": 18,
  "0.12395,</w>": 21,
  "0.11741,</w>": 23,
  "-0.19151,</w>": 16,
  "0.37225,</w>": 14,
  "-0.11444,</w>": 13,
  "0.570": 590,
  "-0.27584,</w>": 15,
  "-0.041": 404,
  "772,</w>": 1152,
  "-0.22283,</w>": 20,
  "0.48611,</w>": 14,
  "-0.20405,</w>": 13,
  "-0.37059,</w>": 14,
  "-0.15414,</w>": 17,
  "0.0915": 153,
  "0.0425": 169,
  "0.011": 475,
  "0.10725,</w>": 20,
  "0.31544,</w>": 16,
  "0.11039,</w>": 24,
  "0.39131,</w>": 14,
  "-0.233": 80,
  "377,</w>": 397,
  "0.12458,</w>": 18,
  "0.0295": 142,
  "-0.99": 429,
  "-0.40902,</w>": 13,
  "-0.1147,</w>": 17,
  "0.15131,</w>": 19,
  "0.11018,</w>": 22,
  "0.16003,</w>": 18,
  "0.0483": 118,
  "0.138,</w>": 16,
  "0.0995": 148,
  "-0.10435,</w>": 22,
  "-1.14": 445,
  "0.14398,</w>": 14,
  "272,</w>": 731,
  "-0.31226,</w>": 17,
  "0.29765,</w>": 21,
  "094,</w>": 433,
  "-0.656": 498,
  "0.35996,</w>": 16,
  "-0.2792,</w>": 16,
  "-0.46297,</w>": 16,
  "-0.40052,</w>": 13,
  "983,</w>": 353,
  "-0.29279,</w>": 17,
  "0.4236,</w>": 13,
  "-0.26364,</w>": 18,
  "0.12329,</w>": 21,
  "0.47773,</w>": 14,
  "0.924": 129,
  "-0.22558,</w>": 23,
  "0.23708,</w>": 21,
  "-0.45251,</w>": 14,
  "-0.26017,</w>": 13,
  "437,</w>": 395,
  "-0.16589,</w>": 18,
  "0.32558,</w>": 16,
  "-0.26951,</w>": 17,
  "0.37526,</w>": 17,
  "-0.19603,</w>": 17,
  "0.31849,</w>": 20,
  "-0.10482,</w>": 23,
  "-0.35073,</w>": 13,
  "-0.61": 1557,
  "-0.064": 912,
  "229,</w>": 799,
  "0.0984": 155,
  "-0.14159,</w>": 15,
  "-0.26448,</w>": 21,
  "0.25615,</w>": 19,
  "0.20852,</w>": 15,
  "412,</w>": 360,
  "0.266": 333,
  "-0.12869,</w>": 21,
  "-0.24046,</w>": 18,
  "0.37517,</w>": 16,
  "0.36001,</w>": 13,
  "-0.13096,</w>": 20,
  "-0.12757,</w>": 20,
  "0.10667,</w>": 24,
  "-0.308,</w>": 20,
  "-0.23261,</w>": 22,
  "-0.11248,</w>": 26,
  "-0.17477,</w>": 26,
  "0.40333,</w>": 14,
  "0.16438,</w>": 19,
  "-0.24643,</w>": 20,
  "0.36526,</w>": 16,
  "0.11542,</w>": 17,
  "0.20688,</w>": 13,
  "-0.13413,</w>": 23,
  "0.92": 448,
  "0.16167,</w>": 27,
  "0.17633,</w>": 17,
  "0.0996": 146,
  "1.0433,</w>": 13,
  "0.30424,</w>": 14,
  "0.34574,</w>": 16,
  "0.15241,</w>": 22,
  "-0.16375,</w>": 25,
  "0.021": 409,
  "-0.29685,</w>": 19,
  "0.1096,</w>": 24,
  "0.471": 707,
  "0.44191,</w>": 15,
  "-0.18987,</w>": 19,
  "0.20682,</w>": 24,
  "-0.29969,</w>": 15,
  "-0.24632,</w>": 21,
  "0.611": 163,
  "-0.86": 1726,
  "-0.0670": 157,
  "-0.10705,</w>": 23,
  "0.12543,</w>": 20,
  "2.6": 25,
  "0.33817,</w>": 19,
  "0.042": 587,
  "849,</w>": 1017,
  "484,</w>": 344,
  "0.34727,</w>": 13,
  "0.087": 138,
  "-0.22654,</w>": 17,
  "0.12034,</w>": 16,
  "-0.68": 672,
  "0.2586,</w>": 13,
  "-0.31574,</w>": 15,
  "-0.26604,</w>": 19,
  "0.933": 58,
  "-0.1403,</w>": 16,
  "0.184": 148,
  "0.41121,</w>": 14,
  "-0.20591,</w>": 18,
  "-0.18991,</w>": 20,
  "-0.639": 319,
  "0.1153,</w>": 16,
  "-0.16977,</w>": 21,
  "0.0694": 158,
  "-0.20179,</w>": 24,
  "-0.32447,</w>": 15,
  "0.13115,</w>": 20,
  "-0.19253,</w>": 27,
  "-0.10831,</w>": 21,
  "0.0": 551,
  "447,</w>": 448,
  "915,</w>": 324,
  "-0.31": 1209,
  "282,</w>": 663,
  "0.688": 95,
  "373,</w>": 421,
  "0.282": 259,
  "-0.1025,</w>": 19,
  "-0.1724,</w>": 24,
  "-0.685": 398,
  "493,</w>": 436,
  "-0.325": 478,
  "-0.31328,</w>": 15,
  "-0.115,</w>": 17,
  "0.14656,</w>": 23,
  "-0.0484": 149,
  "-0.17586,</w>": 17,
  "-0.694": 361,
  "0.521": 142,
  "0.16688,</w>": 17,
  "-0.23911,</w>": 19,
  "-0.197,</w>": 23,
  "0.26333,</w>": 17,
  "-0.14477,</w>": 14,
  "0.34923,</w>": 13,
  "0.20075,</w>": 19,
  "0.22728,</w>": 20,
  "-0.30973,</w>": 15,
  "-0.12316,</w>": 15,
  "-0.11509,</w>": 19,
  "-0.0230": 140,
  "0.30777,</w>": 18,
  "-0.11528,</w>": 27,
  "0.2603,</w>": 13,
  "0.595": 573,
  "0.524": 649,
  "-0.41573,</w>": 15,
  "-0.36249,</w>": 14,
  "0.406": 648,
  "-0.26656,</w>": 15,
  "0.19471,</w>": 17,
  "-0.3637,</w>": 17,
  "-0.21059,</w>": 16,
  "0.24576,</w>": 18,
  "0.14853,</w>": 20,
  "0.0026": 60,
  "0.45969,</w>": 14,
  "0.285": 265,
  "0.549": 271,
  "-0.15371,</w>": 17,
  "0.20182,</w>": 14,
  "0.47226,</w>": 13,
  "-0.0420": 176,
  "0.11282,</w>": 24,
  "0.42153,</w>": 23,
  "0.43591,</w>": 15,
  "0.14769,</w>": 22,
  "-0.13356,</w>": 23,
  "0.185": 200,
  "0.0545": 210,
  "0.1834,</w>": 22,
  "-0.323": 161,
  "-0.24179,</w>": 17,
  "-0.26889,</w>": 16,
  "0.593": 226,
  "-0.2123,</w>": 16,
  "-0.32139,</w>": 18,
  "-0.38234,</w>": 16,
  "0.19638,</w>": 21,
  "0.33789,</w>": 18,
  "0.0924": 142,
  "0.32175,</w>": 13,
  "0.2194,</w>": 24,
  "0.678": 437,
  "0.0506": 156,
  "-0.31306,</w>": 17,
  "-0.28523,</w>": 14,
  "0.119": 144,
  "0.45168,</w>": 16,
  "0.24553,</w>": 22,
  "-0.19113,</w>": 16,
  "-0.11375,</w>": 20,
  "0.25467,</w>": 19,
  "0.18122,</w>": 25,
  "974,</w>": 364,
  "0.13719,</w>": 23,
  "-0.0072": 23,
  "-0.735": 233,
  "0.1998,</w>": 22,
  "-0.18786,</w>": 20,
  "-0.41481,</w>": 13,
  "0.017": 155,
  "972,</w>": 379,
  "0.303": 116,
  "-0.17774,</w>": 20,
  "-0.114,</w>": 21,
  "0.20763,</w>": 15,
  "0.36914,</w>": 20,
  "-0.30807,</w>": 14,
  "0.0380": 182,
  "0.10934,</w>": 16,
  "-0.34798,</w>": 16,
  "-0.31272,</w>": 15,
  "0.26092,</w>": 15,
  "356,</w>": 903,
  "-0.38237,</w>": 18,
  "0.27889,</w>": 19,
  "0.41318,</w>": 16,
  "-0.11121,</w>": 13,
  "0.626": 510,
  "-0.88": 298,
  "-0.15964,</w>": 18,
  "-0.29032,</w>": 17,
  "-0.16796,</w>": 17,
  "0.11013,</w>": 18,
  "996,</w>": 607,
  "-0.524": 635,
  "-0.28171,</w>": 17,
  "989,</w>": 366,
  "0.20176,</w>": 16,
  "-0.11617,</w>": 14,
  "0.306": 427,
  "0.20995,</w>": 17,
  "0.27807,</w>": 19,
  "-0.11095,</w>": 22,
  "0.2504,</w>": 20,
  "-0.16142,</w>": 20,
  "-0.36741,</w>": 17,
  "0.13231,</w>": 21,
  "-0.14018,</w>": 17,
  "-0.2659,</w>": 14,
  "0.465": 531,
  "0.176": 199,
  "0.746": 276,
  "0.10228,</w>": 25,
  "-0.37906,</w>": 27,
  "0.27329,</w>": 21,
  "-0.39408,</w>": 20,
  "-0.16812,</w>": 14,
  "-0.369": 236,
  "-0.41084,</w>": 18,
  "0.11114,</w>": 22,
  "0.2357,</w>": 17,
  "0.10891,</w>": 22,
  "-0.43797,</w>": 14,
  "1.5": 859,
  "0.27184,</w>": 13,
  "0.27573,</w>": 17,
  "0.34388,</w>": 19,
  "-0.068": 243,
  "0.21999,</w>": 17,
  "0.47082,</w>": 13,
  "0.24376,</w>": 22,
  "-0.13082,</w>": 17,
  "-0.41553,</w>": 13,
  "-0.67": 411,
  "0.4768,</w>": 15,
  "0.13512,</w>": 20,
  "-0.2388,</w>": 18,
  "0.14962,</w>": 17,
  "624,</w>": 187,
  "0.15152,</w>": 24,
  "-0.28528,</w>": 17,
  "-0.40881,</w>": 20,
  "-0.14091,</w>": 17,
  "-0.0474": 150,
  "-0.619": 485,
  "994,</w>": 651,
  "-0.13265,</w>": 17,
  "-0.23404,</w>": 22,
  "0.28846,</w>": 16,
  "0.37001,</w>": 13,
  "0.436": 614,
  "026,</w>": 328,
  "645,</w>": 168,
  "-0.27208,</w>": 15,
  "0.35714,</w>": 15,
  "0.11376,</w>": 24,
  "-0.14772,</w>": 16,
  "092,</w>": 421,
  "0.12199,</w>": 21,
  "0.27292,</w>": 13,
  "-0.15812,</w>": 19,
  "-0.33209,</w>": 15,
  "0.25711,</w>": 17,
  "-0.17972,</w>": 15,
  "0.38133,</w>": 16,
  "-0.29656,</w>": 18,
  "-0.18067,</w>": 30,
  "0.0566": 176,
  "-0.10972,</w>": 18,
  "0.22224,</w>": 26,
  "0.14124,</w>": 17,
  "-0.38076,</w>": 16,
  "0.36401,</w>": 22,
  "0.36981,</w>": 13,
  "897,</w>": 1062,
  "0.20272,</w>": 13,
  "0.36221,</w>": 14,
  "0.0335": 137,
  "242,</w>": 786,
  "-0.1033,</w>": 18,
  "0.0649": 60,
  "0.20277,</w>": 13,
  "0.2766,</w>": 23,
  "0.204": 129,
  "3,</w>": 1035,
  "-0.22754,</w>": 23,
  "-0.0922": 187,
  "-0.1338,</w>": 18,
  "-0.12269,</w>": 21,
  "-0.16021,</w>": 26,
  "0.11778,</w>": 21,
  "-0.0675": 167,
  "-0.313": 404,
  "0.16449,</w>": 21,
  "0.33331,</w>": 18,
  "207,</w>": 757,
  "0.581": 603,
  "-0.643": 210,
  "-0.10844,</w>": 21,
  "-0.61961,</w>": 16,
  "0.44079,</w>": 16,
  "0.40562,</w>": 18,
  "-0.32657,</w>": 18,
  "0.20551,</w>": 24,
  "0.25629,</w>": 16,
  "0.20002,</w>": 19,
  "0.28019,</w>": 22,
  "-0.18867,</w>": 20,
  "0.22336,</w>": 15,
  "375,</w>": 328,
  "-0.35524,</w>": 16,
  "0.14696,</w>": 18,
  "0.14802,</w>": 17,
  "0.24956,</w>": 15,
  "826,</w>": 1075,
  "0.18282,</w>": 26,
  "-0.39102,</w>": 17,
  "-0.15518,</w>": 26,
  "-0.672": 405,
  "-0.2496,</w>": 19,
  "0.12089,</w>": 18,
  "0.36506,</w>": 16,
  "0.19042,</w>": 19,
  "-0.10456,</w>": 18,
  "-0.0976": 131,
  "-0.29236,</w>": 14,
  "0.0282": 133,
  "881,</w>": 992,
  "0.41286,</w>": 15,
  "-0.36422,</w>": 14,
  "0.14303,</w>": 27,
  "-0.18598,</w>": 13,
  "-0.28759,</w>": 23,
  "-0.36629,</w>": 21,
  "0.35105,</w>": 19,
  "0.23792,</w>": 15,
  "0.30915,</w>": 19,
  "-0.15417,</w>": 23,
  "0.15108,</w>": 13,
  "0.10165,</w>": 15,
  "0.31778,</w>": 17,
  "-0.25456,</w>": 22,
  "-0.30951,</w>": 15,
  "0.135": 104,
  "-0.15873,</w>": 22,
  "0.19496,</w>": 25,
  "0.2173,</w>": 16,
  "0.13774,</w>": 24,
  "-0.10415,</w>": 27,
  "-0.24211,</w>": 18,
  "-0.1015,</w>": 22,
  "-0.21595,</w>": 15,
  "-0.23387,</w>": 28,
  "0.11745,</w>": 30,
  "-0.16221,</w>": 21,
  "0.34121,</w>": 14,
  "-0.1798,</w>": 17,
  "0.35401,</w>": 19,
  "-0.1092,</w>": 28,
  "-0.23419,</w>": 17,
  "-0.16091,</w>": 14,
  "0.1024,</w>": 13,
  "-0.15596,</w>": 15,
  "0.4652,</w>": 13,
  "-0.33322,</w>": 14,
  "0.32323,</w>": 14,
  "-0.30418,</w>": 17,
  "0.1126,</w>": 27,
  "-0.24415,</w>": 15,
  "-0.33432,</w>": 14,
  "0.3424,</w>": 13,
  "-0.17095,</w>": 18,
  "0.051": 401,
  "0.45465,</w>": 14,
  "0.26129,</w>": 23,
  "1.0396,</w>": 13,
  "-0.10256,</w>": 20,
  "-0.41395,</w>": 19,
  "0.24559,</w>": 17,
  "-0.28381,</w>": 13,
  "-0.1787,</w>": 19,
  "-0.0271": 121,
  "0.10711,</w>": 22,
  "-0.1357,</w>": 19,
  "0.18047,</w>": 15,
  "0.21724,</w>": 13,
  "-0.11313,</w>": 23,
  "-0.20135,</w>": 15,
  "-0.006": 204,
  "0.15843,</w>": 21,
  "-0.26722,</w>": 19,
  "0.578": 594,
  "-0.22335,</w>": 20,
  "0.17597,</w>": 20,
  "-0.48894,</w>": 15,
  "-0.20757,</w>": 22,
  "-0.12981,</w>": 19,
  "471,</w>": 333,
  "-0.23861,</w>": 18,
  "-0.18473,</w>": 20,
  "-0.3393,</w>": 16,
  "309,</w>": 808,
  "0.26742,</w>": 13,
  "0.672": 466,
  "0.0878": 131,
  "0.12241,</w>": 24,
  "-0.12099,</w>": 16,
  "-0.17459,</w>": 14,
  "0.39869,</w>": 13,
  "-0.35029,</w>": 15,
  "0.585": 611,
  "0.19351,</w>": 15,
  "0.0013": 48,
  "-0.10511,</w>": 17,
  "-0.43516,</w>": 15,
  "-0.26261,</w>": 16,
  "-0.0515": 134,
  "0.2687,</w>": 21,
  "0.12403,</w>": 21,
  "-0.38273,</w>": 13,
  "0.18689,</w>": 19,
  "-0.221": 45,
  "0.1705,</w>": 14,
  "-0.24844,</w>": 14,
  "-0.12323,</w>": 22,
  "-0.13789,</w>": 18,
  "-0.19014,</w>": 14,
  "0.47582,</w>": 14,
  "-0.31446,</w>": 23,
  "0.976": 99,
  "-0.530": 662,
  "-0.18381,</w>": 18,
  "-0.18811,</w>": 19,
  "0.17707,</w>": 19,
  "0.28539,</w>": 18,
  "-0.042": 614,
  "-0.15771,</w>": 24,
  "-0.0646": 146,
  "-0.49908,</w>": 13,
  "296,</w>": 782,
  "0.31553,</w>": 13,
  "-0.25753,</w>": 20,
  "0.13884,</w>": 17,
  "0.10403,</w>": 25,
  "-0.15466,</w>": 21,
  "-0.282": 341,
  "-0.21216,</w>": 27,
  "0.13189,</w>": 13,
  "-0.29124,</w>": 14,
  "0.16283,</w>": 18,
  "-0.29116,</w>": 18,
  "0.0529": 109,
  "-0.44462,</w>": 13,
  "-0.16522,</w>": 17,
  "0.26855,</w>": 23,
  "-0.46959,</w>": 14,
  "0.0424": 167,
  "0.0603": 66,
  "-0.42049,</w>": 18,
  "0.13505,</w>": 24,
  "-0.13639,</w>": 19,
  "-0.15631,</w>": 18,
  "0.37171,</w>": 14,
  "0.25586,</w>": 16,
  "-0.0613": 166,
  "-0.32502,</w>": 13,
  "0.18703,</w>": 14,
  "-0.19403,</w>": 22,
  "0.10697,</w>": 18,
  "0.22345,</w>": 20,
  "-0.25571,</w>": 23,
  "0.36059,</w>": 23,
  "0.20647,</w>": 13,
  "-0.34467,</w>": 23,
  "-0.25786,</w>": 20,
  "-0.15711,</w>": 25,
  "0.13742,</w>": 23,
  "-0.15331,</w>": 20,
  "-0.21097,</w>": 22,
  "-0.21055,</w>": 18,
  "-0.0382": 110,
  "-0.27727,</w>": 21,
  "0.10088,</w>": 18,
  "-0.34081,</w>": 14,
  "-0.20936,</w>": 16,
  "-0.32038,</w>": 15,
  "0.17793,</w>": 17,
  "0.21492,</w>": 17,
  "0.18477,</w>": 16,
  "-0.20251,</w>": 17,
  "-0.13487,</w>": 20,
  "0.36254,</w>": 13,
  "-0.42225,</w>": 14,
  "-0.29827,</w>": 19,
  "-0.34243,</w>": 14,
  "0.42679,</w>": 14,
  "-0.28998,</w>": 15,
  "-0.33333,</w>": 14,
  "-0.35017,</w>": 17,
  "-0.15619,</w>": 18,
  "-0.260": 101,
  "-0.31747,</w>": 16,
  "-0.27748,</w>": 19,
  "-0.919": 138,
  "-0.22645,</w>": 21,
  "-0.42929,</w>": 15,
  "0.20596,</w>": 13,
  "-0.0335": 178,
  "0.39832,</w>": 15,
  "-0.058": 244,
  "0.2602,</w>": 18,
  "-0.15884,</w>": 15,
  "0.24484,</w>": 16,
  "-0.2402,</w>": 19,
  "-0.39166,</w>": 13,
  "-0.41591,</w>": 15,
  "-0.18064,</w>": 20,
  "0.24257,</w>": 14,
  "0.16489,</w>": 26,
  "0.30916,</w>": 16,
  "-0.18773,</w>": 17,
  "669,</w>": 305,
  "-0.30113,</w>": 15,
  "-0.0978": 137,
  "0.0294": 163,
  "-0.21639,</w>": 18,
  "0.14606,</w>": 24,
  "-0.14995,</w>": 18,
  "0.34746,</w>": 16,
  "-0.38243,</w>": 14,
  "-0.11574,</w>": 14,
  "-0.22083,</w>": 16,
  "-0.13354,</w>": 15,
  "0.15081,</w>": 18,
  "152,</w>": 956,
  "0.21886,</w>": 16,
  "-0.2531,</w>": 13,
  "0.22614,</w>": 14,
  "0.41869,</w>": 13,
  "0.23991,</w>": 14,
  "-0.44814,</w>": 16,
  "0.17484,</w>": 15,
  "0.17319,</w>": 16,
  "0.14164,</w>": 17,
  "-0.29463,</w>": 16,
  "0.10051,</w>": 28,
  "-0.28321,</w>": 19,
  "-0.26878,</w>": 22,
  "-0.25986,</w>": 19,
  "-0.28658,</w>": 17,
  "-0.57": 567,
  "-0.12638,</w>": 22,
  "0.39857,</w>": 14,
  "-0.16428,</w>": 16,
  "244,</w>": 666,
  "-0.23686,</w>": 19,
  "0.47644,</w>": 13,
  "0.10974,</w>": 25,
  "0.19986,</w>": 14,
  "-0.27222,</w>": 21,
  "0.11025,</w>": 24,
  "-0.12939,</w>": 22,
  "0.18226,</w>": 22,
  "-0.0056": 42,
  "0.40858,</w>": 15,
  "-0.1822,</w>": 18,
  "0.17534,</w>": 21,
  "-0.116": 133,
  "0.15903,</w>": 25,
  "0.13096,</w>": 23,
  "-0.19061,</w>": 16,
  "0.34662,</w>": 19,
  "0.24908,</w>": 19,
  "0.16379,</w>": 15,
  "-0.15569,</w>": 25,
  "-0.18873,</w>": 17,
  "-0.46598,</w>": 14,
  "666,</w>": 295,
  "0.0985": 130,
  "-0.545": 622,
  "0.30445,</w>": 16,
  "0.2147,</w>": 23,
  "-0.1512,</w>": 15,
  "0.29834,</w>": 26,
  "0.20022,</w>": 17,
  "-0.0506": 123,
  "0.0916": 144,
  "0.28571,</w>": 21,
  "0.10389,</w>": 20,
  "-0.12553,</w>": 13,
  "-0.423,</w>": 13,
  "0.0110": 147,
  "0.1073,</w>": 15,
  "-0.17771,</w>": 17,
  "-0.31662,</w>": 16,
  "0.18466,</w>": 18,
  "0.20389,</w>": 18,
  "0.116": 116,
  "-0.39016,</w>": 16,
  "0.26902,</w>": 17,
  "0.23801,</w>": 16,
  "0.19894,</w>": 17,
  "-0.0930": 158,
  "0.15242,</w>": 21,
  "0.29923,</w>": 18,
  "-0.40526,</w>": 13,
  "928,</w>": 335,
  "0.17306,</w>": 19,
  "-0.203": 75,
  "0.30914,</w>": 14,
  "0.259": 90,
  "-0.11836,</w>": 25,
  "-0.36704,</w>": 15,
  "-0.20902,</w>": 17,
  "-0.21255,</w>": 18,
  "0.15967,</w>": 24,
  "0.17348,</w>": 13,
  "0.31374,</w>": 18,
  "0.10931,</w>": 14,
  "-0.33768,</w>": 17,
  "315,</w>": 327,
  "0.46894,</w>": 19,
  "0.43322,</w>": 14,
  "-0.38602,</w>": 13,
  "0.25726,</w>": 18,
  "0.12669,</w>": 22,
  "0.0030": 41,
  "0.12175,</w>": 17,
  "-0.21294,</w>": 17,
  "-0.22124,</w>": 22,
  "0.38422,</w>": 16,
  "0.40001,</w>": 13,
  "-0.27206,</w>": 19,
  "-0.36294,</w>": 15,
  "0.0413": 178,
  "0.18605,</w>": 17,
  "-0.0983": 108,
  "501,</w>": 207,
  "0.21": 588,
  "-0.34872,</w>": 17,
  "0.10985,</w>": 27,
  "704,</w>": 1168,
  "-0.20564,</w>": 20,
  "-0.21688,</w>": 21,
  "-0.33047,</w>": 14,
  "-0.28397,</w>": 16,
  "0.18359,</w>": 16,
  "0.430": 685,
  "-0.24629,</w>": 17,
  "0.44948,</w>": 15,
  "-0.2789,</w>": 23,
  "0.20782,</w>": 22,
  "-0.26213,</w>": 13,
  "-0.414": 635,
  "007,</w>": 465,
  "-0.16576,</w>": 21,
  "0.11062,</w>": 25,
  "1.19": 496,
  "-0.11018,</w>": 14,
  "0.15263,</w>": 14,
  "-0.23535,</w>": 25,
  "0.34789,</w>": 17,
  "721,</w>": 1176,
  "-0.0576": 132,
  "-0.430": 707,
  "0.44878,</w>": 13,
  "0.18714,</w>": 21,
  "-0.27663,</w>": 23,
  "756,</w>": 1156,
  "0.21271,</w>": 18,
  "0.35853,</w>": 19,
  "0.28475,</w>": 21,
  "0.370": 492,
  "0.31134,</w>": 21,
  "-0.24655,</w>": 13,
  "-0.13641,</w>": 15,
  "281,</w>": 733,
  "-0.13407,</w>": 22,
  "-0.10063,</w>": 21,
  "-0.38793,</w>": 15,
  "0.97": 109,
  "395,</w>": 848,
  "-0.0980": 107,
  "-0.10301,</w>": 22,
  "-0.17885,</w>": 21,
  "368,</w>": 764,
  "-0.18325,</w>": 18,
  "0.27608,</w>": 20,
  "0.0485": 133,
  "0.14677,</w>": 18,
  "0.24453,</w>": 17,
  "-0.12397,</w>": 13,
  "0.3914,</w>": 14,
  "0.281": 273,
  "0.26042,</w>": 22,
  "-0.35671,</w>": 13,
  "0.4788,</w>": 13,
  "0.16386,</w>": 22,
  "261,</w>": 732,
  "-0.36003,</w>": 15,
  "-0.4844,</w>": 13,
  "-0.27368,</w>": 23,
  "-0.39179,</w>": 13,
  "205,</w>": 738,
  "0.21055,</w>": 23,
  "0.22581,</w>": 19,
  "-0.38106,</w>": 17,
  "0.11297,</w>": 23,
  "-0.21073,</w>": 15,
  "-0.1542,</w>": 19,
  "-0.243,</w>": 16,
  "-0.38246,</w>": 15,
  "-0.21259,</w>": 24,
  "0.12093,</w>": 13,
  "0.283": 279,
  "-0.29065,</w>": 16,
  "0.33459,</w>": 23,
  "0.37894,</w>": 13,
  "-0.13678,</w>": 26,
  "-0.39391,</w>": 15,
  "-0.37887,</w>": 16,
  "-0.27013,</w>": 16,
  "613,</w>": 152,
  "-0.489": 660,
  "-0.39894,</w>": 17,
  "-0.10497,</w>": 22,
  "0.13418,</w>": 18,
  "-0.17336,</w>": 19,
  "-0.0695": 154,
  "214,</w>": 766,
  "0.14009,</w>": 20,
  "0.27095,</w>": 23,
  "0.27864,</w>": 17,
  "-0.2972,</w>": 18,
  "-0.11797,</w>": 16,
  "0.26947,</w>": 23,
  "-0.15614,</w>": 21,
  "-0.15243,</w>": 18,
  "632,</w>": 172,
  "-0.4313,</w>": 15,
  "0.15366,</w>": 21,
  "-0.235": 318,
  "0.0406": 150,
  "-0.16159,</w>": 16,
  "0.24223,</w>": 14,
  "-0.44669,</w>": 15,
  "-0.11971,</w>": 20,
  "-0.614": 547,
  "0.16627,</w>": 19,
  "-0.14131,</w>": 15,
  "0.12335,</w>": 16,
  "0.0973": 149,
  "-0.13635,</w>": 19,
  "0.0281": 144,
  "-0.1706,</w>": 22,
  "-0.0676": 152,
  "193,</w>": 978,
  "-0.32084,</w>": 15,
  "-0.706": 327,
  "0.28312,</w>": 18,
  "-0.15126,</w>": 23,
  "-0.2008,</w>": 15,
  "0.34807,</w>": 21,
  "551,</w>": 321,
  "-0.26246,</w>": 21,
  "-0.4066,</w>": 17,
  "456,</w>": 541,
  "926,</w>": 348,
  "-0.16898,</w>": 13,
  "-0.53113,</w>": 14,
  "855,</w>": 1056,
  "-0.40339,</w>": 15,
  "-0.29788,</w>": 17,
  "-0.27296,</w>": 13,
  "0.990": 95,
  "-0.29786,</w>": 13,
  "509,</w>": 220,
  "0.574": 623,
  "-0.27954,</w>": 13,
  "0.35843,</w>": 14,
  "-0.285": 313,
  "-0.23087,</w>": 14,
  "0.42169,</w>": 15,
  "0.36308,</w>": 17,
  "0.29409,</w>": 14,
  "-0.14322,</w>": 25,
  "0.15132,</w>": 20,
  "852,</w>": 1039,
  "-0.15673,</w>": 26,
  "-0.365": 455,
  "0.22601,</w>": 21,
  "0.28801,</w>": 16,
  "-0.0490": 152,
  "0.38071,</w>": 16,
  "0.28981,</w>": 13,
  "0.0115": 119,
  "-0.24011,</w>": 18,
  "-0.304": 313,
  "0.12563,</w>": 16,
  "0.12836,</w>": 16,
  "-0.49331,</w>": 13,
  "0.179": 126,
  "516,</w>": 190,
  "-0.29337,</w>": 17,
  "321,</w>": 352,
  "-0.19355,</w>": 18,
  "-0.29975,</w>": 15,
  "-0.25806,</w>": 17,
  "0.35586,</w>": 21,
  "0.3689,</w>": 13,
  "-0.40446,</w>": 14,
  "0.2694,</w>": 18,
  "-0.42522,</w>": 14,
  "0.50251,</w>": 14,
  "0.25363,</w>": 17,
  "0.35835,</w>": 15,
  "0.20739,</w>": 21,
  "-0.55746,</w>": 13,
  "-0.47": 642,
  "-0.14624,</w>": 16,
  "1.30": 312,
  "0.0549": 51,
  "-0.12813,</w>": 26,
  "0.47714,</w>": 13,
  "-0.22757,</w>": 17,
  "-0.29805,</w>": 18,
  "0.24732,</w>": 20,
  "-0.16811,</w>": 24,
  "0.21954,</w>": 18,
  "379,</w>": 378,
  "-0.24085,</w>": 18,
  "0.14279,</w>": 23,
  "-0.25545,</w>": 13,
  "0.18": 368,
  "0.25274,</w>": 15,
  "-0.675": 416,
  "0.30357,</w>": 13,
  "0.34275,</w>": 14,
  "0.2434,</w>": 20,
  "-0.13362,</w>": 23,
  "-0.21338,</w>": 16,
  "0.29452,</w>": 16,
  "-0.2137,</w>": 17,
  "0.36726,</w>": 24,
  "-0.10583,</w>": 21,
  "0.33594,</w>": 13,
  "-0.27682,</w>": 16,
  "0.18592,</w>": 18,
  "-0.14342,</w>": 14,
  "0.0422": 149,
  "-0.1345,</w>": 14,
  "0.12065,</w>": 24,
  "-0.870": 174,
  "-0.34831,</w>": 17,
  "-0.19922,</w>": 15,
  "-0.27263,</w>": 15,
  "-0.19415,</w>": 19,
  "0.39412,</w>": 14,
  "-0.223": 75,
  "0.13452,</w>": 22,
  "-0.1644,</w>": 17,
  "-0.2242,</w>": 16,
  "-0.12909,</w>": 21,
  "-0.312,</w>": 14,
  "054,</w>": 511,
  "0.16152,</w>": 24,
  "-0.005": 236,
  "86": 68,
  "-0.156,</w>": 22,
  "0.13797,</w>": 22,
  "0.11208,</w>": 22,
  "-0.3072,</w>": 16,
  "-0.19197,</w>": 17,
  "0.16235,</w>": 25,
  "0.26831,</w>": 15,
  "0.20414,</w>": 19,
  "-0.0982": 119,
  "0.0986": 162,
  "-0.44378,</w>": 14,
  "-0.19427,</w>": 20,
  "-0.23881,</w>": 18,
  "421,</w>": 341,
  "0.10298,</w>": 20,
  "-0.17764,</w>": 18,
  "0.15826,</w>": 18,
  "0.0384": 149,
  "0.0478": 153,
  "-0.44967,</w>": 13,
  "-0.1423,</w>": 15,
  "-0.34608,</w>": 14,
  "184,</w>": 720,
  "0.11331,</w>": 23,
  "0.028": 284,
  "-0.0496": 148,
  "-0.11641,</w>": 26,
  "1.25": 370,
  "-0.32569,</w>": 19,
  "-0.40437,</w>": 16,
  "-0.34312,</w>": 14,
  "0.11947,</w>": 22,
  "512,</w>": 202,
  "0.18873,</w>": 21,
  "0.0183": 192,
  "-0.11023,</w>": 23,
  "0.20843,</w>": 27,
  "0.31216,</w>": 19,
  "0.0925": 138,
  "0.37207,</w>": 18,
  "-0.1863,</w>": 19,
  "-0.14976,</w>": 17,
  "0.429": 379,
  "0.163": 37,
  "-0.11106,</w>": 18,
  "-0.16367,</w>": 17,
  "-0.31854,</w>": 13,
  "0.0974": 134,
  "-0.21838,</w>": 25,
  "-0.0990": 157,
  "0.21948,</w>": 17,
  "0.279": 346,
  "0.1474,</w>": 19,
  "0.15897,</w>": 15,
  "-0.33731,</w>": 14,
  "-0.2191,</w>": 18,
  "-0.0173": 148,
  "0.13862,</w>": 17,
  "-0.28553,</w>": 22,
  "0.205": 216,
  "-0.43667,</w>": 13,
  "0.29627,</w>": 16,
  "0.067": 149,
  "0.14997,</w>": 14,
  "-0.33814,</w>": 16,
  "0.2306,</w>": 14,
  "0.13254,</w>": 23,
  "1.35": 262,
  "-0.12109,</w>": 16,
  "0.32485,</w>": 17,
  "406,</w>": 403,
  "0.10687,</w>": 22,
  "-0.0970": 150,
  "0.0513": 177,
  "0.3033,</w>": 18,
  "-0.15848,</w>": 17,
  "0.22578,</w>": 14,
  "-0.18358,</w>": 18,
  "0.0515": 163,
  "0.31375,</w>": 13,
  "-0.28511,</w>": 14,
  "-0.20911,</w>": 14,
  "-0.24603,</w>": 17,
  "-0.43389,</w>": 15,
  "-0.14354,</w>": 28,
  "0.33104,</w>": 23,
  "-0.774": 236,
  "0.15055,</w>": 16,
  "0.018": 241,
  "0.51416,</w>": 13,
  "0.390": 602,
  "-0.14775,</w>": 16,
  "-0.46537,</w>": 15,
  "-0.28892,</w>": 18,
  "-0.28702,</w>": 16,
  "-0.786": 246,
  "0.21987,</w>": 13,
  "0.23957,</w>": 13,
  "0.2389,</w>": 14,
  "0.11709,</w>": 13,
  "-0.18796,</w>": 14,
  "-0.31004,</w>": 16,
  "0.33694,</w>": 16,
  "0.3713,</w>": 20,
  "0.093": 726,
  "-0.46428,</w>": 17,
  "0.052": 565,
  "0.12655,</w>": 17,
  "-0.1431,</w>": 25,
  "-0.10751,</w>": 13,
  "-0.1201,</w>": 21,
  "-0.13545,</w>": 19,
  "-0.25494,</w>": 16,
  "-0.14893,</w>": 16,
  "0.36655,</w>": 16,
  "-0.20965,</w>": 22,
  "-0.35084,</w>": 17,
  "-0.47291,</w>": 13,
  "0.31541,</w>": 14,
  "-0.19238,</w>": 13,
  "-0.400": 655,
  "0.12526,</w>": 17,
  "0.0971": 148,
  "-0.10354,</w>": 21,
  "-0.411": 167,
  "0.11876,</w>": 17,
  "0.543": 240,
  "0.33422,</w>": 13,
  "0.2162,</w>": 18,
  "-0.13744,</w>": 23,
  "-0.10773,</w>": 24,
  "-0.116,</w>": 13,
  "-0.28674,</w>": 15,
  "773,</w>": 1170,
  "0.13133,</w>": 23,
  "0.34139,</w>": 27,
  "0.52689,</w>": 16,
  "-0.26375,</w>": 19,
  "-0.018": 270,
  "-0.0629": 79,
  "0.16246,</w>": 17,
  "0.488": 160,
  "-0.25742,</w>": 17,
  "-0.91": 295,
  "0.1966,</w>": 21,
  "0.675": 493,
  "0.12588,</w>": 22,
  "-1.29": 121,
  "0.411": 146,
  "0.10907,</w>": 20,
  "0.36911,</w>": 14,
  "-0.35354,</w>": 15,
  "0.504": 498,
  "687,</w>": 172,
  "-0.14978,</w>": 19,
  "1.33": 142,
  "-0.14646,</w>": 17,
  "-0.18742,</w>": 16,
  "0.23384,</w>": 15,
  "-0.22079,</w>": 18,
  "0.14209,</w>": 17,
  "-0.38875,</w>": 14,
  "0.624": 515,
  "-0.0430": 140,
  "-0.1405,</w>": 22,
  "-0.0873": 155,
  "0.26025,</w>": 14,
  "0.18315,</w>": 15,
  "-0.3948,</w>": 16,
  "0.25191,</w>": 18,
  "0.15239,</w>": 22,
  "611,</w>": 165,
  "031,</w>": 409,
  "0.11417,</w>": 23,
  "0.13804,</w>": 15,
  "0.99": 528,
  "-0.434": 608,
  "-0.22052,</w>": 21,
  "-0.0694": 149,
  "-0.22087,</w>": 15,
  "-0.11603,</w>": 18,
  "0.21029,</w>": 17,
  "-0.376": 546,
  "-0.0656": 136,
  "0.11403,</w>": 20,
  "-0.472": 678,
  "0.4082,</w>": 13,
  "-0.0233": 71,
  "-0.36093,</w>": 14,
  "0.28925,</w>": 22,
  "0.25907,</w>": 18,
  "0.20004,</w>": 19,
  "0.14167,</w>": 23,
  "-0.0433": 68,
  "-0.17258,</w>": 19,
  "147,</w>": 969,
  "0.26755,</w>": 13,
  "-0.17498,</w>": 19,
  "-0.10978,</w>": 20,
  "0.11878,</w>": 25,
  "-0.11912,</w>": 22,
  "0.11199,</w>": 18,
  "0.11515,</w>": 16,
  "0.13784,</w>": 15,
  "-0.37365,</w>": 15,
  "0.31684,</w>": 18,
  "-0.22221,</w>": 15,
  "0.0094": 36,
  "-0.23512,</w>": 20,
  "0.20877,</w>": 18,
  "-0.36594,</w>": 15,
  "-0.19801,</w>": 21,
  "-0.43175,</w>": 15,
  "0.22803,</w>": 19,
  "-0.20011,</w>": 15,
  "0.1592,</w>": 16,
  "-0.27653,</w>": 17,
  "0.30648,</w>": 13,
  "0.21574,</w>": 17,
  "-0.12455,</w>": 22,
  "-0.11471,</w>": 15,
  "0.29235,</w>": 13,
  "-0.27627,</w>": 18,
  "0.1427,</w>": 15,
  "0.876": 167,
  "0.22292,</w>": 20,
  "-0.13668,</w>": 18,
  "0.13928,</w>": 15,
  "-0.13543,</w>": 23,
  "-0.46317,</w>": 13,
  "-0.231,</w>": 21,
  "0.14377,</w>": 13,
  "-0.15767,</w>": 23,
  "0.26873,</w>": 23,
  "0.24767,</w>": 15,
  "0.24199,</w>": 18,
  "-0.12111,</w>": 22,
  "-0.40109,</w>": 16,
  "0.25114,</w>": 19,
  "0.35073,</w>": 14,
  "-0.19648,</w>": 26,
  "-0.27999,</w>": 13,
  "684,</w>": 184,
  "0.35344,</w>": 14,
  "0.14479,</w>": 20,
  "-0.36172,</w>": 15,
  "-0.16122,</w>": 25,
  "-0.13308,</w>": 15,
  "-0.34845,</w>": 14,
  "0.21167,</w>": 20,
  "-0.38529,</w>": 15,
  "-0.17665,</w>": 32,
  "0.14412,</w>": 18,
  "0.40894,</w>": 13,
  "-0.0186": 153,
  "0.16607,</w>": 18,
  "-0.28714,</w>": 15,
  "-0.28679,</w>": 18,
  "0.40374,</w>": 15,
  "-0.390": 582,
  "0.35375,</w>": 17,
  "0.12035,</w>": 17,
  "-0.16071,</w>": 18,
  "-0.28337,</w>": 15,
  "0.0426": 164,
  "-0.30543,</w>": 19,
  "-0.19737,</w>": 16,
  "-0.18203,</w>": 20,
  "0.11912,</w>": 13,
  "0.0586": 160,
  "0.10283,</w>": 22,
  "-0.30155,</w>": 18,
  "-0.33827,</w>": 18,
  "0.34796,</w>": 18,
  "-0.29775,</w>": 21,
  "0.14422,</w>": 16,
  "0.44026,</w>": 14,
  "-0.123,</w>": 22,
  "0.17797,</w>": 22,
  "0.11558,</w>": 25,
  "0.18801,</w>": 17,
  "-0.30945,</w>": 13,
  "0.48821,</w>": 13,
  "0.40829,</w>": 13,
  "0.19013,</w>": 22,
  "-0.13821,</w>": 14,
  "0.333,</w>": 16,
  "0.30526,</w>": 20,
  "0.20618,</w>": 18,
  "0.17889,</w>": 15,
  "-0.11154,</w>": 16,
  "-0.12611,</w>": 15,
  "-0.20999,</w>": 24,
  "0.15576,</w>": 15,
  "0.27449,</w>": 22,
  "0.24097,</w>": 15,
  "0.11508,</w>": 14,
  "-0.0321": 28,
  "0.18049,</w>": 16,
  "0.13449,</w>": 21,
  "0.1724,</w>": 22,
  "0.18502,</w>": 17,
  "-0.15081,</w>": 15,
  "0.399": 347,
  "-0.30206,</w>": 17,
  "0.23819,</w>": 14,
  "-0.0236": 173,
  "014,</w>": 346,
  "163,</w>": 971,
  "-0.395": 580,
  "0.1731,</w>": 14,
  "0.58574,</w>": 14,
  "0.18828,</w>": 18,
  "0.13081,</w>": 28,
  "-0.0390": 142,
  "-0.24917,</w>": 14,
  "-0.16286,</w>": 17,
  "-0.009": 126,
  "80": 57,
  "-0.11815,</w>": 20,
  "-0.16429,</w>": 21,
  "-0.15484,</w>": 20,
  "-0.37619,</w>": 17,
  "0.24899,</w>": 25,
  "0.12833,</w>": 14,
  "0.24256,</w>": 18,
  "0.26005,</w>": 23,
  "651,</w>": 135,
  "-0.31346,</w>": 18,
  "088,</w>": 357,
  "0.1415,</w>": 19,
  "-0.24204,</w>": 17,
  "-0.39191,</w>": 14,
  "0.25604,</w>": 19,
  "-0.23051,</w>": 20,
  "-0.54815,</w>": 15,
  "0.17193,</w>": 19,
  "0.0336": 154,
  "0.396": 577,
  "0.24702,</w>": 16,
  "-0.14935,</w>": 24,
  "0.42653,</w>": 13,
  "-0.271": 306,
  "-0.21448,</w>": 20,
  "0.0575": 143,
  "-0.12724,</w>": 13,
  "-0.14651,</w>": 19,
  "-0.36591,</w>": 15,
  "271,</w>": 677,
  "0.41497,</w>": 13,
  "0.15695,</w>": 27,
  "682,</w>": 180,
  "0.15163,</w>": 19,
  "06": 25,
  "-0.11666,</w>": 32,
  "-0.21172,</w>": 21,
  "-0.19726,</w>": 19,
  "0.16371,</w>": 22,
  "0.10557,</w>": 21,
  "0.12384,</w>": 17,
  "-0.23964,</w>": 22,
  "0.25616,</w>": 19,
  "0.28623,</w>": 18,
  "0.0574": 148,
  "-0.0881": 156,
  "-0.29811,</w>": 16,
  "0.355": 581,
  "-0.21982,</w>": 16,
  "-0.19": 1126,
  "0.14134,</w>": 22,
  "0.22949,</w>": 15,
  "-0.27561,</w>": 13,
  "0.13077,</w>": 18,
  "-0.10151,</w>": 22,
  "-0.16479,</w>": 28,
  "-0.24528,</w>": 13,
  "0.21869,</w>": 20,
  "-0.45488,</w>": 18,
  "0.17054,</w>": 20,
  "0.716": 358,
  "-0.21712,</w>": 21,
  "-0.2484,</w>": 17,
  "-0.38438,</w>": 16,
  "0.193": 63,
  "-0.1105,</w>": 24,
  "-0.10447,</w>": 23,
  "-0.32604,</w>": 13,
  "-0.26355,</w>": 14,
  "-0.27133,</w>": 14,
  "-0.58": 1066,
  "0.535": 690,
  "-0.0594": 144,
  "0.22041,</w>": 18,
  "939,</w>": 594,
  "-0.11922,</w>": 23,
  "-0.0081": 24,
  "-0.15009,</w>": 21,
  "0.23581,</w>": 17,
  "1.80": 39,
  "-0.35952,</w>": 14,
  "-0.184": 188,
  "-0.11701,</w>": 26,
  "0.23265,</w>": 18,
  "0.0439": 76,
  "0.10135,</w>": 29,
  "-0.23,</w>": 20,
  "-0.20108,</w>": 17,
  "0.0522": 144,
  "-0.26037,</w>": 19,
  "-0.28167,</w>": 15,
  "0.16097,</w>": 22,
  "-0.19472,</w>": 19,
  "-0.28206,</w>": 20,
  "11": 40,
  "0.33396,</w>": 21,
  "0.20616,</w>": 23,
  "-0.15743,</w>": 20,
  "0.21538,</w>": 23,
  "-0.14836,</w>": 19,
  "-0.0636": 166,
  "-0.11784,</w>": 15,
  "-0.276": 314,
  "0.20948,</w>": 22,
  "-0.205": 147,
  "0.33448,</w>": 18,
  "0.15913,</w>": 16,
  "0.0025": 30,
  "0.18004,</w>": 14,
  "0.13472,</w>": 26,
  "-0.0974": 150,
  "-0.47428,</w>": 14,
  "0.12337,</w>": 17,
  "-0.12913,</w>": 24,
  "565,</w>": 290,
  "-0.24957,</w>": 22,
  "-0.40523,</w>": 14,
  "0.48403,</w>": 13,
  "0.23039,</w>": 20,
  "-0.19292,</w>": 24,
  "-0.35793,</w>": 18,
  "0.16": 1059,
  "0.31868,</w>": 15,
  "-0.36054,</w>": 15,
  "-0.15632,</w>": 22,
  "475,</w>": 342,
  "-0.377,</w>": 18,
  "0.20575,</w>": 13,
  "0.50543,</w>": 14,
  "0.0534": 150,
  "-0.25978,</w>": 23,
  "0.0975": 147,
  "0.32606,</w>": 19,
  "0.14354,</w>": 14,
  "0.46938,</w>": 16,
  "-0.17148,</w>": 17,
  "-0.17756,</w>": 22,
  "0.3483,</w>": 13,
  "0.18897,</w>": 20,
  "0.57208,</w>": 14,
  "-0.28336,</w>": 13,
  "-0.31996,</w>": 14,
  "-0.20404,</w>": 20,
  "-0.15724,</w>": 21,
  "-0.10097,</w>": 14,
  "-0.0655": 130,
  "0.0330": 156,
  "-0.31166,</w>": 21,
  "0.27559,</w>": 20,
  "0.10008,</w>": 23,
  "0.006": 197,
  "0.31473,</w>": 14,
  "-0.36004,</w>": 21,
  "-0.2171,</w>": 18,
  "-0.22632,</w>": 19,
  "0.14585,</w>": 14,
  "-0.1435,</w>": 21,
  "-0.21959,</w>": 15,
  "0.19011,</w>": 22,
  "0.46771,</w>": 15,
  "0.42026,</w>": 13,
  "-0.17396,</w>": 17,
  "-0.20679,</w>": 17,
  "0.30211,</w>": 16,
  "0.2431,</w>": 25,
  "-0.13379,</w>": 20,
  "-0.22238,</w>": 13,
  "0.37481,</w>": 15,
  "-0.24272,</w>": 14,
  "0.30578,</w>": 20,
  "0.14687,</w>": 21,
  "0.11666,</w>": 18,
  "-0.0294": 166,
  "-0.22512,</w>": 15,
  "0.13315,</w>": 16,
  "-0.28687,</w>": 15,
  "-0.600": 566,
  "0.19394,</w>": 25,
  "-0.0984": 145,
  "-0.40909,</w>": 13,
  "-0.10404,</w>": 28,
  "0.19169,</w>": 17,
  "0.38026,</w>": 13,
  "0.2595,</w>": 23,
  "367,</w>": 820,
  "-0.40743,</w>": 18,
  "0.684": 404,
  "-0.1677,</w>": 21,
  "-0.15037,</w>": 24,
  "0.14828,</w>": 20,
  "-0.28143,</w>": 13,
  "-0.25576,</w>": 13,
  "-0.1665,</w>": 25,
  "0.35106,</w>": 20,
  "0.0410": 140,
  "0.13495,</w>": 15,
  "0.10046,</w>": 21,
  "0.2814,</w>": 17,
  "-0.30018,</w>": 15,
  "0.2074,</w>": 25,
  "-0.18105,</w>": 21,
  "-0.11311,</w>": 19,
  "-0.2329,</w>": 25,
  "0.13482,</w>": 22,
  "-0.22448,</w>": 21,
  "-0.11799,</w>": 16,
  "0.23552,</w>": 14,
  "-0.12608,</w>": 24,
  "0.12557,</w>": 21,
  "-0.21536,</w>": 20,
  "0.12587,</w>": 13,
  "-0.939": 85,
  "0.34652,</w>": 16,
  "0.19897,</w>": 19,
  "0.17652,</w>": 13,
  "-0.38901,</w>": 14,
  "-0.24641,</w>": 19,
  "0.12699,</w>": 24,
  "0.24171,</w>": 15,
  "-0.249": 129,
  "0.13663,</w>": 33,
  "0.25364,</w>": 21,
  "-0.44631,</w>": 15,
  "-0.1072,</w>": 20,
  "0.28356,</w>": 14,
  "0.25355,</w>": 16,
  "0.36077,</w>": 17,
  "0.22595,</w>": 21,
  "0.26663,</w>": 18,
  "0.1958,</w>": 13,
  "-0.21102,</w>": 19,
  "0.46205,</w>": 13,
  "0.0289": 132,
  "0.20202,</w>": 13,
  "0.1217,</w>": 17,
  "-0.1758,</w>": 15,
  "-0.245": 323,
  "-0.29105,</w>": 18,
  "0.153,</w>": 20,
  "-0.1527,</w>": 25,
  "0.33011,</w>": 14,
  "-0.27052,</w>": 16,
  "0.24527,</w>": 13,
  "-0.55383,</w>": 15,
  "-1.1": 1064,
  "0.23658,</w>": 16,
  "0.0926": 162,
  "-0.24735,</w>": 18,
  "0.2301,</w>": 18,
  "-0.122": 125,
  "-0.2575,</w>": 17,
  "-0.16278,</w>": 21,
  "-0.18948,</w>": 24,
  "0.23016,</w>": 14,
  "0.11044,</w>": 20,
  "-0.48341,</w>": 14,
  "-0.24421,</w>": 15,
  "-0.11329,</w>": 18,
  "0.19768,</w>": 18,
  "0.14758,</w>": 14,
  "596,</w>": 225,
  "-0.16726,</w>": 21,
  "0.12729,</w>": 13,
  "0.3097,</w>": 13,
  "0.12688,</w>": 20,
  "808,</w>": 1058,
  "0.20057,</w>": 13,
  "0.2493,</w>": 21,
  "-0.46447,</w>": 16,
  "-0.38178,</w>": 15,
  "0.18398,</w>": 14,
  "-0.12377,</w>": 27,
  "-0.28023,</w>": 24,
  "-0.22348,</w>": 23,
  "-0.11058,</w>": 24,
  "-0.26895,</w>": 24,
  "-0.13358,</w>": 18,
  "0.21927,</w>": 13,
  "-0.46339,</w>": 14,
  "-0.17342,</w>": 22,
  "-0.46714,</w>": 13,
  "0.15438,</w>": 18,
  "0.44203,</w>": 17,
  "-0.0619": 132,
  "-0.17547,</w>": 16,
  "-0.1701,</w>": 21,
  "0.34289,</w>": 16,
  "0.28919,</w>": 17,
  "0.13184,</w>": 18,
  "-0.26536,</w>": 17,
  "0.23974,</w>": 19,
  "0.30871,</w>": 18,
  "0.10976,</w>": 20,
  "0.435": 724,
  "428,</w>": 333,
  "-0.33534,</w>": 15,
  "0.19587,</w>": 18,
  "-0.3715,</w>": 13,
  "-0.746": 256,
  "-0.19089,</w>": 19,
  "-0.2307,</w>": 25,
  "-0.0183": 153,
  "-0.0284": 173,
  "0.27891,</w>": 25,
  "-0.22275,</w>": 22,
  "0.25638,</w>": 26,
  "0.0319": 169,
  "0.19601,</w>": 16,
  "0.42737,</w>": 16,
  "-0.20698,</w>": 22,
  "-0.404": 479,
  "0.1011,</w>": 21,
  "0.25393,</w>": 25,
  "0.2753,</w>": 15,
  "0.27533,</w>": 19,
  "-0.19908,</w>": 16,
  "0.17387,</w>": 24,
  "-0.30025,</w>": 17,
  "-0.20477,</w>": 23,
  "-0.20203,</w>": 13,
  "-0.50297,</w>": 15,
  "391,</w>": 888,
  "0.14952,</w>": 24,
  "018,</w>": 381,
  "-0.29569,</w>": 17,
  "25": 45,
  "-0.565": 484,
  "-0.3212,</w>": 18,
  "0.22525,</w>": 16,
  "-0.24986,</w>": 24,
  "0.38695,</w>": 16,
  "-0.19407,</w>": 28,
  "0.0376": 138,
  "-0.26758,</w>": 18,
  "-0.41116,</w>": 14,
  "466,</w>": 583,
  "0.14315,</w>": 14,
  "-0.30094,</w>": 14,
  "-0.20945,</w>": 17,
  "0.16205,</w>": 19,
  "-0.15515,</w>": 18,
  "0.51966,</w>": 17,
  "-0.410": 624,
  "-0.13655,</w>": 27,
  "-0.14022,</w>": 17,
  "-0.43091,</w>": 13,
  "0.4342,</w>": 14,
  "-0.0643": 65,
  "0.14283,</w>": 22,
  "-0.22543,</w>": 21,
  "0.10338,</w>": 20,
  "-0.10323,</w>": 20,
  "-0.22458,</w>": 17,
  "0.31746,</w>": 16,
  "-0.10338,</w>": 15,
  "0.20488,</w>": 21,
  "0.12,</w>": 19,
  "-0.24804,</w>": 29,
  "-0.471": 699,
  "0.19544,</w>": 25,
  "0.15752,</w>": 26,
  "-0.0536": 128,
  "0.41288,</w>": 14,
  "483,</w>": 350,
  "923,</w>": 328,
  "-0.22841,</w>": 16,
  "0.19118,</w>": 26,
  "-0.12291,</w>": 15,
  "0.12518,</w>": 16,
  "-0.12883,</w>": 15,
  "-0.37425,</w>": 15,
  "-0.27913,</w>": 17,
  "0.26516,</w>": 16,
  "0.19021,</w>": 23,
  "0.16984,</w>": 13,
  "0.479": 668,
  "-0.0219": 140,
  "-0.25446,</w>": 17,
  "-0.0083": 38,
  "-0.17947,</w>": 26,
  "0.23632,</w>": 21,
  "-0.52059,</w>": 13,
  "276,</w>": 698,
  "-0.21286,</w>": 13,
  "0.619": 514,
  "0.11693,</w>": 15,
  "-0.21176,</w>": 22,
  "-0.12374,</w>": 17,
  "-0.11021,</w>": 15,
  "-0.31611,</w>": 15,
  "-0.3962,</w>": 14,
  "0.29601,</w>": 18,
  "0.20313,</w>": 21,
  "0.16731,</w>": 24,
  "0.47241,</w>": 13,
  "0.35265,</w>": 14,
  "0.1397,</w>": 17,
  "825,</w>": 1056,
  "-0.39489,</w>": 15,
  "943,</w>": 901,
  "846,</w>": 1011,
  "0.28178,</w>": 18,
  "0.11534,</w>": 17,
  "0.38179,</w>": 16,
  "0.12868,</w>": 16,
  "0.17615,</w>": 17,
  "-0.405": 713,
  "0.12364,</w>": 14,
  "0.10535,</w>": 18,
  "0.320": 479,
  "0.164": 63,
  "33": 61,
  "],</w>": 216,
  "-0.24214,</w>": 15,
  "-0.32554,</w>": 14,
  "0.483,</w>": 15,
  "0.3778,</w>": 18,
  "-0.14767,</w>": 18,
  "-0.705": 303,
  "0.44037,</w>": 13,
  "035,</w>": 431,
  "93": 21,
  "0.19947,</w>": 17,
  "-0.25815,</w>": 21,
  "0.462,</w>": 15,
  "-0.305": 363,
  "-0.13751,</w>": 20,
  "-0.13541,</w>": 21,
  "-0.23028,</w>": 19,
  "-0.16888,</w>": 14,
  "0.0514": 160,
  "-0.28293,</w>": 27,
  "-0.36464,</w>": 13,
  "0.36101,</w>": 14,
  "-0.11947,</w>": 20,
  "0.48944,</w>": 14,
  "0.16365,</w>": 22,
  "0.33814,</w>": 18,
  "0.25762,</w>": 18,
  "-0.290": 356,
  "0.23611,</w>": 13,
  "-0.28951,</w>": 21,
  "-0.31919,</w>": 17,
  "-0.31602,</w>": 18,
  "-0.12054,</w>": 18,
  "-0.779": 251,
  "0.4416,</w>": 16,
  "-0.0279": 153,
  "-0.31318,</w>": 18,
  "-0.26919,</w>": 25,
  "-1.22": 260,
  "-0.14811,</w>": 21,
  "-0.1508,</w>": 18,
  "0.0994": 132,
  "-0.26387,</w>": 15,
  "-0.25937,</w>": 16,
  "0.27701,</w>": 15,
  "-0.21799,</w>": 22,
  "-0.15459,</w>": 18,
  "0.2047,</w>": 23,
  "0.1383,</w>": 25,
  "-0.20036,</w>": 26,
  "-0.29715,</w>": 14,
  "323,</w>": 365,
  "0.10221,</w>": 21,
  "-0.21023,</w>": 20,
  "-0.57118,</w>": 13,
  "0.34696,</w>": 16,
  "0.1075,</w>": 15,
  "0.11": 277,
  "572,</w>": 210,
  "-0.21243,</w>": 17,
  "-0.30773,</w>": 26,
  "0.1412,</w>": 21,
  "0.14343,</w>": 15,
  "-0.31253,</w>": 19,
  "-0.1061,</w>": 18,
  "-0.33361,</w>": 14,
  "-0.36634,</w>": 14,
  "0.20159,</w>": 18,
  "-0.31628,</w>": 14,
  "0.32837,</w>": 16,
  "545,</w>": 214,
  "-0.32559,</w>": 19,
  "-0.582": 580,
  "-0.20688,</w>": 17,
  "-0.499": 376,
  "0.23829,</w>": 13,
  "-0.1331,</w>": 18,
  "0.636": 514,
  "0.923": 48,
  "0.20892,</w>": 19,
  "-0.0612": 138,
  "-0.13634,</w>": 25,
  "0.15841,</w>": 16,
  "0.50026,</w>": 15,
  "0.12981,</w>": 17,
  "-0.42211,</w>": 15,
  "322,</w>": 346,
  "0.27799,</w>": 17,
  "0.13435,</w>": 18,
  "-0.772": 265,
  "-0.21018,</w>": 17,
  "1.02,</w>": 21,
  "1.13": 600,
  "0.28609,</w>": 15,
  "0.0386": 136,
  "0.35732,</w>": 15,
  "0.24206,</w>": 17,
  "-0.18247,</w>": 17,
  "-0.27803,</w>": 19,
  "558,</w>": 275,
  "-0.19829,</w>": 13,
  "0.17769,</w>": 21,
  "0.22362,</w>": 16,
  "0.21802,</w>": 17,
  "-0.11611,</w>": 23,
  "0.22263,</w>": 17,
  "-0.15089,</w>": 17,
  "-0.2899,</w>": 14,
  "-0.40939,</w>": 19,
  "-0.19751,</w>": 21,
  "0.37536,</w>": 21,
  "-0.13073,</w>": 19,
  "0.11124,</w>": 17,
  "0.14205,</w>": 22,
  "-0.22264,</w>": 19,
  "-0.23937,</w>": 20,
  "-0.24235,</w>": 27,
  "-0.29477,</w>": 13,
  "-1.05": 757,
  "-0.13587,</w>": 19,
  "-0.27457,</w>": 13,
  "-0.28976,</w>": 14,
  "0.13347,</w>": 14,
  "0.37079,</w>": 19,
  "0.11285,</w>": 20,
  "0.37122,</w>": 17,
  "-0.18092,</w>": 16,
  "0.24568,</w>": 23,
  "-0.16806,</w>": 21,
  "-0.35626,</w>": 14,
  "0.35622,</w>": 13,
  "217,</w>": 768,
  "0.26788,</w>": 16,
  "-0.11": 197,
  "-0.14421,</w>": 26,
  "-0.13169,</w>": 17,
  "0.32124,</w>": 16,
  "0.32483,</w>": 14,
  "0.470": 694,
  "-0.13982,</w>": 21,
  "-0.23926,</w>": 14,
  "0.17949,</w>": 21,
  "-0.585": 570,
  "-0.19029,</w>": 14,
  "0.30292,</w>": 14,
  "883,</w>": 1030,
  "-0.16261,</w>": 20,
  "0.17523,</w>": 13,
  "-0.34721,</w>": 16,
  "-0.0185": 160,
  "-0.19205,</w>": 20,
  "0.736": 323,
  "0.22107,</w>": 13,
  "-0.0405": 138,
  "-0.30281,</w>": 16,
  "1.00": 568,
  "-0.25476,</w>": 15,
  "0.0699": 107,
  "-0.2166,</w>": 17,
  "0.30963,</w>": 20,
  "0.12642,</w>": 26,
  "0.28844,</w>": 14,
  "-0.12555,</w>": 15,
  "0.31694,</w>": 19,
  "0.17902,</w>": 13,
  "637,</w>": 162,
  "0.0599": 97,
  "-0.12445,</w>": 18,
  "0.20851,</w>": 17,
  "-0.54222,</w>": 14,
  "0.12473,</w>": 21,
  "388,</w>": 332,
  "-0.22374,</w>": 20,
  "-0.36096,</w>": 16,
  "-0.2478,</w>": 18,
  "0.28675,</w>": 15,
  "0.12382,</w>": 23,
  "0.29722,</w>": 21,
  "0.0912": 140,
  "-0.24172,</w>": 16,
  "0.17569,</w>": 15,
  "039,</w>": 428,
  "0.16242,</w>": 24,
  "-0.15851,</w>": 20,
  "-0.36627,</w>": 18,
  "0.36065,</w>": 15,
  "-0.13646,</w>": 27,
  "0.12402,</w>": 23,
  "0.18626,</w>": 18,
  "0.13583,</w>": 15,
  "0.43775,</w>": 14,
  "0.35875,</w>": 18,
  "-0.12261,</w>": 22,
  "-0.16289,</w>": 15,
  "-0.22237,</w>": 14,
  "314,</w>": 363,
  "-0.19555,</w>": 26,
  "0.19036,</w>": 16,
  "-0.36349,</w>": 15,
  "0.10664,</w>": 15,
  "0.14072,</w>": 22,
  "0.48054,</w>": 13,
  "-0.0212": 174,
  "0.11926,</w>": 16,
  "0.16009,</w>": 19,
  "-0.13237,</w>": 17,
  "-0.32747,</w>": 13,
  "0.17804,</w>": 16,
  "0.061": 377,
  "-0.14113,</w>": 18,
  "-0.27201,</w>": 13,
  "-0.22171,</w>": 16,
  "0.11137,</w>": 18,
  "0.18097,</w>": 25,
  "0.14218,</w>": 20,
  "-0.33273,</w>": 17,
  "-0.0094": 41,
  "0.109,</w>": 22,
  "-0.40391,</w>": 13,
  "-0.18003,</w>": 24,
  "-0.50348,</w>": 13,
  "0.21388,</w>": 15,
  "0.36021,</w>": 16,
  "0.24029,</w>": 22,
  "0.24924,</w>": 21,
  "-0.32588,</w>": 17,
  "0.39968,</w>": 13,
  "-0.609": 226,
  "-0.21872,</w>": 21,
  "-0.42872,</w>": 15,
  "-0.20533,</w>": 17,
  "0.3489,</w>": 23,
  "0.24886,</w>": 18,
  "0.34007,</w>": 17,
  "0.26494,</w>": 13,
  "-0.29127,</w>": 17,
  "0.339": 267,
  "-0.18983,</w>": 15,
  "-0.27613,</w>": 15,
  "341,</w>": 898,
  "0.615": 567,
  "-0.23328,</w>": 16,
  "-0.15599,</w>": 16,
  "-0.24201,</w>": 15,
  "-0.33967,</w>": 18,
  "-0.10576,</w>": 25,
  "-0.20146,</w>": 17,
  "-0.20211,</w>": 13,
  "-0.15894,</w>": 21,
  "-0.21891,</w>": 20,
  "0.16461,</w>": 17,
  "-0.11303,</w>": 17,
  "0.21722,</w>": 13,
  "0.14812,</w>": 18,
  "-0.20033,</w>": 15,
  "-0.15847,</w>": 24,
  "0.28444,</w>": 15,
  "0.1232,</w>": 28,
  "-0.44655,</w>": 16,
  "-0.38852,</w>": 15,
  "-0.10284,</w>": 27,
  "-0.18998,</w>": 23,
  "-0.15584,</w>": 24,
  "-0.23804,</w>": 18,
  "-0.16019,</w>": 17,
  "0.43798,</w>": 15,
  "-0.22622,</w>": 13,
  "-0.33473,</w>": 17,
  "0.14521,</w>": 16,
  "0.10772,</w>": 18,
  "0.13781,</w>": 19,
  "0.27754,</w>": 13,
  "-0.15732,</w>": 22,
  "0.40904,</w>": 13,
  "-0.16848,</w>": 17,
  "-0.12284,</w>": 19,
  "-0.0045": 34,
  "0.523": 269,
  "0.1847,</w>": 13,
  "0.90": 1577,
  "0.35901,</w>": 17,
  "0.2148,</w>": 21,
  "-0.12821,</w>": 16,
  "0.24951,</w>": 17,
  "0.047": 133,
  "-0.33821,</w>": 23,
  "0.37426,</w>": 13,
  "0.35998,</w>": 22,
  "-0.18722,</w>": 14,
  "-0.49917,</w>": 17,
  "0.11483,</w>": 18,
  "0.32118,</w>": 16,
  "0.13101,</w>": 18,
  "0.51832,</w>": 15,
  "0.0288": 37,
  "0.575": 614,
  "-0.21902,</w>": 14,
  "-0.37348,</w>": 17,
  "0.20293,</w>": 23,
  "-0.12174,</w>": 18,
  "-0.23435,</w>": 16,
  "0.38024,</w>": 14,
  "0.2508,</w>": 14,
  "-0.42856,</w>": 14,
  "0.25939,</w>": 14,
  "0.12281,</w>": 19,
  "0.15876,</w>": 13,
  "-0.0174": 128,
  "-0.20288,</w>": 22,
  "0.17375,</w>": 21,
  "454,</w>": 566,
  "-0.22795,</w>": 21,
  "0.2727,</w>": 13,
  "0.21195,</w>": 15,
  "0.12715,</w>": 29,
  "0.10222,</w>": 21,
  "0.18379,</w>": 21,
  "0.30083,</w>": 17,
  "-0.12823,</w>": 15,
  "0.43607,</w>": 14,
  "522,</w>": 228,
  "-0.0915": 138,
  "-0.038": 235,
  "0.10678,</w>": 23,
  "0.24882,</w>": 20,
  "0.15597,</w>": 17,
  "-0.17784,</w>": 16,
  "-0.315,</w>": 19,
  "-0.11631,</w>": 19,
  "0.2359,</w>": 15,
  "0.12807,</w>": 18,
  "-0.0379": 130,
  "0.34063,</w>": 19,
  "-0.27459,</w>": 14,
  "0.20094,</w>": 25,
  "-0.47086,</w>": 14,
  "0.39622,</w>": 16,
  "0.28785,</w>": 18,
  "0.483": 683,
  "0.28473,</w>": 16,
  "-0.16258,</w>": 14,
  "0.36143,</w>": 14,
  "0.10905,</w>": 19,
  "0.229": 120,
  "0.26223,</w>": 15,
  "-0.15127,</w>": 17,
  "0.16682,</w>": 24,
  "0.169": 47,
  "594,</w>": 204,
  "-0.16779,</w>": 19,
  "0.49316,</w>": 15,
  "-0.44981,</w>": 14,
  "-0.23984,</w>": 14,
  "0.590": 585,
  "0.41795,</w>": 14,
  "-0.23865,</w>": 15,
  "-0.96": 938,
  "0.17704,</w>": 13,
  "0.36098,</w>": 13,
  "0.37056,</w>": 17,
  "-0.16342,</w>": 17,
  "-0.15578,</w>": 17,
  "-0.0995": 164,
  "0.30891,</w>": 13,
  "-0.44324,</w>": 13,
  "0.2867,</w>": 16,
  "0.26218,</w>": 21,
  "0.419": 636,
  "0.18177,</w>": 19,
  "-0.27709,</w>": 13,
  "0.37388,</w>": 17,
  "0.13618,</w>": 26,
  "-0.16357,</w>": 22,
  "-0.33952,</w>": 20,
  "0.20604,</w>": 21,
  "-0.19575,</w>": 18,
  "-0.32656,</w>": 18,
  "-0.19245,</w>": 21,
  "-0.10594,</w>": 21,
  "948,</w>": 783,
  "0.15138,</w>": 23,
  "0.10331,</w>": 18,
  "0.43868,</w>": 14,
  "-0.13614,</w>": 23,
  "-0.35052,</w>": 18,
  "-0.3499,</w>": 16,
  "-0.0989": 145,
  "-0.2275,</w>": 21,
  "0.28617,</w>": 15,
  "-0.0410": 112,
  "0.20754,</w>": 23,
  "-0.21571,</w>": 21,
  "-0.15555,</w>": 14,
  "0.29488,</w>": 18,
  "0.26841,</w>": 15,
  "085,</w>": 352,
  "0.37443,</w>": 17,
  "0.31346,</w>": 14,
  "0.17815,</w>": 17,
  "-0.28097,</w>": 16,
  "0.18412,</w>": 19,
  "0.11916,</w>": 21,
  "-0.19294,</w>": 20,
  "0.28618,</w>": 16,
  "0.21807,</w>": 18,
  "0.41387,</w>": 14,
  "-0.13368,</w>": 22,
  "-0.11532,</w>": 20,
  "0.33558,</w>": 16,
  "0.36617,</w>": 18,
  "0.22505,</w>": 17,
  "0.13888,</w>": 17,
  "0.30744,</w>": 19,
  "0.30903,</w>": 20,
  "-0.32093,</w>": 14,
  "-0.19067,</w>": 13,
  "0.45986,</w>": 13,
  "-0.170": 146,
  "-0.31093,</w>": 15,
  "0.43513,</w>": 16,
  "-0.34839,</w>": 13,
  "-0.31818,</w>": 14,
  "0.11543,</w>": 23,
  "0.326": 456,
  "0.25628,</w>": 18,
  "-0.31691,</w>": 15,
  "0.2653,</w>": 17,
  "-0.18388,</w>": 18,
  "75": 85,
  "-0.0544": 127,
  "-0.11367,</w>": 17,
  "-0.3647,</w>": 15,
  "-0.16306,</w>": 14,
  "0.42307,</w>": 14,
  "-0.23672,</w>": 15,
  "-0.16657,</w>": 15,
  "1.0176,</w>": 13,
  "-0.0400": 163,
  "0.0280": 164,
  "-0.3144,</w>": 17,
  "-0.30862,</w>": 23,
  "-0.32247,</w>": 16,
  "0.18419,</w>": 18,
  "0.83": 2412,
  "0.17743,</w>": 20,
  "0.14666,</w>": 18,
  "-0.41287,</w>": 13,
  "-0.514": 673,
  "-0.18053,</w>": 19,
  "0.2968,</w>": 14,
  "-0.39151,</w>": 17,
  "0.0394": 148,
  "-0.15209,</w>": 25,
  "0.32589,</w>": 14,
  "0.18729,</w>": 24,
  "-0.16083,</w>": 24,
  "-0.23359,</w>": 15,
  "-0.26732,</w>": 14,
  "-0.3905,</w>": 13,
  "-0.18282,</w>": 24,
  "0.28282,</w>": 15,
  "0.42784,</w>": 23,
  "-0.38172,</w>": 15,
  "-0.5121,</w>": 14,
  "0.22813,</w>": 14,
  "-0.8": 304,
  "-0.0682": 151,
  "-0.24277,</w>": 18,
  "621,</w>": 195,
  "0.46845,</w>": 13,
  "-0.24261,</w>": 19,
  "-0.28057,</w>": 19,
  "-0.135,</w>": 22,
  "0.37232,</w>": 16,
  "-0.4204,</w>": 16,
  "-0.505": 728,
  "-0.18713,</w>": 21,
  "-0.15956,</w>": 22,
  "0.0182": 147,
  "0.40244,</w>": 15,
  "0.31071,</w>": 14,
  "0.4563,</w>": 16,
  "-0.218,</w>": 16,
  "0.1214,</w>": 21,
  "-0.39635,</w>": 17,
  "0.0480": 163,
  "0.33248,</w>": 14,
  "688,</w>": 185,
  "-0.634": 495,
  "0.19418,</w>": 20,
  "0.25649,</w>": 18,
  "-0.22704,</w>": 13,
  "-0.0080": 34,
  "-0.21165,</w>": 17,
  "0.15013,</w>": 20,
  "-0.15756,</w>": 19,
  "0.215": 161,
  "-0.0483": 161,
  "-0.18216,</w>": 20,
  "0.936": 140,
  "-0.51352,</w>": 14,
  "-0.142,</w>": 23,
  "0.23171,</w>": 14,
  "-0.14501,</w>": 17,
  "0.197,</w>": 16,
  "0.21344,</w>": 21,
  "0.0604": 98,
  "564,</w>": 323,
  "0.29842,</w>": 16,
  "-0.1628,</w>": 22,
  "-0.2302,</w>": 16,
  "-0.26176,</w>": 22,
  "0.23047,</w>": 19,
  "505,</w>": 206,
  "-0.42415,</w>": 15,
  "0.15598,</w>": 18,
  "0.17443,</w>": 19,
  "0.13289,</w>": 22,
  "-0.38696,</w>": 17,
  "0.27341,</w>": 15,
  "973,</w>": 356,
  "-0.17802,</w>": 22,
  "0.22857,</w>": 21,
  "0.36687,</w>": 19,
  "-0.24719,</w>": 14,
  "-0.33,</w>": 15,
  "-0.3564,</w>": 14,
  "0.10359,</w>": 20,
  "-0.23269,</w>": 18,
  "0.18002,</w>": 15,
  "0.38127,</w>": 18,
  "0.499": 410,
  "0.1517,</w>": 18,
  "-0.24709,</w>": 16,
  "0.0312": 133,
  "-0.11531,</w>": 20,
  "-0.16838,</w>": 23,
  "-0.4514,</w>": 14,
  "0.387,</w>": 13,
  "0.32416,</w>": 18,
  "-0.15641,</w>": 27,
  "0.17771,</w>": 23,
  "-0.12522,</w>": 18,
  "-0.15817,</w>": 19,
  "0.19717,</w>": 21,
  "508,</w>": 198,
  "-0.24459,</w>": 22,
  "0.17872,</w>": 16,
  "0.30991,</w>": 15,
  "-0.14115,</w>": 18,
  "-0.28058,</w>": 17,
  "-0.15611,</w>": 23,
  "0.4344,</w>": 15,
  "0.30234,</w>": 17,
  "-0.23673,</w>": 19,
  "-0.23533,</w>": 16,
  "-0.34476,</w>": 14,
  "0.29406,</w>": 20,
  "0.29021,</w>": 13,
  "0.23438,</w>": 17,
  "-0.10612,</w>": 19,
  "0.13213,</w>": 21,
  "-0.33845,</w>": 14,
  "-0.13355,</w>": 23,
  "-0.22914,</w>": 18,
  "0.30368,</w>": 14,
  "0.15437,</w>": 25,
  "-0.29803,</w>": 16,
  "-0.24988,</w>": 14,
  "0.3837,</w>": 19,
  "-0.16034,</w>": 13,
  "608,</w>": 175,
  "0.21207,</w>": 21,
  "0.49954,</w>": 13,
  "-0.27112,</w>": 14,
  "0.22033,</w>": 15,
  "-0.11599,</w>": 22,
  "-0.26383,</w>": 15,
  "0.275": 270,
  "0.19072,</w>": 20,
  "0.37891,</w>": 13,
  "0.756": 316,
  "-0.34744,</w>": 18,
  "-0.4989,</w>": 14,
  "-0.20724,</w>": 28,
  "-0.30268,</w>": 14,
  "-0.27746,</w>": 19,
  "0.28689,</w>": 13,
  "0.41635,</w>": 14,
  "0.91": 382,
  "-0.215": 140,
  "0.0672": 141,
  "0.18909,</w>": 19,
  "-0.28212,</w>": 21,
  "0.15207,</w>": 20,
  "0.41002,</w>": 14,
  "0.11189,</w>": 19,
  "-0.3267,</w>": 14,
  "0.18741,</w>": 15,
  "-0.44251,</w>": 13,
  "0.1874,</w>": 21,
  "0.21162,</w>": 13,
  "0.22149,</w>": 17,
  "478,</w>": 340,
  "0.19913,</w>": 14,
  "1.44": 115,
  "-0.24492,</w>": 18,
  "0.21266,</w>": 22,
  "-0.14581,</w>": 27,
  "0.16431,</w>": 13,
  "-0.11787,</w>": 24,
  "0.0686": 138,
  "172,</w>": 662,
  "-0.11607,</w>": 26,
  "-0.24718,</w>": 25,
  "0.18471,</w>": 22,
  "0.17521,</w>": 19,
  "-0.27301,</w>": 14,
  "0.0093": 19,
  "0.12441,</w>": 27,
  "-0.10131,</w>": 13,
  "-0.38188,</w>": 19,
  "0.2958,</w>": 19,
  "-0.33513,</w>": 14,
  "-0.17247,</w>": 22,
  "0.13631,</w>": 30,
  "-0.29702,</w>": 16,
  "-0.15347,</w>": 21,
  "-0.34336,</w>": 15,
  "-0.11083,</w>": 17,
  "0.1943,</w>": 20,
  "-0.28163,</w>": 14,
  "0.422": 633,
  "-0.19607,</w>": 23,
  "0.2887,</w>": 16,
  "0.20889,</w>": 18,
  "0.33143,</w>": 23,
  "0.10813,</w>": 14,
  "-0.562,</w>": 17,
  "-0.10953,</w>": 17,
  "-0.12711,</w>": 24,
  "0.37379,</w>": 13,
  "-0.3002,</w>": 17,
  "-0.20929,</w>": 15,
  "0.28607,</w>": 13,
  "0.31671,</w>": 14,
  "0.38664,</w>": 14,
  "-0.13351,</w>": 17,
  "-0.25482,</w>": 19,
  "-0.25748,</w>": 18,
  "-0.1444,</w>": 14,
  "-0.36936,</w>": 17,
  "0.0311": 45,
  "0.34118,</w>": 15,
  "-0.26288,</w>": 25,
  "0.3967,</w>": 17,
  "-0.12836,</w>": 15,
  "-0.4503,</w>": 13,
  "0.24162,</w>": 18,
  "-0.14481,</w>": 24,
  "0.19291,</w>": 15,
  "-0.16734,</w>": 20,
  "0.27911,</w>": 15,
  "-0.580": 627,
  "-0.31848,</w>": 18,
  "-0.18041,</w>": 19,
  "0.26028,</w>": 20,
  "0.14286,</w>": 18,
  "0.14845,</w>": 22,
  "0.19502,</w>": 17,
  "0.28867,</w>": 16,
  "-0.40991,</w>": 13,
  "0.15066,</w>": 16,
  "-0.1466,</w>": 21,
  "-0.26663,</w>": 16,
  "0.37198,</w>": 18,
  "-0.35824,</w>": 20,
  "0.34417,</w>": 13,
  "528,</w>": 210,
  "-0.11422,</w>": 25,
  "0.61943,</w>": 13,
  "-0.11432,</w>": 21,
  "0": 28,
  "0.22784,</w>": 19,
  "0.10323,</w>": 30,
  "0.665": 354,
  "0.32128,</w>": 18,
  "-0.10717,</w>": 16,
  "-0.027": 151,
  "-0.39305,</w>": 21,
  "0.3065,</w>": 16,
  "0.19309,</w>": 21,
  "-0.": 190,
  "-0.25423,</w>": 19,
  "0.98": 173,
  "-0.39727,</w>": 16,
  "0.15362,</w>": 33,
  "0.22158,</w>": 13,
  "0.22908,</w>": 14,
  "-0.33388,</w>": 13,
  "-0.14677,</w>": 15,
  "-0.18436,</w>": 16,
  "-0.36513,</w>": 13,
  "0.30484,</w>": 16,
  "0.11034,</w>": 19,
  "0.25424,</w>": 19,
  "0.18224,</w>": 19,
  "-0.27697,</w>": 14,
  "0.22985,</w>": 19,
  "0.23359,</w>": 24,
  "0.346": 517,
  "0.38853,</w>": 13,
  "-0.2903,</w>": 15,
  "-0.23361,</w>": 16,
  "-0.44796,</w>": 14,
  "0.12344,</w>": 22,
  "0.26825,</w>": 15,
  "0.31878,</w>": 14,
  "0.35943,</w>": 16,
  "0.13036,</w>": 19,
  "-0.11321,</w>": 22,
  "-0.1751,</w>": 14,
  "-0.22966,</w>": 22,
  "-0.19651,</w>": 19,
  "0.14041,</w>": 16,
  "0.47921,</w>": 17,
  "0.26515,</w>": 15,
  "-0.43217,</w>": 13,
  "-0.24169,</w>": 20,
  "0.22364,</w>": 21,
  "0.12274,</w>": 19,
  "-0.22854,</w>": 15,
  "-0.14219,</w>": 17,
  "-0.17886,</w>": 16,
  "0.19574,</w>": 18,
  "0.19406,</w>": 21,
  "-0.18621,</w>": 18,
  "-0.15799,</w>": 15,
  "0.14633,</w>": 26,
  "0.40991,</w>": 18,
  "-0.13173,</w>": 20,
  "-0.10549,</w>": 18,
  "0.0935": 146,
  "0.18599,</w>": 22,
  "-0.27638,</w>": 18,
  "0.3152,</w>": 18,
  "0.24421,</w>": 17,
  "-0.13057,</w>": 17,
  "-0.20226,</w>": 16,
  "-0.14958,</w>": 27,
  "-0.30165,</w>": 17,
  "0.16215,</w>": 15,
  "-0.15015,</w>": 22,
  "-0.17585,</w>": 15,
  "-0.20616,</w>": 21,
  "0.11439,</w>": 13,
  "0.29043,</w>": 16,
  "0.15525,</w>": 22,
  "-0.15245,</w>": 23,
  "0.17377,</w>": 15,
  "-0.14503,</w>": 19,
  "0.40486,</w>": 13,
  "0.10639,</w>": 20,
  "0.058": 273,
  "-0.3073,</w>": 17,
  "-0.26285,</w>": 22,
  "-0.30929,</w>": 19,
  "-0.13035,</w>": 24,
  "-0.42402,</w>": 15,
  "-0.15526,</w>": 16,
  "0.30695,</w>": 17,
  "0.15632,</w>": 17,
  "0.17764,</w>": 17,
  "0.0583": 131,
  "0.42823,</w>": 17,
  "-0.37925,</w>": 13,
  "0.30351,</w>": 24,
  "-0.43833,</w>": 15,
  "-0.16216,</w>": 22,
  "-0.2981,</w>": 16,
  "-0.32538,</w>": 17,
  "-0.41167,</w>": 16,
  "-0.14": 630,
  "-0.17599,</w>": 15,
  "-0.2833,</w>": 17,
  "0.1404,</w>": 21,
  "0.23071,</w>": 19,
  "0.32836,</w>": 14,
  "0.27249,</w>": 17,
  "0.3028,</w>": 17,
  "-0.0574": 118,
  "0.10199,</w>": 14,
  "0.19441,</w>": 22,
  "-0.22707,</w>": 19,
  "0.11929,</w>": 18,
  "0.149,</w>": 19,
  "-0.336": 422,
  "-0.14875,</w>": 25,
  "-0.16417,</w>": 18,
  "0.0930": 133,
  "0.105": 153,
  "0.23784,</w>": 24,
  "-0.29546,</w>": 19,
  "0.12687,</w>": 23,
  "-0.13686,</w>": 18,
  "0.24374,</w>": 23,
  "-0.16459,</w>": 19,
  "-0.17043,</w>": 16,
  "-0.17662,</w>": 20,
  "-0.14721,</w>": 25,
  "0.24058,</w>": 15,
  "-0.0314": 157,
  "0.17991,</w>": 18,
  "-0.0425": 149,
  "0.31267,</w>": 16,
  "-0.310": 367,
  "0.22206,</w>": 19,
  "0.22464,</w>": 16,
  "0.34531,</w>": 18,
  "-0.0446": 128,
  "-0.0435": 137,
  "-0.15766,</w>": 18,
  "0.25347,</w>": 14,
  "0.110": 58,
  "0.33254,</w>": 17,
  "0.20996,</w>": 22,
  "-0.25557,</w>": 14,
  "0.30514,</w>": 14,
  "0.29894,</w>": 18,
  "0.41721,</w>": 22,
  "0.25051,</w>": 14,
  "694,</w>": 166,
  "0.14117,</w>": 24,
  "-0.31772,</w>": 17,
  "0.12135,</w>": 17,
  "-0.19561,</w>": 19,
  "-0.19729,</w>": 19,
  "-0.19376,</w>": 24,
  "-0.38766,</w>": 17,
  "-0.27011,</w>": 17,
  "-0.13148,</w>": 18,
  "0.24991,</w>": 17,
  "-0.27348,</w>": 15,
  "-0.14653,</w>": 20,
  "-0.27076,</w>": 23,
  "0.18445,</w>": 18,
  "-0.23869,</w>": 16,
  "-0.0912": 127,
  "0.15105,</w>": 20,
  "-0.41373,</w>": 13,
  "0.0582": 156,
  "-0.22239,</w>": 16,
  "0.21518,</w>": 21,
  "-0.14217,</w>": 15,
  "0.2651,</w>": 13,
  "0.3883,</w>": 17,
  "-0.27485,</w>": 13,
  "-0.26435,</w>": 15,
  "-0.25955,</w>": 20,
  "0.13214,</w>": 16,
  "0.15929,</w>": 30,
  "-0.12468,</w>": 15,
  "-0.28539,</w>": 16,
  "-0.22327,</w>": 15,
  "-0.3285,</w>": 14,
  "0.10037,</w>": 20,
  "-0.29595,</w>": 20,
  "0.1702,</w>": 21,
  "0.0031": 15,
  "-0.18822,</w>": 21,
  "-0.19699,</w>": 18,
  "0.26646,</w>": 17,
  "096,</w>": 459,
  "0.18209,</w>": 18,
  "0.0581": 159,
  "0.22675,</w>": 18,
  "-0.19314,</w>": 14,
  "-0.19868,</w>": 17,
  "-0.3835,</w>": 15,
  "-0.13176,</w>": 13,
  "0.24526,</w>": 17,
  "0.17625,</w>": 21,
  "-0.57605,</w>": 13,
  "0.23058,</w>": 23,
  "0.16084,</w>": 21,
  "-0.21758,</w>": 20,
  "0.13485,</w>": 20,
  "0.0171": 149,
  "-0.16254,</w>": 17,
  "0.5177,</w>": 14,
  "0.0325": 152,
  "0.14866,</w>": 13,
  "-0.19764,</w>": 18,
  "-0.26279,</w>": 17,
  "-0.28563,</w>": 21,
  "0.16041,</w>": 28,
  "-0.13079,</w>": 23,
  "-0.20068,</w>": 13,
  "0.2151,</w>": 16,
  "0.22875,</w>": 18,
  "0.46433,</w>": 13,
  "0.31781,</w>": 17,
  "-0.31305,</w>": 14,
  "0.2806,</w>": 18,
  "1.06": 792,
  "0.11891,</w>": 18,
  "0.1864,</w>": 15,
  "-0.24896,</w>": 15,
  "-0.240": 142,
  "-0.144": 103,
  "0.13444,</w>": 24,
  "-0.38537,</w>": 13,
  "0.24354,</w>": 18,
  "0.33829,</w>": 20,
  "0.16996,</w>": 22,
  "0.10233,</w>": 20,
  "-0.20052,</w>": 18,
  "0.16043,</w>": 14,
  "-0.533": 336,
  "-0.10087,</w>": 18,
  "0.28186,</w>": 16,
  "-0.4549,</w>": 14,
  "0.12775,</w>": 21,
  "-0.12941,</w>": 16,
  "0.10452,</w>": 17,
  "0.24103,</w>": 17,
  "-0.18627,</w>": 21,
  "0.21709,</w>": 17,
  "-0.13,</w>": 24,
  "-0.27553,</w>": 14,
  "-0.37457,</w>": 15,
  "-0.4148,</w>": 15,
  "0.40331,</w>": 16,
  "-0.1786,</w>": 16,
  "0.10082,</w>": 22,
  "-0.111": 45,
  "0.32878,</w>": 15,
  "95": 49,
  "0.34607,</w>": 21,
  "0.14133,</w>": 18,
  "0.10549,</w>": 20,
  "-0.32693,</w>": 17,
  "-0.19349,</w>": 17,
  "-0.19335,</w>": 19,
  "-0.0679": 160,
  "0.43914,</w>": 14,
  "0.39201,</w>": 14,
  "-0.36572,</w>": 16,
  "-0.25379,</w>": 17,
  "-0.47406,</w>": 13,
  "0.42217,</w>": 15,
  "0.12207,</w>": 18,
  "0.32481,</w>": 18,
  "-0.32892,</w>": 18,
  "0.17957,</w>": 19,
  "0.33682,</w>": 21,
  "-0.19301,</w>": 18,
  "-0.24678,</w>": 20,
  "-0.25317,</w>": 14,
  "-0.21357,</w>": 18,
  "-0.35785,</w>": 19,
  "345,</w>": 869,
  "0.25055,</w>": 20,
  "0.23014,</w>": 23,
  "0.246": 232,
  "-0.13985,</w>": 28,
  "776,</w>": 1207,
  "099,</w>": 424,
  "977,</w>": 345,
  "0.17485,</w>": 20,
  "0.21684,</w>": 13,
  "0.20051,</w>": 22,
  "0.19129,</w>": 25,
  "072,</w>": 341,
  "0.10053,</w>": 14,
  "-0.3649,</w>": 13,
  "-0.0614": 148,
  "-0.354": 226,
  "-0.1232,</w>": 18,
  "0.15385,</w>": 21,
  "0.32125,</w>": 16,
  "0.32518,</w>": 15,
  "-0.16001,</w>": 24,
  "-0.12921,</w>": 20,
  "-0.5643,</w>": 13,
  "0.0646": 151,
  "0.20837,</w>": 19,
  "0.48186,</w>": 13,
  "-0.766": 241,
  "0.394": 551,
  "-0.0874": 132,
  "0.12136,</w>": 29,
  "-0.0520": 116,
  "0.17173,</w>": 21,
  "0.13321,</w>": 14,
  "-0.12279,</w>": 15,
  "0.24533,</w>": 21,
  "-0.26151,</w>": 18,
  "179,</w>": 739,
  "-0.128,</w>": 15,
  "0.17598,</w>": 22,
  "-0.21502,</w>": 13,
  "0.22358,</w>": 14,
  "0.14965,</w>": 17,
  "-0.303": 193,
  "-0.41294,</w>": 16,
  "1.019,</w>": 13,
  "-0.20471,</w>": 13,
  "0.28952,</w>": 13,
  "-0.23537,</w>": 22,
  "-0.20454,</w>": 15,
  "0.920": 145,
  "-0.490": 687,
  "0.50267,</w>": 13,
  "0.14169,</w>": 20,
  "0.30329,</w>": 13,
  "0.15872,</w>": 16,
  "0.19878,</w>": 23,
  "-0.17053,</w>": 29,
  "0.14989,</w>": 19,
  "-0.37666,</w>": 16,
  "0.31497,</w>": 14,
  "-0.19017,</w>": 17,
  "-0.21232,</w>": 19,
  "-0.45872,</w>": 16,
  "0.26736,</w>": 14,
  "-0.31121,</w>": 17,
  "0.41641,</w>": 15,
  "0.2204,</w>": 16,
  "0.30467,</w>": 19,
  "0.51635,</w>": 14,
  "-0.17702,</w>": 16,
  "-0.28": 683,
  "-0.32751,</w>": 17,
  "0.15182,</w>": 20,
  "-0.24777,</w>": 14,
  "-0.27086,</w>": 16,
  "-0.98": 109,
  "0.12003,</w>": 14,
  "0.2198,</w>": 19,
  "-0.37507,</w>": 15,
  "0.29953,</w>": 13,
  "0.12853,</w>": 15,
  "0.24445,</w>": 13,
  "-0.24468,</w>": 19,
  "0.10861,</w>": 23,
  "0.37476,</w>": 13,
  "0.19271,</w>": 17,
  "-0.37549,</w>": 14,
  "-0.20005,</w>": 19,
  "329,</w>": 368,
  "0.0544": 120,
  "-0.37431,</w>": 17,
  "0.29367,</w>": 13,
  "-0.42359,</w>": 19,
  "0.0015": 35,
  "-0.43288,</w>": 13,
  "0.11128,</w>": 27,
  "-0.13628,</w>": 18,
  "0.293": 191,
  "-0.40835,</w>": 14,
  "-0.0380": 153,
  "-0.28582,</w>": 15,
  "0.16982,</w>": 22,
  "-0.13753,</w>": 17,
  "0.4551,</w>": 14,
  "0.13003,</w>": 15,
  "0.17613,</w>": 15,
  "0.13402,</w>": 24,
  "-0.30502,</w>": 17,
  "-0.16147,</w>": 20,
  "0.39347,</w>": 13,
  "-0.0919": 169,
  "0.3091,</w>": 16,
  "0.4115,</w>": 19,
  "-0.18826,</w>": 24,
  "-0.21679,</w>": 19,
  "-0.26924,</w>": 13,
  "-0.12707,</w>": 22,
  "0.15865,</w>": 15,
  "0.305": 316,
  "0.36584,</w>": 16,
  "664,</w>": 331,
  "0.11108,</w>": 14,
  "0.520": 668,
  "-0.11686,</w>": 20,
  "0.14102,</w>": 17,
  "-0.0334": 170,
  "-0.34246,</w>": 13,
  "-0.19198,</w>": 19,
  "0.28591,</w>": 22,
  "-0.43535,</w>": 14,
  "0.33701,</w>": 17,
  "-0.2461,</w>": 20,
  "0.12324,</w>": 19,
  "-0.15582,</w>": 16,
  "0.0310": 171,
  "-0.27108,</w>": 16,
  "0.21827,</w>": 19,
  "-0.35282,</w>": 14,
  "0.20165,</w>": 15,
  "073,</w>": 338,
  "-0.37503,</w>": 16,
  "0.225": 220,
  "0.28275,</w>": 18,
  "0.24635,</w>": 21,
  "-0.36286,</w>": 17,
  "-0.27": 293,
  "0.0326": 122,
  "-0.13101,</w>": 20,
  "0.33151,</w>": 21,
  "-0.25607,</w>": 20,
  "-0.1206,</w>": 18,
  "0.4932,</w>": 17,
  "-0.2645,</w>": 15,
  "-0.31489,</w>": 18,
  "-0.30881,</w>": 18,
  "0.24522,</w>": 16,
  "-0.24246,</w>": 16,
  "-0.18479,</w>": 24,
  "-0.278": 318,
  "0.12186,</w>": 18,
  "0.0675": 142,
  "0.18657,</w>": 16,
  "0.2729,</w>": 21,
  "-0.30398,</w>": 17,
  "0.24975,</w>": 20,
  "-0.0923": 66,
  "0.0495": 120,
  "-0.18828,</w>": 21,
  "-0.37185,</w>": 18,
  "0.25309,</w>": 18,
  "-0.19216,</w>": 24,
  "-0.28393,</w>": 16,
  "0.16175,</w>": 15,
  "0.10098,</w>": 23,
  "-0.12152,</w>": 17,
  "-0.31838,</w>": 16,
  "-0.10674,</w>": 20,
  "-0.29602,</w>": 24,
  "-0.23761,</w>": 15,
  "-0.22387,</w>": 16,
  "-0.19225,</w>": 24,
  "-0.2673,</w>": 17,
  "0.42325,</w>": 13,
  "151,</w>": 945,
  "-0.3272,</w>": 15,
  "-0.444": 572,
  "-0.07": 162,
  "-0.20037,</w>": 18,
  "-0.26022,</w>": 15,
  "0.36669,</w>": 13,
  "-0.15234,</w>": 24,
  "0.13955,</w>": 20,
  "-0.34898,</w>": 13,
  "0.11799,</w>": 13,
  "0.17233,</w>": 25,
  "0.22634,</w>": 25,
  "0.0873": 178,
  "0.31967,</w>": 18,
  "-0.11146,</w>": 18,
  "0.17192,</w>": 16,
  "-0.0170": 142,
  "-0.41265,</w>": 15,
  "0.20478,</w>": 21,
  "0.25663,</w>": 15,
  "-0.12933,</w>": 18,
  "-0.4661,</w>": 13,
  "0.34199,</w>": 19,
  "0.1795,</w>": 26,
  "0.24288,</w>": 18,
  "-0.2525,</w>": 26,
  "0.30115,</w>": 17,
  "0.1091,</w>": 20,
  "0.15556,</w>": 18,
  "-0.13968,</w>": 18,
  "-0.215,</w>": 18,
  "-0.18974,</w>": 23,
  "0.13382,</w>": 21,
  "-0.10012,</w>": 17,
  "0.20358,</w>": 16,
  "-0.20169,</w>": 14,
  "0.32924,</w>": 17,
  "-0.13939,</w>": 21,
  "-0.165": 117,
  "-0.1228,</w>": 18,
  "0.10074,</w>": 28,
  "-0.20682,</w>": 18,
  "0.29091,</w>": 15,
  "0.164,</w>": 19,
  "0.28158,</w>": 22,
  "-0.43784,</w>": 13,
  "0.29323,</w>": 18,
  "0.13286,</w>": 14,
  "0.28272,</w>": 13,
  "0.22179,</w>": 16,
  "-0.35636,</w>": 15,
  "-0.20575,</w>": 17,
  "-0.114": 113,
  "-0.106": 113,
  "0.31089,</w>": 17,
  "-0.14802,</w>": 15,
  "0.0690": 145,
  "0.0074": 42,
  "-0.0584": 155,
  "-0.1659,</w>": 21,
  "0.360": 181,
  "0.17413,</w>": 19,
  "0.1362,</w>": 14,
  "-0.12225,</w>": 24,
  "0.10418,</w>": 20,
  "0.27035,</w>": 14,
  "0.13148,</w>": 21,
  "0.143": 81,
  "0.785": 248,
  "-0.15573,</w>": 17,
  "0.32858,</w>": 15,
  "-0.43602,</w>": 17,
  "0.21874,</w>": 14,
  "635,</w>": 158,
  "-0.20372,</w>": 16,
  "-0.1524,</w>": 23,
  "-0.35996,</w>": 14,
  "0.2208,</w>": 13,
  "0.11753,</w>": 14,
  "0.24838,</w>": 20,
  "0.24543,</w>": 14,
  "-0.21817,</w>": 19,
  "-0.0773": 161,
  "0.224": 259,
  "378,</w>": 348,
  "0.30256,</w>": 17,
  "-0.10918,</w>": 19,
  "0.23986,</w>": 15,
  "0.1691,</w>": 19,
  "-0.20459,</w>": 18,
  "0.19188,</w>": 19,
  "-0.19616,</w>": 16,
  "0.3307,</w>": 19,
  "-0.18104,</w>": 17,
  "0.49511,</w>": 14,
  "-0.422": 619,
  "0.24379,</w>": 13,
  "0.16714,</w>": 19,
  "-0.2091,</w>": 15,
  "-0.12489,</w>": 31,
  "-0.2598,</w>": 18,
  "-0.17961,</w>": 20,
  "-0.47663,</w>": 20,
  "-0.27139,</w>": 19,
  "0.17746,</w>": 13,
  "0.21363,</w>": 13,
  "-0.25979,</w>": 18,
  "0.2125,</w>": 26,
  "-0.21373,</w>": 13,
  "0.15455,</w>": 20,
  "0.33747,</w>": 13,
  "0.19371,</w>": 14,
  "-0.24023,</w>": 19,
  "0.124": 126,
  "-0.21302,</w>": 23,
  "-0.32026,</w>": 25,
  "-0.28719,</w>": 18,
  "683,</w>": 180,
  "529,</w>": 223,
  "-0.13575,</w>": 21,
  "0.11454,</w>": 23,
  "0.12595,</w>": 18,
  "-0.17633,</w>": 17,
  "-0.21415,</w>": 16,
  "0.21763,</w>": 16,
  "-0.25242,</w>": 17,
  "-0.28105,</w>": 18,
  "0.18911,</w>": 22,
  "-0.34622,</w>": 16,
  "-0.39034,</w>": 13,
  "0.20562,</w>": 21,
  "0.44395,</w>": 13,
  "-0.350": 185,
  "0.62993,</w>": 13,
  "-0.34699,</w>": 14,
  "-0.31965,</w>": 23,
  "-0.17361,</w>": 14,
  "-0.2621,</w>": 24,
  "544,</w>": 207,
  "0.22437,</w>": 24,
  "0.17037,</w>": 28,
  "-0.38598,</w>": 17,
  "0.26363,</w>": 22,
  "0.706": 361,
  "0.16254,</w>": 26,
  "0.33572,</w>": 20,
  "-0.32542,</w>": 13,
  "0.12038,</w>": 16,
  "-0.14695,</w>": 13,
  "0.18338,</w>": 15,
  "0.22714,</w>": 16,
  "-0.30974,</w>": 15,
  "0.0682": 151,
  "-0.28237,</w>": 20,
  "-0.30097,</w>": 14,
  "615,</w>": 150,
  "-0.34443,</w>": 14,
  "0.17241,</w>": 15,
  "0.35722,</w>": 13,
  "-0.18962,</w>": 19,
  "0.2582,</w>": 17,
  "-0.24685,</w>": 14,
  "-0.10271,</w>": 19,
  "0.13713,</w>": 26,
  "-0.25181,</w>": 17,
  "-0.18612,</w>": 20,
  "0.0400": 141,
  "0.11557,</w>": 22,
  "0.0179": 158,
  "0.27149,</w>": 20,
  "-0.14252,</w>": 18,
  "-0.087": 151,
  "0.15196,</w>": 21,
  "0.27437,</w>": 19,
  "0.24246,</w>": 16,
  "0.29386,</w>": 20,
  "-0.12101,</w>": 23,
  "-0.10605,</w>": 22,
  "0.3154,</w>": 15,
  "-0.27793,</w>": 21,
  "0.21493,</w>": 18,
  "-0.24493,</w>": 13,
  "0.13675,</w>": 16,
  "-0.25969,</w>": 22,
  "-0.17564,</w>": 17,
  "0.20657,</w>": 20,
  "-0.34136,</w>": 15,
  "-0.10694,</w>": 21,
  "0.2364,</w>": 14,
  "-0.15247,</w>": 19,
  "0.21666,</w>": 16,
  "-0.16206,</w>": 17,
  "-0.120": 119,
  "-0.12456,</w>": 20,
  "-0.12575,</w>": 19,
  "-0.21297,</w>": 17,
  "0.12575,</w>": 17,
  "0.26574,</w>": 14,
  "0.14567,</w>": 27,
  "0.40475,</w>": 15,
  "-0.32137,</w>": 18,
  "0.35157,</w>": 23,
  "-0.24127,</w>": 20,
  "-0.20518,</w>": 15,
  "0.27685,</w>": 19,
  "-0.11179,</w>": 19,
  "0.10318,</w>": 24,
  "0.14703,</w>": 18,
  "-0.0504": 121,
  "-0.12255,</w>": 19,
  "0.42357,</w>": 13,
  "0.28441,</w>": 13,
  "-0.18144,</w>": 24,
  "0.673": 460,
  "0.46195,</w>": 13,
  "0.14947,</w>": 23,
  "-0.14378,</w>": 15,
  "0.26852,</w>": 20,
  "-0.47994,</w>": 15,
  "-0.14634,</w>": 18,
  "0.18551,</w>": 20,
  "-0.23649,</w>": 21,
  "0.32563,</w>": 13,
  "-0.28371,</w>": 13,
  "0.25549,</w>": 15,
  "-0.10139,</w>": 18,
  "0.0775": 169,
  "-0.35643,</w>": 14,
  "-0.0384": 121,
  "-0.18166,</w>": 19,
  "-0.33917,</w>": 15,
  "-0.31138,</w>": 18,
  "-0.43604,</w>": 15,
  "-0.26433,</w>": 16,
  "-0.15836,</w>": 23,
  "308,</w>": 805,
  "0.18862,</w>": 20,
  "0.24218,</w>": 17,
  "-0.446": 775,
  "0.21335,</w>": 21,
  "0.3143,</w>": 19,
  "0.35366,</w>": 18,
  "376,</w>": 350,
  "0.190": 213,
  "-0.2419,</w>": 24,
  "-0.15422,</w>": 29,
  "0.1252,</w>": 26,
  "-0.15062,</w>": 19,
  "0.28228,</w>": 15,
  "-0.17214,</w>": 27,
  "0.21501,</w>": 16,
  "0.13153,</w>": 19,
  "0.34418,</w>": 17,
  "-0.23224,</w>": 19,
  "-0.29679,</w>": 17,
  "-0.1482,</w>": 18,
  "0.29794,</w>": 13,
  "-0.29518,</w>": 21,
  "0.36344,</w>": 17,
  "-0.26986,</w>": 16,
  "-0.11236,</w>": 13,
  "0.522": 676,
  "0.18203,</w>": 19,
  "0.34269,</w>": 16,
  "-0.13928,</w>": 14,
  "0.36973,</w>": 20,
  "0.11779,</w>": 15,
  "-0.32003,</w>": 14,
  "0.23044,</w>": 15,
  "0.18443,</w>": 19,
  "-0.222": 224,
  "0.36411,</w>": 13,
  "-0.125,</w>": 19,
  "0.25003,</w>": 16,
  "0.23086,</w>": 14,
  "-0.27102,</w>": 15,
  "0.26138,</w>": 13,
  "0.36582,</w>": 16,
  "-0.29935,</w>": 18,
  "-0.19262,</w>": 22,
  "0.0524": 166,
  "-0.15757,</w>": 18,
  "-0.695": 408,
  "-0.13045,</w>": 24,
  "0.16858,</w>": 18,
  "0.28959,</w>": 16,
  "0.16787,</w>": 13,
  "-0.16493,</w>": 14,
  "-0.20452,</w>": 14,
  "-0.29666,</w>": 17,
  "0.30735,</w>": 13,
  "-0.22905,</w>": 13,
  "0.20981,</w>": 21,
  "0.17476,</w>": 14,
  "0.10537,</w>": 27,
  "0.2459,</w>": 19,
  "547,</w>": 184,
  "-0.27036,</w>": 14,
  "-0.41771,</w>": 15,
  "-0.15352,</w>": 20,
  "-0.23896,</w>": 20,
  "0.1849,</w>": 21,
  "-0.17142,</w>": 18,
  "0.2165,</w>": 25,
  "0.2563,</w>": 18,
  "-0.578": 583,
  "0.11648,</w>": 19,
  "0.11602,</w>": 21,
  "-0.28243,</w>": 15,
  "0.39665,</w>": 23,
  "0.13776,</w>": 26,
  "0.30055,</w>": 15,
  "0.28454,</w>": 18,
  "0.15612,</w>": 18,
  "0.32265,</w>": 15,
  "0.22284,</w>": 15,
  "-0.20402,</w>": 22,
  "-0.35253,</w>": 16,
  "-0.26112,</w>": 15,
  "0.26283,</w>": 14,
  "0.17396,</w>": 17,
  "0.1384,</w>": 19,
  "-0.345": 518,
  "0.22255,</w>": 21,
  "-0.27854,</w>": 17,
  "0.16217,</w>": 18,
  "0.15979,</w>": 19,
  "0.12244,</w>": 18,
  "-0.24725,</w>": 15,
  "-0.32518,</w>": 19,
  "0.22745,</w>": 23,
  "0.1405,</w>": 26,
  "0.10219,</w>": 26,
  "0.16303,</w>": 17,
  "0.0486": 130,
  "-0.10745,</w>": 14,
  "0.40847,</w>": 14,
  "-0.0404": 76,
  "-0.13361,</w>": 23,
  "24": 35,
  "-0.0972": 151,
  "-0.926": 99,
  "-0.19138,</w>": 26,
  "-0.3371,</w>": 14,
  "-0.14571,</w>": 14,
  "-0.45445,</w>": 13,
  "0.37986,</w>": 13,
  "0.0500": 131,
  "0.53335,</w>": 13,
  "0.10434,</w>": 16,
  "-0.34442,</w>": 16,
  "0.20648,</w>": 17,
  "0.12487,</w>": 16,
  "-0.16228,</w>": 17,
  "0.13411,</w>": 22,
  "0.39221,</w>": 15,
  "0.10803,</w>": 19,
  "-0.24617,</w>": 15,
  "-0.14056,</w>": 13,
  "-0.32474,</w>": 17,
  "0.23601,</w>": 23,
  "0.33072,</w>": 14,
  "-0.25767,</w>": 15,
  "0.12372,</w>": 15,
  "0.30315,</w>": 17,
  "0.0511": 34,
  "-0.22986,</w>": 21,
  "0.18284,</w>": 20,
  "-0.25046,</w>": 17,
  "-0.26262,</w>": 24,
  "-0.19192,</w>": 19,
  "-0.30703,</w>": 17,
  "-0.30126,</w>": 14,
  "-0.21624,</w>": 16,
  "0.33036,</w>": 19,
  "-0.17781,</w>": 18,
  "-0.12657,</w>": 14,
  "0.15389,</w>": 22,
  "0.0482": 145,
  "0.27294,</w>": 17,
  "0.30905,</w>": 13,
  "-0.1143,</w>": 18,
  "-0.1629,</w>": 18,
  "0.12368,</w>": 24,
  "-0.40987,</w>": 15,
  "-0.15486,</w>": 13,
  "0.23989,</w>": 15,
  "-0.910": 124,
  "0.44081,</w>": 14,
  "0.17205,</w>": 18,
  "0.23785,</w>": 27,
  "-0.35637,</w>": 24,
  "0.1204,</w>": 26,
  "0.35326,</w>": 20,
  "-0.13621,</w>": 21,
  "0.5574,</w>": 13,
  "-0.14134,</w>": 21,
  "-0.19988,</w>": 14,
  "-0.10119,</w>": 22,
  "0.16881,</w>": 17,
  "0.26562,</w>": 16,
  "0.16838,</w>": 18,
  "-0.21179,</w>": 17,
  "-0.13097,</w>": 20,
  "-0.16692,</w>": 20,
  "0.1347,</w>": 15,
  "-0.2379,</w>": 15,
  "-0.678": 422,
  "-0.33084,</w>": 13,
  "-0.19021,</w>": 21,
  "-0.12476,</w>": 30,
  "-0.1718,</w>": 17,
  "0.16926,</w>": 18,
  "-0.12785,</w>": 18,
  "-0.18423,</w>": 22,
  "0.13312,</w>": 22,
  "-0.39963,</w>": 14,
  "0.19229,</w>": 16,
  "0.29458,</w>": 14,
  "0.18034,</w>": 21,
  "0.21514,</w>": 20,
  "-0.24487,</w>": 17,
  "0.22589,</w>": 19,
  "0.4938,</w>": 14,
  "318,</w>": 349,
  "-0.41875,</w>": 15,
  "-0.519": 697,
  "-0.16481,</w>": 19,
  "603,</w>": 166,
  "-0.23321,</w>": 16,
  "569,</w>": 341,
  "-0.2277,</w>": 15,
  "-0.449": 249,
  "0.2212,</w>": 20,
  "-0.1394,</w>": 20,
  "0.21894,</w>": 21,
  "0.14991,</w>": 27,
  "0.15517,</w>": 20,
  "-0.29804,</w>": 17,
  "-0.24405,</w>": 15,
  "-0.21903,</w>": 19,
  "0.26382,</w>": 20,
  "0.13538,</w>": 19,
  "1.55": 99,
  "0.10743,</w>": 22,
  "0.25995,</w>": 26,
  "-0.10683,</w>": 19,
  "-0.0889": 140,
  "-0.17233,</w>": 17,
  "-0.26858,</w>": 13,
  "0.2852,</w>": 19,
  "0.38292,</w>": 13,
  "-0.16979,</w>": 14,
  "0.30764,</w>": 15,
  "0.18108,</w>": 18,
  "-0.36319,</w>": 22,
  "-0.16768,</w>": 17,
  "0.19078,</w>": 24,
  "0.29913,</w>": 19,
  "0.12001,</w>": 18,
  "-0.16822,</w>": 15,
  "-0.10035,</w>": 25,
  "0.27459,</w>": 16,
  "-0.37683,</w>": 13,
  "0.0889": 137,
  "-0.16081,</w>": 23,
  "-0.32691,</w>": 17,
  "-0.15615,</w>": 25,
  "0.0334": 149,
  "-0.34754,</w>": 19,
  "0.32206,</w>": 13,
  "0.42674,</w>": 16,
  "-0.29997,</w>": 19,
  "0.15606,</w>": 20,
  "-0.10353,</w>": 15,
  "0.375": 543,
  "-0.3201,</w>": 15,
  "0.24611,</w>": 19,
  "0.21244,</w>": 19,
  "0.28989,</w>": 17,
  "-0.17769,</w>": 14,
  "-0.20686,</w>": 13,
  "-0.36867,</w>": 15,
  "0.3701,</w>": 16,
  "-0.30561,</w>": 17,
  "0.50719,</w>": 13,
  "0.12865,</w>": 17,
  "521,</w>": 225,
  "171,</w>": 667,
  "-0.0119": 155,
  "0.640": 313,
  "0.21333,</w>": 29,
  "0.17027,</w>": 18,
  "0.3131,</w>": 13,
  "0.28991,</w>": 18,
  "0.38173,</w>": 13,
  "-0.1857,</w>": 21,
  "-0.13704,</w>": 27,
  "0.2344,</w>": 19,
  "0.20628,</w>": 20,
  "-0.037": 161,
  "0.25634,</w>": 18,
  "0.25913,</w>": 18,
  "-0.19147,</w>": 24,
  "0.19325,</w>": 18,
  "-0.11796,</w>": 21,
  "0.25,</w>": 21,
  "-1.12": 522,
  "-0.32886,</w>": 14,
  "0.39646,</w>": 18,
  "0.885": 181,
  "0.14466,</w>": 22,
  "0.35975,</w>": 14,
  "-0.26771,</w>": 17,
  "-0.922": 119,
  "0.041": 379,
  "-0.29227,</w>": 17,
  "0.686": 442,
  "0.31835,</w>": 21,
  "0.1844,</w>": 19,
  "-0.2413,</w>": 19,
  "473,</w>": 342,
  "-0.18779,</w>": 15,
  "-0.10744,</w>": 16,
  "-0.347,</w>": 16,
  "-0.38671,</w>": 14,
  "0.24293,</w>": 18,
  "-0.32969,</w>": 14,
  "-0.676": 395,
  "-0.11589,</w>": 19,
  "-0.30314,</w>": 22,
  "-0.343": 188,
  "642,</w>": 134,
  "-0.12627,</w>": 15,
  "0.0214": 136,
  "-0.19363,</w>": 17,
  "-0.41703,</w>": 16,
  "-0.29152,</w>": 19,
  "-0.11851,</w>": 21,
  "-0.826": 205,
  "0.49283,</w>": 13,
  "0.1544,</w>": 18,
  "-0.44594,</w>": 14,
  "-0.25297,</w>": 13,
  "-0.189": 171,
  "-0.20798,</w>": 22,
  "0.17116,</w>": 14,
  "0.33583,</w>": 17,
  "0.981": 108,
  "-0.1456,</w>": 18,
  "0.16763,</w>": 14,
  "0.989": 89,
  "-0.40401,</w>": 14,
  "-0.40003,</w>": 14,
  "-0.22475,</w>": 15,
  "0.40461,</w>": 17,
  "-0.20711,</w>": 24,
  "0.33856,</w>": 13,
  "-0.15508,</w>": 21,
  "-0.28484,</w>": 21,
  "0.0594": 171,
  "0.18073,</w>": 15,
  "-0.47775,</w>": 14,
  "0.13676,</w>": 15,
  "-1.35": 106,
  "0.33742,</w>": 16,
  "0.15409,</w>": 21,
  "-0.625": 536,
  "0.38509,</w>": 13,
  "0.13247,</w>": 18,
  "-0.0286": 152,
  "-0.21544,</w>": 18,
  "0.21676,</w>": 24,
  "-0.19516,</w>": 26,
  "0.39057,</w>": 19,
  "-0.2961,</w>": 22,
  "-0.33866,</w>": 14,
  "-0.29235,</w>": 15,
  "-0.15073,</w>": 21,
  "0.13816,</w>": 14,
  "-0.1498,</w>": 24,
  "097,</w>": 444,
  "-0.28147,</w>": 16,
  "0.17606,</w>": 14,
  "-0.11382,</w>": 16,
  "-0.29354,</w>": 20,
  "0.20873,</w>": 19,
  "0.30276,</w>": 15,
  "0.22059,</w>": 20,
  "-0.30446,</w>": 19,
  "0.23038,</w>": 16,
  "0.16446,</w>": 21,
  "0.142,</w>": 23,
  "0.18859,</w>": 15,
  "-0.1591,</w>": 13,
  "-0.3909,</w>": 17,
  "-0.31583,</w>": 16,
  "-0.44827,</w>": 14,
  "0.17346,</w>": 20,
  "0.21135,</w>": 24,
  "-0.16964,</w>": 20,
  "0.23113,</w>": 15,
  "0.21068,</w>": 13,
  "-0.22821,</w>": 17,
  "-0.175": 156,
  "0.29654,</w>": 22,
  "-0.14158,</w>": 35,
  "-0.16449,</w>": 16,
  "-0.21547,</w>": 13,
  "0.42518,</w>": 15,
  "-0.13141,</w>": 21,
  "-0.20183,</w>": 15,
  "0.12731,</w>": 16,
  "-0.23233,</w>": 18,
  "0.22873,</w>": 16,
  "-0.4976,</w>": 15,
  "0.3647,</w>": 13,
  "-0.30188,</w>": 22,
  "0.18639,</w>": 16,
  "-0.25286,</w>": 13,
  "-0.29018,</w>": 13,
  "0.14153,</w>": 14,
  "0.1301,</w>": 22,
  "-0.15225,</w>": 21,
  "-0.15741,</w>": 17,
  "-0.23084,</w>": 18,
  "0.42692,</w>": 13,
  "-0.18954,</w>": 18,
  "-0.12538,</w>": 24,
  "0.37686,</w>": 13,
  "-0.13289,</w>": 24,
  "0.985": 97,
  "0.18442,</w>": 18,
  "-0.134": 100,
  "0.24144,</w>": 19,
  "-0.270": 255,
  "-0.24045,</w>": 13,
  "-0.31195,</w>": 15,
  "-0.28845,</w>": 17,
  "-0.22958,</w>": 19,
  "0.12229,</w>": 20,
  "0.35713,</w>": 13,
  "0.45263,</w>": 14,
  "-0.26485,</w>": 21,
  "-0.18566,</w>": 24,
  "-0.17649,</w>": 21,
  "0.18195,</w>": 19,
  "0.31716,</w>": 15,
  "-0.18684,</w>": 18,
  "-0.11124,</w>": 23,
  "0.14103,</w>": 21,
  "0.0872": 142,
  "0.14064,</w>": 21,
  "-0.1073,</w>": 16,
  "-0.36737,</w>": 20,
  "-0.18152,</w>": 23,
  "0.0639": 94,
  "-0.21977,</w>": 16,
  "-0.23705,</w>": 20,
  "-0.21497,</w>": 14,
  "-0.11723,</w>": 16,
  "0.15102,</w>": 14,
  "0.14483,</w>": 17,
  "-0.30721,</w>": 22,
  "-0.1533,</w>": 18,
  "-0.27295,</w>": 14,
  "0.325,</w>": 14,
  "-0.34077,</w>": 14,
  "-0.40904,</w>": 14,
  "0.24634,</w>": 19,
  "-0.1695,</w>": 17,
  "0.545": 665,
  "-0.22598,</w>": 19,
  "0.1472,</w>": 19,
  "-0.27024,</w>": 14,
  "-0.48183,</w>": 18,
  "-0.15233,</w>": 19,
  "-0.15217,</w>": 29,
  "0.20065,</w>": 19,
  "0.19926,</w>": 14,
  "0.23269,</w>": 13,
  "-0.19758,</w>": 21,
  "0.13591,</w>": 20,
  "0.28251,</w>": 15,
  "0.30438,</w>": 14,
  "-0.33107,</w>": 14,
  "-0.38843,</w>": 14,
  "0.10616,</w>": 23,
  "0.0089": 44,
  "-0.34859,</w>": 18,
  "-0.29083,</w>": 15,
  "0.175": 156,
  "-0.12292,</w>": 15,
  "0.1291,</w>": 22,
  "-0.17196,</w>": 22,
  "573,</w>": 198,
  "0.37792,</w>": 13,
  "-0.14124,</w>": 18,
  "-0.12946,</w>": 18,
  "-0.14638,</w>": 24,
  "0.32979,</w>": 13,
  "0.36435,</w>": 18,
  "0.30092,</w>": 15,
  "0.23168,</w>": 21,
  "-0.13164,</w>": 22,
  "0.34922,</w>": 13,
  "-0.30129,</w>": 21,
  "0.24339,</w>": 19,
  "0.53643,</w>": 13,
  "-0.2678,</w>": 14,
  "0.17739,</w>": 22,
  "-0.12491,</w>": 15,
  "0.24303,</w>": 15,
  "-0.36027,</w>": 16,
  "-0.28133,</w>": 19,
  "0.29727,</w>": 16,
  "0.23371,</w>": 17,
  "0.31181,</w>": 15,
  "-0.43453,</w>": 14,
  "0.28743,</w>": 16,
  "0.1706,</w>": 16,
  "-0.41021,</w>": 14,
  "658,</w>": 170,
  "0.27916,</w>": 14,
  "0.874": 193,
  "-0.12863,</w>": 17,
  "0.25893,</w>": 16,
  "1.0499,</w>": 15,
  "-0.38352,</w>": 18,
  "0.4752,</w>": 15,
  "-0.26882,</w>": 14,
  "-0.12277,</w>": 14,
  "-0.011": 530,
  "-0.41785,</w>": 17,
  "411,</w>": 329,
  "-0.11911,</w>": 13,
  "-0.30967,</w>": 17,
  "0.22562,</w>": 19,
  "0.32101,</w>": 17,
  "-0.23872,</w>": 19,
  "-0.18103,</w>": 19,
  "-0.27873,</w>": 15,
  "-0.38107,</w>": 16,
  "0.30837,</w>": 17,
  "0.31387,</w>": 21,
  "0.11095,</w>": 27,
  "-0.13554,</w>": 18,
  "0.38263,</w>": 16,
  "-0.26548,</w>": 17,
  "0.2841,</w>": 16,
  "-0.39,</w>": 14,
  "-0.0684": 150,
  "-0.12135,</w>": 17,
  "0.10776,</w>": 23,
  "-0.28405,</w>": 18,
  "-0.0313": 164,
  "0.34129,</w>": 17,
  "-0.11183,</w>": 20,
  "0.22188,</w>": 22,
  "0.11581,</w>": 19,
  "0.2002,</w>": 22,
  "-0.36337,</w>": 14,
  "0.10116,</w>": 17,
  "0.32054,</w>": 13,
  "-0.38132,</w>": 13,
  "-0.18228,</w>": 18,
  "-0.4442,</w>": 14,
  "-0.11963,</w>": 22,
  "-0.22166,</w>": 25,
  "0.14136,</w>": 19,
  "-0.1251,</w>": 19,
  "-0.0681": 153,
  "0.0595": 129,
  "-0.33002,</w>": 15,
  "-0.12837,</w>": 26,
  "-0.15718,</w>": 24,
  "0.17204,</w>": 21,
  "0.26189,</w>": 13,
  "0.13946,</w>": 18,
  "0.27524,</w>": 15,
  "0.14843,</w>": 18,
  "-0.26995,</w>": 16,
  "-0.38414,</w>": 13,
  "605,</w>": 187,
  "0.20486,</w>": 13,
  "0.22319,</w>": 17,
  "0.14903,</w>": 26,
  "-0.33925,</w>": 13,
  "0.30729,</w>": 17,
  "-0.24325,</w>": 21,
  "-0.18478,</w>": 21,
  "0.15579,</w>": 30,
  "-0.18526,</w>": 15,
  "-0.16931,</w>": 16,
  "-0.3403,</w>": 16,
  "-0.20063,</w>": 23,
  "-0.18835,</w>": 18,
  "-0.36832,</w>": 20,
  "0.22368,</w>": 17,
  "-0.16816,</w>": 22,
  "-0.3584,</w>": 17,
  "-0.23764,</w>": 21,
  "-0.46973,</w>": 13,
  "0.5964,</w>": 13,
  "-0.57565,</w>": 13,
  "0.28733,</w>": 15,
  "0.30419,</w>": 16,
  "0.18222,</w>": 13,
  "-0.28239,</w>": 17,
  "-0.1791,</w>": 15,
  "-0.12303,</w>": 22,
  "0.26587,</w>": 20,
  "-0.19248,</w>": 24,
  "-0.25282,</w>": 16,
  "-0.31783,</w>": 19,
  "-0.22494,</w>": 22,
  "0.28642,</w>": 17,
  "0.19424,</w>": 16,
  "-0.2233,</w>": 21,
  "0.10849,</w>": 21,
  "-0.2036,</w>": 14,
  "0.29996,</w>": 13,
  "-0.38111,</w>": 13,
  "0.45067,</w>": 14,
  "0.21835,</w>": 21,
  "0.40651,</w>": 14,
  "-0.31488,</w>": 20,
  "-0.496": 668,
  "0.0920": 128,
  "-0.14251,</w>": 30,
  "-0.1194,</w>": 14,
  "0.33213,</w>": 24,
  "-0.40405,</w>": 17,
  "-0.0235": 125,
  "0.21456,</w>": 21,
  "0.2904,</w>": 14,
  "0.0626": 190,
  "0.4741,</w>": 14,
  "-0.13726,</w>": 20,
  "639,</w>": 173,
  "-0.22801,</w>": 14,
  "0.2428,</w>": 18,
  "0.31599,</w>": 16,
  "0.20913,</w>": 20,
  "0.11943,</w>": 25,
  "0.0883": 132,
  "-0.13117,</w>": 19,
  "0.24461,</w>": 14,
  "0.26481,</w>": 19,
  "-0.28945,</w>": 15,
  "-0.45868,</w>": 16,
  "-0.1485,</w>": 16,
  "-0.10208,</w>": 30,
  "-0.18518,</w>": 22,
  "-0.39373,</w>": 16,
  "0.13572,</w>": 21,
  "0.18475,</w>": 23,
  "-0.10756,</w>": 15,
  "0.31509,</w>": 15,
  "-0.146": 123,
  "0.299": 248,
  "9": 64,
  "2],</w>": 32,
  "0.18942,</w>": 20,
  "-0.2184,</w>": 19,
  "-0.28763,</w>": 21,
  "-0.257,</w>": 21,
  "0.13038,</w>": 15,
  "-0.37771,</w>": 16,
  "-0.10816,</w>": 19,
  "0.33286,</w>": 17,
  "0.23729,</w>": 19,
  "0.157,</w>": 15,
  "0.14467,</w>": 21,
  "0.253": 120,
  "-0.33068,</w>": 13,
  "0.20509,</w>": 13,
  "0.037": 162,
  "-0.29036,</w>": 14,
  "0.22141,</w>": 15,
  "-0.3006,</w>": 19,
  "0.13366,</w>": 20,
  "0.0590": 144,
  "0.22694,</w>": 22,
  "-0.18944,</w>": 28,
  "-0.15383,</w>": 19,
  "-0.23957,</w>": 16,
  "-0.21524,</w>": 25,
  "0.28387,</w>": 19,
  "-0.16252,</w>": 18,
  "-0.0283": 153,
  "-0.21098,</w>": 22,
  "0.34508,</w>": 18,
  "0.24539,</w>": 16,
  "-0.12851,</w>": 16,
  "0.29108,</w>": 15,
  "-0.0975": 144,
  "-0.14539,</w>": 24,
  "-0.13888,</w>": 21,
  "-0.1168,</w>": 26,
  "-0.18393,</w>": 14,
  "0.21296,</w>": 14,
  "-0.12825,</w>": 18,
  "0.13372,</w>": 18,
  "0.27998,</w>": 21,
  "-0.30276,</w>": 16,
  "0.19015,</w>": 20,
  "0.18696,</w>": 19,
  "0.21842,</w>": 24,
  "0.15311,</w>": 16,
  "-0.20537,</w>": 17,
  "-0.17279,</w>": 20,
  "-0.24997,</w>": 15,
  "-0.0575": 159,
  "0.29368,</w>": 19,
  "-0.21474,</w>": 18,
  "-0.25485,</w>": 18,
  "0.35776,</w>": 16,
  "0.33732,</w>": 13,
  "-0.21918,</w>": 14,
  "0.14028,</w>": 17,
  "-0.19906,</w>": 23,
  "-0.11204,</w>": 22,
  "0.913": 135,
  "-0.16485,</w>": 18,
  "-0.2305,</w>": 20,
  "-0.17133,</w>": 19,
  "0.0696": 128,
  "-0.1153,</w>": 16,
  "-0.12351,</w>": 15,
  "0.222": 224,
  "0.12692,</w>": 18,
  "-0.613": 533,
  "0.0411": 42,
  "0.30227,</w>": 16,
  "-0.29353,</w>": 14,
  "-0.12738,</w>": 24,
  "517,</w>": 221,
  "0.2413,</w>": 14,
  "0.31974,</w>": 16,
  "-0.23272,</w>": 23,
  "-0.22058,</w>": 16,
  "692,</w>": 173,
  "-0.529": 359,
  "0.22763,</w>": 19,
  "-0.19334,</w>": 23,
  "0.10758,</w>": 27,
  "-0.29835,</w>": 16,
  "0.24265,</w>": 20,
  "0.36154,</w>": 14,
  "0.19467,</w>": 19,
  "0.19504,</w>": 21,
  "0.42967,</w>": 15,
  "-0.16185,</w>": 23,
  "-0.34677,</w>": 17,
  "0.15395,</w>": 24,
  "-0.17755,</w>": 17,
  "-0.3245,</w>": 22,
  "0.20579,</w>": 21,
  "-0.18997,</w>": 16,
  "-0.13323,</w>": 21,
  "0.38114,</w>": 13,
  "-0.13065,</w>": 17,
  "0.26606,</w>": 17,
  "0.11829,</w>": 25,
  "-0.16233,</w>": 25,
  "-0.41592,</w>": 15,
  "-0.2636,</w>": 18,
  "0.1919,</w>": 15,
  "0.32529,</w>": 15,
  "371,</w>": 335,
  "0.24214,</w>": 21,
  "-0.10289,</w>": 23,
  "-0.35185,</w>": 14,
  "-0.11184,</w>": 19,
  "-0.1995,</w>": 17,
  "0.48582,</w>": 16,
  "-0.4458,</w>": 14,
  "-0.14753,</w>": 25,
  "-0.14667,</w>": 27,
  "-0.28665,</w>": 19,
  "0.18867,</w>": 20,
  "-0.2274,</w>": 18,
  "0.0622": 148,
  "-0.21894,</w>": 20,
  "-0.22378,</w>": 17,
  "-0.1747,</w>": 23,
  "-0.10498,</w>": 16,
  "0.0979": 131,
  "0.27532,</w>": 20,
  "0.21181,</w>": 20,
  "0.31075,</w>": 17,
  "0.28233,</w>": 13,
  "0.22636,</w>": 16,
  "0.17329,</w>": 18,
  "-0.15708,</w>": 25,
  "-0.10693,</w>": 14,
  "-0.39509,</w>": 13,
  "0.45462,</w>": 14,
  "496,</w>": 444,
  "-0.27458,</w>": 18,
  "0.35609,</w>": 18,
  "0.27282,</w>": 18,
  "0.52094,</w>": 14,
  "0.42645,</w>": 13,
  "0.3275,</w>": 14,
  "0.24962,</w>": 16,
  "0.978": 86,
  "-0.1547,</w>": 16,
  "0.1032,</w>": 16,
  "-0.16136,</w>": 17,
  "0.25785,</w>": 15,
  "-0.15912,</w>": 23,
  "0.19648,</w>": 17,
  "0.1577,</w>": 22,
  "-0.10575,</w>": 17,
  "-0.41728,</w>": 17,
  "0.27445,</w>": 21,
  "-0.19926,</w>": 19,
  "0.10704,</w>": 18,
  "0.12033,</w>": 16,
  "-0.0394": 133,
  "0.27102,</w>": 15,
  "-0.4129,</w>": 16,
  "-0.10124,</w>": 16,
  "-0.26564,</w>": 18,
  "0.31838,</w>": 22,
  "-0.26249,</w>": 16,
  "-0.15735,</w>": 30,
  "-0.39864,</w>": 22,
  "0.2531,</w>": 19,
  "0.27966,</w>": 23,
  "0.12604,</w>": 15,
  "-0.31325,</w>": 13,
  "0.07": 154,
  "0.24743,</w>": 21,
  "0.34854,</w>": 24,
  "0.25211,</w>": 21,
  "-0.32712,</w>": 13,
  "-0.23073,</w>": 16,
  "-0.18005,</w>": 28,
  "0.25367,</w>": 19,
  "0.12017,</w>": 28,
  "0.23317,</w>": 14,
  "0.11959,</w>": 19,
  "0.19726,</w>": 25,
  "-0.20844,</w>": 17,
  "0.11893,</w>": 15,
  "0.10429,</w>": 20,
  "0.11317,</w>": 19,
  "-0.27338,</w>": 16,
  "-0.52404,</w>": 17,
  "-0.31658,</w>": 19,
  "0.35913,</w>": 17,
  "-0.42654,</w>": 13,
  "-0.2787,</w>": 20,
  "-0.16983,</w>": 14,
  "0.17169,</w>": 21,
  "-0.36703,</w>": 16,
  "1.78": 48,
  "514,</w>": 203,
  "0.10": 514,
  "777,</w>": 1249,
  "-0.28807,</w>": 15,
  "-0.15625,</w>": 21,
  "-0.12308,</w>": 16,
  "0.11491,</w>": 19,
  "0.16192,</w>": 18,
  "0.15391,</w>": 16,
  "-0.924": 131,
  "0.30275,</w>": 20,
  "0.45481,</w>": 14,
  "0.0871": 158,
  "0.10372,</w>": 24,
  "0.40035,</w>": 13,
  "0.10439,</w>": 23,
  "-0.2711,</w>": 13,
  "0.16901,</w>": 19,
  "-0.43907,</w>": 14,
  "-0.14797,</w>": 14,
  "-0.33058,</w>": 13,
  "-0.12359,</w>": 19,
  "-0.1335,</w>": 21,
  "-0.47064,</w>": 14,
  "-0.20803,</w>": 15,
  "-0.16583,</w>": 14,
  "0.38835,</w>": 14,
  "0.26658,</w>": 16,
  "0.28221,</w>": 18,
  "-0.12592,</w>": 23,
  "-0.1511,</w>": 22,
  "-0.10597,</w>": 32,
  "-0.23127,</w>": 14,
  "0.15763,</w>": 19,
  "-0.17161,</w>": 21,
  "0.23377,</w>": 15,
  "0.11325,</w>": 18,
  "-0.38274,</w>": 16,
  "-0.36533,</w>": 16,
  "0.31587,</w>": 15,
  "0.16818,</w>": 18,
  "0.12979,</w>": 13,
  "0.34776,</w>": 17,
  "-0.36471,</w>": 15,
  "-0.0526": 121,
  "0.17023,</w>": 15,
  "-0.11045,</w>": 23,
  "-0.12536,</w>": 13,
  "-0.11016,</w>": 18,
  "0.19764,</w>": 22,
  "-0.22845,</w>": 18,
  "-0.28588,</w>": 23,
  "-0.33749,</w>": 19,
  "0.21859,</w>": 22,
  "0.37727,</w>": 16,
  "-0.28821,</w>": 14,
  "-0.4062,</w>": 15,
  "0.22893,</w>": 14,
  "0.24848,</w>": 23,
  "0.31547,</w>": 16,
  "0.24026,</w>": 23,
  "0.14239,</w>": 23,
  "0.0875": 173,
  "1.0828,</w>": 13,
  "-0.22786,</w>": 26,
  "0.15092,</w>": 19,
  "0.25267,</w>": 20,
  "0.13915,</w>": 24,
  "-0.16625,</w>": 22,
  "-0.1174,</w>": 15,
  "-0.42071,</w>": 17,
  "-0.36796,</w>": 23,
  "-0.523": 275,
  "0.11705,</w>": 19,
  "0.0339": 76,
  "0.29818,</w>": 14,
  "-0.13455,</w>": 18,
  "-0.10109,</w>": 20,
  "0.20751,</w>": 19,
  "0.14436,</w>": 24,
  "-0.19081,</w>": 16,
  "462,</w>": 556,
  "0.25275,</w>": 16,
  "-0.10733,</w>": 22,
  "-0.22431,</w>": 16,
  "-0.13953,</w>": 15,
  "0.44922,</w>": 14,
  "-0.25554,</w>": 18,
  "-0.28529,</w>": 14,
  "-0.33416,</w>": 16,
  "-0.34264,</w>": 15,
  "0.33734,</w>": 13,
  "-0.40041,</w>": 15,
  "0.14017,</w>": 22,
  "-0.17677,</w>": 17,
  "-0.1046,</w>": 18,
  "-0.13707,</w>": 20,
  "-0.32639,</w>": 17,
  "-0.26178,</w>": 22,
  "-0.24044,</w>": 21,
  "-0.18073,</w>": 23,
  "-0.0470": 135,
  "-0.25166,</w>": 31,
  "-0.0114": 180,
  "-0.18163,</w>": 17,
  "-0.22331,</w>": 20,
  "0.38961,</w>": 16,
  "0.39805,</w>": 13,
  "-0.0270": 132,
  "-0.18755,</w>": 19,
  "0.21099,</w>": 25,
  "-0.11372,</w>": 26,
  "-0.1602,</w>": 18,
  "-0.14977,</w>": 23,
  "0.33837,</w>": 14,
  "0.20455,</w>": 22,
  "0.14371,</w>": 18,
  "-0.15859,</w>": 17,
  "511,</w>": 194,
  "-0.33156,</w>": 19,
  "0.3468,</w>": 14,
  "673,</w>": 183,
  "-0.26527,</w>": 20,
  "-0.13309,</w>": 20,
  "-0.1709,</w>": 17,
  "0.28367,</w>": 15,
  "0.35934,</w>": 19,
  "0.26272,</w>": 21,
  "-0.25118,</w>": 17,
  "0.21641,</w>": 25,
  "-0.228,</w>": 24,
  "-0.21476,</w>": 17,
  "0.52947,</w>": 13,
  "0.31925,</w>": 16,
  "0.34996,</w>": 16,
  "-0.22846,</w>": 17,
  "0.11564,</w>": 19,
  "-0.0488": 28,
  "0.12718,</w>": 18,
  "-0.12131,</w>": 24,
  "-0.32076,</w>": 15,
  "0.15765,</w>": 18,
  "-0.27352,</w>": 13,
  "-0.19256,</w>": 16,
  "0.10682,</w>": 23,
  "-0.46595,</w>": 16,
  "0.24198,</w>": 16,
  "-0.13684,</w>": 18,
  "-0.32624,</w>": 15,
  "-0.1125,</w>": 15,
  "0.2211,</w>": 25,
  "438,</w>": 445,
  "-0.16058,</w>": 24,
  "0.14846,</w>": 16,
  "-0.13235,</w>": 14,
  "-0.42557,</w>": 16,
  "0.22727,</w>": 17,
  "-0.11305,</w>": 26,
  "-0.21359,</w>": 14,
  "0.34119,</w>": 16,
  "0.29664,</w>": 13,
  "-0.20914,</w>": 17,
  "-0.47163,</w>": 15,
  "0.43841,</w>": 15,
  "0.27798,</w>": 15,
  "-0.26438,</w>": 21,
  "0.19527,</w>": 13,
  "0.25583,</w>": 17,
  "633,</w>": 265,
  "0.10205,</w>": 25,
  "-0.18705,</w>": 17,
  "0.14582,</w>": 17,
  "-0.18616,</w>": 17,
  "-0.0179": 168,
  "0.0072": 48,
  "0.13484,</w>": 21,
  "-0.12634,</w>": 26,
  "-0.47705,</w>": 13,
  "0.24776,</w>": 19,
  "-0.149": 67,
  "-0.26692,</w>": 23,
  "-0.2023,</w>": 18,
  "0.43923,</w>": 16,
  "-0.14943,</w>": 17,
  "-0.44265,</w>": 13,
  "0.23574,</w>": 19,
  "0.28194,</w>": 15,
  "0.1553,</w>": 23,
  "0.13422,</w>": 24,
  "-0.26507,</w>": 20,
  "-0.5757,</w>": 13,
  "-0.36104,</w>": 15,
  "-0.31582,</w>": 17,
  "-0.13246,</w>": 20,
  "-0.12579,</w>": 15,
  "0.11838,</w>": 16,
  "0.19949,</w>": 24,
  "-0.22685,</w>": 16,
  "0.22939,</w>": 16,
  "-0.29273,</w>": 22,
  "0.23088,</w>": 17,
  "-0.21591,</w>": 17,
  "-0.44029,</w>": 14,
  "-0.16117,</w>": 23,
  "0.": 198,
  "-0.0413": 132,
  "-0.3826,</w>": 16,
  "-0.44598,</w>": 17,
  "0.14268,</w>": 27,
  "-0.12234,</w>": 19,
  "-0.26628,</w>": 17,
  "0.13746,</w>": 14,
  "-0.15758,</w>": 22,
  "-0.23341,</w>": 17,
  "-0.385": 498,
  "0.20185,</w>": 15,
  "-0.0534": 125,
  "-0.22998,</w>": 20,
  "-0.43877,</w>": 16,
  "0.12142,</w>": 15,
  "-0.13947,</w>": 23,
  "0.37229,</w>": 18,
  "0.16852,</w>": 13,
  "537,</w>": 202,
  "0.16719,</w>": 19,
  "0.10184,</w>": 23,
  "1.04": 530,
  "0.33778,</w>": 23,
  "0.16879,</w>": 13,
  "-0.35274,</w>": 16,
  "-0.22007,</w>": 19,
  "-0.10343,</w>": 16,
  "0.13031,</w>": 19,
  "0.33925,</w>": 20,
  "-0.21961,</w>": 22,
  "-0.21753,</w>": 26,
  "-0.35335,</w>": 13,
  "0.28813,</w>": 26,
  "0.77": 295,
  "-0.18428,</w>": 13,
  "0.21262,</w>": 21,
  "-0.21033,</w>": 19,
  "0.45806,</w>": 17,
  "0.15126,</w>": 16,
  "0.0885": 140,
  "1.0322,</w>": 14,
  "-0.22955,</w>": 15,
  "-0.23678,</w>": 17,
  "0.30126,</w>": 14,
  "-0.20943,</w>": 24,
  "0.153": 71,
  "-0.16471,</w>": 20,
  "-0.2218,</w>": 19,
  "-0.24093,</w>": 19,
  "-0.4001,</w>": 14,
  "-0.32361,</w>": 14,
  "-0.0374": 150,
  "539,</w>": 207,
  "0.21701,</w>": 17,
  "-0.31896,</w>": 20,
  "-0.2473,</w>": 18,
  "0.18713,</w>": 22,
  "0.46302,</w>": 14,
  "0.18383,</w>": 16,
  "0.17467,</w>": 16,
  "-0.35532,</w>": 18,
  "0.32046,</w>": 15,
  "-0.28308,</w>": 19,
  "-0.0419": 131,
  "0.0679": 157,
  "0.26368,</w>": 17,
  "0.13479,</w>": 21,
  "0.689": 442,
  "-0.12756,</w>": 25,
  "015,</w>": 342,
  "0.0473": 142,
  "-0.25428,</w>": 17,
  "0.351,</w>": 13,
  "-0.26002,</w>": 17,
  "-0.11526,</w>": 16,
  "0.29279,</w>": 13,
  "0.11,</w>": 16,
  "-0.11706,</w>": 14,
  "-0.28233,</w>": 14,
  "0.1506,</w>": 22,
  "-0.31632,</w>": 19,
  "0.13653,</w>": 15,
  "-0.45192,</w>": 14,
  "-0.38827,</w>": 22,
  "-0.12714,</w>": 17,
  "-0.16456,</w>": 15,
  "-0.3954,</w>": 15,
  "0.3469,</w>": 14,
  "0.35425,</w>": 13,
  "-0.22096,</w>": 17,
  "0.26536,</w>": 20,
  "0.27786,</w>": 14,
  "0.12727,</w>": 27,
  "0.25642,</w>": 25,
  "-0.0872": 163,
  "0.44804,</w>": 13,
  "0.15815,</w>": 18,
  "-0.2697,</w>": 17,
  "-0.42827,</w>": 15,
  "-0.21422,</w>": 21,
  "-0.20689,</w>": 17,
  "-0.15047,</w>": 17,
  "0.0874": 144,
  "-0.17631,</w>": 25,
  "-0.0610": 151,
  "-0.22828,</w>": 17,
  "-0.14535,</w>": 18,
  "-0.24022,</w>": 18,
  "-0.17367,</w>": 22,
  "-0.34589,</w>": 14,
  "-0.1284,</w>": 19,
  "0.15335,</w>": 17,
  "-0.212": 220,
  "-0.35279,</w>": 13,
  "0.20454,</w>": 21,
  "-0.20606,</w>": 13,
  "-0.10071,</w>": 27,
  "0.36917,</w>": 18,
  "0.10606,</w>": 17,
  "0.15918,</w>": 18,
  "-0.474": 636,
  "-0.12446,</w>": 19,
  "-0.17992,</w>": 19,
  "0.35506,</w>": 17,
  "-0.11075,</w>": 16,
  "0.33538,</w>": 18,
  "0.22004,</w>": 18,
  "0.12629,</w>": 18,
  "0.16089,</w>": 18,
  "0.19233,</w>": 22,
  "0.21447,</w>": 37,
  "0.14141,</w>": 19,
  "0.3603,</w>": 17,
  "-0.10543,</w>": 20,
  "0.25838,</w>": 18,
  "-0.934": 89,
  "0.29401,</w>": 15,
  "-0.26681,</w>": 21,
  "-0.19677,</w>": 21,
  "0.12828,</w>": 19,
  "-0.10851,</w>": 22,
  "1.49": 56,
  "417,</w>": 332,
  "0.41232,</w>": 19,
  "-0.22689,</w>": 13,
  "-0.16883,</w>": 16,
  "-0.16087,</w>": 21,
  "-0.27297,</w>": 20,
  "-0.14401,</w>": 25,
  "-0.12639,</w>": 18,
  "0.25473,</w>": 19,
  "0.24631,</w>": 25,
  "0.35457,</w>": 19,
  "0.21095,</w>": 14,
  "-0.30058,</w>": 13,
  "074,</w>": 318,
  "0.2568,</w>": 18,
  "0.37339,</w>": 15,
  "0.1818,</w>": 16,
  "-0.16684,</w>": 17,
  "0.10767,</w>": 19,
  "-0.33764,</w>": 20,
  "0.27431,</w>": 25,
  "-0.314": 493,
  "0.23018,</w>": 15,
  "-0.30886,</w>": 17,
  "317,</w>": 323,
  "-0.11952,</w>": 13,
  "0.29949,</w>": 14,
  "0.20275,</w>": 23,
  "0.21454,</w>": 22,
  "-0.24295,</w>": 15,
  "0.41211,</w>": 14,
  "-0.183,</w>": 17,
  "-0.13345,</w>": 17,
  "-0.11705,</w>": 23,
  "-0.12512,</w>": 21,
  "0.15942,</w>": 15,
  "0.30175,</w>": 17,
  "0.36542,</w>": 19,
  "1.1233,</w>": 13,
  "-0.21867,</w>": 22,
  "0.15301,</w>": 19,
  "-0.27713,</w>": 17,
  "0.10647,</w>": 13,
  "0.25713,</w>": 22,
  "-0.24355,</w>": 21,
  "0.2885,</w>": 18,
  "-0.25827,</w>": 27,
  "-0.1882,</w>": 13,
  "0.29144,</w>": 14,
  "0.0530": 148,
  "-0.46325,</w>": 13,
  "-0.23009,</w>": 18,
  "0.23661,</w>": 14,
  "0.21857,</w>": 16,
  "0.12414,</w>": 19,
  "0.12341,</w>": 19,
  "0.17148,</w>": 23,
  "0.25779,</w>": 18,
  "0.35226,</w>": 15,
  "-0.294": 359,
  "-0.0099": 36,
  "0.16257,</w>": 18,
  "0.35385,</w>": 17,
  "0.23688,</w>": 13,
  "-0.43994,</w>": 14,
  "0.21903,</w>": 20,
  "-0.23831,</w>": 15,
  "0.13344,</w>": 17,
  "0.2269,</w>": 19,
  "0.16821,</w>": 26,
  "0.36531,</w>": 13,
  "-0.10328,</w>": 24,
  "49": 22,
  "-0.13357,</w>": 20,
  "-0.20645,</w>": 17,
  "-0.0936": 165,
  "-0.13227,</w>": 22,
  "-0.13869,</w>": 20,
  "-0.18286,</w>": 29,
  "0.10987,</w>": 17,
  "518,</w>": 181,
  "0.23982,</w>": 16,
  "-0.25789,</w>": 20,
  "-0.008": 57,
  "0.0684": 162,
  "-0.39082,</w>": 13,
  "0.156": 126,
  "-0.573": 626,
  "0.34468,</w>": 23,
  "561,</w>": 294,
  "-0.121": 11,
  "0.16447,</w>": 18,
  "-0.22418,</w>": 22,
  "-0.2831,</w>": 13,
  "0.3179,</w>": 20,
  "0.41608,</w>": 18,
  "-0.12358,</w>": 22,
  "0.17667,</w>": 18,
  "-0.16107,</w>": 28,
  "-0.18048,</w>": 21,
  "0.19145,</w>": 20,
  "0.13354,</w>": 16,
  "-0.25765,</w>": 15,
  "0.18563,</w>": 13,
  "-0.2071,</w>": 16,
  "0.37795,</w>": 14,
  "-0.14914,</w>": 19,
  "-0.11466,</w>": 13,
  "-0.22981,</w>": 19,
  "-0.18303,</w>": 15,
  "-0.32118,</w>": 19,
  "0.17139,</w>": 13,
  "0.16149,</w>": 23,
  "0.10774,</w>": 20,
  "432,</w>": 472,
  "0.13225,</w>": 24,
  "0.21079,</w>": 15,
  "-0.680": 413,
  "0.13": 480,
  "-0.13472,</w>": 16,
  "-0.24998,</w>": 18,
  "-0.1573,</w>": 22,
  "-0.2328,</w>": 19,
  "0.0535": 159,
  "-0.35972,</w>": 13,
  "0.13775,</w>": 22,
  "0.21579,</w>": 14,
  "-0.11646,</w>": 30,
  "0.19117,</w>": 20,
  "389,</w>": 399,
  "-0.14801,</w>": 21,
  "-0.0315": 160,
  "0.24949,</w>": 16,
  "-0.29731,</w>": 21,
  "-0.18151,</w>": 15,
  "0.0870": 135,
  "-0.43215,</w>": 16,
  "-0.17114,</w>": 22,
  "0.32264,</w>": 15,
  "0.20686,</w>": 16,
  "0.10106,</w>": 26,
  "0.22707,</w>": 21,
  "0.30363,</w>": 20,
  "0.609": 197,
  "26": 41,
  "0.58273,</w>": 13,
  "-0.1017,</w>": 20,
  "-0.13745,</w>": 20,
  "0.14669,</w>": 17,
  "0.12574,</w>": 22,
  "-0.13718,</w>": 22,
  "0.11404,</w>": 22,
  "-0.10026,</w>": 16,
  "0.26674,</w>": 15,
  "0.31326,</w>": 14,
  "0.16209,</w>": 15,
  "0.40905,</w>": 15,
  "-0.35453,</w>": 16,
  "-0.18864,</w>": 17,
  "0.30479,</w>": 20,
  "-1.013,</w>": 13,
  "0.20901,</w>": 22,
  "0.0546": 145,
  "96": 47,
  "-0.30549,</w>": 16,
  "-0.39051,</w>": 15,
  "-0.2512,</w>": 16,
  "0.1767,</w>": 19,
  "0.11382,</w>": 17,
  "0.25932,</w>": 13,
  "0.34143,</w>": 22,
  "0.1748,</w>": 29,
  "-0.278,</w>": 19,
  "0.13028,</w>": 22,
  "-0.17696,</w>": 23,
  "0.35929,</w>": 21,
  "0.0216": 149,
  "533,</w>": 217,
  "0.26918,</w>": 13,
  "-0.33405,</w>": 14,
  "-0.30499,</w>": 14,
  "0.18075,</w>": 30,
  "0.22495,</w>": 21,
  "-0.10493,</w>": 18,
  "0.24997,</w>": 18,
  "-0.28319,</w>": 16,
  "0.36397,</w>": 19,
  "-0.12274,</w>": 16,
  "0.1921,</w>": 23,
  "0.12149,</w>": 15,
  "-0.10737,</w>": 19,
  "0.39521,</w>": 18,
  "0.17981,</w>": 18,
  "-0.16386,</w>": 13,
  "917,</w>": 361,
  "-0.23437,</w>": 14,
  "0.11185,</w>": 20,
  "0.27522,</w>": 19,
  "0.12386,</w>": 14,
  "0.20749,</w>": 18,
  "-0.26121,</w>": 21,
  "-0.20043,</w>": 16,
  "0.973": 87,
  "-0.25598,</w>": 19,
  "916,</w>": 369,
  "0.24903,</w>": 20,
  "0.3547,</w>": 19,
  "-0.11449,</w>": 16,
  "-0.15165,</w>": 14,
  "0.15821,</w>": 15,
  "-0.38993,</w>": 15,
  "-0.22864,</w>": 14,
  "-0.12006,</w>": 17,
  "0.18844,</w>": 17,
  "-0.25907,</w>": 20,
  "0.919": 134,
  "-0.16427,</w>": 13,
  "0.44122,</w>": 16,
  "0.17761,</w>": 19,
  "0.30595,</w>": 14,
  "-0.17373,</w>": 19,
  "-0.23504,</w>": 17,
  "-0.20941,</w>": 13,
  "0.49512,</w>": 17,
  "0.15255,</w>": 24,
  "-0.33193,</w>": 17,
  "-0.27241,</w>": 21,
  "0.15096,</w>": 28,
  "0.16701,</w>": 18,
  "-0.25532,</w>": 15,
  "-0.30898,</w>": 22,
  "0.39719,</w>": 16,
  "-0.1057,</w>": 22,
  "0.15616,</w>": 19,
  "-0.13931,</w>": 19,
  "-0.11218,</w>": 16,
  "0.17733,</w>": 26,
  "-0.38046,</w>": 16,
  "0.10838,</w>": 16,
  "82": 50,
  "0.29134,</w>": 14,
  "0.10208,</w>": 17,
  "-0.29017,</w>": 17,
  "-0.24661,</w>": 22,
  "-0.45674,</w>": 13,
  "-0.0910": 140,
  "0.1964,</w>": 17,
  "0.12768,</w>": 15,
  "-0.20705,</w>": 21,
  "0.24012,</w>": 15,
  "0.17602,</w>": 13,
  "541,</w>": 214,
  "0.17579,</w>": 24,
  "-0.10319,</w>": 15,
  "-0.33715,</w>": 14,
  "-0.27775,</w>": 16,
  "-0.0599": 72,
  "0.38029,</w>": 14,
  "-0.32015,</w>": 16,
  "0.22481,</w>": 19,
  "-0.16295,</w>": 14,
  "-0.38515,</w>": 15,
  "-0.35481,</w>": 20,
  "-0.25243,</w>": 17,
  "0.0434": 145,
  "-0.30902,</w>": 15,
  "-0.17482,</w>": 19,
  "0.28599,</w>": 15,
  "-0.11945,</w>": 27,
  "0.31853,</w>": 15,
  "-0.23598,</w>": 15,
  "0.15817,</w>": 13,
  "0.11438,</w>": 26,
  "0.26379,</w>": 15,
  "0.34107,</w>": 19,
  "0.111,</w>": 16,
  "0.31224,</w>": 16,
  "0.38483,</w>": 13,
  "0.14386,</w>": 20,
  "-0.27315,</w>": 14,
  "0.28056,</w>": 17,
  "0.17125,</w>": 18,
  "0.22785,</w>": 20,
  "-0.15269,</w>": 20,
  "-0.226": 255,
  "-0.29037,</w>": 14,
  "0.50019,</w>": 13,
  "-0.16207,</w>": 16,
  "0.48304,</w>": 14,
  "0.16551,</w>": 18,
  "0.25164,</w>": 24,
  "-0.29964,</w>": 17,
  "0.24818,</w>": 19,
  "0.10234,</w>": 25,
  "-0.1845,</w>": 17,
  "-0.1929,</w>": 18,
  "-0.25131,</w>": 20,
  "0.35097,</w>": 14,
  "0.44951,</w>": 13,
  "-0.2532,</w>": 17,
  "-0.13882,</w>": 20,
  "-0.25605,</w>": 15,
  "0.1787,</w>": 16,
  "-0.15989,</w>": 20,
  "0.36806,</w>": 14,
  "0.24259,</w>": 24,
  "0.32559,</w>": 17,
  "-0.34634,</w>": 15,
  "0.21962,</w>": 15,
  "-0.16069,</w>": 18,
  "0.20437,</w>": 18,
  "0.380": 552,
  "0.24753,</w>": 16,
  "-0.33785,</w>": 14,
  "0.19101,</w>": 16,
  "-0.17287,</w>": 20,
  "-0.32859,</w>": 14,
  "-0.17741,</w>": 16,
  "-0.25932,</w>": 25,
  "-0.15928,</w>": 13,
  "-0.39995,</w>": 15,
  "-0.26735,</w>": 21,
  "0.18603,</w>": 23,
  "-0.17514,</w>": 15,
  "0.33055,</w>": 17,
  "-0.25794,</w>": 18,
  "0.11849,</w>": 23,
  "0.29379,</w>": 14,
  "-0.22108,</w>": 21,
  "407,</w>": 401,
  "0.25449,</w>": 24,
  "-0.24446,</w>": 16,
  "0.16585,</w>": 21,
  "0.13296,</w>": 15,
  "0.49618,</w>": 13,
  "0.474": 720,
  "0.935": 131,
  "0.15631,</w>": 19,
  "-0.18613,</w>": 19,
  "-0.17059,</w>": 18,
  "-0.0674": 159,
  "-0.0175": 153,
  "0.17408,</w>": 17,
  "-0.504": 496,
  "-0.42076,</w>": 19,
  "0.41902,</w>": 16,
  "0.12377,</w>": 17,
  "-0.1273,</w>": 17,
  "0.2219,</w>": 21,
  "-0.19042,</w>": 14,
  "-0.12511,</w>": 21,
  "0.31492,</w>": 19,
  "0.0419": 139,
  "-0.18121,</w>": 22,
  "0.31615,</w>": 15,
  "-0.50455,</w>": 14,
  "-0.17517,</w>": 24,
  "-0.0046": 44,
  "479,</w>": 336,
  "-0.28902,</w>": 23,
  "-0.1675,</w>": 22,
  "-0.25174,</w>": 18,
  "-0.14044,</w>": 14,
  "-0.18255,</w>": 16,
  "-0.30225,</w>": 15,
  "0.36874,</w>": 19,
  "0.17218,</w>": 21,
  "-0.32164,</w>": 13,
  "0.1573,</w>": 23,
  "0.13834,</w>": 20,
  "-0.22367,</w>": 16,
  "-0.3374,</w>": 18,
  "-0.16349,</w>": 14,
  "0.28303,</w>": 13,
  "-0.24279,</w>": 16,
  "0.56737,</w>": 13,
  "0.24393,</w>": 21,
  "0.17452,</w>": 15,
  "-0.22033,</w>": 25,
  "0.1239,</w>": 15,
  "0.27358,</w>": 22,
  "0.24389,</w>": 19,
  "-0.20307,</w>": 13,
  "0.34831,</w>": 20,
  "0.29118,</w>": 17,
  "-0.50596,</w>": 14,
  "0.17325,</w>": 25,
  "0.2927,</w>": 24,
  "1.0429,</w>": 14,
  "-0.21733,</w>": 19,
  "-0.42782,</w>": 18,
  "0.24005,</w>": 17,
  "0.2941,</w>": 20,
  "0.17702,</w>": 17,
  "0.17448,</w>": 18,
  "0.10615,</w>": 20,
  "0.31058,</w>": 15,
  "-0.1973,</w>": 20,
  "-0.24105,</w>": 16,
  "593,</w>": 207,
  "0.10559,</w>": 17,
  "0.223,</w>": 18,
  "0.19185,</w>": 14,
  "0.28858,</w>": 20,
  "0.11326,</w>": 18,
  "-0.14373,</w>": 14,
  "-0.16593,</w>": 18,
  "0.33492,</w>": 15,
  "-0.45368,</w>": 15,
  "0.16185,</w>": 27,
  "-0.40599,</w>": 14,
  "0.13965,</w>": 14,
  "-0.26843,</w>": 14,
  "-0.23016,</w>": 13,
  "0.1225,</w>": 14,
  "-0.936": 101,
  "0.18586,</w>": 27,
  "-0.21193,</w>": 18,
  "-0.42257,</w>": 16,
  "0.22439,</w>": 18,
  "-0.27699,</w>": 16,
  "0.33341,</w>": 17,
  "0.10984,</w>": 23,
  "0.57029,</w>": 13,
  "0.15245,</w>": 18,
  "-0.50496,</w>": 18,
  "0.15899,</w>": 21,
  "0.13071,</w>": 21,
  "-0.15477,</w>": 21,
  "-0.30147,</w>": 14,
  "-0.32349,</w>": 16,
  "-0.974": 70,
  "-0.34926,</w>": 16,
  "0.20352,</w>": 21,
  "-0.22298,</w>": 17,
  "0.26997,</w>": 17,
  "-0.2793,</w>": 18,
  "-0.13447,</w>": 13,
  "-0.623": 204,
  "-1.23": 112,
  "1.0814,</w>": 13,
  "0.2874,</w>": 16,
  "-0.24195,</w>": 19,
  "0.10923,</w>": 22,
  "-0.27614,</w>": 17,
  "-0.38816,</w>": 13,
  "-0.10153,</w>": 17,
  "-0.22954,</w>": 16,
  "0.19646,</w>": 20,
  "0.29587,</w>": 23,
  "-0.22961,</w>": 18,
  "0.42597,</w>": 17,
  "0.12399,</w>": 19,
  "-0.34383,</w>": 18,
  "-0.17033,</w>": 18,
  "-0.20474,</w>": 16,
  "0.23186,</w>": 16,
  "-0.373": 571,
  "-0.22126,</w>": 14,
  "0.26314,</w>": 21,
  "-0.12273,</w>": 24,
  "0.3532,</w>": 17,
  "-0.1307,</w>": 17,
  "0.1521,</w>": 15,
  "0.12026,</w>": 15,
  "0.26726,</w>": 18,
  "0.14374,</w>": 20,
  "0.34359,</w>": 14,
  "-0.193": 45,
  "-0.13921,</w>": 13,
  "0.11995,</w>": 17,
  "0.5727,</w>": 13,
  "-0.14566,</w>": 17,
  "0.11698,</w>": 28,
  "-0.28611,</w>": 16,
  "-0.17831,</w>": 23,
  "-0.26864,</w>": 13,
  "0.13886,</w>": 17,
  "-0.51524,</w>": 13,
  "0.28269,</w>": 16,
  "-0.14528,</w>": 20,
  "0.4327,</w>": 15,
  "-0.23608,</w>": 19,
  "0.37772,</w>": 13,
  "-0.26638,</w>": 16,
  "0.28948,</w>": 16,
  "-0.23787,</w>": 18,
  "0.28601,</w>": 22,
  "-0.34055,</w>": 18,
  "-0.37552,</w>": 15,
  "0.27907,</w>": 20,
  "0.26211,</w>": 21,
  "-0.29738,</w>": 19,
  "0.826": 230,
  "0.11837,</w>": 22,
  "-0.46263,</w>": 15,
  "-0.22227,</w>": 22,
  "0.19405,</w>": 21,
  "-0.17568,</w>": 16,
  "-0.33564,</w>": 18,
  "0.16722,</w>": 20,
  "0.16366,</w>": 21,
  "-0.693": 153,
  "0.14139,</w>": 17,
  "-0.12998,</w>": 19,
  "0.13662,</w>": 26,
  "-0.29858,</w>": 18,
  "-0.12633,</w>": 20,
  "0.31486,</w>": 21,
  "-0.37739,</w>": 13,
  "0.12198,</w>": 19,
  "0.16344,</w>": 17,
  "0.934": 167,
  "1.11": 207,
  "0.705": 297,
  "-0.44295,</w>": 13,
  "-0.15261,</w>": 17,
  "0.18682,</w>": 19,
  "-0.25609,</w>": 18,
  "-0.39206,</w>": 15,
  "0.10136,</w>": 20,
  "-0.10057,</w>": 23,
  "0.28381,</w>": 13,
  "-0.18562,</w>": 23,
  "667,</w>": 312,
  "0.41355,</w>": 19,
  "-0.36691,</w>": 14,
  "-0.17497,</w>": 17,
  "-0.31279,</w>": 16,
  "0.51335,</w>": 13,
  "-0.17194,</w>": 19,
  "-0.13088,</w>": 15,
  "0.35148,</w>": 20,
  "-0.35095,</w>": 17,
  "0.322": 504,
  "0.36913,</w>": 15,
  "0.16208,</w>": 23,
  "0.0680": 148,
  "-0.22064,</w>": 22,
  "-0.16837,</w>": 17,
  "0.41312,</w>": 13,
  "0.23347,</w>": 15,
  "-0.24877,</w>": 15,
  "-0.30732,</w>": 18,
  "503,</w>": 277,
  "693,</w>": 161,
  "-0.24884,</w>": 16,
  "-0.14255,</w>": 19,
  "0.33807,</w>": 14,
  "0.3889,</w>": 19,
  "-0.27507,</w>": 21,
  "-0.18399,</w>": 17,
  "0.17723,</w>": 19,
  "0.10431,</w>": 24,
  "0.31169,</w>": 18,
  "0.50718,</w>": 13,
  "-0.36846,</w>": 14,
  "0.5579,</w>": 13,
  "-0.15773,</w>": 28,
  "-0.16203,</w>": 29,
  "-0.15413,</w>": 13,
  "0.23825,</w>": 17,
  "0.16464,</w>": 20,
  "-0.2223,</w>": 21,
  "0.15206,</w>": 18,
  "-0.57564,</w>": 15,
  "0.19376,</w>": 21,
  "0.1696,</w>": 16,
  "-0.19738,</w>": 27,
  "-0.18352,</w>": 17,
  "0.31484,</w>": 14,
  "0.27245,</w>": 13,
  "-0.32628,</w>": 18,
  "-0.17695,</w>": 19,
  "-0.17804,</w>": 19,
  "0.29927,</w>": 19,
  "-0.20677,</w>": 15,
  "-0.14956,</w>": 17,
  "0.3018,</w>": 17,
  "-0.17546,</w>": 16,
  "-0.10064,</w>": 21,
  "-0.13597,</w>": 15,
  "-0.17562,</w>": 27,
  "-0.45237,</w>": 14,
  "0.41605,</w>": 20,
  "-0.29961,</w>": 14,
  "-0.11903,</w>": 21,
  "-0.18309,</w>": 17,
  "0.12504,</w>": 18,
  "0.43492,</w>": 21,
  "-0.27462,</w>": 20,
  "-0.640": 277,
  "0.14613,</w>": 20,
  "-0.43447,</w>": 15,
  "0.28876,</w>": 16,
  "-0.32138,</w>": 27,
  "0.16441,</w>": 26,
  "0.3398,</w>": 13,
  "0.32112,</w>": 17,
  "-0.30784,</w>": 17,
  "0.13792,</w>": 24,
  "0.36361,</w>": 22,
  "0.26771,</w>": 16,
  "0.24877,</w>": 19,
  "-0.38673,</w>": 14,
  "0.15277,</w>": 16,
  "0.23235,</w>": 23,
  "-0.17387,</w>": 15,
  "0.0372": 159,
  "0.38911,</w>": 14,
  "0.47804,</w>": 17,
  "0.15288,</w>": 16,
  "-0.17": 122,
  "-0.22266,</w>": 17,
  "0.16394,</w>": 20,
  "-0.10807,</w>": 14,
  "-0.15403,</w>": 25,
  "-0.33112,</w>": 19,
  "0.27785,</w>": 15,
  "-0.28055,</w>": 14,
  "0.14151,</w>": 23,
  "-0.13344,</w>": 23,
  "-0.172": 169,
  "-0.33691,</w>": 14,
  "-0.12988,</w>": 17,
  "-0.871": 153,
  "0.42223,</w>": 13,
  "0.11624,</w>": 18,
  "0.14364,</w>": 20,
  "0.41405,</w>": 13,
  "0.13073,</w>": 19,
  "-0.185": 149,
  "-0.42036,</w>": 14,
  "-0.11695,</w>": 14,
  "-0.14908,</w>": 13,
  "-0.23288,</w>": 17,
  "0.43351,</w>": 13,
  "0.11479,</w>": 25,
  "0.11211,</w>": 20,
  "-0.1291,</w>": 24,
  "-0.589": 531,
  "0.875": 209,
  "0.19595,</w>": 19,
  "0.25165,</w>": 19,
  "-0.433": 352,
  "0.288": 68,
  "0.22106,</w>": 23,
  "-0.27845,</w>": 17,
  "-0.13305,</w>": 20,
  "0.17864,</w>": 19,
  "0.19201,</w>": 25,
  "0.14385,</w>": 19,
  "-0.32365,</w>": 14,
  "0.223": 139,
  "0.17369,</w>": 13,
  "0.12816,</w>": 16,
  "0.25414,</w>": 15,
  "-0.20049,</w>": 19,
  "0.31749,</w>": 13,
  "-0.30479,</w>": 21,
  "0.29523,</w>": 16,
  "0.41842,</w>": 15,
  "0.33156,</w>": 17,
  "-0.28423,</w>": 22,
  "-0.30215,</w>": 15,
  "638,</w>": 137,
  "-0.10872,</w>": 14,
  "0.25949,</w>": 19,
  "0.16012,</w>": 15,
  "0.45017,</w>": 14,
  "0.39724,</w>": 18,
  "-0.17108,</w>": 18,
  "0.26883,</w>": 23,
  "-0.26976,</w>": 14,
  "0.12477,</w>": 20,
  "-0.1376,</w>": 17,
  "0.38023,</w>": 13,
  "-0.28467,</w>": 14,
  "-0.42784,</w>": 16,
  "-0.18816,</w>": 17,
  "-0.19955,</w>": 27,
  "0.2351,</w>": 14,
  "-0.30719,</w>": 15,
  "0.11255,</w>": 27,
  "0.29093,</w>": 23,
  "0.47467,</w>": 13,
  "0.2637,</w>": 17,
  "0.0671": 155,
  "-0.34968,</w>": 14,
  "0.35306,</w>": 19,
  "-0.16667,</w>": 24,
  "-0.25312,</w>": 13,
  "0.36868,</w>": 17,
  "0.14808,</w>": 26,
  "0.50457,</w>": 15,
  "71": 58,
  "-0.28087,</w>": 17,
  "0.27664,</w>": 16,
  "-0.14716,</w>": 13,
  "-0.24319,</w>": 21,
  "0.15463,</w>": 16,
  "-0.14038,</w>": 19,
  "-0.19026,</w>": 17,
  "-0.34531,</w>": 13,
  "0.13974,</w>": 30,
  "-0.17654,</w>": 18,
  "0.14295,</w>": 23,
  "0.15895,</w>": 22,
  "0.28847,</w>": 16,
  "-0.12712,</w>": 14,
  "-0.17956,</w>": 21,
  "0.22449,</w>": 14,
  "0.31268,</w>": 14,
  "-0.2881,</w>": 23,
  "-0.12124,</w>": 16,
  "-0.36539,</w>": 13,
  "0.23938,</w>": 17,
  "-0.16237,</w>": 18,
  "-0.39532,</w>": 15,
  "0.43234,</w>": 15,
  "0.21911,</w>": 15,
  "0.40803,</w>": 16,
  "0.33282,</w>": 16,
  "-0.26322,</w>": 26,
  "-0.4656,</w>": 13,
  "-0.49194,</w>": 18,
  "0.13927,</w>": 18,
  "0.37538,</w>": 15,
  "-0.47802,</w>": 14,
  "0.43122,</w>": 13,
  "-0.33629,</w>": 14,
  "-0.28367,</w>": 16,
  "0.2426,</w>": 14,
  "-0.16096,</w>": 20,
  "1.36": 261,
  "0.26446,</w>": 13,
  "0.18355,</w>": 28,
  "-0.2105,</w>": 23,
  "-0.2201,</w>": 20,
  "-0.15451,</w>": 24,
  "0.18775,</w>": 19,
  "-0.156": 83,
  "-0.11443,</w>": 24,
  "-0.12534,</w>": 21,
  "0.12015,</w>": 19,
  "0.18465,</w>": 16,
  "0.26703,</w>": 13,
  "-0.12874,</w>": 18,
  "0.13461,</w>": 22,
  "0.14928,</w>": 18,
  "-0.286,</w>": 13,
  "0.23514,</w>": 22,
  "-0.29374,</w>": 20,
  "-0.29196,</w>": 15,
  "1.2025,</w>": 15,
  "-0.1935,</w>": 19,
  "-0.29019,</w>": 18,
  "-0.26544,</w>": 15,
  "0.16703,</w>": 26,
  "-0.37282,</w>": 15,
  "-0.11397,</w>": 20,
  "-0.15487,</w>": 18,
  "-0.36779,</w>": 15,
  "-0.10292,</w>": 20,
  "0.40676,</w>": 17,
  "0.19707,</w>": 13,
  "325,</w>": 331,
  "-0.10633,</w>": 15,
  "0.21891,</w>": 20,
  "-0.16155,</w>": 24,
  "-0.21192,</w>": 20,
  "-0.42046,</w>": 14,
  "-0.164": 74,
  "-0.36199,</w>": 15,
  "-0.31557,</w>": 13,
  "-0.12375,</w>": 19,
  "0.24106,</w>": 13,
  "0.43645,</w>": 13,
  "0.16847,</w>": 13,
  "-0.41284,</w>": 15,
  "0.33029,</w>": 17,
  "0.46581,</w>": 13,
  "0.23296,</w>": 19,
  "0.21984,</w>": 15,
  "-0.20495,</w>": 19,
  "0.25026,</w>": 22,
  "0.19995,</w>": 16,
  "-0.1657,</w>": 15,
  "0.41558,</w>": 16,
  "-0.23572,</w>": 17,
  "-0.13727,</w>": 20,
  "-0.10164,</w>": 15,
  "0.13736,</w>": 25,
  "0.1804,</w>": 19,
  "0.4844,</w>": 18,
  "-0.20665,</w>": 18,
  "-0.1682,</w>": 23,
  "-0.23023,</w>": 15,
  "-0.29434,</w>": 13,
  "0.16625,</w>": 23,
  "-0.29318,</w>": 18,
  "-0.49371,</w>": 13,
  "-0.17486,</w>": 20,
  "-0.15529,</w>": 25,
  "0.0630": 115,
  "-0.14149,</w>": 20,
  "0.20683,</w>": 27,
  "0.13605,</w>": 20,
  "0.1093,</w>": 19,
  "0.12083,</w>": 24,
  "0.3486,</w>": 14,
  "0.24341,</w>": 15,
  "-0.17747,</w>": 19,
  "0.19856,</w>": 23,
  "0.37794,</w>": 15,
  "0.32072,</w>": 19,
  "0.31618,</w>": 14,
  "-0.11169,</w>": 20,
  "0.3497,</w>": 18,
  "0.23814,</w>": 23,
  "0.27429,</w>": 13,
  "0.2231,</w>": 17,
  "0.13576,</w>": 18,
  "0.5065,</w>": 18,
  "-0.42531,</w>": 18,
  "0.35553,</w>": 20,
  "-0.0422": 161,
  "0.16352,</w>": 16,
  "0.20832,</w>": 16,
  "-0.33353,</w>": 14,
  "-0.43116,</w>": 13,
  "-0.27877,</w>": 13,
  "-0.21598,</w>": 20,
  "0.17611,</w>": 22,
  "0.18357,</w>": 17,
  "-0.26591,</w>": 13,
  "-0.24857,</w>": 14,
  "0.46012,</w>": 18,
  "0.21498,</w>": 17,
  "0.23446,</w>": 18,
  "0.13356,</w>": 18,
  "0.10459,</w>": 21,
  "-0.20675,</w>": 17,
  "-0.23366,</w>": 14,
  "0.15498,</w>": 18,
  "0.13821,</w>": 16,
  "-0.30409,</w>": 15,
  "-0.132,</w>": 24,
  "-0.10199,</w>": 18,
  "0.18999,</w>": 16,
  "-0.24982,</w>": 15,
  "0.23263,</w>": 16,
  "0.2086,</w>": 20,
  "0.11176,</w>": 19,
  "0.13499,</w>": 21,
  "-0.1148,</w>": 24,
  "-0.24074,</w>": 17,
  "0.3909,</w>": 13,
  "-0.19672,</w>": 23,
  "-0.14434,</w>": 22,
  "0.11667,</w>": 19,
  "0.2692,</w>": 16,
  "-0.49489,</w>": 14,
  "0.29369,</w>": 18,
  "-0.15391,</w>": 20,
  "0.17007,</w>": 15,
  "-0.10636,</w>": 18,
  "-0.31252,</w>": 14,
  "-0.23674,</w>": 17,
  "0.323,</w>": 16,
  "0.40657,</w>": 18,
  "-0.10579,</w>": 18,
  "-0.0530": 124,
  "0.15861,</w>": 14,
  "-0.16533,</w>": 32,
  "-0.50067,</w>": 14,
  "-0.4388,</w>": 15,
  "-0.15002,</w>": 16,
  "-0.19268,</w>": 23,
  "-0.37463,</w>": 14,
  "-0.16678,</w>": 16,
  "0.32631,</w>": 13,
  "-0.18667,</w>": 21,
  "-0.37934,</w>": 17,
  "-0.32593,</w>": 14,
  "0.11619,</w>": 17,
  "-0.22578,</w>": 21,
  "-0.24843,</w>": 13,
  "-0.23349,</w>": 26,
  "-0.31928,</w>": 15,
  "-0.097": 117,
  "0.22855,</w>": 16,
  "-0.10101,</w>": 19,
  "-0.19863,</w>": 21,
  "-0.16608,</w>": 20,
  "0.18546,</w>": 16,
  "-0.33318,</w>": 17,
  "-0.38143,</w>": 16,
  "-0.35072,</w>": 14,
  "0.13544,</w>": 18,
  "-0.60689,</w>": 13,
  "0.27567,</w>": 15,
  "-0.1516,</w>": 19,
  "0.34387,</w>": 15,
  "-0.2578,</w>": 16,
  "0.32148,</w>": 16,
  "0.16459,</w>": 13,
  "-0.16319,</w>": 19,
  "0.13867,</w>": 14,
  "-0.30524,</w>": 15,
  "-0.12574,</w>": 25,
  "0.31972,</w>": 17,
  "0.33068,</w>": 13,
  "0.17265,</w>": 15,
  "0.18814,</w>": 15,
  "-0.12911,</w>": 16,
  "0.18079,</w>": 14,
  "0.19192,</w>": 19,
  "-0.12457,</w>": 18,
  "0.21091,</w>": 20,
  "-0.32378,</w>": 18,
  "-0.33173,</w>": 15,
  "-0.26065,</w>": 21,
  "-0.11302,</w>": 13,
  "-0.22889,</w>": 21,
  "0.26316,</w>": 19,
  "-0.20431,</w>": 14,
  "0.37464,</w>": 18,
  "-0.20867,</w>": 17,
  "0.21505,</w>": 19,
  "0.32701,</w>": 13,
  "-0.22882,</w>": 16,
  "-0.36372,</w>": 18,
  "-0.24961,</w>": 24,
  "0.39229,</w>": 22,
  "-0.28576,</w>": 19,
  "-0.11459,</w>": 19,
  "0.11626,</w>": 26,
  "0.25311,</w>": 20,
  "-0.31288,</w>": 14,
  "0.4094,</w>": 13,
  "0.24397,</w>": 15,
  "0.145": 198,
  "-0.1667,</w>": 27,
  "0.10303,</w>": 14,
  "-0.13304,</w>": 21,
  "-0.11583,</w>": 17,
  "-0.17738,</w>": 15,
  "0.19827,</w>": 18,
  "0.12394,</w>": 19,
  "-0.27411,</w>": 16,
  "-0.20565,</w>": 16,
  "-0.31893,</w>": 19,
  "-0.2301,</w>": 15,
  "-0.24334,</w>": 13,
  "-0.22924,</w>": 14,
  "-0.33894,</w>": 16,
  "-0.0493": 61,
  "-0.16891,</w>": 19,
  "-0.11978,</w>": 25,
  "-0.17798,</w>": 14,
  "0.1076,</w>": 16,
  "0.525": 672,
  "-0.2197,</w>": 15,
  "0.11011,</w>": 22,
  "0.403": 214,
  "-0.27567,</w>": 16,
  "-0.20947,</w>": 21,
  "0.13607,</w>": 18,
  "-0.295": 364,
  "0.29847,</w>": 13,
  "0.46998,</w>": 15,
  "0.11443,</w>": 23,
  "0.183": 169,
  "-0.30208,</w>": 13,
  "-0.25562,</w>": 20,
  "-0.0516": 125,
  "0.2014,</w>": 20,
  "0.37636,</w>": 15,
  "-0.26972,</w>": 13,
  "-0.25137,</w>": 24,
  "-0.25067,</w>": 17,
  "-0.15065,</w>": 15,
  "0.19272,</w>": 16,
  "0.40567,</w>": 16,
  "0.17301,</w>": 13,
  "-0.0396": 127,
  "-0.31669,</w>": 16,
  "0.4253,</w>": 13,
  "0.30515,</w>": 17,
  "0.20112,</w>": 20,
  "-0.30545,</w>": 18,
  "0.27073,</w>": 17,
  "0.14969,</w>": 18,
  "-0.31072,</w>": 16,
  "0.009": 159,
  "76": 87,
  "0.25491,</w>": 21,
  "-0.20849,</w>": 13,
  "0.43226,</w>": 14,
  "0.0024": 52,
  "-0.34054,</w>": 18,
  "-0.20187,</w>": 16,
  "0.30216,</w>": 20,
  "-0.10395,</w>": 23,
  "-0.0609": 66,
  "0.31968,</w>": 16,
  "-0.19982,</w>": 20,
  "-0.2423,</w>": 20,
  "-0.40506,</w>": 13,
  "-0.21146,</w>": 15,
  "0.21376,</w>": 21,
  "0.12769,</w>": 19,
  "0.42878,</w>": 15,
  "-0.39621,</w>": 16,
  "-0.18106,</w>": 16,
  "0.15075,</w>": 18,
  "-0.36935,</w>": 17,
  "0.21216,</w>": 16,
  "0.14571,</w>": 18,
  "0.18082,</w>": 19,
  "0.15757,</w>": 18,
  "1.0306,</w>": 17,
  "0.25043,</w>": 15,
  "0.3383,</w>": 15,
  "-0.2746,</w>": 13,
  "0.218,</w>": 17,
  "-0.33985,</w>": 14,
  "0.48467,</w>": 15,
  "-0.33653,</w>": 15,
  "-0.2472,</w>": 16,
  "-0.24218,</w>": 17,
  "0.26682,</w>": 18,
  "-0.25552,</w>": 21,
  "0.32571,</w>": 13,
  "-0.0778": 158,
  "-0.15049,</w>": 20,
  "-0.26634,</w>": 14,
  "0.14591,</w>": 18,
  "0.12266,</w>": 18,
  "0.11342,</w>": 13,
  "-0.34359,</w>": 15,
  "-0.40614,</w>": 17,
  "0.18827,</w>": 16,
  "-0.26366,</w>": 13,
  "-0.20323,</w>": 21,
  "-0.34456,</w>": 14,
  "-0.29013,</w>": 17,
  "-0.699": 235,
  "0.42768,</w>": 14,
  "0.37988,</w>": 15,
  "0.10225,</w>": 17,
  "-0.28104,</w>": 16,
  "-0.29414,</w>": 13,
  "-0.32827,</w>": 13,
  "-0.25761,</w>": 19,
  "-0.30927,</w>": 13,
  "-0.45693,</w>": 14,
  "0.34104,</w>": 15,
  "0.31887,</w>": 19,
  "-0.22403,</w>": 14,
  "0.11597,</w>": 29,
  "0.45406,</w>": 14,
  "-0.26984,</w>": 15,
  "-0.31102,</w>": 19,
  "-0.16005,</w>": 15,
  "-0.16694,</w>": 18,
  "-0.18179,</w>": 20,
  "0.19925,</w>": 16,
  "-0.18917,</w>": 23,
  "-0.37742,</w>": 14,
  "-0.1126,</w>": 31,
  "0.16255,</w>": 15,
  "0.14198,</w>": 16,
  "-0.1491,</w>": 20,
  "-0.19311,</w>": 14,
  "0.31335,</w>": 14,
  "-0.14066,</w>": 14,
  "0.27187,</w>": 18,
  "-0.27858,</w>": 17,
  "0.16291,</w>": 19,
  "-0.0600": 172,
  "0.29059,</w>": 21,
  "-0.20019,</w>": 16,
  "0.11913,</w>": 20,
  "-0.21714,</w>": 20,
  "0.29992,</w>": 15,
  "-0.10991,</w>": 28,
  "-0.30646,</w>": 17,
  "0.19951,</w>": 17,
  "0.16236,</w>": 25,
  "0.23914,</w>": 19,
  "-0.23642,</w>": 21,
  "0.32899,</w>": 14,
  "0.27523,</w>": 14,
  "0.13846,</w>": 14,
  "-0.40348,</w>": 13,
  "0.19294,</w>": 17,
  "-0.16928,</w>": 27,
  "-0.0779": 173,
  "0.29649,</w>": 18,
  "-0.28594,</w>": 13,
  "-0.14148,</w>": 18,
  "-0.24368,</w>": 14,
  "0.51748,</w>": 13,
  "-0.12888,</w>": 23,
  "0.30207,</w>": 16,
  "0.26403,</w>": 16,
  "0.15926,</w>": 24,
  "-0.20441,</w>": 17,
  "-0.15455,</w>": 14,
  "-0.50068,</w>": 15,
  "0.43348,</w>": 13,
  "-0.28258,</w>": 22,
  "0.29341,</w>": 13,
  "-0.14446,</w>": 20,
  "-0.4162,</w>": 15,
  "-0.0929": 74,
  "0.2337,</w>": 18,
  "-0.24798,</w>": 15,
  "-0.54378,</w>": 16,
  "-0.11118,</w>": 25,
  "0.22752,</w>": 15,
  "0.21854,</w>": 13,
  "-0.34445,</w>": 16,
  "0.0656": 127,
  "0.10726,</w>": 23,
  "0.14311,</w>": 21,
  "-0.29195,</w>": 25,
  "0.565": 482,
  "-0.41694,</w>": 18,
  "-0.13375,</w>": 19,
  "-0.32995,</w>": 17,
  "0.2089,</w>": 18,
  "0.32995,</w>": 19,
  "0.13164,</w>": 23,
  "0.20726,</w>": 21,
  "0.17406,</w>": 21,
  "0.27936,</w>": 20,
  "-0.11503,</w>": 19,
  "0.363": 182,
  "0.2175,</w>": 16,
  "0.20181,</w>": 14,
  "0.27848,</w>": 16,
  "0.20376,</w>": 22,
  "-0.33474,</w>": 13,
  "0.20079,</w>": 15,
  "0.22083,</w>": 25,
  "-0.14034,</w>": 27,
  "-0.18789,</w>": 22,
  "-0.20267,</w>": 17,
  "-0.1614,</w>": 22,
  "-0.15327,</w>": 14,
  "0.19367,</w>": 19,
  "0.0071": 33,
[...]
